[PAD]	0
[UNK]	0
<s>	0
</s>	0
[SOS]	0
[EOL]	0
[EOS]	0
te	-0
er	-1
in	-2
on	-3
la	-4
et	-5
mp	-6
);	-7
ti	-8
or	-9
▁{	-10
▁}	-11
al	-12
ar	-13
de	-14
tr	-15
late	-16
ss	-17
▁i	-18
mplate	-19
me	-20
▁p	-21
ing	-22
tion	-23
▁=	-24
ce	-25
Te	-26
le	-27
st	-28
ur	-29
▁n	-30
re	-31
Template	-32
▁f	-33
▁c	-34
at	-35
▁"	-36
ode	-37
get	-38
()	-39
▁(	-40
Str	-41
▁t	-42
Ex	-43
li	-44
String	-45
ut	-46
se	-47
▁e	-48
ption	-49
odel	-50
ri	-51
ub	-52
an	-53
ro	-54
ate	-55
ame	-56
▁a	-57
ception	-58
ap	-59
Exception	-60
▁r	-61
Model	-62
lic	-63
▁ret	-64
urn	-65
ec	-66
nt	-67
▁return	-68
ul	-69
lass	-70
ublic	-71
ew	-72
▁public	-73
ort	-74
ue	-75
("	-76
▁th	-77
▁imp	-78
ert	-79
ac	-80
▁if	-81
▁new	-82
",	-83
Con	-84
▁import	-85
▁Template	-86
ssert	-87
▁s	-88
▁assert	-89
In	-90
ter	-91
▁in	-92
▁+	-93
pe	-94
();	-95
ark	-96
▁String	-97
orm	-98
em	-99
ig	-100
ull	-101
row	-102
bj	-103
▁b	-104
ect	-105
Name	-106
arker	-107
ment	-108
oo	-109
reem	-110
reemarker	-111
is	-112
▁throw	-113
put	-114
ormat	-115
bject	-116
nd	-117
ation	-118
▁v	-119
▁freemarker	-120
um	-121
per	-122
qu	-123
Object	-124
template	-125
inal	-126
il	-127
ati	-128
▁null	-129
ver	-130
ch	-131
Format	-132
▁final	-133
alue	-134
▁pri	-135
lo	-136
▁get	-137
");	-138
vate	-139
rap	-140
▁private	-141
▁st	-142
ype	-143
▁m	-144
▁0	-145
xt	-146
es	-147
id	-148
ag	-149
als	-150
od	-151
nv	-152
quals	-153
atic	-154
ber	-155
til	-156
));	-157
ed	-158
▁static	-159
utput	-160
av	-161
fig	-162
Par	-163
▁@	-164
▁==	-165
ble	-166
());	-167
ava	-168
Type	-169
lean	-170
figur	-171
▁int	-172
oolean	-173
th	-174
Lo	-175
class	-176
Configur	-177
Class	-178
▁j	-179
Date	-180
▁throws	-181
Over	-182
der	-183
▁assertE	-184
ted	-185
umber	-186
lse	-187
▁vo	-188
▁void	-189
Configuration	-190
as	-191
▁o	-192
▁else	-193
Co	-194
rapper	-195
00	-196
IN	-197
▁java	-198
▁1	-199
up	-200
age	-201
▁re	-202
ult	-203
Number	-204
cal	-205
Li	-206
Ar	-207
set	-208
Output	-209
tor	-210
ger	-211
IO	-212
Bu	-213
▁assertEquals	-214
tl	-215
▁tr	-216
able	-217
▁ex	-218
ride	-219
am	-220
Override	-221
ion	-222
▁TemplateModel	-223
▁d	-224
ir	-225
▁!	-226
iz	-227
Wrapper	-228
fg	-229
gs	-230
ve	-231
sp	-232
List	-233
atch	-234
Set	-235
Util	-236
ER	-237
eth	-238
ance	-239
int	-240
ethod	-241
ach	-242
▁!=	-243
Buil	-244
▁class	-245
▁this	-246
om	-247
Map	-248
ile	-249
En	-250
To	-251
▁w	-252
val	-253
▁<	-254
[]	-255
De	-256
▁B	-257
▁Object	-258
en	-259
Test	-260
▁boolean	-261
▁cfg	-262
▁S	-263
stance	-264
Value	-265
Exp	-266
ack	-267
ction	-268
ey	-269
ra	-270
ase	-271
teger	-272
Integer	-273
Ti	-274
Method	-275
Re	-276
TE	-277
bu	-278
${	-279
▁env	-280
ash	-281
un	-282
str	-283
of	-284
alse	-285
ean	-286
it	-287
ore	-288
lle	-289
Conte	-290
ftl	-291
ator	-292
ray	-293
fa	-294
Time	-295
test	-296
sc	-297
CA	-298
har	-299
▁_	-300
▁&	-301
))	-302
ache	-303
cale	-304
";	-305
tory	-306
ader	-307
lement	-308
ain	-309
ath	-310
fi	-311
ize	-312
ST	-313
our	-314
▁instance	-315
ME	-316
ad	-317
ting	-318
ource	-319
KE	-320
▁|	-321
fault	-322
one	-323
Of	-324
Node	-325
ot	-326
actory	-327
▁par	-328
ext	-329
nds	-330
IOException	-331
▁:	-332
key	-333
Env	-334
imp	-335
iron	-336
ameter	-337
ironment	-338
Hash	-339
util	-340
Environment	-341
▁instanceof	-342
CE	-343
▁ar	-344
Builder	-345
AN	-346
let	-347
value	-348
TemplateModel	-349
que	-350
ust	-351
▁&&	-352
),	-353
).	-354
▁'	-355
SE	-356
ror	-357
erv	-358
par	-359
Or	-360
St	-361
Factory	-362
ong	-363
Res	-364
ument	-365
AL	-366
\"	-367
Array	-368
▁?	-369
pec	-370
ervlet	-371
ty	-372
Parameter	-373
esc	-374
File	-375
▁is	-376
▁try	-377
▁/	-378
Th	-379
eans	-380
Un	-381
01	-382
Se	-383
_2	-384
ith	-385
ackage	-386
imple	-387
▁true	-388
▁res	-389
ress	-390
▁test	-391
▁l	-392
llection	-393
ION	-394
▁exte	-395
▁Class	-396
At	-397
▁for	-398
UT	-399
pend	-400
sion	-401
ol	-402
<#	-403
ded	-404
lags	-405
tain	-406
▁false	-407
▁2	-408
▁catch	-409
ng	-410
▁||	-411
▁extends	-412
ustom	-413
▁template	-414
▁lo	-415
ild	-416
name	-417
ex	-418
▁con	-419
▁package	-420
KEY	-421
dex	-422
append	-423
▁name	-424
▁pro	-425
rror	-426
Setting	-427
Collection	-428
Arg	-429
ld	-430
tri	-431
dx	-432
core	-433
DE	-434
to	-435
▁-	-436
▁IOException	-437
▁set	-438
Loader	-439
▁>	-440
Flags	-441
Context	-442
co	-443
OutputFormat	-444
terator	-445
AT	-446
AR	-447
Do	-448
With	-449
▁//	-450
▁de	-451
tem	-452
().	-453
tains	-454
uble	-455
CO	-456
LE	-457
ace	-458
Path	-459
▁0;	-460
ression	-461
Default	-462
Zone	-463
space	-464
ssage	-465
UE	-466
▁value	-467
rom	-468
Cache	-469
oding	-470
Desc	-471
▁assertOutput	-472
coding	-473
Element	-474
nce	-475
ou	-476
ML	-477
Char	-478
\\	-479
TypeFlags	-480
new	-481
▁M	-482
ine	-483
▁or	-484
For	-485
fer	-486
Expression	-487
Locale	-488
pected	-489
leng	-490
wrap	-491
Pro	-492
(),	-493
Var	-494
arget	-495
length	-496
quence	-497
BI	-498
tec	-499
000	-500
equals	-501
eansWrapper	-502
ObjectWrapper	-503
NA	-504
try	-505
UR	-506
Source	-507
NT	-508
TY	-509
▁bu	-510
▁h	-511
Null	-512
aded	-513
▁In	-514
rec	-515
▁Configuration	-516
Wri	-517
valueOf	-518
())	-519
"));	-520
LO	-521
loaded	-522
im	-523
bute	-524
tribute	-525
Tr	-526
Dec	-527
Custom	-528
MP	-529
ata	-530
tected	-531
OR	-532
▁x	-533
upp	-534
▁key	-535
Idx	-536
ANCE	-537
arkup	-538
PE	-539
INST	-540
list	-541
VAL	-542
▁ch	-543
Names	-544
AC	-545
gger	-546
Sequence	-547
use	-548
▁to	-549
ak	-550
ign	-551
Eval	-552
▁>=	-553
INSTANCE	-554
TimeZone	-555
ht	-556
And	-557
VER	-558
▁((	-559
ING	-560
getTemplate	-561
ca	-562
Boolean	-563
imal	-564
Argument	-565
Esc	-566
▁su	-567
lar	-568
((	-569
yte	-570
Writer	-571
1.	-572
AP	-573
</	-574
TL	-575
:00	-576
con	-577
VALUE	-578
os	-579
tive	-580
ent	-581
and	-582
io	-583
pla	-584
▁Integer	-585
}",	-586
▁model	-587
▁*	-588
▁sb	-589
▁case	-590
ic	-591
ook	-592
Attribute	-593
▁I	-594
time	-595
▁org	-596
▁super	-597
▁protected	-598
SION	-599
Text	-600
DateFormat	-601
string	-602
add	-603
ookup	-604
Decimal	-605
Built	-606
▁Simple	-607
ATE	-608
▁Big	-609
▁arg	-610
Overloaded	-611
▁result	-612
▁F	-613
hort	-614
art	-615
Param	-616
Double	-617
ersion	-618
++	-619
30	-620
-1	-621
_2_	-622
AX	-623
Imp	-624
CASE	-625
reak	-626
As	-627
ail	-628
Case	-629
ription	-630
▁TypeFlags	-631
ow	-632
calar	-633
uto	-634
Scalar	-635
TemplateLoader	-636
▁Date	-637
Content	-638
VERSION	-639
▁en	-640
▁out	-641
IS	-642
Encoding	-643
ml	-644
_2_3	-645
1,	-646
unt	-647
ten	-648
urre	-649
NumberFormat	-650
▁param	-651
Non	-652
Servlet	-653
text	-654
▁node	-655
Error	-656
act	-657
Version	-658
ifi	-659
Count	-660
Lookup	-661
getName	-662
eck	-663
mpati	-664
Ap	-665
▁date	-666
med	-667
RE	-668
ip	-669
env	-670
▁tc	-671
toString	-672
Types	-673
Tag	-674
atcher	-675
place	-676
mpatible	-677
..	-678
Evalu	-679
ote	-680
ized	-681
urrent	-682
HashModel	-683
Not	-684
lib	-685
▁expected	-686
Sy	-687
▁0)	-688
▁1000	-689
BuiltIn	-690
Pars	-691
loat	-692
fix	-693
Iterator	-694
lain	-695
Ad	-696
ct	-697
FTL	-698
▁se	-699
cation	-700
Long	-701
cess	-702
eval	-703
char	-704
HT	-705
▁Environment	-706
▁};	-707
▁buf	-708
TI	-709
ical	-710
getC	-711
us	-712
▁E	-713
SettingEvalu	-714
-0	-715
True	-716
irec	-717
SS	-718
▁ad	-719
▁(!	-720
foo	-721
sub	-722
ments	-723
▁P	-724
Adap	-725
lity	-726
▁the	-727
TYPE	-728
size	-729
den	-730
stru	-731
mpty	-732
HTML	-733
▁",	-734
Size	-735
ence	-736
▁${	-737
(0	-738
po	-739
▁assertTrue	-740
date	-741
for	-742
essage	-743
ference	-744
bug	-745
▁cal	-746
ole	-747
▁target	-748
CON	-749
tro	-750
lements	-751
▁Exception	-752
2.	-753
tern	-754
ition	-755
Contains	-756
ly	-757
onse	-758
▁"<#	-759
▁add	-760
trosp	-761
Markup	-762
▁List	-763
23	-764
Parse	-765
▁assertError	-766
NO	-767
ssign	-768
NumberUtil	-769
1)	-770
from	-771
Data	-772
▁locale	-773
last	-774
▁implements	-775
▁char	-776
Entry	-777
output	-778
Reference	-779
▁it	-780
mm	-781
eld	-782
rip	-783
ax	-784
ck	-785
▁A	-786
reate	-787
▁StringUtil	-788
('	-789
▁3	-790
▁C	-791
▁J	-792
uti	-793
("${	-794
Same	-795
Plain	-796
▁<=	-797
utility	-798
▁BeansWrapper	-799
tp	-800
UL	-801
if	-802
Adapter	-803
null	-804
▁Overloaded	-805
Role	-806
quest	-807
Result	-808
mo	-809
acro	-810
Escap	-811
gal	-812
▁format	-813
</#	-814
▁fail	-815
message	-816
ParameterRole	-817
")	-818
▁Map	-819
:0	-820
Key	-821
HashMap	-822
ObjectBuilder	-823
eg	-824
Tld	-825
▁do	-826
bstr	-827
bstract	-828
▁Expression	-829
▁break	-830
anon	-831
llegal	-832
compatible	-833
xA	-834
ISO	-835
Inf	-836
Supp	-837
irst	-838
▁Default	-839
Direc	-840
iable	-841
Out	-842
ield	-843
cl	-844
>",	-845
denti	-846
▁of	-847
ause	-848
Message	-849
boolean	-850
No	-851
rove	-852
▁output	-853
rovements	-854
Prop	-855
true	-856
▁args	-857
▁wrapper	-858
Ch	-859
eam	-860
ped	-861
acter	-862
valid	-863
Logger	-864
anonical	-865
Namespace	-866
Improvements	-867
PT	-868
:30	-869
ParseException	-870
ound	-871
Throw	-872
Stream	-873
▁check	-874
LI	-875
bw	-876
next	-877
_2_3_2	-878
Big	-879
XML	-880
model	-881
orted	-882
▁Un	-883
mb	-884
▁},	-885
▁File	-886
Introsp	-887
▁desc	-888
BLE	-889
ember	-890
▁Node	-891
▁R	-892
URL	-893
end	-894
▁pre	-895
param	-896
▁BuiltIn	-897
gn	-898
getClass	-899
'>	-900
▁wh	-901
attern	-902
ScalarModel	-903
ps	-904
Bean	-905
erty	-906
▁list	-907
Simple	-908
++)	-909
▁le	-910
Line	-911
App	-912
uote	-913
parse	-914
all	-915
CEPT	-916
Collections	-917
yn	-918
MAX	-919
ArrayList	-920
no	-921
has	-922
lob	-923
Args	-924
node	-925
▁StringBuilder	-926
PlainText	-927
▁abstract	-928
BeansWrapper	-929
Equ	-930
arg	-931
ure	-932
Member	-933
lear	-934
rite	-935
SequenceModel	-936
BooleanModel	-937
...	-938
▁bw	-939
DateModel	-940
From	-941
tems	-942
Al	-943
move	-944
"),	-945
Index	-946
Stack	-947
Throwable	-948
do	-949
▁un	-950
ulate	-951
Instance	-952
▁"1	-953
LA	-954
tc	-955
cache	-956
Location	-957
(1	-958
PAR	-959
Input	-960
format	-961
='	-962
FA	-963
ite	-964
ler	-965
▁")	-966
ody	-967
res	-968
Identi	-969
CT	-970
Pri	-971
ght	-972
.");	-973
args	-974
right	-975
▁Locale	-976
fromC	-977
Variable	-978
▁BigDecimal	-979
ho	-980
servlet	-981
▁ParameterRole	-982
FOR	-983
Matcher	-984
ULT	-985
DEFA	-986
Conver	-987
Parser	-988
DEFAULT	-989
mi	-990
UM	-991
ttp	-992
ual	-993
ven	-994
▁H	-995
NAME	-996
path	-997
this	-998
▁BigInteger	-999
beans	-1000
form	-1001
NUM	-1002
UTC	-1003
Empty	-1004
▁TemplateElement	-1005
By	-1006
unit	-1007
"))	-1008
▁tl	-1009
▁object	-1010
-8	-1011
lamed	-1012
dition	-1013
MethodModel	-1014
')	-1015
cfg	-1016
("<#	-1017
Byte	-1018
False	-1019
VE	-1020
TEMP	-1021
▁map	-1022
Property	-1023
MEL	-1024
ren	-1025
CAMEL	-1026
Character	-1027
AM	-1028
arn	-1029
TIME	-1030
ildren	-1031
ft	-1032
ang	-1033
Field	-1034
expected	-1035
ind	-1036
lay	-1037
LATE	-1038
aming	-1039
andler	-1040
TEMPLATE	-1041
Directive	-1042
▁LO	-1043
DATE	-1044
▁"${	-1045
index	-1046
];	-1047
▁type	-1048
ON	-1049
API	-1050
riptor	-1051
▁create	-1052
Escaping	-1053
ab	-1054
ans	-1055
chr	-1056
java	-1057
▁cip	-1058
▁exp	-1059
CEPTS	-1060
Delay	-1061
ached	-1062
chron	-1063
ACCEPTS	-1064
vention	-1065
ynchron	-1066
▁Number	-1067
▁cipEqu	-1068
ynchronized	-1069
AND	-1070
▁DateUtil	-1071
Len	-1072
Code	-1073
rint	-1074
▁javax	-1075
Descriptor	-1076
IT	-1077
▁1;	-1078
▁obj	-1079
▁Double	-1080
vi	-1081
Methods	-1082
▁Illegal	-1083
601	-1084
NAKE	-1085
ping	-1086
cument	-1087
unction	-1088
▁default	-1089
omm	-1090
ector	-1091
Handler	-1092
▁synchronized	-1093
/*	-1094
2);	-1095
acy	-1096
8601	-1097
FORM	-1098
tener	-1099
substring	-1100
▁O	-1101
Stor	-1102
fier	-1103
TestBean	-1104
Cnt	-1105
Part	-1106
ctor	-1107
SNAKE	-1108
Description	-1109
CustomAttribute	-1110
GE	-1111
gy	-1112
:05	-1113
▁contains	-1114
ql	-1115
Cal	-1116
umn	-1117
▁be	-1118
Resp	-1119
▁str	-1120
Assign	-1121
▁put	-1122
ssing	-1123
CollectionModel	-1124
Next	-1125
sFor	-1126
▁idx	-1127
ection	-1128
ToString	-1129
99	-1130
▁as	-1131
▁co	-1132
()));	-1133
FORMAT	-1134
Po	-1135
TR	-1136
Enc	-1137
-01	-1138
junit	-1139
Response	-1140
▁assertFalse	-1141
2,	-1142
rc	-1143
amp	-1144
out	-1145
Short	-1146
freemarker	-1147
Introspector	-1148
el	-1149
All	-1150
Auto	-1151
That	-1152
▁Boolean	-1153
Condition	-1154
▁\"	-1155
▁sw	-1156
:30:05	-1157
getMessage	-1158
eb	-1159
ffer	-1160
iled	-1161
refix	-1162
▁last	-1163
DO	-1164
FI	-1165
lis	-1166
red	-1167
0000	-1168
▁while	-1169
▁description	-1170
UN	-1171
Reader	-1172
charAt	-1173
▁message	-1174
014	-1175
State	-1176
▁")";	-1177
▁long	-1178
▁assertThat	-1179
Form	-1180
stem	-1181
▁replace	-1182
CH	-1183
oop	-1184
odifi	-1185
▁parse	-1186
Storage	-1187
StringUtil	-1188
▁assertNull	-1189
Num	-1190
write	-1191
ansform	-1192
▁assertSame	-1193
APP	-1194
ined	-1195
Equals	-1196
DateTime	-1197
yth	-1198
▁Invalid	-1199
▁ArrayList	-1200
NumberModel	-1201
ated	-1202
▁var	-1203
ailed	-1204
ommon	-1205
ython	-1206
Document	-1207
TemplateName	-1208
ationException	-1209
');	-1210
-07	-1211
ken	-1212
ree	-1213
▁end	-1214
▁tm	-1215
lang	-1216
PARAM	-1217
ataModel	-1218
Identifier	-1219
Col	-1220
xml	-1221
Buffer	-1222
formed	-1223
xF	-1224
Debug	-1225
start	-1226
▁size	-1227
014-07	-1228
endar	-1229
▁cause	-1230
014-07-1	-1231
alformed	-1232
▁g	-1233
structor	-1234
Dir	-1235
▁ln	-1236
MENT	-1237
lock	-1238
iterator	-1239
OutputModel	-1240
▁at	-1241
mbol	-1242
olver	-1243
▁INSTANCE	-1244
culate	-1245
struction	-1246
Configurable	-1247
The	-1248
sql	-1249
Spec	-1250
false	-1251
--	-1252
Le	-1253
ute	-1254
▁Non	-1255
Parent	-1256
Delayed	-1257
ns	-1258
(0,	-1259
▁<-	-1260
Exten	-1261
▁4	-1262
teral	-1263
Resource	-1264
Ac	-1265
ant	-1266
idx	-1267
▁tag	-1268
▁getTemplate	-1269
US	-1270
GER	-1271
exp	-1272
laz	-1273
▁containsString	-1274
▁)	-1275
End	-1276
met	-1277
ormal	-1278
▁index	-1279
NodeType	-1280
getCurrent	-1281
21	-1282
ties	-1283
▁cache	-1284
▁putBI	-1285
RO	-1286
Start	-1287
error	-1288
MIN	-1289
Warn	-1290
Literal	-1291
pt	-1292
clu	-1293
Comm	-1294
▁parent	-1295
▁dataModel	-1296
Incompatible	-1297
ast	-1298
own	-1299
ulti	-1300
Symbol	-1301
target	-1302
AD	-1303
EN	-1304
read	-1305
▁num	-1306
▁time	-1307
▁1)	-1308
lable	-1309
▁TimeZone	-1310
CacheStorage	-1311
▁outputFormat	-1312
sh	-1313
egin	-1314
ested	-1315
itParam	-1316
BER	-1317
ategy	-1318
▁Long	-1319
Modifi	-1320
ssion	-1321
▁right	-1322
▁method	-1323
Mi	-1324
TF	-1325
jsp	-1326
NUMBER	-1327
ke	-1328
my	-1329
tm	-1330
inc	-1331
url	-1332
aInf	-1333
▁not	-1334
_0	-1335
▁ftl	-1336
hasNext	-1337
Strategy	-1338
amingCon	-1339
▁calculate	-1340
▁"\"	-1341
Match	-1342
metic	-1343
Parsing	-1344
▁IllegalArgument	-1345
Enum	-1346
Glob	-1347
▁encoding	-1348
TH	-1349
ity	-1350
mem	-1351
hash	-1352
ctual	-1353
member	-1354
Transform	-1355
xed	-1356
Float	-1357
Applic	-1358
default	-1359
BigInteger	-1360
▁ObjectWrapper	-1361
On	-1362
Jar	-1363
Reg	-1364
are	-1365
ses	-1366
Hint	-1367
main	-1368
Token	-1369
▁entry	-1370
▁first	-1371
▁Version	-1372
anonicalForm	-1373
>"	-1374
▁6	-1375
UTO	-1376
ard	-1377
▁array	-1378
▁custom	-1379
>${	-1380
ary	-1381
auto	-1382
ntax	-1383
Fields	-1384
▁string	-1385
▁getParameter	-1386
.*	-1387
2)	-1388
TA	-1389
ape	-1390
pro	-1391
array	-1392
Unwrap	-1393
Charset	-1394
contains	-1395
WR	-1396
Wh	-1397
Get	-1398
Child	-1399
setting	-1400
▁HashMap	-1401
▁templateName	-1402
<@	-1403
Ftl	-1404
URI	-1405
isc	-1406
▁"#	-1407
ific	-1408
▁LOG	-1409
Local	-1410
hared	-1411
sponse	-1412
▁number	-1413
Resolver	-1414
upported	-1415
014-07-12	-1416
amingConvention	-1417
ExceptionHandler	-1418
Comp	-1419
▁pos	-1420
ounds	-1421
perator	-1422
vo	-1423
++;	-1424
low	-1425
Appe	-1426
OutOf	-1427
Column	-1428
Request	-1429
▁Method	-1430
AsString	-1431
outputFormat	-1432
".	-1433
10	-1434
},	-1435
Dep	-1436
Int	-1437
▁2;	-1438
html	-1439
HashModelEx	-1440
24	-1441
▁has	-1442
Bounds	-1443
Conversion	-1444
Constructor	-1445
OutOfBounds	-1446
▁SimpleScalar	-1447
NodeTypeSymbol	-1448
pr	-1449
▁5	-1450
▁use	-1451
sWith	-1452
▁iter	-1453
▁Float	-1454
xx	-1455
Found	-1456
abled	-1457
▁left	-1458
Syntax	-1459
perties	-1460
EX	-1461
MO	-1462
Su	-1463
▁te	-1464
ummy	-1465
clear	-1466
Failed	-1467
itespace	-1468
▁request	-1469
Lis	-1470
lone	-1471
Block	-1472
▁next	-1473
Support	-1474
Listener	-1475
ageContext	-1476
▁namespace	-1477
lableMember	-1478
PUT	-1479
dom	-1480
reg	-1481
▁was	-1482
current	-1483
Instruction	-1484
AS	-1485
IG	-1486
utf	-1487
INIT	-1488
Java	-1489
lazz	-1490
elper	-1491
▁Byte	-1492
Enabled	-1493
wrapper	-1494
ationEnvironment	-1495
▁y	-1496
2",	-1497
ial	-1498
obj	-1499
vel	-1500
Common	-1501
utable	-1502
▁Index	-1503
ttpServlet	-1504
▁replacement	-1505
MethodModelEx	-1506
LookupStrategy	-1507
':	-1508
lose	-1509
:00:00	-1510
*/	-1511
0)	-1512
cept	-1513
▁src	-1514
putTemplate	-1515
._	-1516
RTF	-1517
pre	-1518
ref	-1519
tly	-1520
▁ac	-1521
LASS	-1522
cond	-1523
root	-1524
Level	-1525
▁child	-1526
▁remove	-1527
NotFound	-1528
supported	-1529
bi	-1530
▁".	-1531
▁ct	-1532
UTPUT	-1533
Applicable	-1534
BigDecimal	-1535
Ab	-1536
sg	-1537
Ign	-1538
itch	-1539
rith	-1540
Warning	-1541
rithmetic	-1542
▁argument	-1543
ED	-1544
Bug	-1545
ange	-1546
Deprec	-1547
Prefix	-1548
▁cached	-1549
▁common	-1550
mmutable	-1551
0-	-1552
GM	-1553
").	-1554
GMT	-1555
ink	-1556
//	-1557
ES	-1558
(1,	-1559
INTE	-1560
gine	-1561
long	-1562
▁start	-1563
ay	-1564
INT	-1565
pos	-1566
fter	-1567
nown	-1568
▁prev	-1569
▁wrap	-1570
Engine	-1571
▁Short	-1572
▁source	-1573
▁servlet	-1574
Deprecated	-1575
(((	-1576
></#	-1577
ystem	-1578
SettingEvaluator	-1579
bo	-1580
Misc	-1581
itive	-1582
▁exec	-1583
remove	-1584
INTEGER	-1585
Warnings	-1586
▁ParseException	-1587
▁templateSource	-1588
.0	-1589
PO	-1590
ep	-1591
ous	-1592
▁'\	-1593
▁-1	-1594
match	-1595
▁local	-1596
▁response	-1597
▁Set	-1598
▁seq	-1599
CLASS	-1600
ToISO	-1601
clude	-1602
▁logger	-1603
Assignable	-1604
59	-1605
UTF	-1606
)));	-1607
Mode	-1608
XPath	-1609
known	-1610
▁blamed	-1611
▁2014-07-12	-1612
▁BuiltInsFor	-1613
.*;	-1614
▁("	-1615
getS	-1616
▁");	-1617
Appear	-1618
object	-1619
oopVar	-1620
intValue	-1621
▁dateType	-1622
Appearance	-1623
▁Throwable	-1624
Ur	-1625
1",	-1626
SET	-1627
TER	-1628
Url	-1629
ner	-1630
macro	-1631
_2_3_0	-1632
Settings	-1633
Specific	-1634
SY	-1635
XS	-1636
lt	-1637
cur	-1638
comp	-1639
itly	-1640
fined	-1641
licitly	-1642
Function	-1643
Malformed	-1644
▁assertNot	-1645
▁StringWriter	-1646
NODE	-1647
licy	-1648
sing	-1649
Inter	-1650
▁path	-1651
locale	-1652
▁L	-1653
Tra	-1654
lus	-1655
pen	-1656
build	-1657
egacy	-1658
▁hash	-1659
▁double	-1660
MiscTemplate	-1661
TZ	-1662
ist	-1663
num	-1664
type	-1665
Import	-1666
Policy	-1667
isAssignable	-1668
isAssignableFrom	-1669
INF	-1670
gth	-1671
ser	-1672
tag	-1673
▁ti	-1674
>");	-1675
AUTO	-1676
tial	-1677
ected	-1678
Length	-1679
bugger	-1680
Suppress	-1681
startsWith	-1682
Wrap	-1683
face	-1684
ript	-1685
point	-1686
▁text	-1687
OrByte	-1688
▁switch	-1689
▁unwrap	-1690
Extension	-1691
Explicitly	-1692
LookupCondition	-1693
▁calculateResult	-1694
><#	-1695
▁1,	-1696
▁10	-1697
▁on	-1698
▁{}	-1699
MPTY	-1700
local	-1701
andard	-1702
double	-1703
pingHint	-1704
InputStream	-1705
yy	-1706
TED	-1707
Uri	-1708
com	-1709
uld	-1710
var	-1711
▁"2	-1712
▁);	-1713
▁0,	-1714
▁auto	-1715
Replace	-1716
Expected	-1717
ExplicitlySet	-1718
STR	-1719
rong	-1720
upper	-1721
escape	-1722
▁error	-1723
aInfTld	-1724
▁factory	-1725
NodeModel	-1726
Parameters	-1727
TemplateSource	-1728
ValueException	-1729
BR	-1730
IC	-1731
998	-1732
ONE	-1733
Such	-1734
▁buil	-1735
replace	-1736
Calendar	-1737
ged	-1738
tln	-1739
▁tz	-1740
Info	-1741
▁url	-1742
Break	-1743
erial	-1744
itial	-1745
▁getP	-1746
▁Logger	-1747
▁TestBean	-1748
Whitespace	-1749
Met	-1750
iso	-1751
▁1);	-1752
cNames	-1753
untime	-1754
▁paramTypes	-1755
("@	-1756
Abs	-1757
▁bi	-1758
Iter	-1759
TRUE	-1760
debug	-1761
first	-1762
intln	-1763
▁finally	-1764
ErrorDescription	-1765
Id	-1766
VENT	-1767
Macro	-1768
WRAPP	-1769
▁init	-1770
Marker	-1771
Process	-1772
TldLocation	-1773
ACY	-1774
NAM	-1775
Tri	-1776
▁ap	-1777
More	-1778
NAMING	-1779
CONVENT	-1780
reeMarker	-1781
CONVENTION	-1782
ModelFactory	-1783
▁checkTypeFlags	-1784
EB	-1785
Temp	-1786
fore	-1787
▁0);	-1788
▁Jsp	-1789
inked	-1790
▁values	-1791
Debugger	-1792
Arguments	-1793
aInfTldSource	-1794
rary	-1795
check	-1796
▁base	-1797
▁body	-1798
▁line	-1799
Taglib	-1800
assign	-1801
▁inter	-1802
▁Writer	-1803
py	-1804
▁7	-1805
("0	-1806
IMP	-1807
NAMES	-1808
▁Null	-1809
▁find	-1810
0000",	-1811
Target	-1812
indexOf	-1813
▁parameter	-1814
OF	-1815
-88	-1816
NTAX	-1817
▁URL	-1818
▁});	-1819
-8859	-1820
SYNTAX	-1821
ToDate	-1822
number	-1823
▁+0000",	-1824
DateFormats	-1825
DecimalFormat	-1826
reemarkerServlet	-1827
2;	-1828
app	-1829
dec	-1830
xing	-1831
▁col	-1832
MENTS	-1833
Trace	-1834
Pattern	-1835
parator	-1836
Standard	-1837
DataModel	-1838
TAG	-1839
TLD	-1840
▁"[	-1841
lect	-1842
▁off	-1843
inter	-1844
items	-1845
method	-1846
defined	-1847
getDefault	-1848
BU	-1849
iste	-1850
ther	-1851
998-1	-1852
TYPES	-1853
▁with	-1854
parent	-1855
▁items	-1856
hashCode	-1857
OrInteger	-1858
templateName	-1859
TransformModel	-1860
';	-1861
'?	-1862
20	-1863
If	-1864
NS	-1865
OO	-1866
AGE	-1867
Com	-1868
Log	-1869
New	-1870
Val	-1871
ats	-1872
▁al	-1873
▁-1)	-1874
ebApp	-1875
emote	-1876
olute	-1877
blamed	-1878
izable	-1879
▁Servlet	-1880
MethodArg	-1881
▁timeZone	-1882
Compatible	-1883
HTMLOutputFormat	-1884
WN	-1885
map	-1886
()).	-1887
CACH	-1888
LDate	-1889
fixed	-1890
plain	-1891
Session	-1892
ClassName	-1893
Converter	-1894
▁interface	-1895
erializable	-1896
NamingConvention	-1897
9;	-1898
("1	-1899
WEB	-1900
how	-1901
▁mo	-1902
COPE	-1903
Item	-1904
roup	-1905
Legacy	-1906
result	-1907
998-10-	-1908
Illegal	-1909
Absolute	-1910
',	-1911
CC	-1912
IL	-1913
>*/	-1914
Ref	-1915
▁ow	-1916
Body	-1917
Core	-1918
Named	-1919
Builtin	-1920
OrShort	-1921
matches	-1922
▁actual	-1923
▁params	-1924
NumberFormats	-1925
<?	-1926
ERR	-1927
UST	-1928
▁RE	-1929
CONTE	-1930
Price	-1931
DateType	-1932
MethodUtil	-1933
SourceName	-1934
▁D	-1935
1);	-1936
DOU	-1937
Jsp	-1938
log	-1939
ALSE	-1940
PING	-1941
igit	-1942
▁"\\	-1943
DOUBLE	-1944
▁print	-1945
Exceptions	-1946
ContentType	-1947
GlobMatcher	-1948
TemplateAPI	-1949
ToPlainText	-1950
▁assertFormat	-1951
rithmeticEngine	-1952
="	-1953
IGN	-1954
item	-1955
▁can	-1956
short	-1957
Access	-1958
markup	-1959
ByParam	-1960
Missing	-1961
sqlTime	-1962
▁System	-1963
EscapingPolicy	-1964
5,	-1965
PER	-1966
'>${	-1967
LIST	-1968
view	-1969
▁esc	-1970
final	-1971
Nested	-1972
custom	-1973
CONTENT	-1974
▁member	-1975
▁iterator	-1976
▁BuiltInFor	-1977
▁Collections	-1978
FileExtension	-1979
CallableMember	-1980
getOutputFormat	-1981
untimeException	-1982
▁SimpleSequence	-1983
Can	-1984
err	-1985
▁"<	-1986
Last	-1987
cope	-1988
lush	-1989
FALSE	-1990
close	-1991
entry	-1992
:30:00	-1993
▁Input	-1994
Modified	-1995
templates	-1996
8;	-1997
TM	-1998
/*<	-1999
ere	-2000
▁"\	-2001
▁ns	-2002
▁lis	-2003
CTION	-2004
ultip	-2005
Assert	-2006
▁clazz	-2007
reflect	-2008
verloaded	-2009
Conditional	-2010
getEncoding	-2011
getTimeZone	-2012
ToDateConverter	-2013
getIncompatible	-2014
KNO	-2015
TING	-2016
amel	-2017
▁XML	-2018
▁dst	-2019
KNOWN	-2020
child	-2021
-01-01	-2022
elpers	-2023
mitive	-2024
AndTime	-2025
HashSet	-2026
eration	-2027
▁second	-2028
▁Collection	-2029
2(	-2030
Be	-2031
WS	-2032
aa	-2033
be	-2034
("/	-2035
Sub	-2036
tin	-2037
▁no	-2038
Prim	-2039
ZONE	-2040
byte	-2041
ixed	-2042
▁(!(	-2043
Parts	-2044
ified	-2045
▁file	-2046
▁match	-2047
EvalUtil	-2048
ormalize	-2049
▁Pattern	-2050
998-10-30	-2051
MapWrapper	-2052
▁commonFTL	-2053
▁dateToISO	-2054
AndTimeTimeZone	-2055
3.	-2056
67	-2057
IF	-2058
ru	-2059
}\	-2060
PEC	-2061
ers	-2062
ESCA	-2063
Tree	-2064
Clone	-2065
Digit	-2066
ations	-2067
getLocale	-2068
▁children	-2069
setSetting	-2070
+0	-2071
;;	-2072
▁+=	-2073
▁xs	-2074
}");	-2075
▁dir	-2076
Strip	-2077
▁keys	-2078
create	-2079
Invalid	-2080
▁Helpers	-2081
▁builder	-2082
getCustom	-2083
Properties	-2084
StackTrace	-2085
DirectiveModel	-2086
ServletContext	-2087
EL	-2088
He	-2089
JE	-2090
CAL	-2091
Lib	-2092
xAA	-2093
Base	-2094
find	-2095
▁item	-2096
▁spec	-2097
Thread	-2098
Strings	-2099
▁markup	-2100
ESCAPING	-2101
SettingsTest	-2102
FileExtensions	-2103
▁servletContext	-2104
SO	-2105
ATI	-2106
seq	-2107
Conn	-2108
back	-2109
case	-2110
ntType	-2111
params	-2112
Without	-2113
missing	-2114
▁EvalUtil	-2115
▁Character	-2116
97	-2117
Py	-2118
af	-2119
tf	-2120
://	-2121
Msg	-2122
eed	-2123
und	-2124
▁3;	-2125
▁an	-2126
("\\	-2127
HAND	-2128
expo	-2129
lash	-2130
left	-2131
▁KEY	-2132
▁val	-2133
gnize	-2134
leton	-2135
Contain	-2136
println	-2137
CanonicalForm	-2138
getSourceName	-2139
Bo	-2140
▁W	-2141
Mil	-2142
PAT	-2143
PRO	-2144
Tun	-2145
Use	-2146
▁"@	-2147
etch	-2148
SCOPE	-2149
abSize	-2150
ineTun	-2151
javaDate	-2152
mmutableList	-2153
arrayToString	-2154
gnizeStandard	-2155
>\	-2156
AY	-2157
CI	-2158
NG	-2159
'>"	-2160
ced	-2161
doc	-2162
▁pa	-2163
http	-2164
ible	-2165
poch	-2166
▁squ	-2167
ignat	-2168
ternal	-2169
FineTun	-2170
FineTuner	-2171
namespace	-2172
ClassResolver	-2173
Introspection	-2174
haredVariable	-2175
UnwrappingHint	-2176
45	-2177
UP	-2178
BJE	-2179
bar	-2180
ump	-2181
xxx	-2182
Tips	-2183
tFtl	-2184
▁lib	-2185
BJECT	-2186
ERROR	-2187
getAs	-2188
getCh	-2189
▁byte	-2190
OrFloat	-2191
isEmpty	-2192
▁loopVar	-2193
▁Document	-2194
▁arguments	-2195
▁Configurable	-2196
FormatException	-2197
TemplateElement	-2198
getCanonicalForm	-2199
(2	-2200
(3	-2201
Pa	-2202
+01	-2203
AST	-2204
Has	-2205
Top	-2206
can	-2207
Pair	-2208
base	-2209
vent	-2210
}</#	-2211
▁"",	-2212
▁but	-2213
Utils	-2214
▁"");	-2215
▁from	-2216
▁clear	-2217
FileName	-2218
▁context	-2219
▁pattern	-2220
▁setting	-2221
canonical	-2222
▁TEMPLATE	-2223
InstanceCache	-2224
▁SimpleNumber	-2225
▁incompatible	-2226
CF	-2227
_1	-2228
-02	-2229
net	-2230
oft	-2231
2");	-2232
Comb	-2233
▁jar	-2234
▁lho	-2235
▁sub	-2236
EMPTY	-2237
hould	-2238
osure	-2239
▁comp	-2240
OUTPUT	-2241
Regexp	-2242
System	-2243
plainText	-2244
Connection	-2245
AbsoluteName	-2246
ConversionPrice	-2247
di	-2248
op	-2249
pa	-2250
▁z	-2251
)).	-2252
2()	-2253
970	-2254
Pos	-2255
▁EX	-2256
desc	-2257
temp	-2258
▁com	-2259
begin	-2260
ignum	-2261
vious	-2262
▁Test	-2263
▁root	-2264
PECTED	-2265
STRING	-2266
models	-2267
allback	-2268
▁retval	-2269
osureLevel	-2270
▁exception	-2271
getArgument	-2272
getAsString	-2273
ParameterType	-2274
▁formatString	-2275
FF	-2276
Up	-2277
[].	-2278
buf	-2279
'}",	-2280
Cach	-2281
aybe	-2282
ject	-2283
("${'	-2284
CACHE	-2285
CData	-2286
▁must	-2287
▁prop	-2288
boxing	-2289
unwrap	-2290
▁write	-2291
WRAPPER	-2292
▁prefix	-2293
datetime	-2294
▁current	-2295
▁ClassUtil	-2296
ArrayAdapter	-2297
▁HttpServlet	-2298
▁addTemplate	-2299
SuppressWarnings	-2300
1;	-2301
Is	-2302
OM	-2303
ens	-2304
▁cl	-2305
CHAR	-2306
Uses	-2307
\"",	-2308
dummy	-2309
Static	-2310
▁squar	-2311
DelayedJ	-2312
TagSyntax	-2313
setTemplate	-2314
▁FreeMarker	-2315
▁NumberUtil	-2316
icCompatible	-2317
emoteException	-2318
8,	-2319
("*	-2320
("<	-2321
Sor	-2322
ster	-2323
voke	-2324
▁123	-2325
Ignor	-2326
▁stri	-2327
Sorter	-2328
source	-2329
▁short	-2330
Children	-2331
Replaced	-2332
▁isEmpty	-2333
incompatible	-2334
Configurations	-2335
Ct	-2336
NE	-2337
▁G	-2338
Ctx	-2339
Sup	-2340
sTo	-2341
▁00	-2342
PATH	-2343
rame	-2344
▁min	-2345
Supert	-2346
process	-2347
Combined	-2348
DateUtil	-2349
ceptance	-2350
▁Element	-2351
Directory	-2352
Supertype	-2353
HttpServlet	-2354
dIdentifier	-2355
CommonSupertype	-2356
TC	-2357
ARY	-2358
LOG	-2359
▁"&	-2360
▁df	-2361
DING	-2362
atus	-2363
ends	-2364
erce	-2365
ftlx	-2366
▁max	-2367
cript	-2368
lared	-2369
lowed	-2370
▁0));	-2371
WEBAPP	-2372
▁field	-2373
epClone	-2374
nsitive	-2375
Extended	-2376
Operator	-2377
encoding	-2378
Processing	-2379
TimeFormat	-2380
▁Unsupported	-2381
ArithmeticEngine	-2382
15	-2383
ID	-2384
xs	-2385
../	-2386
LER	-2387
ope	-2388
ory	-2389
ose	-2390
▁"?	-2391
>();	-2392
Inse	-2393
Oper	-2394
ener	-2395
pret	-2396
SSIGN	-2397
aping	-2398
stamp	-2399
▁TYPE	-2400
Models	-2401
▁begin	-2402
HANDLER	-2403
Imports	-2404
Varargs	-2405
exposes	-2406
▁process	-2407
getParent	-2408
Insensitive	-2409
LookupResult	-2410
▁Conditional	-2411
▁TemplateLoader	-2412
InstructionStack	-2413
4,	-2414
SC	-2415
▁\	-2416
-8",	-2417
COMP	-2418
else	-2419
▁HTML	-2420
CODING	-2421
Escape	-2422
Ignore	-2423
▁wrong	-2424
matcher	-2425
:00:00:0	-2426
▁DEFAULT	-2427
Separator	-2428
_2_3_22);	-2429
▁Iterator	-2430
Acceptance	-2431
epCloneWith	-2432
getObjectWrapper	-2433
IZ	-2434
▁.	-2435
(2,	-2436
LIC	-2437
col	-2438
oot	-2439
xFF	-2440
LIBR	-2441
less	-2442
ling	-2443
▁ctx	-2444
Items	-2445
Write	-2446
Actual	-2447
Caches	-2448
OBJECT	-2449
common	-2450
naming	-2451
prefix	-2452
upport	-2453
▁fetch	-2454
autoEsc	-2455
forName	-2456
ENCODING	-2457
ForNamed	-2458
allNames	-2459
getValue	-2460
▁toString	-2461
▁paramType	-2462
TemplateCache	-2463
IllegalArgument	-2464
BC	-2465
DS	-2466
ET	-2467
SH	-2468
gt	-2469
Win	-2470
▁mt	-2471
▁tn	-2472
("1.	-2473
Root	-2474
ight	-2475
▁\""	-2476
▁getS	-2477
▁show	-2478
OrSame	-2479
▁direc	-2480
Wrapped	-2481
istered	-2482
10:30:05	-2483
Identity	-2484
children	-2485
▁squared	-2486
setCustom	-2487
singleton	-2488
▁resource	-2489
AXException	-2490
ToDataModel	-2491
BugException	-2492
itParamValue	-2493
6;	-2494
SP	-2495
afe	-2496
erm	-2497
ide	-2498
xFB	-2499
▁"/	-2500
▁"{	-2501
▁4;	-2502
▁BI	-2503
ails	-2504
apos	-2505
isit	-2506
ueue	-2507
▁len	-2508
After	-2509
ision	-2510
▁CUST	-2511
▁Java	-2512
▁part	-2513
▁tips	-2514
errMsg	-2515
Comment	-2516
NonList	-2517
include	-2518
▁OUTPUT	-2519
endsWith	-2520
Breakpoint	-2521
NameFormat	-2522
▁canonical	-2523
▁localName	-2524
Enumeration	-2525
TemplatePath	-2526
expectedType	-2527
getAttribute	-2528
22	-2529
[0	-2530
ARR	-2531
\\'	-2532
ool	-2533
▁++	-2534
Attr	-2535
LOAT	-2536
gacy	-2537
glob	-2538
uter	-2539
▁reg	-2540
▁tld	-2541
")));	-2542
ARRAY	-2543
ATIBLE	-2544
erical	-2545
▁flags	-2546
declared	-2547
▁charset	-2548
ValuePair	-2549
▁EXPECTED	-2550
▁getChild	-2551
COMPATIBLE	-2552
MoreOrSame	-2553
Unsupported	-2554
▁convention	-2555
MethodAppearance	-2556
MS	-2557
ND	-2558
ALL	-2559
Dot	-2560
Rec	-2561
ict	-2562
ock	-2563
▁0.	-2564
▁qu	-2565
(0);	-2566
Call	-2567
ater	-2568
olve	-2569
▁"<@	-2570
▁SET	-2571
▁Sat	-2572
▁log	-2573
Nodes	-2574
orrec	-2575
stant	-2576
table	-2577
▁Debug	-2578
▁Empty	-2579
▁xpath	-2580
LIBRARY	-2581
▁loader	-2582
ignature	-2583
vocation	-2584
Supported	-2585
ttpSession	-2586
setProperty	-2587
isMoreOrSame	-2588
▁pageContext	-2589
▁NullArgument	-2590
OP	-2591
Sn	-2592
az	-2593
0);	-2594
LEG	-2595
ORT	-2596
dst	-2597
lem	-2598
wor	-2599
LICY	-2600
Read	-2601
asic	-2602
math	-2603
nder	-2604
actor	-2605
float	-2606
▁does	-2607
+01:00	-2608
Config	-2609
LEGACY	-2610
POLICY	-2611
▁macro	-2612
▁names	-2613
getNode	-2614
▁should	-2615
raryEnum	-2616
▁Message	-2617
▁element	-2618
description	-2619
▁OutputFormat	-2620
ParameterNames	-2621
▁assertFormatted	-2622
(5	-2623
(",	-2624
ALS	-2625
CFG	-2626
Seq	-2627
▁":	-2628
▁1:	-2629
ICAL	-2630
line	-2631
uite	-2632
▁tnf	-2633
NUMER	-2634
▁dump	-2635
▁main	-2636
▁only	-2637
▁that	-2638
Header	-2639
apache	-2640
noSuch	-2641
values	-2642
▁getAs	-2643
▁taglib	-2644
amelCase	-2645
getChild	-2646
EntryPath	-2647
▁NodeModel	-2648
newInstance	-2649
AndArguments	-2650
ByParamCount	-2651
ColumnNumber	-2652
templatesuite	-2653
DateTimeFormat	-2654
▁addToDataModel	-2655
▁templateLoader	-2656
MetaInfTldSource	-2657
12	-2658
FB	-2659
Sh	-2660
INE	-2661
▁"-	-2662
This	-2663
▁and	-2664
▁ins	-2665
scope	-2666
▁eval	-2667
-8859-	-2668
ASSIGN	-2669
Strong	-2670
import	-2671
ultiple	-2672
▁Jython	-2673
Protected	-2674
ToCharset	-2675
upperCase	-2676
References	-2677
overloaded	-2678
▁InitParam	-2679
▁Malformed	-2680
ToCharsetMap	-2681
ationContext	-2682
▁objectWrapper	-2683
SimpleMapWrapper	-2684
'}	-2685
PR	-2686
)))	-2687
3",	-2688
che	-2689
kip	-2690
▁0:	-2691
Lock	-2692
MESS	-2693
Snap	-2694
shot	-2695
tent	-2696
trim	-2697
▁Con	-2698
▁rho	-2699
cheme	-2700
empty	-2701
round	-2702
▁glob	-2703
Helper	-2704
▁scope	-2705
MESSAGE	-2706
Snapshot	-2707
▁SETTING	-2708
NUMERICAL	-2709
Primitive	-2710
onentType	-2711
▁NodeList	-2712
ByEscaping	-2713
IgnoreCase	-2714
▁assertDateTime	-2715
▁RemoteException	-2716
4;	-2717
__	-2718
ln	-2719
(-1	-2720
CIM	-2721
CUR	-2722
Cfg	-2723
HAS	-2724
Low	-2725
uri	-2726
ATTR	-2727
[][]	-2728
fset	-2729
prev	-2730
▁1..	-2731
▁ref	-2732
DECIM	-2733
force	-2734
Expose	-2735
Millis	-2736
Formats	-2737
▁config	-2738
▁parser	-2739
Numerical	-2740
▁BIMethod	-2741
▁unwrapped	-2742
Constructors	-2743
StringLiteral	-2744
▁cachedTemplate	-2745
#3	-2746
.@	-2747
1(	-2748
cI	-2749
cs	-2750
</@	-2751
GEX	-2752
IZE	-2753
Inc	-2754
dir	-2755
lag	-2756
#39;	-2757
DETE	-2758
sser	-2759
▁bug	-2760
▁tip	-2761
Boxed	-2762
Range	-2763
tempt	-2764
NoSuch	-2765
▁named	-2766
UNKNOWN	-2767
Unknown	-2768
▁accept	-2769
▁column	-2770
DATETIME	-2771
lainText	-2772
▁ccNames	-2773
▁lcNames	-2774
▁matcher	-2775
▁FileName	-2776
▁operator	-2777
▁InputStream	-2778
URLConnection	-2779
setIncompatible	-2780
▁getBeansWrapper	-2781
sb	-2782
GET	-2783
ILT	-2784
ITH	-2785
erg	-2786
ery	-2787
not	-2788
▁5;	-2789
MODE	-2790
Sens	-2791
TION	-2792
Tlds	-2793
ample	-2794
eturn	-2795
print	-2796
▁enum	-2797
Factor	-2798
XMLEnc	-2799
orrect	-2800
simple	-2801
taglib	-2802
▁XPath	-2803
FORMATS	-2804
itional	-2805
▁argIdx	-2806
▁failed	-2807
▁HashSet	-2808
paramType	-2809
▁calendar	-2810
▁listener	-2811
Assignments	-2812
FormatString	-2813
▁getAsString	-2814
equalsIgnoreCase	-2815
100	-2816
ITI	-2817
TIP	-2818
cat	-2819
jar	-2820
▁!(	-2821
▁(_	-2822
▁8;	-2823
▁OW	-2824
4567	-2825
Reco	-2826
▁"";	-2827
▁ign	-2828
ATION	-2829
\"");	-2830
andle	-2831
clazz	-2832
▁over	-2833
Compar	-2834
WinCnt	-2835
second	-2836
▁after	-2837
▁float	-2838
▁found	-2839
otation	-2840
ssertion	-2841
970-01-01	-2842
ModelCache	-2843
ParamTypes	-2844
rintWriter	-2845
▁Namespace	-2846
LogTemplate	-2847
mmutableMap	-2848
inkedHashMap	-2849
▁MessageUtil	-2850
11	-2851
BE	-2852
XT	-2853
015	-2854
1()	-2855
Laz	-2856
ies	-2857
rtf	-2858
tld	-2859
▁6;	-2860
▁po	-2861
(123	-2862
1));	-2863
Each	-2864
Only	-2865
Repe	-2866
UALS	-2867
getM	-2868
reco	-2869
ware	-2870
▁CON	-2871
▁dec	-2872
Basic	-2873
Event	-2874
▁"</#	-2875
▁zone	-2876
cached	-2877
getKey	-2878
tester	-2879
DECIMAL	-2880
NonNull	-2881
Package	-2882
▁Assert	-2883
▁Regexp	-2884
▁append	-2885
▁addName	-2886
▁version	-2887
▁wrapped	-2888
Listeners	-2889
▁configur	-2890
▁isNested	-2891
▁SimpleHash	-2892
▁expression	-2893
▁properties	-2894
OutputStream	-2895
fromPlainText	-2896
▁BugException	-2897
▁RegexpHelper	-2898
ShortClassName	-2899
TD	-2900
+02	-2901
200	-2902
<?>	-2903
ANG	-2904
FIG	-2905
ITY	-2906
NoX	-2907
ome	-2908
qui	-2909
LEsc	-2910
Loop	-2911
▁all	-2912
▁non	-2913
Descs	-2914
NoXSS	-2915
▁skip	-2916
Jython	-2917
assert	-2918
script	-2919
▁Macro	-2920
▁clone	-2921
CEPTION	-2922
compare	-2923
sqlDate	-2924
▁Taglib	-2925
Repeater	-2926
Wrapping	-2927
CharArray	-2928
Unwrapped	-2929
uoteNoXSS	-2930
Containers	-2931
getPlainText	-2932
BlockRepeater	-2933
CombinedMarkup	-2934
TemplateMarkup	-2935
Ln	-2936
OD	-2937
ms	-2938
("2	-2939
;",	-2940
KET	-2941
eak	-2942
▁Py	-2943
▁\\	-2944
BRAC	-2945
Impl	-2946
LONG	-2947
Lazy	-2948
file	-2949
ACCUR	-2950
Cause	-2951
▁INIT	-2952
Offset	-2953
BRACKET	-2954
CoreAPI	-2955
ACCURACY	-2956
Stripping	-2957
trospData	-2958
▁function	-2959
pochMillis	-2960
▁00:00:00:0	-2961
▁collection	-2962
KeyValuePair	-2963
Serializable	-2964
DirectiveBody	-2965
LegacyNonList	-2966
▁TemplateValue	-2967
setOutputFormat	-2968
FS	-2969
ci	-2970
dt	-2971
ib	-2972
ACE	-2973
DIF	-2974
Def	-2975
inf	-2976
rup	-2977
iden	-2978
ndle	-2979
sure	-2980
vert	-2981
▁Cal	-2982
▁old	-2983
FLOAT	-2984
erged	-2985
older	-2986
▁mNum	-2987
▁read	-2988
OrLong	-2989
Status	-2990
actual	-2991
ecting	-2992
erCase	-2993
HTMLEnc	-2994
Initial	-2995
loopVar	-2996
▁ensure	-2997
TestCase	-2998
getCause	-2999
rounding	-3000
▁ACCEPTS	-3001
EXCEPTION	-3002
getMethod	-3003
inkedList	-3004
▁paramList	-3005
PageContext	-3006
StringValue	-3007
ErrorMessage	-3008
INCOMPATIBLE	-3009
▁childBuffer	-3010
▁ServletContext	-3011
▁InitParamParser	-3012
Op	-3013
("&	-3014
.",	-3015
/*/	-3016
Loc	-3017
MAN	-3018
PRE	-3019
Pre	-3020
amc	-3021
ice	-3022
▁'"	-3023
▁1.	-3024
▁2,	-3025
▁7;	-3026
▁})	-3027
("\"	-3028
(1);	-3029
1");	-3030
ABLE	-3031
hamc	-3032
load	-3033
safe	-3034
▁req	-3035
▁tab	-3036
▁xml	-3037
▁you	-3038
Build	-3039
SECON	-3040
▁load	-3041
CATION	-3042
Holder	-3043
eneric	-3044
issing	-3045
▁Array	-3046
▁build	-3047
▁close	-3048
▁other	-3049
CHARSET	-3050
isClass	-3051
▁simple	-3052
▁webApp	-3053
longValue	-3054
FBWarnings	-3055
▁NonString	-3056
ASSIGNMENTS	-3057
StringArray	-3058
overloadedC	-3059
▁assertTime	-3060
ResourcePath	-3061
AcceptanceNon	-3062
CustomFormats	-3063
outputEncoding	-3064
▁InvalidFormat	-3065
HTMLOutputModel	-3066
6,	-3067
▁[	-3068
++]	-3069
BIG	-3070
FIX	-3071
FLA	-3072
Xml	-3073
\"?	-3074
ify	-3075
max	-3076
ori	-3077
sup	-3078
tcf	-3079
▁"'	-3080
▁12	-3081
▁<#	-3082
FLAG	-3083
LEAN	-3084
axen	-3085
exec	-3086
warn	-3087
▁-1;	-3088
8601_	-3089
Clear	-3090
tinue	-3091
▁"${.	-3092
Bundle	-3093
OOLEAN	-3094
python	-3095
▁Multi	-3096
▁doesn	-3097
▁input	-3098
-8859-1	-3099
AutoEsc	-3100
forEach	-3101
request	-3102
▁access	-3103
▁buffer	-3104
▁handle	-3105
▁continue	-3106
getSetting	-3107
▁attribute	-3108
▁getParent	-3109
▁plainText	-3110
AdaptersFor	-3111
▁assertDate	-3112
▁getDefault	-3113
SimpleScalar	-3114
ExposureLevel	-3115
ParameterTypes	-3116
3;	-3117
TO	-3118
js	-3119
sm	-3120
3()	-3121
TEN	-3122
[])	-3123
]);	-3124
ave	-3125
lit	-3126
▁2)	-3127
▁pd	-3128
Load	-3129
ecur	-3130
izer	-3131
lace	-3132
▁FOO	-3133
▁app	-3134
▁foo	-3135
BUILT	-3136
MODEL	-3137
clone	-3138
orian	-3139
usted	-3140
▁open	-3141
CONFIG	-3142
PROPER	-3143
curacy	-3144
invoke	-3145
Section	-3146
VarName	-3147
▁offset	-3148
Ignoring	-3149
lication	-3150
regorian	-3151
▁initial	-3152
Sensitive	-3153
getLogger	-3154
▁sourceName	-3155
sqlTimestamp	-3156
▁"1998-10-30	-3157
▁ModelFactory	-3158
▁Serializable	-3159
StateException	-3160
AccessException	-3161
▁UnsupportedOper	-3162
3(	-3163
40	-3164
EF	-3165
MM	-3166
jo	-3167
DED	-3168
IDE	-3169
Obj	-3170
min	-3171
▁";	-3172
▁pw	-3173
META	-3174
TEXT	-3175
body	-3176
NABLE	-3177
ready	-3178
sFrom	-3179
▁2000	-3180
▁here	-3181
Action	-3182
DETECT	-3183
ToType	-3184
▁stack	-3185
Classes	-3186
element	-3187
▁escape	-3188
▁nested	-3189
▁reader	-3190
Multiple	-3191
timeZone	-3192
▁LIBRARY	-3193
▁hasNext	-3194
▁session	-3195
interpret	-3196
normalize	-3197
ormalized	-3198
typeFlags	-3199
Attributes	-3200
▁character	-3201
ContextStack	-3202
DebugEnabled	-3203
NumberToType	-3204
▁EpochMillis	-3205
WrappedObject	-3206
BuilderFactory	-3207
▁ImmutableList	-3208
iv	-3209
ix	-3210
lf	-3211
mt	-3212
nc	-3213
sy	-3214
▁q	-3215
4);	-3216
off	-3217
▁CA	-3218
APIS	-3219
ATOR	-3220
Perm	-3221
ROVE	-3222
SIZE	-3223
anti	-3224
arch	-3225
ason	-3226
sTri	-3227
setS	-3228
(0));	-3229
45678	-3230
Aware	-3231
Place	-3232
cause	-3233
llect	-3234
nsURI	-3235
▁cont	-3236
Permut	-3237
keySet	-3238
meType	-3239
sTried	-3240
▁".");	-3241
▁EMPTY	-3242
▁strip	-3243
▁types	-3244
:30:00.	-3245
IMPROVE	-3246
ecurity	-3247
version	-3248
▁Markup	-3249
TestName	-3250
WithAPIS	-3251
dateType	-3252
function	-3253
▁Matcher	-3254
▁contain	-3255
▁varargs	-3256
Functions	-3257
LowerCase	-3258
lessInput	-3259
▁variable	-3260
izedLookup	-3261
IMPROVEMENTS	-3262
StringWriter	-3263
OutputEncoding	-3264
WithAPISupport	-3265
CalendarFactory	-3266
TargetException	-3267
▁,	-3268
("\	-3269
-16	-3270
>";	-3271
ACT	-3272
ATT	-3273
CUL	-3274
Exc	-3275
aSe	-3276
▁"]	-3277
▁3,	-3278
▁li	-3279
Expr	-3280
TERN	-3281
ists	-3282
keys	-3283
("${.	-3284
CULTY	-3285
DIFFI	-3286
xpath	-3287
▁AUTO	-3288
GERMAN	-3289
PREFIX	-3290
cluded	-3291
ibling	-3292
pClass	-3293
rupted	-3294
stanti	-3295
▁prime	-3296
SECONDS	-3297
TabSize	-3298
_2_3_0,	-3299
▁skipWS	-3300
Matchers	-3301
MimeType	-3302
ToNumber	-3303
▁execute	-3304
ClassUtil	-3305
Factories	-3306
Signature	-3307
ToBoolean	-3308
className	-3309
localName	-3310
▁10:30:05	-3311
DIFFICULTY	-3312
LineNumber	-3313
▁assertEsc	-3314
▁className	-3315
▁CONVERSION	-3316
IgnoringCase	-3317
MacroContext	-3318
▁getResponse	-3319
▁namespaceUri	-3320
ceLegacyNonList	-3321
."	-3322
:\	-3323
BY	-3324
aw	-3325
1.5	-3326
300	-3327
ERO	-3328
VAR	-3329
abc	-3330
utc	-3331
Enti	-3332
ZERO	-3333
ftlh	-3334
itor	-3335
rest	-3336
stor	-3337
trol	-3338
ward	-3339
▁BIG	-3340
▁OUT	-3341
Multi	-3342
Slash	-3343
aInfo	-3344
break	-3345
other	-3346
▁bean	-3347
Before	-3348
ENABLE	-3349
quired	-3350
▁REGEX	-3351
Include	-3352
VarArgs	-3353
traInfo	-3354
▁Thread	-3355
▁lookup	-3356
Decision	-3357
resource	-3358
settings	-3359
Expecting	-3360
criptable	-3361
▁property	-3362
▁normalize	-3363
BuiltInsFor	-3364
getResource	-3365
▁1998-10-30	-3366
▁Undeclared	-3367
▁namespaces	-3368
▁parameters	-3369
▁targetClass	-3370
▁TemplateTest	-3371
MethodArgCount	-3372
structionStack	-3373
(-	-3374
LF	-3375
dm	-3376
---	-3377
3);	-3378
><@	-3379
ASK	-3380
IcI	-3381
TAR	-3382
loc	-3383
org	-3384
yyy	-3385
()),	-3386
Back	-3387
CALE	-3388
HINT	-3389
Star	-3390
apac	-3391
nded	-3392
▁PAR	-3393
&#39;	-3394
AndUn	-3395
ITIVE	-3396
group	-3397
▁when	-3398
456789	-3399
Subset	-3400
ervice	-3401
nested	-3402
▁Entry	-3403
▁props	-3404
LECTION	-3405
Sibling	-3406
apacity	-3407
dentity	-3408
hasMore	-3409
Defaults	-3410
Elements	-3411
OrDouble	-3412
hamcrest	-3413
pathTlds	-3414
LEscaping	-3415
getSignum	-3416
pingHints	-3417
▁argTypes	-3418
▁rounding	-3419
SimpleName	-3420
ternalForm	-3421
application	-3422
AndUnwrapper	-3423
CharSequence	-3424
ExposeFields	-3425
XPathSupport	-3426
80	-3427
XX	-3428
▁X	-3429
("-	-3430
('>	-3431
--;	-3432
400	-3433
ORY	-3434
[0]	-3435
▁us	-3436
Copy	-3437
POSE	-3438
impM	-3439
lazy	-3440
mNum	-3441
ored	-3442
uage	-3443
▁');	-3444
▁dif	-3445
▁iso	-3446
▁uri	-3447
Bound	-3448
Fixed	-3449
ative	-3450
frame	-3451
ingle	-3452
ACTORY	-3453
Strict	-3454
TARGET	-3455
▁Maybe	-3456
Control	-3457
▁Custom	-3458
▁ignore	-3459
_2_3_0);	-3460
▁Replace	-3461
▁compare	-3462
▁getNode	-3463
▁lastoff	-3464
Variables	-3465
getLength	-3466
getMarkup	-3467
▁Extended	-3468
▁previous	-3469
▁Reference	-3470
▁typeFlags	-3471
Interrupted	-3472
URLEscaping	-3473
doubleValue	-3474
toLowerCase	-3475
BooleanFormat	-3476
ImmutableList	-3477
MultipleTypes	-3478
deepCloneWith	-3479
haredVariables	-3480
▁zonelessInput	-3481
▁UnexpectedType	-3482
hasCustomFormats	-3483
6.	-3484
7;	-3485
▁k	-3486
${'	-3487
("_	-3488
=\"	-3489
BAS	-3490
DIS	-3491
LUS	-3492
NED	-3493
NOT	-3494
xAB	-3495
▁"0	-3496
▁2.	-3497
▁9;	-3498
24("	-3499
Like	-3500
WITH	-3501
]");	-3502
adow	-3503
hard	-3504
lete	-3505
▁${'	-3506
▁2);	-3507
▁END	-3508
▁Tag	-3509
▁doc	-3510
BASIC	-3511
Check	-3512
First	-3513
Right	-3514
inner	-3515
ister	-3516
▁elem	-3517
▁have	-3518
▁need	-3519
+02:00	-3520
IDENED	-3521
Values	-3522
▁outer	-3523
IndexOf	-3524
OrArray	-3525
UNWRAPP	-3526
lection	-3527
▁listed	-3528
▁merged	-3529
Iterable	-3530
OrString	-3531
bugfixed	-3532
ingInput	-3533
_2_3_21);	-3534
▁accuracy	-3535
▁hashCode	-3536
FreeMarker	-3537
UNWRAPPING	-3538
UsesCaches	-3539
PackagePath	-3540
▁1970-01-01	-3541
ImmutableMap	-3542
▁InputSource	-3543
ingInputParts	-3544
forceUnwrapped	-3545
hardReferences	-3546
servletContext	-3547
etaInfTldSource	-3548
▁addTldLocation	-3549
TemplateNotFound	-3550
▁CustomAttribute	-3551
25	-3552
Ow	-3553
123	-3554
DOM	-3555
NON	-3556
est	-3557
gle	-3558
lam	-3559
▁'/	-3560
▁FM	-3561
▁St	-3562
2));	-3563
DEPR	-3564
METH	-3565
icro	-3566
work	-3567
ynam	-3568
▁msg	-3569
("0.0	-3570
EXTEN	-3571
anges	-3572
erver	-3573
menet	-3574
oogle	-3575
regex	-3576
▁"123	-3577
Digits	-3578
Evaled	-3579
getOut	-3580
▁group	-3581
WIDENED	-3582
context	-3583
foreach	-3584
getSize	-3585
argument	-3586
entrySet	-3587
▁content	-3588
▁convert	-3589
▁missing	-3590
▁testAll	-3591
INITPARAM	-3592
parameter	-3593
▁Abstract	-3594
menetState	-3595
Breakpoints	-3596
Initialized	-3597
containsKey	-3598
toCharArray	-3599
viewServlet	-3600
▁"2014-07-1	-3601
MarkupOutput	-3602
lastModified	-3603
setAttribute	-3604
ArgumentTypes	-3605
WriteProtected	-3606
containsString	-3607
toAbsoluteName	-3608
▁markupContent	-3609
escapePlainText	-3610
▁TemplateMarkup	-3611
DebuggerListener	-3612
▁caseInsensitive	-3613
(_	-3614
BB	-3615
WH	-3616
cc	-3617
'",	-3618
('<	-3619
010	-3620
ABC	-3621
COM	-3622
Cmp	-3623
SED	-3624
TEM	-3625
Vis	-3626
Was	-3627
web	-3628
▁--	-3629
COER	-3630
Post	-3631
UEST	-3632
ateg	-3633
erge	-3634
tage	-3635
vide	-3636
vile	-3637
yyyy	-3638
▁Mru	-3639
▁PAT	-3640
▁are	-3641
▁cnt	-3642
▁inc	-3643
▁oms	-3644
▁see	-3645
-02-0	-3646
-8");	-3647
CABLE	-3648
qName	-3649
upple	-3650
▁call	-3651
▁coll	-3652
▁reco	-3653
Return	-3654
Shadow	-3655
ailing	-3656
etails	-3657
google	-3658
istory	-3659
parser	-3660
tNames	-3661
tagext	-3662
ulated	-3663
▁Local	-3664
▁escap	-3665
▁inner	-3666
▁nsURI	-3667
Adapted	-3668
ptional	-3669
vileged	-3670
▁argCnt	-3671
▁parsed	-3672
▁vararg	-3673
EntryUrl	-3674
▁PATTERN	-3675
COERCABLE	-3676
CmpPermut	-3677
dateDelay	-3678
▁sequence	-3679
Comparator	-3680
DataHolder	-3681
SyntaxMode	-3682
▁Gregorian	-3683
▁camelCase	-3684
lastIndexOf	-3685
▁assertUses	-3686
MethodsSubset	-3687
ResourceBundle	-3688
isDebugEnabled	-3689
simpleTestName	-3690
▁ClassNotFound	-3691
CmpPermutations	-3692
MethodException	-3693
▁initParamValue	-3694
3,	-3695
31	-3696
9]	-3697
An	-3698
Sp	-3699
aj	-3700
sw	-3701
wh	-3702
'>\	-3703
(".	-3704
(1)	-3705
(3,	-3706
/",	-3707
></	-3708
Tip	-3709
Web	-3710
\\{	-3711
_19	-3712
her	-3713
ncy	-3714
unk	-3715
▁My	-3716
▁[]	-3717
()))	-3718
RESO	-3719
_2_4	-3720
ajor	-3721
iner	-3722
ines	-3723
ular	-3724
▁STR	-3725
▁cur	-3726
▁dow	-3727
▁sum	-3728
>"));	-3729
Dummy	-3730
Flush	-3731
iling	-3732
▁/>",	-3733
▁Mock	-3734
▁attr	-3735
▁more	-3736
('>');	-3737
global	-3738
legacy	-3739
▁debug	-3740
BOOLEAN	-3741
Example	-3742
Library	-3743
ToArray	-3744
_2_3_19	-3745
resolve	-3746
urrency	-3747
Fallback	-3748
▁getName	-3749
InitParam	-3750
Tokenizer	-3751
haredLock	-3752
setParent	-3753
▁12:30:05	-3754
Invocation	-3755
ReadMethod	-3756
▁Undefined	-3757
▁directory	-3758
ClassLoader	-3759
StringUtils	-3760
libraryEnum	-3761
TemplateTest	-3762
booleanValue	-3763
▁introspData	-3764
LoggerFactory	-3765
▁SAXException	-3766
▁StringReader	-3767
CoreStringUtils	-3768
▁hardReferences	-3769
##	-3770
13	-3771
47	-3772
5;	-3773
▁T	-3774
("(	-3775
('\	-3776
5()	-3777
INC	-3778
REF	-3779
Uti	-3780
[0-	-3781
ctx	-3782
itf	-3783
src	-3784
tml	-3785
▁"(	-3786
▁el	-3787
▁op	-3788
▁pr	-3789
ADER	-3790
CUST	-3791
Conf	-3792
WHEN	-3793
ging	-3794
lias	-3795
sEqu	-3796
spec	-3797
tead	-3798
▁Tld	-3799
▁bec	-3800
AndCo	-3801
[0-9]	-3802
ating	-3803
ometh	-3804
▁"\\!	-3805
▁1));	-3806
▁Bean	-3807
▁Tree	-3808
▁copy	-3809
▁getB	-3810
▁stop	-3811
("/"))	-3812
EXPOSE	-3813
_2_4_0	-3814
listed	-3815
losing	-3816
ynamic	-3817
Cleared	-3818
SETTING	-3819
ategory	-3820
collect	-3821
compile	-3822
isArray	-3823
▁Common	-3824
▁Reader	-3825
▁formal	-3826
INTEGERS	-3827
omething	-3828
operator	-3829
sequence	-3830
▁allowed	-3831
▁testGet	-3832
AndCoerce	-3833
ParamType	-3834
attribute	-3835
▁testCase	-3836
ByParamIdx	-3837
exTemplate	-3838
fromMarkup	-3839
▁Parameter	-3840
LoaderClass	-3841
▁breakpoint	-3842
▁overloaded	-3843
▁startIndex	-3844
AutoEscaping	-3845
SAXException	-3846
StringsBasic	-3847
▁constructor	-3848
NonOverloaded	-3849
▁CacheStorage	-3850
▁JspException	-3851
▁DecimalFormat	-3852
▁NodeListModel	-3853
▁assertNotNull	-3854
▁configuration	-3855
TypeDescription	-3856
setNumberFormat	-3857
isWriteProtected	-3858
0'	-3859
28	-3860
4.	-3861
AK	-3862
ee	-3863
fr	-3864
▁V	-3865
4()	-3866
AME	-3867
ATA	-3868
BUG	-3869
CLO	-3870
ENT	-3871
Fmt	-3872
OrS	-3873
apt	-3874
lho	-3875
ned	-3876
ved	-3877
CENT	-3878
FILE	-3879
MASK	-3880
Meta	-3881
PACE	-3882
cend	-3883
ient	-3884
iter	-3885
json	-3886
ount	-3887
part	-3888
pola	-3889
tect	-3890
▁'\'	-3891
▁FTL	-3892
▁ISO	-3893
▁dot	-3894
▁loc	-3895
▁one	-3896
AndOn	-3897
DEBUG	-3898
Exact	-3899
INFIN	-3900
OrStr	-3901
Utili	-3902
omain	-3903
▁scan	-3904
CLOSED	-3905
Entity	-3906
Global	-3907
▁Token	-3908
▁allOf	-3909
▁count	-3910
▁token	-3911
Numbers	-3912
cendant	-3913
parated	-3914
parsers	-3915
INFINITY	-3916
VarArgsC	-3917
fication	-3918
▁matches	-3919
▁parseAs	-3920
NAMESPACE	-3921
Undefined	-3922
Utilities	-3923
beginLine	-3924
framework	-3925
ssignment	-3926
▁Property	-3927
▁iterable	-3928
Assignment	-3929
Concurrent	-3930
NewBuiltin	-3931
floatValue	-3932
setDefault	-3933
▁directive	-3934
▁namedArgs	-3935
▁testClass	-3936
getAsNumber	-3937
getNodeName	-3938
itionalArgs	-3939
▁accessible	-3940
▁assertGlob	-3941
▁childCount	-3942
▁memberDesc	-3943
MethodSorter	-3944
Modification	-3945
▁PrintWriter	-3946
▁setTemplate	-3947
EncodingEquals	-3948
XMLOutputFormat	-3949
▁assertEqualsOn	-3950
▁assertResponse	-3951
AssignmentsStart	-3952
InvalidReference	-3953
ecurityUtilities	-3954
0,	-3955
0.	-3956
2}	-3957
BA	-3958
DD	-3959
El	-3960
IP	-3961
OW	-3962
ae	-3963
22.	-3964
ARD	-3965
Dis	-3966
LAY	-3967
Rel	-3968
Utf	-3969
]",	-3970
_1,	-3971
sax	-3972
tep	-3973
▁1]	-3974
(1),	-3975
ANDS	-3976
Bool	-3977
ORTH	-3978
Trim	-3979
Weak	-3980
buil	-3981
sort	-3982
▁1),	-3983
▁MAX	-3984
▁RTF	-3985
▁mod	-3986
▁tcf	-3987
(1000	-3988
Could	-3989
DELAY	-3990
Fails	-3991
Paren	-3992
Round	-3993
Upper	-3994
▁oper	-3995
EscIdx	-3996
closed	-3997
isting	-3998
lative	-3999
parsed	-4000
▁Alias	-4001
▁PARAM	-4002
▁built	-4003
▁recur	-4004
▁table	-4005
:30:00:	-4006
CommaSe	-4007
Current	-4008
NotNull	-4009
egative	-4010
noparse	-4011
varargs	-4012
▁legacy	-4013
▁tmArgs	-4014
00:00:00	-4015
IntExact	-4016
LICATION	-4017
ORTHANDS	-4018
PyObject	-4019
instance	-4020
▁VERSION	-4021
▁because	-4022
▁comment	-4023
▁correct	-4024
▁iterCtx	-4025
▁println	-4026
▁project	-4027
character	-4028
compareTo	-4029
isLiteral	-4030
▁FMParser	-4031
Reflection	-4032
StatusCode	-4033
▁Attribute	-4034
UpdateDelay	-4035
endarFields	-4036
getProperty	-4037
▁rightValue	-4038
ExternalForm	-4039
formatString	-4040
noSuchFormat	-4041
singletonMap	-4042
▁NonSequence	-4043
assertNonNull	-4044
getChildNodes	-4045
objectWrapper	-4046
▁CharSequence	-4047
CommaSeparated	-4048
▁deepCloneWith	-4049
IterationContext	-4050
StringLiteralEnc	-4051
/>	-4052
2:	-4053
36	-4054
KV	-4055
xD	-4056
003	-4057
500	-4058
6()	-4059
8()	-4060
9()	-4061
KVP	-4062
Man	-4063
OUT	-4064
Yes	-4065
ear	-4066
pri	-4067
tip	-4068
txt	-4069
}<#	-4070
▁va	-4071
ATIC	-4072
Init	-4073
pose	-4074
sced	-4075
usti	-4076
▁Web	-4077
▁sql	-4078
CENTS	-4079
camel	-4080
flush	-4081
▁2100	-4082
▁cust	-4083
▁setS	-4084
▁sort	-4085
Public	-4086
lookup	-4087
▁fixed	-4088
▁flush	-4089
▁justi	-4090
ACCENTS	-4091
BUILTIN	-4092
Loading	-4093
charset	-4094
parseXS	-4095
▁Parser	-4096
▁keySet	-4097
▁strict	-4098
AllParam	-4099
Bugfixed	-4100
CacheKey	-4101
Internal	-4102
ModelExc	-4103
_2_3_21,	-4104
emptyMap	-4105
ithmetic	-4106
listener	-4107
▁useTemp	-4108
DebugInfo	-4109
ErrorTips	-4110
Processor	-4111
exception	-4112
setLocale	-4113
▁getLocal	-4114
▁override	-4115
collection	-4116
toIntExact	-4117
UTCDateTime	-4118
getInstance	-4119
setTimeZone	-4120
▁methodName	-4121
▁offsetPart	-4122
getAsBoolean	-4123
getNamespace	-4124
▁HexTemplate	-4125
▁expectedOut	-4126
▁tldLocation	-4127
imalSeparator	-4128
singletonList	-4129
▁KeyValuePair	-4130
▁lastModified	-4131
BuildException	-4132
BuiltinEnabled	-4133
▁ArgumentTypes	-4134
▁assertNotSame	-4135
▁justification	-4136
StringMethodArg	-4137
getTemplateName	-4138
▁CalendarFields	-4139
▁stripWhitespace	-4140
▁useTempModelExc	-4141
3)	-4142
4(	-4143
AV	-4144
FR	-4145
Fr	-4146
It	-4147
OK	-4148
['	-4149
],	-4150
du	-4151
▁;	-4152
.__	-4153
0()	-4154
7()	-4155
AVA	-4156
ENG	-4157
MAP	-4158
__(	-4159
igu	-4160
rmi	-4161
xFD	-4162
yle	-4163
▁<@	-4164
▁nm	-4165
("",	-4166
Lang	-4167
PROP	-4168
Unit	-4169
bean	-4170
both	-4171
incM	-4172
sDef	-4173
sted	-4174
tips	-4175
very	-4176
▁-1.	-4177
▁CMP	-4178
▁LOC	-4179
▁The	-4180
▁isS	-4181
Buggy	-4182
Whole	-4183
Widen	-4184
YesNo	-4185
jaxen	-4186
lator	-4187
liant	-4188
mbigu	-4189
sProp	-4190
tract	-4191
unded	-4192
▁Path	-4193
▁flag	-4194
ANDARD	-4195
Arrays	-4196
DotIdx	-4197
ENGINE	-4198
IMPORT	-4199
addAll	-4200
bility	-4201
formal	-4202
pended	-4203
scheme	-4204
▁exten	-4205
▁junit	-4206
▁range	-4207
▁trans	-4208
▁visit	-4209
456789@	-4210
Escaped	-4211
Matches	-4212
NoMatch	-4213
NumType	-4214
_2_3_21	-4215
ystemId	-4216
▁equals	-4217
▁invoke	-4218
▁render	-4219
Appended	-4220
Constant	-4221
Language	-4222
UNCLOSED	-4223
setLocal	-4224
▁autoEsc	-4225
▁instead	-4226
Compliant	-4227
DebuggerS	-4228
inerParam	-4229
▁fallback	-4230
▁getClass	-4231
▁getSource	-4232
▁quotation	-4233
▁specified	-4234
WholeNumber	-4235
childBuffer	-4236
formattable	-4237
loopVarName	-4238
▁targetName	-4239
LastModified	-4240
ComponentType	-4241
MatchTemplate	-4242
NamesAppended	-4243
TemplateValue	-4244
▁toBigDecimal	-4245
ithmeticEngine	-4246
lableMemberDesc	-4247
setExposureLevel	-4248
▁calendarFactory	-4249
71	-4250
75	-4251
>}	-4252
AF	-4253
(0.	-4254
)),	-4255
4",	-4256
MSG	-4257
Min	-4258
SLF	-4259
aaz	-4260
dot	-4261
ill	-4262
ive	-4263
}";	-4264
▁'&	-4265
▁ci	-4266
0001	-4267
;");	-4268
LVER	-4269
STEM	-4270
THAN	-4271
cbuf	-4272
copy	-4273
isor	-4274
ival	-4275
lame	-4276
▁Jar	-4277
▁Pro	-4278
▁Rmi	-4279
▁fix	-4280
▁tdi	-4281
Chars	-4282
Scale	-4283
epoch	-4284
tries	-4285
}'}",	-4286
▁".",	-4287
▁"2",	-4288
▁conf	-4289
("${\"	-4290
('<');	-4291
000000	-4292
Params	-4293
RelURL	-4294
UPDATE	-4295
WithTC	-4296
[0-9]{	-4297
argIdx	-4298
jython	-4299
▁Dummy	-4300
DirPath	-4301
Pointer	-4302
RootDir	-4303
ational	-4304
ivalent	-4305
ization	-4306
oftSize	-4307
pattern	-4308
▁domain	-4309
▁length	-4310
Capacity	-4311
NumTypeC	-4312
PROPERTY	-4313
RESOLVER	-4314
Required	-4315
TopLevel	-4316
polation	-4317
position	-4318
response	-4319
▁Adapter	-4320
AndWithTC	-4321
Sequences	-4322
getActual	-4323
noAutoEsc	-4324
▁intValue	-4325
▁opString	-4326
▁resolver	-4327
ELResolver	-4328
Unexpected	-4329
▁extension	-4330
▁isLiteral	-4331
APPLICATION	-4332
ArrayEquals	-4333
ShadowItems	-4334
getNodeType	-4335
mitiveClass	-4336
sEquivalent	-4337
▁Concurrent	-4338
▁Properties	-4339
▁"2014-07-11	-4340
▁"2014-07-12	-4341
AdaptedObject	-4342
▁NumberFormat	-4343
SimpleSequence	-4344
▁LinkedHashMap	-4345
▁ignoreMissing	-4346
▁positionalArgs	-4347
PointerException	-4348
WithoutAndWithTC	-4349
plainTextContent	-4350
▁unwrappingHints	-4351
']	-4352
.<	-4353
/#	-4354
LU	-4355
Pr	-4356
hu	-4357
-09	-4358
677	-4359
721	-4360
ARE	-4361
BOD	-4362
Src	-4363
\",	-4364
ess	-4365
ich	-4366
ush	-4367
▁em	-4368
▁tw	-4369
("0.	-4370
("@@	-4371
9999	-4372
BODY	-4373
Cast	-4374
Head	-4375
LINE	-4376
ONSE	-4377
RESP	-4378
TDFS	-4379
UARE	-4380
\\\\	-4381
data	-4382
ider	-4383
▁URI	-4384
▁fil	-4385
▁raw	-4386
Suite	-4387
UMENT	-4388
Wrong	-4389
flags	-4390
input	-4391
lated	-4392
latin	-4393
▁1..3	-4394
▁tags	-4395
677721	-4396
CACHED	-4397
Sorted	-4398
GERMANY	-4399
PrimAll	-4400
URATION	-4401
getTime	-4402
session	-4403
yObject	-4404
▁Legacy	-4405
AsStream	-4406
BoxedAll	-4407
RESPONSE	-4408
▁Unknown	-4409
▁addWith	-4410
▁newLine	-4411
▁resolve	-4412
Assertion	-4413
FromCache	-4414
getSystem	-4415
separator	-4416
▁bugfixed	-4417
InTemplate	-4418
Registered	-4419
SHORTHANDS	-4420
SeqToArray	-4421
paramCount	-4422
▁transient	-4423
AndSequence	-4424
AutoImports	-4425
ChildBuffer	-4426
Descriptors	-4427
▁DebugModel	-4428
▁LinkedList	-4429
▁SimpleDate	-4430
▁winerParam	-4431
NotSupported	-4432
▁libraryEnum	-4433
▁stringValue	-4434
CastException	-4435
OutputFormats	-4436
ationalNumber	-4437
▁NodeOperator	-4438
▁columnNumber	-4439
templateLoader	-4440
▁Unformattable	-4441
▁instanceCache	-4442
ServletException	-4443
▁DoubleOrInteger	-4444
><	-4445
DC	-4446
DT	-4447
GN	-4448
Ns	-4449
SU	-4450
ll	-4451
va	-4452
("?	-4453
ARG	-4454
Des	-4455
Hex	-4456
LOB	-4457
ONG	-4458
Run	-4459
ici	-4460
led	-4461
▁""	-4462
▁No	-4463
▁ab	-4464
▁bd	-4465
▁by	-4466
▁id	-4467
▁mc	-4468
▁pi	-4469
▁pn	-4470
'><#	-4471
1000	-4472
3");	-4473
DATA	-4474
EVAL	-4475
JAVA	-4476
Than	-4477
Vars	-4478
keep	-4479
prop	-4480
ters	-4481
vial	-4482
▁inf	-4483
▁stl	-4484
▁tok	-4485
'>${'	-4486
20030	-4487
Begin	-4488
Group	-4489
ToEsc	-4490
WRONG	-4491
field	-4492
named	-4493
visit	-4494
xhtml	-4495
▁Misc	-4496
▁back	-4497
▁full	-4498
▁into	-4499
▁resp	-4500
▁tccl	-4501
AndFTL	-4502
InName	-4503
METHOD	-4504
Reason	-4505
Restri	-4506
Single	-4507
Unsafe	-4508
WebApp	-4509
concat	-4510
curity	-4511
gnized	-4512
itored	-4513
▁empty	-4514
Allowed	-4515
Attempt	-4516
JarFile	-4517
▁20008;	-4518
▁dstIdx	-4519
▁expose	-4520
▁varArg	-4521
NodeList	-4522
StackTop	-4523
TypeName	-4524
[0-9]{2}	-4525
getYesNo	-4526
onitored	-4527
previous	-4528
tentType	-4529
ualified	-4530
▁Wrapper	-4531
▁tabSize	-4532
NsVarName	-4533
Timestamp	-4534
UpperCase	-4535
▁endNames	-4536
▁failWith	-4537
-8859-1");	-4538
Arithmetic	-4539
FormatUtil	-4540
JarContent	-4541
namespaces	-4542
ttpRequest	-4543
▁Transform	-4544
▁recursion	-4545
▁transform	-4546
HttpSession	-4547
beginColumn	-4548
▁DateFormat	-4549
▁cachedTemp	-4550
▁lineNumber	-4551
AndFunctions	-4552
SettingNames	-4553
isWhitespace	-4554
▁HttpSession	-4555
▁targetModel	-4556
ClassNotFound	-4557
NestedContent	-4558
evalAndCoerce	-4559
▁templatePath	-4560
▁webAppRelURL	-4561
VersionAdapter	-4562
▁AliasTemplate	-4563
▁TemplateCache	-4564
getCacheStorage	-4565
▁BuildException	-4566
▁TemplateObject	-4567
(4	-4568
].	-4569
pd	-4570
▁N	-4571
("[	-4572
('.	-4573
Foo	-4574
LIB	-4575
Lim	-4576
MIL	-4577
Pad	-4578
Rem	-4579
Sep	-4580
Zip	-4581
alf	-4582
hex	-4583
ier	-4584
vai	-4585
▁+0	-4586
▁dm	-4587
▁we	-4588
(-1,	-4589
(2);	-4590
5");	-4591
Frac	-4592
Less	-4593
Rome	-4594
URCE	-4595
coll	-4596
show	-4597
trip	-4598
used	-4599
word	-4600
▁0.9	-4601
▁100	-4602
▁TLD	-4603
▁isn	-4604
▁thm	-4605
(2000	-4606
:00",	-4607
Colle	-4608
Frame	-4609
Limit	-4610
Outer	-4611
Owned	-4612
Regex	-4613
Scope	-4614
infin	-4615
slash	-4616
stack	-4617
▁Hash	-4618
▁like	-4619
▁plus	-4620
CUSTOM	-4621
OrTime	-4622
dstIdx	-4623
esting	-4624
getUse	-4625
laming	-4626
public	-4627
sDefTZ	-4628
strict	-4629
▁Inter	-4630
▁nodes	-4631
COMMENT	-4632
PERATOR	-4633
Started	-4634
comment	-4635
strings	-4636
▁CACHED	-4637
▁before	-4638
EXTENDED	-4639
HexDigit	-4640
MSString	-4641
XHTMLEnc	-4642
uspended	-4643
variable	-4644
▁1..3>${	-4645
▁getJava	-4646
▁jFormat	-4647
▁locator	-4648
CacheSize	-4649
Collector	-4650
OrBoolean	-4651
arguments	-4652
dataModel	-4653
DelayedFTL	-4654
MapAdapter	-4655
Privileged	-4656
SimpleHash	-4657
ToStringOr	-4658
javascript	-4659
lowNoMatch	-4660
registered	-4661
ListAdapter	-4662
StaticField	-4663
isPrimitive	-4664
▁MaybeEmpty	-4665
▁TldParsing	-4666
▁checkClass	-4667
PrefixLookup	-4668
StringReader	-4669
StrongWinCnt	-4670
▁Constructor	-4671
▁Enumeration	-4672
▁builtInName	-4673
▁loopVarName	-4674
CONFIGURATION	-4675
DataCollector	-4676
DateException	-4677
▁getAsBoolean	-4678
▁getNamespace	-4679
▁numberFormat	-4680
UnexpectedType	-4681
primitiveClass	-4682
▁FileExtension	-4683
▁createDefault	-4684
▁outputContent	-4685
DebuggerService	-4686
MissingTemplate	-4687
▁assertExpected	-4688
▁getDescription	-4689
▁outputEncoding	-4690
namingConvention	-4691
#{	-4692
):	-4693
8.	-4694
DA	-4695
Em	-4696
][	-4697
aN	-4698
bd	-4699
ff	-4700
('"	-4701
(4,	-4702
*10	-4703
00,	-4704
COL	-4705
LDT	-4706
MUL	-4707
Spi	-4708
Try	-4709
UND	-4710
_1.	-4711
_2.	-4712
ask	-4713
cho	-4714
dow	-4715
iew	-4716
msg	-4717
old	-4718
▁'-	-4719
▁EL	-4720
▁br	-4721
▁hu	-4722
▁sh	-4723
▁tk	-4724
)");	-4725
2321	-4726
Flag	-4727
LESS	-4728
Open	-4729
REAK	-4730
RENT	-4731
[0];	-4732
ager	-4733
attr	-4734
cted	-4735
info	-4736
mote	-4737
open	-4738
pass	-4739
tick	-4740
▁").	-4741
▁'0'	-4742
▁'\\	-4743
▁Not	-4744
▁div	-4745
▁per	-4746
▁tdm	-4747
ANGLE	-4748
AsInt	-4749
Clean	-4750
INCLU	-4751
Milli	-4752
SHORT	-4753
ToInt	-4754
ZEROS	-4755
ables	-4756
ccess	-4757
getID	-4758
resol	-4759
unter	-4760
verse	-4761
vider	-4762
▁Soft	-4763
▁info	-4764
▁intN	-4765
▁vars	-4766
▁will	-4767
AMETER	-4768
STATIC	-4769
argCnt	-4770
elseif	-4771
loader	-4772
modifi	-4773
webApp	-4774
▁VALUE	-4775
▁buggy	-4776
▁cList	-4777
▁esced	-4778
▁mChar	-4779
▁valid	-4780
FACTORY	-4781
XMLEncN	-4782
autoesc	-4783
bounded	-4784
content	-4785
ingMode	-4786
noParse	-4787
varName	-4788
▁getEnd	-4789
▁inside	-4790
▁tested	-4791
TreeNode	-4792
document	-4793
escaping	-4794
security	-4795
▁Context	-4796
▁entries	-4797
▁mString	-4798
▁stackEl	-4799
▁support	-4800
CLASSPATH	-4801
Copyright	-4802
FormatStr	-4803
NameCData	-4804
Outputter	-4805
StringEnc	-4806
TaglibUri	-4807
erceModel	-4808
omEscaped	-4809
paramName	-4810
undefined	-4811
▁Identity	-4812
▁TestCase	-4813
▁tagClass	-4814
AutoImport	-4815
COLLECTION	-4816
Formatting	-4817
ParamCount	-4818
Undeclared	-4819
XSDateTime	-4820
▁Monitored	-4821
▁assertISO	-4822
▁dateClass	-4823
▁defaultTZ	-4824
Millisecond	-4825
NONINTEGERS	-4826
PrintWriter	-4827
ixedContent	-4828
▁Assignment	-4829
▁instanceOf	-4830
▁modelCache	-4831
▁paramCount	-4832
▁testCustom	-4833
▁webAppName	-4834
SimpleNumber	-4835
mStringArray	-4836
▁EmptyMember	-4837
▁PageContext	-4838
▁numberModel	-4839
DoubleOrFloat	-4840
HashException	-4841
PrimParamType	-4842
parameterName	-4843
▁cacheStorage	-4844
▁mStringArray	-4845
RTFOutputModel	-4846
▁booleanFormat	-4847
▁expectedTypes	-4848
▁parameterName	-4849
DateFormatArray	-4850
DocumentBuilder	-4851
WithoutStackTop	-4852
getMarkupString	-4853
hasMoreElements	-4854
▁formatLocation	-4855
▁IdentityHashMap	-4856
▁UnknownDateType	-4857
▁XMLOutputFormat	-4858
▁getOutputFormat	-4859
▁getSourceNumber	-4860
AB	-4861
CK	-4862
HH	-4863
LY	-4864
RU	-4865
[1	-4866
]\	-4867
dd	-4868
fz	-4869
gr	-4870
kg	-4871
'))	-4872
)",	-4873
1),	-4874
15:	-4875
AIN	-4876
ERV	-4877
ICT	-4878
Per	-4879
SES	-4880
Sto	-4881
_2,	-4882
fic	-4883
mod	-4884
sep	-4885
▁))	-4886
▁16	-4887
▁2:	-4888
▁ST	-4889
▁cs	-4890
▁pp	-4891
$\\{	-4892
("<@	-4893
0");	-4894
BASE	-4895
BYTE	-4896
LOOK	-4897
NOTH	-4898
ONLY	-4899
Soft	-4900
Tags	-4901
UNWR	-4902
bugs	-4903
oded	-4904
oted	-4905
pars	-4906
ulty	-4907
}${'	-4908
}</@	-4909
▁"")	-4910
▁"1.	-4911
▁":"	-4912
▁dis	-4913
▁tsm	-4914
▁wri	-4915
("1",	-4916
ACTER	-4917
ATIVE	-4918
Beans	-4919
CDATA	-4920
CanBe	-4921
FORCE	-4922
Javax	-4923
LOBAL	-4924
OrSqu	-4925
Props	-4926
Stops	-4927
queue	-4928
thing	-4929
wrong	-4930
▁Iter	-4931
▁cbuf	-4932
▁data	-4933
▁echo	-4934
▁hint	-4935
▁lazy	-4936
Ambigu	-4937
Existe	-4938
Expted	-4939
Groups	-4940
LOOKUP	-4941
Remote	-4942
TAGLIB	-4943
Tester	-4944
UNWRAP	-4945
▁least	-4946
▁using	-4947
(20008,	-4948
0000009	-4949
Already	-4950
AppMeta	-4951
NOTHING	-4952
Trivial	-4953
UNCTION	-4954
culated	-4955
endLine	-4956
ficulty	-4957
getAuto	-4958
mNumber	-4959
ongSize	-4960
reInput	-4961
unknown	-4962
▁Unpars	-4963
▁called	-4964
▁opened	-4965
▁remote	-4966
▁scheme	-4967
▁sorted	-4968
angOrSqu	-4969
noEscape	-4970
noescape	-4971
odedName	-4972
▁CONTENT	-4973
▁UNKNOWN	-4974
▁already	-4975
▁mNumber	-4976
Cacheable	-4977
Existence	-4978
LineIndex	-4979
Regulated	-4980
Roundtrip	-4981
Specified	-4982
Unbounded	-4983
condition	-4984
htmlPlain	-4985
▁MiscUtil	-4986
▁OPERATOR	-4987
▁baseName	-4988
▁constant	-4989
▁listItem	-4990
▁loopVars	-4991
▁trailing	-4992
AsProperty	-4993
DelayedGet	-4994
RangeModel	-4995
Substrings	-4996
isInstance	-4997
recognized	-4998
toHexDigit	-4999
▁Assertion	-5000
▁BeanModel	-5001
▁ByteArray	-5002
▁dateModel	-5003
▁nullModel	-5004
▁substring	-5005
▁unwrapper	-5006
LDateOrTime	-5007
LocaleBound	-5008
ynamicValue	-5009
▁Arithmetic	-5010
▁Unparsable	-5011
DOMNodeModel	-5012
LoopVariable	-5013
NullArgument	-5014
OrCollection	-5015
URLException	-5016
getNodeValue	-5017
ualifiedName	-5018
▁ContentType	-5019
▁setChildren	-5020
TemplatePaths	-5021
componentType	-5022
templateSource	-5023
▁catchAllParam	-5024
DoubleOrInteger	-5025
LanguageVersion	-5026
TemplateLoading	-5027
setExposeFields	-5028
▁RationalNumber	-5029
▁appendTypeName	-5030
▁getChildBuffer	-5031
FactoryException	-5032
RuntimeException	-5033
etaInfTldSources	-5034
getConfiguration	-5035
▁PathGlobMatcher	-5036
▁StringTokenizer	-5037
1?	-5038
>(	-5039
@'	-5040
FT	-5041
HO	-5042
_3	-5043
dc	-5044
("{	-5045
(0)	-5046
)";	-5047
ELE	-5048
Ext	-5049
ICI	-5050
NaN	-5051
OID	-5052
POS	-5053
ROW	-5054
bet	-5055
dif	-5056
isS	-5057
run	-5058
sum	-5059
tra	-5060
vok	-5061
▁')	-5062
▁'.	-5063
▁60	-5064
▁cf	-5065
▁db	-5066
("*.	-5067
*10<	-5068
---\	-5069
2.3.	-5070
Conv	-5071
DESC	-5072
PLUS	-5073
Remo	-5074
SENS	-5075
\\\"	-5076
baaz	-5077
beta	-5078
dump	-5079
eeds	-5080
enum	-5081
ures	-5082
▁"--	-5083
▁"."	-5084
▁1];	-5085
▁CUR	-5086
▁ici	-5087
▁utf	-5088
')}",	-5089
HasNo	-5090
MINUS	-5091
Mixed	-5092
Print	-5093
Style	-5094
_1));	-5095
annot	-5096
blame	-5097
cList	-5098
ctype	-5099
found	-5100
ivide	-5101
names	-5102
noEsc	-5103
sSame	-5104
▁Body	-5105
▁DEPR	-5106
▁TIME	-5107
▁Text	-5108
▁VOID	-5109
▁Weak	-5110
▁html	-5111
▁loop	-5112
▁unit	-5113
▁warn	-5114
Cached	-5115
Change	-5116
Frames	-5117
LOCALE	-5118
Script	-5119
aching	-5120
ensure	-5121
erging	-5122
joArgs	-5123
ptions	-5124
▁First	-5125
▁longN	-5126
GetSize	-5127
NamesLn	-5128
baseDir	-5129
dirPath	-5130
▁LOCALE	-5131
▁delete	-5132
▁search	-5133
▁server	-5134
Collator	-5135
POSITIVE	-5136
getIndex	-5137
▁CURRENT	-5138
▁divisor	-5139
▁include	-5140
▁specify	-5141
▁testSet	-5142
Container	-5143
ConvPrice	-5144
DateToISO	-5145
NTemplate	-5146
PARAMETER	-5147
SENSITIVE	-5148
_2_3_21).	-5149
nextToken	-5150
taglibUri	-5151
▁Instanti	-5152
▁propDesc	-5153
▁testList	-5154
MemberDesc	-5155
MethodName	-5156
concurrent	-5157
modifiable	-5158
sourceName	-5159
webAppName	-5160
whitespace	-5161
▁tagSyntax	-5162
JavaxAndFTL	-5163
WarnEnabled	-5164
WithGetSize	-5165
getChildren	-5166
▁Invocation	-5167
▁escapeType	-5168
▁parseAsFTL	-5169
DocumentType	-5170
JspException	-5171
▁ClassLoader	-5172
▁correctName	-5173
▁getChildren	-5174
▁newTemplate	-5175
FormatStrings	-5176
InitParameter	-5177
ustedTemplate	-5178
▁INCOMPATIBLE	-5179
▁namespaceExp	-5180
TemplateOutput	-5181
▁taglibFactory	-5182
CaseInsensitive	-5183
XSDateTimesSame	-5184
▁CallableMember	-5185
▁CombinedMarkup	-5186
▁cDataCollector	-5187
OverrideResponse	-5188
SupportedBuiltIn	-5189
setObjectWrapper	-5190
▁RTFOutputFormat	-5191
1}	-5192
4)	-5193
5(	-5194
:"	-5195
;&	-5196
={	-5197
>[	-5198
DI	-5199
EM	-5200
TP	-5201
UO	-5202
Vs	-5203
ZY	-5204
dr	-5205
fG	-5206
tk	-5207
.";	-5208
230	-5209
6",	-5210
900	-5211
:59	-5212
ANY	-5213
ARK	-5214
Div	-5215
Doc	-5216
Dow	-5217
Mis	-5218
NEW	-5219
OSS	-5220
RND	-5221
abi	-5222
api	-5223
dtd	-5224
ful	-5225
pkg	-5226
pts	-5227
the	-5228
umd	-5229
uot	-5230
▁11	-5231
▁=>	-5232
▁BU	-5233
▁NO	-5234
'));	-5235
("</	-5236
2324	-5237
:15:	-5238
Acqu	-5239
BEAN	-5240
CANT	-5241
Disp	-5242
HTTP	-5243
IBLE	-5244
LAZY	-5245
Main	-5246
Must	-5247
Norm	-5248
TIES	-5249
avig	-5250
call	-5251
link	-5252
must	-5253
ools	-5254
quot	-5255
uery	-5256
utes	-5257
zone	-5258
▁"),	-5259
▁Pri	-5260
▁STD	-5261
▁cmp	-5262
▁edu	-5263
▁ent	-5264
▁had	-5265
▁jsp	-5266
▁nss	-5267
▁run	-5268
▁wor	-5269
PTION	-5270
ToReg	-5271
after	-5272
etail	-5273
etter	-5274
ilter	-5275
imals	-5276
merge	-5277
ocket	-5278
ticky	-5279
under	-5280
▁"${'	-5281
▁Base	-5282
▁\"",	-5283
▁hour	-5284
▁http	-5285
▁wasn	-5286
:15:24	-5287
Acquis	-5288
ArgCnt	-5289
ERRORS	-5290
IMPOSS	-5291
RTFEnc	-5292
Tokens	-5293
exists	-5294
scored	-5295
subpkg	-5296
▁"2015	-5297
▁Range	-5298
▁force	-5299
▁widen	-5300
("0.0;;	-5301
CharsTo	-5302
Counter	-5303
Details	-5304
Getting	-5305
IMPORTS	-5306
ToEmpty	-5307
Visible	-5308
ability	-5309
attempt	-5310
emulate	-5311
history	-5312
▁STRICT	-5313
▁divide	-5314
▁fixArg	-5315
▁pClass	-5316
▁ranges	-5317
▁shared	-5318
▁signum	-5319
11:30:05	-5320
Compress	-5321
Includes	-5322
Modifier	-5323
avigator	-5324
findbugs	-5325
infinity	-5326
register	-5327
systemId	-5328
testCase	-5329
ultipier	-5330
▁checkIf	-5331
▁escaped	-5332
▁getText	-5333
▁specVar	-5334
Ambiguous	-5335
Interface	-5336
SimpleTag	-5337
ToRegular	-5338
TypeError	-5339
_2_3_24);	-5340
getOffset	-5341
ignatures	-5342
positions	-5343
transform	-5344
▁MruEntry	-5345
▁Wrapping	-5346
▁angOrSqu	-5347
▁contLine	-5348
▁currency	-5349
▁nodeName	-5350
▁register	-5351
(0.0000009	-5352
Accessible	-5353
Descendant	-5354
Dispatcher	-5355
FracDigits	-5356
IMPOSSIBLE	-5357
Modifiable	-5358
Namespaces	-5359
PROPERTIES	-5360
getVersion	-5361
izedTarget	-5362
memberDesc	-5363
▁JspWriter	-5364
▁getWriter	-5365
▁leftValue	-5366
▁signature	-5367
▁stopIndex	-5368
Acquisition	-5369
FTLTopLevel	-5370
LazyImports	-5371
annotations	-5372
▁JspContext	-5373
▁MultiModel	-5374
▁NullWriter	-5375
▁attributes	-5376
▁groupToInt	-5377
EqualsOutput	-5378
ErrorEnabled	-5379
MapOrBoolean	-5380
Milliseconds	-5381
StaticFields	-5382
getParameter	-5383
howErrorTips	-5384
namespaceExp	-5385
▁enumeration	-5386
▁getMimeType	-5387
Interpolation	-5388
LinkedHashMap	-5389
LookupContext	-5390
OuterIdentity	-5391
▁JavaTemplate	-5392
▁roundingMode	-5393
▁toBigInteger	-5394
▁xpathSupport	-5395
ergingTemplate	-5396
▁TaglibFactory	-5397
▁getChildCount	-5398
▁unwrappedArgs	-5399
EscapingCharset	-5400
getSettingNames	-5401
▁dateTimeFormat	-5402
▁recursionStops	-5403
StrictSyntaxMode	-5404
getParentElement	-5405
▁assertRoundtrip	-5406
▁checkModifiable	-5407
!'	-5408
09	-5409
5.	-5410
6(	-5411
8_	-5412
:/	-5413
MI	-5414
]]	-5415
oe	-5416
su	-5417
};	-5418
▁8	-5419
-06	-5420
-12	-5421
.5,	-5422
001	-5423
2.3	-5424
5",	-5425
CMP	-5426
DOC	-5427
Dif	-5428
ELD	-5429
Mru	-5430
TIC	-5431
TOM	-5432
div	-5433
idn	-5434
moz	-5435
ret	-5436
slf	-5437
unc	-5438
▁':	-5439
▁'_	-5440
▁MO	-5441
▁SH	-5442
▁ag	-5443
▁md	-5444
("1_	-5445
*"),	-5446
>${'	-5447
>${.	-5448
Does	-5449
Fail	-5450
Fast	-5451
OPER	-5452
PAGE	-5453
When	-5454
]');	-5455
etty	-5456
getP	-5457
lati	-5458
lian	-5459
lier	-5460
mail	-5461
pare	-5462
tten	-5463
▁"-1	-5464
▁${.	-5465
▁bit	-5466
2"));	-5467
ARITH	-5468
Based	-5469
ByFmt	-5470
FIELD	-5471
Infos	-5472
METIC	-5473
MILLI	-5474
Maybe	-5475
NEVER	-5476
ORTED	-5477
Paths	-5478
Trimm	-5479
Until	-5480
block	-5481
edFtl	-5482
exten	-5483
idden	-5484
licit	-5485
mChar	-5486
mbols	-5487
split	-5488
▁"1",	-5489
▁"1.5	-5490
▁'\\'	-5491
▁-1);	-5492
▁ATTR	-5493
▁META	-5494
▁bidx	-5495
▁comm	-5496
▁ctor	-5497
▁expr	-5498
▁push	-5499
('"');	-5500
999999	-5501
Couldn	-5502
Create	-5503
Letter	-5504
SYSTEM	-5505
\""));	-5506
elseIf	-5507
latile	-5508
logger	-5509
preted	-5510
voking	-5511
▁1)));	-5512
▁Break	-5513
▁Error	-5514
▁SCOPE	-5515
▁chunk	-5516
▁dummy	-5517
▁maybe	-5518
▁setup	-5519
DISABLE	-5520
INCLUDE	-5521
Logging	-5522
OMOrStr	-5523
OPERAND	-5524
UTCTime	-5525
XPathEx	-5526
builtin	-5527
commons	-5528
execute	-5529
getLast	-5530
getRoot	-5531
ncestor	-5532
project	-5533
wrapped	-5534
▁endIdx	-5535
▁errMsg	-5536
▁findIn	-5537
▁srcDir	-5538
Abstract	-5539
Buffered	-5540
ByFmtStr	-5541
LOCATION	-5542
MapModel	-5543
Negative	-5544
OfObject	-5545
UnwrapTo	-5546
ingClass	-5547
ingleton	-5548
tectable	-5549
▁Setting	-5550
▁cfgable	-5551
▁invalid	-5552
▁testAST	-5553
15:30:00.	-5554
CHARACTER	-5555
Constants	-5556
ELContext	-5557
Evaluator	-5558
OrMatcher	-5559
Trimmable	-5560
dateModel	-5561
enericGet	-5562
unwrapped	-5563
xingClass	-5564
▁PyObject	-5565
▁Response	-5566
▁assertMO	-5567
▁entrySet	-5568
▁existing	-5569
▁paramIdx	-5570
▁valueExp	-5571
▁volatile	-5572
ARITHMETIC	-5573
Controller	-5574
DebugInfos	-5575
FileSystem	-5576
NullWriter	-5577
REFLECTION	-5578
attributes	-5579
childCount	-5580
htmlMarkup	-5581
paramTypes	-5582
sharedLock	-5583
▁buildDate	-5584
▁firstChar	-5585
▁listeners	-5586
InfoEnabled	-5587
PyException	-5588
aeCompliant	-5589
getDocument	-5590
nextElement	-5591
▁initialize	-5592
▁registered	-5593
AttemptBlock	-5594
BaseEntryUrl	-5595
ErrorDetails	-5596
FallbackType	-5597
templatePath	-5598
▁HttpRequest	-5599
▁beginColumn	-5600
ByFmtStrArray	-5601
CaseSensitive	-5602
DecisionInput	-5603
SourceMatcher	-5604
exposesFields	-5605
exposesUnsafe	-5606
getParamTypes	-5607
hasMoreTokens	-5608
▁doConversion	-5609
▁newMethodArg	-5610
GlobalVariable	-5611
InitParamValue	-5612
cludedTemplate	-5613
exposesMethods	-5614
▁endLineNumber	-5615
▁evalToBoolean	-5616
▁isLocaleBound	-5617
AppMetaTemplate	-5618
SharedVariables	-5619
parseXSTimeZone	-5620
printStackTrace	-5621
setTemplateName	-5622
▁AssertionError	-5623
▁roundingPolicy	-5624
▁useAdaptersFor	-5625
OrTemplateOutput	-5626
TrimmableToEmpty	-5627
findTemplatePath	-5628
▁MethodSignature	-5629
▁endColumnNumber	-5630
▁trustedTemplate	-5631
)(	-5632
./	-5633
37	-5634
6)	-5635
60	-5636
Mf	-5637
gh	-5638
ph	-5639
ts	-5640
we	-5641
}"	-5642
}-	-5643
(1.	-5644
-6,	-5645
<?,	-5646
ALF	-5647
ERT	-5648
JSP	-5649
LET	-5650
LOW	-5651
PRI	-5652
RTE	-5653
SUB	-5654
Ste	-5655
YTH	-5656
[/#	-5657
\\.	-5658
cis	-5659
lan	-5660
non	-5661
pti	-5662
raw	-5663
tok	-5664
▁"_	-5665
▁';	-5666
▁'>	-5667
▁07	-5668
▁09	-5669
▁19	-5670
▁Ju	-5671
▁dt	-5672
▁fm	-5673
▁sy	-5674
▁|=	-5675
Cant	-5676
FFER	-5677
HALF	-5678
Keys	-5679
PART	-5680
STER	-5681
Task	-5682
Term	-5683
Then	-5684
VERY	-5685
illa	-5686
ipIn	-5687
oned	-5688
only	-5689
span	-5690
xAAB	-5691
▁"10	-5692
▁3);	-5693
▁API	-5694
▁Loc	-5695
▁TIP	-5696
▁enc	-5697
'>");	-5698
.*"),	-5699
Catch	-5700
DISCO	-5701
Final	-5702
JUnit	-5703
ROUND	-5704
Steps	-5705
YTHON	-5706
_2));	-5707
arted	-5708
inary	-5709
liber	-5710
orage	-5711
qname	-5712
sOnly	-5713
▁LAZY	-5714
▁LONG	-5715
▁orig	-5716
▁post	-5717
▁than	-5718
-01-02	-5719
../../	-5720
Blamed	-5721
Cannot	-5722
ERVLET	-5723
Exists	-5724
INSTRU	-5725
InfPer	-5726
LibJar	-5727
Macros	-5728
SOURCE	-5729
ToFile	-5730
asList	-5731
etical	-5732
getEnd	-5733
getFor	-5734
ignore	-5735
istent	-5736
retval	-5737
runner	-5738
server	-5739
▁"1");	-5740
▁"2010	-5741
▁Print	-5742
▁Round	-5743
▁exact	-5744
▁heeds	-5745
▁qname	-5746
▁query	-5747
▁scale	-5748
▁there	-5749
▁xmlns	-5750
6777216	-5751
ELEMENT	-5752
ListPre	-5753
Manager	-5754
OwnedBy	-5755
Postfix	-5756
RunWith	-5757
TipsLen	-5758
Unresol	-5759
Visitor	-5760
example	-5761
mozilla	-5762
setAuto	-5763
tabSize	-5764
ttenEnd	-5765
▁Arrays	-5766
▁CUSTOM	-5767
▁Julian	-5768
▁Member	-5769
▁applic	-5770
▁bwConf	-5771
▁fields	-5772
▁global	-5773
▁reason	-5774
▁status	-5775
▁tzRome	-5776
▁wrongx	-5777
FUNCTION	-5778
JarEntry	-5779
ParamCnt	-5780
Relative	-5781
SystemId	-5782
Terminal	-5783
WritePro	-5784
ancestor	-5785
configur	-5786
getLocal	-5787
sPropVal	-5788
vailable	-5789
xmlPlain	-5790
▁FACTORY	-5791
▁endLine	-5792
▁escapes	-5793
▁leftExp	-5794
▁partStr	-5795
▁storage	-5796
-8859-2",	-5797
CallPlace	-5798
DISCOVERY	-5799
ForPrefix	-5800
JspWriter	-5801
_2_3_19);	-5802
_2_3_23);	-5803
camelCase	-5804
defaultNS	-5805
emptyList	-5806
endColumn	-5807
lineIndex	-5808
noSuchVar	-5809
▁Function	-5810
▁testFrom	-5811
CantFormat	-5812
DebugModel	-5813
EnumModels	-5814
JspFactory	-5815
normalized	-5816
▁07:30:00:	-5817
▁beginLine	-5818
▁entryPath	-5819
▁extraInfo	-5820
▁getMember	-5821
▁nodeModel	-5822
▁operation	-5823
ASTAsString	-5824
DescBuilder	-5825
Descendants	-5826
HeaderValue	-5827
INSTRUCTION	-5828
InputSource	-5829
LocaleUtils	-5830
VisitorNode	-5831
ationFailed	-5832
introspData	-5833
mpatibility	-5834
numberModel	-5835
targetClass	-5836
targetModel	-5837
▁normalized	-5838
▁whitespace	-5839
CharsToStrip	-5840
DoubleOrLong	-5841
InfPerLibJar	-5842
LessSpecific	-5843
TerminalNode	-5844
setTagSyntax	-5845
▁assertCanBe	-5846
▁contextNode	-5847
▁getAsNumber	-5848
▁getNodeName	-5849
▁setLocation	-5850
NoSuchElement	-5851
PostProcessor	-5852
booleanFormat	-5853
modelToNumber	-5854
toFTLTopLevel	-5855
viderIdentity	-5856
▁Constructors	-5857
▁FileNotFound	-5858
▁ImmutableMap	-5859
▁NonNumerical	-5860
▁configurable	-5861
▁getAttribute	-5862
▁setAttribute	-5863
CalendarFields	-5864
ExpectedOutput	-5865
InitializedRTE	-5866
ModelFactories	-5867
gedEnvironment	-5868
▁BaseNTemplate	-5869
▁LoggerFactory	-5870
▁assertUsesNew	-5871
▁exposureLevel	-5872
▁parentElement	-5873
OutputCacheable	-5874
RemoteException	-5875
separatorString	-5876
setCacheStorage	-5877
▁getDescendants	-5878
▁writeProtected	-5879
WriteProtectable	-5880
createProcessing	-5881
decimalSeparator	-5882
getMarkupContent	-5883
▁AppMetaTemplate	-5884
▁assertNotEquals	-5885
▁basePackagePath	-5886
->	-5887
1:	-5888
48	-5889
Er	-5890
FM	-5891
NC	-5892
nz	-5893
tz	-5894
xy	-5895
--)	-5896
.09	-5897
.@@	-5898
ACK	-5899
AOr	-5900
BED	-5901
Bar	-5902
But	-5903
ENV	-5904
Ent	-5905
Err	-5906
INS	-5907
SON	-5908
SUP	-5909
TMP	-5910
UID	-5911
ULL	-5912
\\}	-5913
ero	-5914
hin	-5915
ica	-5916
ood	-5917
sIn	-5918
▁'<	-5919
▁'{	-5920
▁/>	-5921
▁22	-5922
▁3)	-5923
▁>>	-5924
▁?>	-5925
▁Se	-5926
▁Th	-5927
▁ls	-5928
▁py	-5929
▁so	-5930
▁ss	-5931
")),	-5932
'");	-5933
('\\	-5934
.06.	-5935
1}",	-5936
:");	-5937
CESS	-5938
Coer	-5939
GEXP	-5940
LENG	-5941
Note	-5942
OFFS	-5943
PCfg	-5944
SUPP	-5945
aten	-5946
full	-5947
hino	-5948
need	-5949
otal	-5950
plit	-5951
qual	-5952
then	-5953
with	-5954
}\"?	-5955
▁ALL	-5956
▁All	-5957
▁ESC	-5958
▁any	-5959
▁ats	-5960
▁bar	-5961
▁two	-5962
AOrAn	-5963
Bytes	-5964
Colon	-5965
Minus	-5966
PARSE	-5967
Shown	-5968
THROW	-5969
actly	-5970
caten	-5971
count	-5972
direc	-5973
fetch	-5974
gment	-5975
osite	-5976
sTest	-5977
scale	-5978
strip	-5979
tered	-5980
untry	-5981
xmlns	-5982
▁"---	-5983
▁'/')	-5984
▁2015	-5985
▁Math	-5986
▁TEXT	-5987
▁didn	-5988
▁mInt	-5989
▁mode	-5990
▁opts	-5991
▁secs	-5992
▁seek	-5993
▁side	-5994
▁step	-5995
▁used	-5996
▁vari	-5997
▁year	-5998
&#39;}	-5999
("2015	-6000
-02-05	-6001
-09-06	-6002
BEDDED	-6003
LENGTH	-6004
REGEXP	-6005
Setter	-6006
ToLong	-6007
column	-6008
divide	-6009
ferent	-6010
reater	-6011
render	-6012
switch	-6013
▁FLOAT	-6014
▁WRONG	-6015
▁allow	-6016
▁lines	-6017
▁micro	-6018
▁minor	-6019
▁under	-6020
.09.06.	-6021
ErrDesc	-6022
Finally	-6023
Ignored	-6024
Interru	-6025
Related	-6026
Trusted	-6027
argName	-6028
▁DOUBLE	-6029
▁STRING	-6030
▁Tupple	-6031
▁biName	-6032
▁loaded	-6033
▁serial	-6034
Adaptive	-6035
BeansAPI	-6036
DOCUMENT	-6037
InLogger	-6038
NotEmpty	-6039
_2_3_22,	-6040
cfgBuggy	-6041
getField	-6042
liberate	-6043
parseISO	-6044
stringBI	-6045
unclosed	-6046
▁INTEGER	-6047
▁Introsp	-6048
▁TreeSet	-6049
▁argType	-6050
▁baseDir	-6051
▁details	-6052
▁emulate	-6053
▁methods	-6054
▁parsing	-6055
▁strings	-6056
970-01-02	-6057
AtDefault	-6058
Composite	-6059
Modifiers	-6060
TestModel	-6061
classpath	-6062
namedArgs	-6063
xmlMarkup	-6064
▁Location	-6065
▁Sequence	-6066
▁addChild	-6067
▁category	-6068
▁decision	-6069
▁dfActual	-6070
▁location	-6071
▁position	-6072
▁rightExp	-6073
▁timePart	-6074
Calculated	-6075
Comparable	-6076
CustomData	-6077
JspContext	-6078
Restricted	-6079
Scriptable	-6080
VersionUID	-6081
breakpoint	-6082
cachedTemp	-6083
methodName	-6084
targetType	-6085
▁Classpath	-6086
▁DateToISO	-6087
▁Interpret	-6088
▁defaultNS	-6089
▁getCustom	-6090
▁supported	-6091
▁templates	-6092
DivTemplate	-6093
ParamValues	-6094
▁rightModel	-6095
▁testOutput	-6096
DoubleOrByte	-6097
Interruption	-6098
RemoteObject	-6099
VariableName	-6100
getModifiers	-6101
ingSeparator	-6102
resourcePath	-6103
▁contentType	-6104
▁environment	-6105
("2015.09.06.	-6106
ServletConfig	-6107
TaglibFactory	-6108
classpathTlds	-6109
currentThread	-6110
expectedClass	-6111
setDateFormat	-6112
▁DOMNodeModel	-6113
▁LocalContext	-6114
▁beansWrapper	-6115
▁dynamicValue	-6116
▁methodSorter	-6117
TemplateObject	-6118
dateTimeFormat	-6119
getInputStream	-6120
▁removeCleared	-6121
CacheRestricted	-6122
CoreLocaleUtils	-6123
LazyAutoImports	-6124
StringsEncoding	-6125
UnwrappingHints	-6126
getNamespaceURI	-6127
ureTemplatePath	-6128
▁ResourceBundle	-6129
▁remoteDebugger	-6130
▁removeTemplate	-6131
CopyrightComment	-6132
NamespaceContext	-6133
getComponentType	-6134
▁iterableSupport	-6135
▁sharedVariables	-6136
▁targetNsVarName	-6137
&'	-6138
;}	-6139
?:	-6140
DB	-6141
GT	-6142
IR	-6143
Ke	-6144
NZ	-6145
OS	-6146
Tk	-6147
VS	-6148
[#	-6149
df	-6150
▁#	-6151
-${	-6152
006	-6153
212	-6154
7);	-6155
8);	-6156
DOT	-6157
DOW	-6158
Day	-6159
FFF	-6160
ISS	-6161
JAR	-6162
KIP	-6163
SAF	-6164
TAB	-6165
TME	-6166
Tmp	-6167
UOT	-6168
]";	-6169
cnt	-6170
css	-6171
fil	-6172
ily	-6173
tdm	-6174
tpy	-6175
ves	-6176
vet	-6177
win	-6178
yed	-6179
}<@	-6180
▁).	-6181
▁1>	-6182
▁2>	-6183
▁Ke	-6184
▁me	-6185
▁up	-6186
##;;	-6187
'>",	-6188
(11,	-6189
(3);	-6190
...)	-6191
2323	-6192
5));	-6193
:00,	-6194
Find	-6195
Noti	-6196
ORED	-6197
Poor	-6198
SIGN	-6199
TIPS	-6200
ToBo	-6201
VARI	-6202
Vari	-6203
View	-6204
ally	-6205
cont	-6206
diff	-6207
init	-6208
jdom	-6209
ness	-6210
ning	-6211
▁"/"	-6212
▁"15	-6213
▁"17	-6214
▁"</	-6215
▁LIN	-6216
▁MIN	-6217
▁New	-6218
▁Thu	-6219
▁UTC	-6220
▁Zip	-6221
▁ioe	-6222
▁mtl	-6223
'>${.	-6224
("");	-6225
(1));	-6226
2());	-6227
INITI	-6228
Inner	-6229
TestF	-6230
anger	-6231
coped	-6232
inted	-6233
mNull	-6234
tocol	-6235
types	-6236
▁0001	-6237
▁1..2	-6238
▁Keep	-6239
▁Unit	-6240
▁late	-6241
▁once	-6242
▁tObj	-6243
▁temp	-6244
▁useS	-6245
(']');	-6246
AsFile	-6247
BUFFER	-6248
Bypass	-6249
Contet	-6250
Declar	-6251
DefEnc	-6252
ERRMSG	-6253
LOADER	-6254
Stored	-6255
Throws	-6256
argExp	-6257
arlier	-6258
buffer	-6259
expose	-6260
getMin	-6261
lainer	-6262
numStr	-6263
▁"-2",	-6264
▁'\\')	-6265
▁getBW	-6266
▁mNull	-6267
▁urlEF	-6268
▁which	-6269
("${'${	-6270
AbsName	-6271
BoolFmt	-6272
DoesNot	-6273
ENABLED	-6274
FromTld	-6275
INITIAL	-6276
NOPARSE	-6277
NodeMap	-6278
ShownIn	-6279
iterCtx	-6280
otherTZ	-6281
partStr	-6282
runtime	-6283
subnode	-6284
symbols	-6285
xresult	-6286
▁action	-6287
▁concat	-6288
▁seqTip	-6289
▁tcHTML	-6290
7:30:00.	-6291
BeanInfo	-6292
Builtins	-6293
ErrorExp	-6294
Matching	-6295
Mismatch	-6296
Notifier	-6297
PoorHint	-6298
Prefixes	-6299
STANDARD	-6300
TagModel	-6301
Trailing	-6302
VARIABLE	-6303
WithNull	-6304
angerous	-6305
fallback	-6306
getBegin	-6307
getBytes	-6308
getMajor	-6309
identity	-6310
isLetter	-6311
itParams	-6312
iterable	-6313
paramIdx	-6314
publicId	-6315
specific	-6316
uotation	-6317
▁ISOLike	-6318
▁Options	-6319
▁doctype	-6320
▁exactly	-6321
▁ignored	-6322
▁jarFile	-6323
▁operand	-6324
▁prevOut	-6325
▁reached	-6326
▁reverse	-6327
▁service	-6328
▁setAuto	-6329
NamedArgs	-6330
ParseTime	-6331
PropDescs	-6332
Suspended	-6333
dentifier	-6334
getAsDate	-6335
leftValue	-6336
▁Ancestor	-6337
▁CacheKey	-6338
▁Debugger	-6339
▁JspTestF	-6340
▁STANDARD	-6341
▁datePart	-6342
▁getCause	-6343
▁getValue	-6344
▁listList	-6345
▁nodeType	-6346
▁pojoArgs	-6347
▁prevName	-6348
▁settings	-6349
-8859-2");	-6350
ClassCData	-6351
ComContent	-6352
SectionEnd	-6353
Unresolved	-6354
WeakWinCnt	-6355
getContext	-6356
properties	-6357
setTabSize	-6358
shortValue	-6359
▁TEMPLATES	-6360
▁UnitAware	-6361
▁cmpResult	-6362
▁commonFtl	-6363
▁endColumn	-6364
▁getLocale	-6365
▁getReader	-6366
▁implement	-6367
▁longValue	-6368
▁minLength	-6369
▁paramName	-6370
▁paramsMap	-6371
▁taglibUri	-6372
▁testArray	-6373
▁textToEsc	-6374
INSENSITIVE	-6375
JarFileName	-6376
NormAbsName	-6377
ReturnValue	-6378
coerceModel	-6379
getAbsolute	-6380
getDateType	-6381
heritParams	-6382
ldomEscaped	-6383
listedValue	-6384
toUpperCase	-6385
▁123456789@	-6386
▁InvalidAST	-6387
▁Processing	-6388
▁Reflection	-6389
▁checkIndex	-6390
▁lRegulated	-6391
▁sharedLock	-6392
▁writtenEnd	-6393
Environments	-6394
MILLISECONDS	-6395
NamedNodeMap	-6396
SettingValue	-6397
outputformat	-6398
▁"123456789@	-6399
▁FloatOrByte	-6400
▁TldLocation	-6401
▁accessibles	-6402
▁classLoader	-6403
▁httpSession	-6404
▁listedValue	-6405
▁logTemplate	-6406
▁testDefault	-6407
▁testTrusted	-6408
▁testedProps	-6409
▁wrappedPCfg	-6410
JythonWrapper	-6411
OrWholeNumber	-6412
ToBoxingClass	-6413
evalToBoolean	-6414
exposureLevel	-6415
getIdentifier	-6416
getParentFile	-6417
globToRegular	-6418
setTimeFormat	-6419
tpyMemberDesc	-6420
▁DoubleOrLong	-6421
▁RoundingMode	-6422
▁XPathSupport	-6423
▁curEntryPath	-6424
▁tokenErrDesc	-6425
11:30:05+01:00	-6426
ChangeNotifier	-6427
ErrorExplainer	-6428
SiblingElement	-6429
TokenSequences	-6430
isMarkupOutput	-6431
▁NodeOutputter	-6432
▁TaglibGetting	-6433
ArrayOverloaded	-6434
DelayedToString	-6435
caseInsensitive	-6436
getLessSpecific	-6437
▁FloatOrInteger	-6438
▁bodyParameters	-6439
▁getASTAsString	-6440
▁handleTemplate	-6441
BooleanException	-6442
ExceptionWrapper	-6443
FallbackToNumber	-6444
JarURLConnection	-6445
TemplateElements	-6446
WithExternalForm	-6447
WithFallbackType	-6448
setConfiguration	-6449
simpleMapWrapper	-6450
▁ISOLikeTemplate	-6451
▁JspContextModel	-6452
▁MockHttpServlet	-6453
▁localizedTarget	-6454
(6	-6455
*.	-6456
29	-6457
:3	-6458
>3	-6459
BW	-6460
Br	-6461
GB	-6462
Me	-6463
YY	-6464
_7	-6465
lc	-6466
ls	-6467
nX	-6468
nY	-6469
nb	-6470
tn	-6471
vp	-6472
${.	-6473
&'}	-6474
("'	-6475
*",	-6476
-05	-6477
.0,	-6478
00)	-6479
210	-6480
CSS	-6481
Fix	-6482
MSF	-6483
Raw	-6484
TDS	-6485
You	-6486
]))	-6487
big	-6488
cIt	-6489
era	-6490
ied	-6491
lel	-6492
neg	-6493
now	-6494
ont	-6495
rou	-6496
top	-6497
tsm	-6498
}\"	-6499
▁*/	-6500
▁15	-6501
▁33	-6502
▁BC	-6503
▁LE	-6504
▁XS	-6505
▁cc	-6506
▁fz	-6507
▁mf	-6508
-02-	-6509
COGN	-6510
Cond	-6511
Decl	-6512
Elem	-6513
FFFF	-6514
Good	-6515
LASH	-6516
LOCK	-6517
TLDS	-6518
\\''	-6519
ages	-6520
alan	-6521
leep	-6522
mInt	-6523
onth	-6524
secs	-6525
teri	-6526
vars	-6527
▁"()	-6528
▁"]\	-6529
▁'-'	-6530
▁-0.	-6531
▁1))	-6532
▁1).	-6533
▁10,	-6534
▁2",	-6535
▁4);	-6536
▁JSP	-6537
▁day	-6538
▁des	-6539
▁exc	-6540
▁pop	-6541
▁tcB	-6542
▁web	-6543
("/")	-6544
("0;;	-6545
("123	-6546
(0)).	-6547
00:00	-6548
1"));	-6549
AbcIt	-6550
AndTZ	-6551
Files	-6552
SIONS	-6553
allel	-6554
icast	-6555
lamer	-6556
pable	-6557
peced	-6558
rough	-6559
uture	-6560
▁"\"@	-6561
▁'"')	-6562
▁'"':	-6563
▁'");	-6564
▁Attr	-6565
▁DATE	-6566
▁DTDS	-6567
▁KEYS	-6568
▁PAGE	-6569
▁This	-6570
▁adap	-6571
▁expl	-6572
▁getX	-6573
▁lang	-6574
▁norm	-6575
▁poss	-6576
▁same	-6577
▁sign	-6578
▁work	-6579
(123),	-6580
...");	-6581
Basics	-6582
Concat	-6583
ENTITY	-6584
Filter	-6585
Mixing	-6586
OrNull	-6587
Scoped	-6588
Signum	-6589
Socket	-6590
Webapp	-6591
action	-6592
config	-6593
delete	-6594
negate	-6595
preter	-6596
static	-6597
verted	-6598
▁"\\\\	-6599
▁+0400	-6600
▁CACHE	-6601
▁extra	-6602
▁permi	-6603
▁slash	-6604
▁total	-6605
▁zipIn	-6606
COGNIZE	-6607
Defined	-6608
DirLine	-6609
DocType	-6610
Forward	-6611
IOUtils	-6612
Listing	-6613
Opening	-6614
Operand	-6615
TMClass	-6616
ToThrow	-6617
correct	-6618
failing	-6619
getReco	-6620
members	-6621
ntation	-6622
odifier	-6623
recover	-6624
tedName	-6625
ultiply	-6626
▁10005;	-6627
▁20007;	-6628
▁OBJECT	-6629
▁Strong	-6630
▁Webapp	-6631
▁getKey	-6632
▁mArray	-6633
▁quoted	-6634
▁system	-6635
12:00:00	-6636
12:30:05	-6637
BasePath	-6638
Bypassed	-6639
CompType	-6640
EXPECTED	-6641
Position	-6642
ReadOnly	-6643
cfgFixed	-6644
getMicro	-6645
isString	-6646
isoLocal	-6647
nodeName	-6648
nodeType	-6649
sToWiden	-6650
setClass	-6651
▁BOOLEAN	-6652
▁Caching	-6653
▁HTMLISO	-6654
▁Initial	-6655
▁SERVLET	-6656
▁attempt	-6657
▁getting	-6658
▁integer	-6659
▁minutes	-6660
▁restart	-6661
BeanModel	-6662
ByteArray	-6663
Enclosing	-6664
ExtraInfo	-6665
Ignorable	-6666
JspApplic	-6667
Navigator	-6668
OwnedByMe	-6669
SUPPORTED	-6670
something	-6671
tireInput	-6672
▁DATETIME	-6673
▁Modifier	-6674
▁Standard	-6675
▁elements	-6676
▁entryUrl	-6677
▁getModel	-6678
▁invoking	-6679
▁isLegacy	-6680
▁softSize	-6681
▁startPos	-6682
▁testWith	-6683
AfterClean	-6684
CharsetSet	-6685
Configured	-6686
EXCEPTIONS	-6687
EXTENSIONS	-6688
Evaluation	-6689
Forwarding	-6690
HasContent	-6691
LinkedList	-6692
LookupCond	-6693
MatchModel	-6694
NonCleared	-6695
Signatures	-6696
checkFails	-6697
convention	-6698
dfExpected	-6699
ferability	-6700
getNonNull	-6701
isTemplate	-6702
▁Existence	-6703
▁condition	-6704
▁dangerous	-6705
▁fieldName	-6706
▁leftModel	-6707
▁nextStart	-6708
▁parseTime	-6709
Interpreter	-6710
JarEntryUrl	-6711
MembersOnly	-6712
OverloadedC	-6713
WithSetting	-6714
constructor	-6715
interpreted	-6716
mNumPrimAll	-6717
mSeqToArray	-6718
pageContext	-6719
setEncoding	-6720
▁Identifier	-6721
▁LongOrByte	-6722
▁dateFormat	-6723
▁paramNames	-6724
▁preprocess	-6725
▁pyInstance	-6726
▁scriptable	-6727
▁strongSize	-6728
▁targetNode	-6729
▁targetType	-6730
▁timeFormat	-6731
DelayedAOrAn	-6732
DoesNotMatch	-6733
JarEntryPath	-6734
mNumBoxedAll	-6735
▁LongOrShort	-6736
▁ShortOrByte	-6737
▁autoImports	-6738
▁decodedName	-6739
▁instanceRef	-6740
▁mNumPrimAll	-6741
▁mSeqToArray	-6742
▁testInvalid	-6743
Compatibility	-6744
LoopVariables	-6745
MixingAllowed	-6746
MultiNumTypeC	-6747
RawJarContent	-6748
ResultNotNull	-6749
TimeMalformed	-6750
getChildCount	-6751
getParentNode	-6752
nestedContent	-6753
newCantFormat	-6754
taglibmembers	-6755
▁BigIntegerOr	-6756
▁CommonMarkup	-6757
▁DocumentType	-6758
▁DoubleOrByte	-6759
▁FloatOrShort	-6760
▁MixedContent	-6761
▁autoEscaping	-6762
▁exposeFields	-6763
▁mNumBoxedAll	-6764
▁namespacesTo	-6765
▁operatorType	-6766
▁resourcePath	-6767
AndTZSensitive	-6768
BufferedReader	-6769
EntityResolver	-6770
errDescBuilder	-6771
setLogTemplate	-6772
tireInputMatch	-6773
▁DoubleOrFloat	-6774
▁DoubleOrShort	-6775
▁IntegerOrByte	-6776
▁JythonWrapper	-6777
▁LongOrInteger	-6778
▁StringLiteral	-6779
▁WeakReference	-6780
▁classpathTlds	-6781
▁constantValue	-6782
▁fixArgMethods	-6783
▁keyExpression	-6784
BuiltInBypassed	-6785
IteratorAdapter	-6786
RTFOutputFormat	-6787
RegexMatchModel	-6788
TemplateNameExp	-6789
nessDescription	-6790
▁IntegerOrShort	-6791
▁getBreakpoints	-6792
▁invalidSetting	-6793
RegisteredCustom	-6794
getBooleanFormat	-6795
metaInfTldSource	-6796
▁CollectionUtils	-6797
▁HTMLISOTemplate	-6798
▁MergingTemplate	-6799
▁getLastModified	-6800
▁missingTemplate	-6801
▁printStackTrace	-6802
!)	-6803
-#	-6804
-6	-6805
1/	-6806
17	-6807
2/	-6808
7)	-6809
7,	-6810
78	-6811
8)	-6812
85	-6813
92	-6814
>,	-6815
CR	-6816
Cl	-6817
GI	-6818
GY	-6819
SR	-6820
bc	-6821
sk	-6822
▁u	-6823
'),	-6824
('/	-6825
('[	-6826
-0.	-6827
/\"	-6828
2))	-6829
22,	-6830
4;;	-6831
75,	-6832
?";	-6833
ABS	-6834
ALW	-6835
ARN	-6836
AYS	-6837
Add	-6838
Buf	-6839
Dst	-6840
ESC	-6841
Fat	-6842
GRE	-6843
IBU	-6844
ITE	-6845
LIS	-6846
Mgr	-6847
ODS	-6848
URE	-6849
_7_	-6850
ake	-6851
cap	-6852
ins	-6853
man	-6854
pop	-6855
sow	-6856
squ	-6857
std	-6858
tdi	-6859
toC	-6860
xFE	-6861
xyz	-6862
▁'9	-6863
▁13	-6864
▁20	-6865
▁Re	-6866
▁__	-6867
▁gi	-6868
▁pc	-6869
▁sc	-6870
▁{<	-6871
(5),	-6872
----	-6873
0));	-6874
2547	-6875
4099	-6876
7199	-6877
:///	-6878
>3</	-6879
ATER	-6880
ENUM	-6881
Exec	-6882
ExtC	-6883
FIRE	-6884
FLUS	-6885
FORE	-6886
Full	-6887
INDE	-6888
INFO	-6889
ITER	-6890
Icis	-6891
Leaf	-6892
Maps	-6893
Mess	-6894
NEST	-6895
Need	-6896
Pojo	-6897
Rare	-6898
STOR	-6899
Sign	-6900
TEST	-6901
ToXS	-6902
WARN	-6903
aSep	-6904
dsum	-6905
dwin	-6906
elem	-6907
half	-6908
impl	-6909
imum	-6910
like	-6911
loop	-6912
ptic	-6913
self	-6914
tUtf	-6915
user	-6916
▁"("	-6917
▁"?"	-6918
▁-2.	-6919
▁/>"	-6920
▁/>\	-6921
▁?",	-6922
▁AST	-6923
▁IGN	-6924
▁NON	-6925
▁api	-6926
▁era	-6927
▁may	-6928
▁mil	-6929
▁sep	-6930
▁std	-6931
▁xps	-6932
()}",	-6933
00");	-6934
1000.	-6935
</@>\	-6936
ALLOW	-6937
ATEGY	-6938
ATURE	-6939
Chain	-6940
Disco	-6941
FLUSH	-6942
Fatal	-6943
IBUTE	-6944
OutLn	-6945
Owner	-6946
SEPAR	-6947
SLASH	-6948
\"${'	-6949
acked	-6950
apply	-6951
aried	-6952
escap	-6953
onent	-6954
reset	-6955
ssive	-6956
▁2.3.	-6957
▁HTTP	-6958
▁MAIN	-6959
▁Spec	-6960
▁prim	-6961
▁safe	-6962
(""));	-6963
("2014	-6964
(0)));	-6965
4:00",	-6966
ALWAYS	-6967
DirUrl	-6968
FTLEsc	-6969
GISTER	-6970
Hidden	-6971
MODELS	-6972
OPTION	-6973
OfList	-6974
apture	-6975
dotIdx	-6976
ethrow	-6977
leptic	-6978
licing	-6979
merged	-6980
return	-6981
setUse	-6982
sorted	-6983
vetion	-6984
▁"-1",	-6985
▁"\"",	-6986
▁BREAK	-6987
▁CAMEL	-6988
▁CLASS	-6989
▁Clone	-6990
▁Event	-6991
▁Rhino	-6992
▁added	-6993
▁given	-6994
▁major	-6995
▁queue	-6996
▁split	-6997
▁store	-6998
▁usage	-6999
▁{}));	-7000
9007199	-7001
ALLOWED	-7002
Backing	-7003
GREATER	-7004
METHODS	-7005
NESTING	-7006
Printed	-7007
Printer	-7008
RETHROW	-7009
Results	-7010
SECTION	-7011
SESSION	-7012
SOURCES	-7013
STORAGE	-7014
StripWS	-7015
SysProp	-7016
_2_3_24	-7017
charKey	-7018
filling	-7019
licting	-7020
mString	-7021
tempted	-7022
▁Access	-7023
▁GLOBAL	-7024
▁JYTHON	-7025
▁cloned	-7026
▁constr	-7027
▁jarOut	-7028
▁packed	-7029
▁single	-7030
+01:00",	-7031
13:30:05	-7032
25474099	-7033
BIResult	-7034
DotSteps	-7035
EMBEDDED	-7036
GISTERED	-7037
HashCode	-7038
Instanti	-7039
Messages	-7040
MgrError	-7041
OPTIONAL	-7042
Optional	-7043
Overload	-7044
STRATEGY	-7045
StartTag	-7046
TryCatch	-7047
WebAppIf	-7048
Widening	-7049
ationTag	-7050
getAbcIt	-7051
getMinor	-7052
getWrite	-7053
optional	-7054
parseInt	-7055
prevName	-7056
resolver	-7057
rightIdx	-7058
rtfPlain	-7059
subtract	-7060
sysDefTZ	-7061
▁Missing	-7062
▁NonNode	-7063
▁Package	-7064
▁PrintfG	-7065
▁Special	-7066
▁country	-7067
▁earlier	-7068
▁expeced	-7069
▁listing	-7070
▁loaders	-7071
▁logWarn	-7072
▁seqSize	-7073
▁shouldn	-7074
▁varName	-7075
▁xresult	-7076
([0-9]{2}	-7077
ATTRIBUTE	-7078
DefaultNS	-7079
Discovery	-7080
EntityRef	-7081
Formatter	-7082
INITIALIZ	-7083
MSFString	-7084
NamingCon	-7085
NonRegexp	-7086
ParserFor	-7087
SEPARATOR	-7088
SIGNATURE	-7089
TEMPLATES	-7090
Wrappings	-7091
aSepItems	-7092
buildDate	-7093
byteValue	-7094
catenated	-7095
extraInfo	-7096
fieldName	-7097
firstChar	-7098
getSource	-7099
noautoesc	-7100
quotation	-7101
rtfMarkup	-7102
▁allNames	-7103
▁dummyCfg	-7104
▁firstIdx	-7105
▁fullPath	-7106
▁lhoValue	-7107
▁newValue	-7108
▁numberOf	-7109
▁optional	-7110
▁relative	-7111
▁required	-7112
▁searched	-7113
BreakState	-7114
DebugBreak	-7115
FieldValue	-7116
InitParams	-7117
Normalized	-7118
ToXSString	-7119
VisibleAll	-7120
WasAlready	-7121
_2_3_22));	-7122
checkHasNo	-7123
ingCounter	-7124
▁19:30:00:	-7125
▁Proleptic	-7126
▁available	-7127
▁chunkSize	-7128
▁isShownIn	-7129
▁maxLength	-7130
▁multipier	-7131
▁parseDate	-7132
▁plusOutLn	-7133
▁printNode	-7134
▁separator	-7135
▁setParent	-7136
BodyContent	-7137
ChainMember	-7138
FailedError	-7139
FloatOrByte	-7140
LDTTimeZone	-7141
OrTransform	-7142
ScopedCache	-7143
ToNamespace	-7144
Transformer	-7145
getMimeType	-7146
isNumerical	-7147
setSettings	-7148
stringValue	-7149
▁"15:30:00.	-7150
▁ModelCache	-7151
▁Privileged	-7152
▁elFunction	-7153
▁elResolver	-7154
▁getCurrent	-7155
▁isTimeZone	-7156
▁newBuiltin	-7157
▁packedArgs	-7158
▁testXMLEnc	-7159
▁valueArray	-7160
ErrorHandler	-7161
ExpectedFile	-7162
HashIterator	-7163
NewLineIndex	-7164
Unrecognized	-7165
allowNoMatch	-7166
doPrivileged	-7167
exposeFields	-7168
getDefaultNS	-7169
getExtraInfo	-7170
unmodifiable	-7171
▁"1970-01-01	-7172
▁BIMethodFor	-7173
▁StringModel	-7174
▁applicables	-7175
▁cachedValue	-7176
▁firstEscIdx	-7177
▁getDocument	-7178
▁mOverloaded	-7179
▁parsedValue	-7180
▁renderedFtl	-7181
BeStaticField	-7182
DoubleOrShort	-7183
KVPComparator	-7184
LocationCData	-7185
RareWrappings	-7186
TargetVarName	-7187
TempDirectory	-7188
WeakReference	-7189
addAutoImport	-7190
getAttributes	-7191
getNewBuiltin	-7192
instanceCache	-7193
izationStatus	-7194
▁Concatenated	-7195
▁NewTestModel	-7196
▁assertFTLEsc	-7197
▁commonOutput	-7198
▁currentToken	-7199
▁dstTypeFlags	-7200
▁getTypeFlags	-7201
▁listWithNull	-7202
▁numConvPrice	-7203
▁settingValue	-7204
▁templateFile	-7205
AndScalarModel	-7206
CONFIGURATIONS	-7207
NonRegexpFlags	-7208
RightUnbounded	-7209
SingleNumTypeC	-7210
StateVariables	-7211
getLogTemplate	-7212
getWriteMethod	-7213
temptedSection	-7214
toExternalForm	-7215
▁LocationAware	-7216
▁commonContent	-7217
▁expectedClass	-7218
▁inheritParams	-7219
▁outerIdentity	-7220
▁resolverClass	-7221
▁rootDataModel	-7222
900719925474099	-7223
CollectionUtils	-7224
IterableSupport	-7225
NamingConvetion	-7226
TrimInstruction	-7227
TryCatchFinally	-7228
WebAppIfStarted	-7229
WithAcquisition	-7230
icCompatibility	-7231
missingTemplate	-7232
▁DefaultNonList	-7233
▁isOutputFormat	-7234
AtDefaultContent	-7235
MethodDescriptor	-7236
ToStringOrMarkup	-7237
TrivialDateToISO	-7238
customAttributes	-7239
ecurityException	-7240
getOuterIdentity	-7241
identityHashCode	-7242
methodAppearance	-7243
nonPrimParamType	-7244
▁DocumentBuilder	-7245
▁LocaleSensitive	-7246
▁PrintfGTemplate	-7247
▁defaultDateType	-7248
▁escapePlainText	-7249
▁expectedClasses	-7250
▁formatStringLen	-7251
▁getIncompatible	-7252
▁newLookupResult	-7253
06	-7254
2_	-7255
>&	-7256
?.	-7257
AE	-7258
NP	-7259
RI	-7260
UK	-7261
])	-7262
bb	-7263
ma	-7264
("+	-7265
+03	-7266
00(	-7267
20)	-7268
213	-7269
218	-7270
24;	-7271
;".	-7272
Ant	-7273
AsN	-7274
BEG	-7275
CTI	-7276
Dom	-7277
FRE	-7278
GAE	-7279
ILD	-7280
NCE	-7281
Ops	-7282
PIs	-7283
Pop	-7284
REL	-7285
ROM	-7286
SER	-7287
USD	-7288
Utc	-7289
[1]	-7290
]<#	-7291
cep	-7292
dis	-7293
ead	-7294
enc	-7295
ias	-7296
nss	-7297
oid	-7298
oll	-7299
ons	-7300
rho	-7301
sun	-7302
▁'*	-7303
▁(;	-7304
▁/*	-7305
▁4)	-7306
▁Sa	-7307
▁UN	-7308
▁cn	-7309
▁cp	-7310
▁fn	-7311
▁js	-7312
▁ms	-7313
▁ro	-7314
")).	-7315
("?"	-7316
(1.5	-7317
000.	-7318
2000	-7319
4");	-7320
<#--	-7321
>[<#	-7322
>}]\	-7323
APOS	-7324
CTOR	-7325
DIRE	-7326
DOWN	-7327
Extr	-7328
Half	-7329
LOOP	-7330
Loss	-7331
MARK	-7332
MIME	-7333
Mock	-7334
OrSm	-7335
PRIV	-7336
Page	-7337
SAFE	-7338
TLDs	-7339
User	-7340
aIdx	-7341
cion	-7342
comm	-7343
dedu	-7344
down	-7345
ince	-7346
ired	-7347
nThe	-7348
ofBI	-7349
omic	-7350
sToV	-7351
stop	-7352
uted	-7353
when	-7354
▁"':	-7355
▁"<"	-7356
▁';'	-7357
▁10;	-7358
▁22,	-7359
▁And	-7360
▁Bad	-7361
▁SES	-7362
▁\\{	-7363
▁abc	-7364
▁att	-7365
▁cre	-7366
▁fln	-7367
▁got	-7368
▁spe	-7369
'></#	-7370
("101	-7371
()");	-7372
(200,	-7373
(500,	-7374
(5000	-7375
0000;	-7376
0006;	-7377
10}",	-7378
3"));	-7379
AMore	-7380
AsAPI	-7381
AtFoo	-7382
BEGIN	-7383
CONST	-7384
CTIVE	-7385
ExcOn	-7386
ITESP	-7387
IfNot	-7388
InMsg	-7389
LDTTZ	-7390
Other	-7391
STRIP	-7392
Table	-7393
Under	-7394
\\>",	-7395
acket	-7396
ainst	-7397
aller	-7398
anged	-7399
built	-7400
catch	-7401
cover	-7402
dinal	-7403
longN	-7404
range	-7405
tives	-7406
tools	-7407
▁123.	-7408
▁2.5,	-7409
▁2200	-7410
▁2400	-7411
▁Stop	-7412
▁Time	-7413
▁each	-7414
▁keep	-7415
▁mIdx	-7416
▁some	-7417
▁such	-7418
▁tobj	-7419
▁uses	-7420
▁were	-7421
▁}));	-7422
("${11	-7423
('[');	-7424
(-1));	-7425
-05-09	-7426
300"),	-7427
BEFORE	-7428
Binary	-7429
EBREAK	-7430
EndTag	-7431
Errors	-7432
NodeNS	-7433
Shared	-7434
TopTag	-7435
argVal	-7436
dateBI	-7437
endIdx	-7438
isoUtc	-7439
lisecs	-7440
manual	-7441
rement	-7442
terisk	-7443
}\"}",	-7444
▁'\'':	-7445
▁Field	-7446
▁Model	-7447
▁XMLOr	-7448
▁equal	-7449
▁exist	-7450
▁frame	-7451
▁hours	-7452
▁known	-7453
▁merge	-7454
▁needs	-7455
▁parts	-7456
▁regex	-7457
("/>");	-7458
AntTask	-7459
BackOut	-7460
FFFFFFF	-7461
Failure	-7462
Getters	-7463
MetaInf	-7464
PRIVATE	-7465
SameAsN	-7466
SrcPath	-7467
Symbols	-7468
TestMap	-7469
ToClass	-7470
_2_3_0;	-7471
_2_3_20	-7472
_2_3_22	-7473
classes	-7474
convert	-7475
nameExp	-7476
setReco	-7477
toArray	-7478
toCache	-7479
▁ASSIGN	-7480
▁NUMBER	-7481
▁Public	-7482
▁Static	-7483
▁compar	-7484
▁dotIdx	-7485
▁expect	-7486
▁forced	-7487
▁hashEx	-7488
▁objIdx	-7489
▁script	-7490
▁setUse	-7491
▁setter	-7492
ARGUMENT	-7493
Coercion	-7494
Comments	-7495
DayError	-7496
EmptyRes	-7497
EqualsOn	-7498
HasAMore	-7499
ITESPACE	-7500
MethodAs	-7501
Positive	-7502
Subclass	-7503
TLDsList	-7504
Unlisted	-7505
_2_4_0);	-7506
argTypes	-7507
category	-7508
compress	-7509
existing	-7510
ingTypes	-7511
parseExp	-7512
sToVisit	-7513
startPos	-7514
tagClass	-7515
▁Comment	-7516
▁SESSION	-7517
▁XPathEx	-7518
▁against	-7519
▁allTips	-7520
▁argsLen	-7521
▁collect	-7522
▁dExpted	-7523
▁defined	-7524
▁filling	-7525
▁history	-7526
▁nameExp	-7527
▁partObj	-7528
▁sExpted	-7529
▁unknown	-7530
▁varArgs	-7531
("${10}",	-7532
ButThrows	-7533
ClassCode	-7534
DIRECTIVE	-7535
Gregorian	-7536
NullModel	-7537
OrSmaller	-7538
PrefixFor	-7539
STRIPPING	-7540
arraycopy	-7541
dateClass	-7542
dotDotIdx	-7543
emulateNo	-7544
getDeclar	-7545
isVarargs	-7546
tagSyntax	-7547
textToEsc	-7548
▁+0300"),	-7549
▁0.999999	-7550
▁ACCURACY	-7551
▁MapModel	-7552
▁argValue	-7553
▁discover	-7554
▁divident	-7555
▁getScope	-7556
▁instanti	-7557
▁mergedTC	-7558
▁modCount	-7559
▁paramCnt	-7560
▁recreate	-7561
▁validate	-7562
BIGDECIMAL	-7563
BackingOut	-7564
ByFunction	-7565
ChildCount	-7566
ClassNames	-7567
DirPathLoc	-7568
Directives	-7569
FileAccess	-7570
FlagString	-7571
Operations	-7572
ParamNames	-7573
TagSupport	-7574
Variations	-7575
WithSorted	-7576
ZoneOffset	-7577
cHashModel	-7578
curDirLine	-7579
edProperty	-7580
getTabSize	-7581
reaterThan	-7582
replaceAll	-7583
scriptable	-7584
▁Cloneable	-7585
▁ELContext	-7586
▁FileUtils	-7587
▁LINEBREAK	-7588
▁OrMatcher	-7589
▁autoFlush	-7590
▁backslash	-7591
▁getAsDate	-7592
▁htmlPlain	-7593
▁millisecs	-7594
▁openParen	-7595
▁testParse	-7596
▁testSuite	-7597
▁tldParser	-7598
▁undefined	-7599
LibraryName	-7600
PathParsing	-7601
PrintStream	-7602
UnknownType	-7603
XmlSystemId	-7604
boxingClass	-7605
contextNode	-7606
getVariable	-7607
isArrayType	-7608
izedDefault	-7609
jsStringEnc	-7610
setClassFor	-7611
tldLocation	-7612
verySection	-7613
▁0001-02-05	-7614
▁1970-01-02	-7615
▁BIGDECIMAL	-7616
▁Comparable	-7617
▁Comparator	-7618
▁LegacyList	-7619
▁Scriptable	-7620
▁autoEscape	-7621
▁calculated	-7622
▁compatible	-7623
▁deliberate	-7624
▁keyNamesLn	-7625
▁methodSpec	-7626
▁overrideCT	-7627
▁resultSize	-7628
▁shortValue	-7629
▁subdirPath	-7630
▁testRTFEnc	-7631
▁testString	-7632
BackOutExcOn	-7633
DayErrorDate	-7634
FatalEnabled	-7635
FramesHidden	-7636
GAECompliant	-7637
ListIterator	-7638
MethodsModel	-7639
RegexMatcher	-7640
SameAsNormal	-7641
StaticModels	-7642
getBeginLine	-7643
methodSorter	-7644
operatorType	-7645
parseMatcher	-7646
toBigInteger	-7647
▁"2015-09-06	-7648
▁APPLICATION	-7649
▁ListLiteral	-7650
▁NonExtended	-7651
▁contSrcPath	-7652
▁getDateType	-7653
▁getOperator	-7654
▁projectFile	-7655
ConstantValue	-7656
FTLIdentifier	-7657
SetMethodName	-7658
UnlistedModel	-7659
VariableNames	-7660
getReadMethod	-7661
getSimpleName	-7662
ignoreMissing	-7663
isWarnEnabled	-7664
pedParamTypes	-7665
setWhitespace	-7666
▁NonNamespace	-7667
▁XMLOrHTMLEnc	-7668
▁autoIncludes	-7669
▁currencyCode	-7670
▁expectedType	-7671
▁formatNumber	-7672
▁getArguments	-7673
▁requestModel	-7674
▁sessionModel	-7675
▁testXHTMLEnc	-7676
BinaryOperator	-7677
IncludeContent	-7678
dateToXSString	-7679
ilyInitialized	-7680
isOutputFormat	-7681
onentSeparator	-7682
plainTypeError	-7683
removeTemplate	-7684
▁NestedContent	-7685
▁servletConfig	-7686
▁varargMethods	-7687
BasePackagePath	-7688
getRootTreeNode	-7689
▁errDescBuilder	-7690
▁modelFactories	-7691
▁openedIterator	-7692
▁parentTemplate	-7693
▁templateLocale	-7694
ExpressionString	-7695
HasAMoreSpecific	-7696
IndexOutOfBounds	-7697
OrSmallerInteger	-7698
SimpleDateFormat	-7699
TestStaticFields	-7700
axenXPathSupport	-7701
currentNamespace	-7702
customDataHolder	-7703
getExposureLevel	-7704
ichObjectWrapper	-7705
setBooleanFormat	-7706
▁RegexMatchModel	-7707
▁checkRegistered	-7708
▁getTemplateName	-7709
▁jarBaseEntryUrl	-7710
▁localizedLookup	-7711
▁tcclScopedCache	-7712
(!	-7713
1_	-7714
3:	-7715
3_	-7716
44	-7717
49	-7718
66	-7719
76	-7720
8(	-7721
8-	-7722
9)	-7723
=1	-7724
>>	-7725
HE	-7726
HR	-7727
LT	-7728
NY	-7729
TN	-7730
[2	-7731
]"	-7732
by	-7733
db	-7734
fy	-7735
mc	-7736
pw	-7737
tb	-7738
td	-7739
tw	-7740
uc	-7741
{}	-7742
}'	-7743
!",	-7744
';'	-7745
'<#	-7746
(";	-7747
("]	-7748
-03	-7749
.")	-7750
/./	-7751
0.0	-7752
16.	-7753
1??	-7754
209	-7755
21,	-7756
2>"	-7757
303	-7758
5:0	-7759
BAD	-7760
CCL	-7761
END	-7762
Eff	-7763
Hdr	-7764
LIZ	-7765
MAC	-7766
NEG	-7767
ORE	-7768
Reb	-7769
SRC	-7770
STD	-7771
Tsm	-7772
VEN	-7773
[],	-7774
[];	-7775
ays	-7776
def	-7777
htm	-7778
mtl	-7779
rid	-7780
sBI	-7781
was	-7782
yna	-7783
zip	-7784
▁"*	-7785
▁"=	-7786
▁',	-7787
▁('	-7788
▁23	-7789
▁PR	-7790
▁SY	-7791
▁To	-7792
▁WH	-7793
▁ae	-7794
▁fk	-7795
▁my	-7796
$");	-7797
("2.	-7798
("<!	-7799
(0),	-7800
(100	-7801
02);	-7802
13:3	-7803
1???	-7804
2)",	-7805
2036	-7806
2337	-7807
4748	-7808
4775	-7809
5:08	-7810
>>*/	-7811
Down	-7812
FROM	-7813
JSON	-7814
Libs	-7815
MapC	-7816
MapS	-7817
NONE	-7818
NULL	-7819
OVER	-7820
Prog	-7821
SKIP	-7822
Scan	-7823
Self	-7824
TCCL	-7825
TRUS	-7826
Very	-7827
anch	-7828
atat	-7829
blem	-7830
cust	-7831
dRef	-7832
dTag	-7833
exit	-7834
ffix	-7835
hand	-7836
ison	-7837
lead	-7838
orig	-7839
phab	-7840
poll	-7841
prod	-7842
side	-7843
tccl	-7844
till	-7845
xAAC	-7846
xAAD	-7847
xAAF	-7848
year	-7849
▁"'"	-7850
▁"..	-7851
▁"00	-7852
▁"11	-7853
▁":\	-7854
▁"}\	-7855
▁31;	-7856
▁Can	-7857
▁Dot	-7858
▁Inc	-7859
▁Laz	-7860
▁NEW	-7861
▁\"?	-7862
▁cas	-7863
▁def	-7864
▁fit	-7865
▁fol	-7866
▁hdr	-7867
▁kvp	-7868
▁pda	-7869
▁sus	-7870
▁ter	-7871
▁won	-7872
("\\{	-7873
('.')	-7874
(-1);	-7875
(11),	-7876
(123.	-7877
).");	-7878
*}");	-7879
/*/*/	-7880
230()	-7881
3());	-7882
3)));	-7883
:05:0	-7884
AFTER	-7885
ALERT	-7886
Allow	-7887
AtIdx	-7888
CALIZ	-7889
CNull	-7890
IMPLE	-7891
Infin	-7892
Lines	-7893
Loses	-7894
NCFtl	-7895
NameI	-7896
Rebel	-7897
There	-7898
ToTry	-7899
Using	-7900
\\}",	-7901
andom	-7902
biNum	-7903
chars	-7904
ctons	-7905
igest	-7906
jetty	-7907
lines	-7908
mList	-7909
props	-7910
query	-7911
sleep	-7912
tWith	-7913
throw	-7914
uotes	-7915
urope	-7916
xFFFF	-7917
▁""),	-7918
▁${12	-7919
▁${\"	-7920
▁'&':	-7921
▁'<':	-7922
▁'>':	-7923
▁1");	-7924
▁1.4,	-7925
▁1.5,	-7926
▁1.6,	-7927
▁10);	-7928
▁1231	-7929
▁3.5,	-7930
▁ITER	-7931
▁LEAK	-7932
▁Name	-7933
▁conn	-7934
▁deal	-7935
▁dedu	-7936
▁foos	-7937
▁just	-7938
▁pCfg	-7939
▁setX	-7940
▁trim	-7941
('.');	-7942
(1)));	-7943
-02-08	-7944
-8"));	-7945
203685	-7946
230().	-7947
474836	-7948
477580	-7949
922337	-7950
DowCfg	-7951
EndPos	-7952
GLOBAL	-7953
HashEx	-7954
IcIAnd	-7955
IntAnd	-7956
IsPrim	-7957
MULTIP	-7958
MustBe	-7959
PrimVS	-7960
ageCtx	-7961
dTagOr	-7962
enable	-7963
ersand	-7964
failed	-7965
future	-7966
icious	-7967
isFile	-7968
isReco	-7969
mArray	-7970
maxCnt	-7971
vararg	-7972
withBI	-7973
▁-1.4,	-7974
▁-1.5,	-7975
▁-1.6,	-7976
▁-2.5,	-7977
▁1000;	-7978
▁2015-	-7979
▁BUILT	-7980
▁PRINT	-7981
▁apply	-7982
▁brIdx	-7983
▁bytes	-7984
▁chars	-7985
▁could	-7986
▁enums	-7987
▁gener	-7988
▁later	-7989
▁legal	-7990
▁mList	-7991
▁since	-7992
▁these	-7993
▁trace	-7994
▁tzArg	-7995
("1.2.3	-7996
(10008,	-7997
2003020	-7998
2003021	-7999
CALIZED	-8000
CESSING	-8001
Cleanup	-8002
Closing	-8003
Correct	-8004
Emulate	-8005
FromIdx	-8006
Nesting	-8007
Setters	-8008
TRUSTED	-8009
TreeSet	-8010
WasPrim	-8011
allowed	-8012
atatype	-8013
cedPart	-8014
escaped	-8015
generic	-8016
getData	-8017
initial	-8018
logging	-8019
nsModel	-8020
partObj	-8021
sInProg	-8022
setFast	-8023
specify	-8024
subject	-8025
trusted	-8026
ubating	-8027
▁1237);	-8028
▁21004;	-8029
▁ERRMSG	-8030
▁NoSuch	-8031
▁Parent	-8032
▁SYSTEM	-8033
▁assign	-8034
▁cNames	-8035
▁cblock	-8036
▁getDOW	-8037
▁isAuto	-8038
▁jspOut	-8039
▁select	-8040
▁srcIdx	-8041
▁thread	-8042
▁trying	-8043
▁xmlHdr	-8044
("${'-${	-8045
06:15:24	-8046
13:35:08	-8047
:15:24:0	-8048
:30:00:0	-8049
AXParser	-8050
ArrayPre	-8051
ColonIdx	-8052
DescsEnd	-8053
Detected	-8054
DigitIdx	-8055
FixedAnd	-8056
GoodHint	-8057
MruEntry	-8058
NEGATIVE	-8059
PathTlds	-8060
SlashIdx	-8061
Stripped	-8062
SysDefTZ	-8063
_2_3_20,	-8064
baseName	-8065
ccessful	-8066
finditem	-8067
fullPath	-8068
lability	-8069
listItem	-8070
numClass	-8071
perclass	-8072
remental	-8073
softSize	-8074
▁123.75,	-8075
▁IGNORED	-8076
▁NonUser	-8077
▁TreeMap	-8078
▁blaming	-8079
▁dstFile	-8080
▁endType	-8081
▁exptect	-8082
▁generic	-8083
▁getLast	-8084
▁imports	-8085
▁leftPad	-8086
▁nesting	-8087
▁newTips	-8088
▁opening	-8089
▁outFile	-8090
▁prepare	-8091
▁sqlData	-8092
AndString	-8093
BuildDate	-8094
Canonical	-8095
CasePaths	-8096
FormatsBy	-8097
FtlHeader	-8098
HasStored	-8099
Initializ	-8100
JavaClass	-8101
NoAutoEsc	-8102
SourceExp	-8103
_2_3_20);	-8104
dentation	-8105
entryPath	-8106
extension	-8107
ftlHeader	-8108
getFields	-8109
getMember	-8110
getReader	-8111
iciousIdx	-8112
ifiedCall	-8113
leftModel	-8114
minLength	-8115
useCaches	-8116
ynaSetter	-8117
▁UNCLOSED	-8118
▁Variable	-8119
▁curEntry	-8120
▁explicit	-8121
▁getFirst	-8122
▁imported	-8123
▁included	-8124
▁jarEntry	-8125
▁macroCtx	-8126
▁matchers	-8127
▁maximals	-8128
▁original	-8129
▁parseExp	-8130
▁propName	-8131
▁specific	-8132
▁systemId	-8133
▁testBean	-8134
▁testName	-8135
-8859-5");	-8136
ASSIGNMENT	-8137
DateString	-8138
Interfaces	-8139
PROCESSING	-8140
SourceExpr	-8141
WithGroups	-8142
artedRange	-8143
assignment	-8144
customData	-8145
getPattern	-8146
getRequest	-8147
keyNamesLn	-8148
modelCache	-8149
newVersion	-8150
oldVersion	-8151
phabetical	-8152
startIndex	-8153
timeZoneId	-8154
▁PlainText	-8155
▁bitLength	-8156
▁confClass	-8157
▁converted	-8158
▁errorLine	-8159
▁findInCol	-8160
▁getLogger	-8161
▁getMarkup	-8162
▁importLib	-8163
▁listedExp	-8164
▁malformed	-8165
▁printJava	-8166
▁setCustom	-8167
▁thisClass	-8168
▁useCaches	-8169
(0.0000009,	-8170
ArgumentsTo	-8171
JarFilePath	-8172
LibraryLoad	-8173
Restrictons	-8174
SnapshotTop	-8175
VarParamCnt	-8176
breakpoints	-8177
classLoader	-8178
contentType	-8179
isDirectory	-8180
modelToDate	-8181
sInProgress	-8182
tWithHeader	-8183
writeObject	-8184
▁09:15:24:0	-8185
▁20:00:00:0	-8186
▁BIGINTEGER	-8187
▁Breakpoint	-8188
▁ClassBased	-8189
▁JspFactory	-8190
▁XSTemplate	-8191
▁assignment	-8192
▁blamedExpr	-8193
▁closeParen	-8194
▁commentEnd	-8195
▁expectedTC	-8196
▁lastLoader	-8197
▁linkedList	-8198
▁loadFactor	-8199
▁permissive	-8200
▁readMethod	-8201
▁testIcIAnd	-8202
(0.0000009),	-8203
203685477580	-8204
NestingLevel	-8205
ParseCleanup	-8206
TokenManager	-8207
gaeCompliant	-8208
listIterator	-8209
lookupLocale	-8210
markupString	-8211
setNamespace	-8212
variableName	-8213
▁ISOTemplate	-8214
▁TemplateKey	-8215
▁argDescsEnd	-8216
▁errorColumn	-8217
▁expectedCnt	-8218
▁formalTypes	-8219
▁getTimeZone	-8220
▁isIgnorable	-8221
▁nextFromIdx	-8222
▁tryUnwrapTo	-8223
▁underscored	-8224
CharacterData	-8225
ClassPathTlds	-8226
ClasspathTlds	-8227
DateSourceExp	-8228
DirectiveLike	-8229
EventListener	-8230
HasStoredNull	-8231
IteratorBlock	-8232
MarkupOutputs	-8233
UnresolvedArg	-8234
dstParamCount	-8235
mMapOrBoolean	-8236
▁07:30:00:123	-8237
▁BooleanModel	-8238
▁ElementModel	-8239
▁MethodSorter	-8240
▁TldParserFor	-8241
▁afterComment	-8242
▁createReader	-8243
▁legacyParent	-8244
▁lookupResult	-8245
▁markupContet	-8246
▁markupResult	-8247
▁mergedCustom	-8248
▁mixedContent	-8249
▁propertyName	-8250
AndDescription	-8251
CauseException	-8252
DirectiveNames	-8253
NormalizedName	-8254
PrefixResolver	-8255
SharedInstance	-8256
SuspendedEvent	-8257
SystemProperty	-8258
dTagOrFunction	-8259
getCustomState	-8260
isGAECompliant	-8261
useAdaptersFor	-8262
wardCompatible	-8263
▁angOrSquStart	-8264
▁arrayToString	-8265
▁componentType	-8266
▁defaultConfig	-8267
▁formatFactory	-8268
▁isConstructor	-8269
▁isInfoEnabled	-8270
▁isWarnEnabled	-8271
▁mMapOrBoolean	-8272
▁nestedContent	-8273
▁urlConnection	-8274
ArrayPreference	-8275
ConversionLoses	-8276
EmtpyMemberDesc	-8277
FixedAndVarargs	-8278
IsTemplateModel	-8279
NumberException	-8280
StringTokenizer	-8281
UTCTimeMSString	-8282
cfgOutputFormat	-8283
getStaticModels	-8284
parseFlagString	-8285
stdOutputFormat	-8286
stripWhitespace	-8287
targetNsVarName	-8288
▁12:30:05+02:00	-8289
▁BuiltInForNode	-8290
▁NonUserDefined	-8291
▁SimpleMapModel	-8292
▁assertTemplate	-8293
▁fallbackFormat	-8294
▁getInputStream	-8295
▁getLibraryName	-8296
▁isDebugEnabled	-8297
▁isErrorEnabled	-8298
▁isFatalEnabled	-8299
▁javaDateFormat	-8300
▁throwException	-8301
ConfigurationSet	-8302
ConfiguredOutput	-8303
ContainerPattern	-8304
CustomAttributes	-8305
DecimalSeparator	-8306
ParameterListPre	-8307
PrivilegedAction	-8308
SettingException	-8309
SettingPropDescs	-8310
SimpleCollection	-8311
VeryStrongWinCnt	-8312
arithmeticEngine	-8313
getWrappedObject	-8314
instructionStack	-8315
putUnlistedModel	-8316
ythonInterpreter	-8317
▁DebuggerService	-8318
▁FileInputStream	-8319
▁MissingRequired	-8320
▁NonMarkupOutput	-8321
▁globalNamespace	-8322
▁isTimeZoneBound	-8323
!"	-8324
#'	-8325
1'	-8326
19	-8327
4:	-8328
4]	-8329
5)	-8330
50	-8331
7(	-8332
9(	-8333
9,	-8334
98	-8335
::	-8336
DR	-8337
FP	-8338
My	-8339
RY	-8340
Ru	-8341
Tl	-8342
VM	-8343
Xx	-8344
br	-8345
ne	-8346
pi	-8347
ym	-8348
!";	-8349
(',	-8350
(':	-8351
(2)	-8352
*\\	-8353
-11	-8354
-8.	-8355
/*.	-8356
8",	-8357
9),	-8358
=1,	-8359
ART	-8360
Amp	-8361
Arr	-8362
CII	-8363
CLA	-8364
FOO	-8365
LHO	-8366
MMM	-8367
PLA	-8368
att	-8369
avi	-8370
ema	-8371
fTl	-8372
ime	-8373
len	-8374
lip	-8375
nos	-8376
req	-8377
ssT	-8378
tim	-8379
uch	-8380
yes	-8381
▁'$	-8382
▁Al	-8383
▁If	-8384
▁We	-8385
▁nl	-8386
▁ps	-8387
▁{&	-8388
(";;	-8389
('='	-8390
()",	-8391
(4);	-8392
)(?:	-8393
++);	-8394
."))	-8395
...}	-8396
10",	-8397
12",	-8398
2322	-8399
3400	-8400
ANGE	-8401
BACK	-8402
CLAS	-8403
COMM	-8404
CTED	-8405
Html	-8406
IRON	-8407
MISS	-8408
None	-8409
POST	-8410
Real	-8411
Rule	-8412
Step	-8413
TODO	-8414
UEUE	-8415
UseS	-8416
Zero	-8417
[0]?	-8418
bool	-8419
cons	-8420
edMf	-8421
erst	-8422
hour	-8423
itIt	-8424
mock	-8425
over	-8426
port	-8427
push	-8428
rosp	-8429
sent	-8430
some	-8431
tree	-8432
ways	-8433
xFDF	-8434
▁"1_	-8435
▁"{<	-8436
▁${"	-8437
▁'.'	-8438
▁'@'	-8439
▁'_'	-8440
▁));	-8441
▁-->	-8442
▁0))	-8443
▁0),	-8444
▁1.0	-8445
▁1>\	-8446
▁6);	-8447
▁Dom	-8448
▁End	-8449
▁Get	-8450
▁NUM	-8451
▁Opt	-8452
▁TAB	-8453
▁TAG	-8454
▁ind	-8455
▁ipd	-8456
▁mda	-8457
▁now	-8458
▁sow	-8459
▁ver	-8460
#{1.5	-8461
("**/	-8462
("0';	-8463
))));	-8464
10");	-8465
23:59	-8466
3006;	-8467
4());	-8468
;}");	-8469
=1>",	-8470
ASCII	-8471
Dates	-8472
ENTRY	-8473
EVALU	-8474
EndTN	-8475
Equal	-8476
Force	-8477
Forms	-8478
MACRO	-8479
START	-8480
STATE	-8481
TENER	-8482
UENCE	-8483
UrlEF	-8484
\\");	-8485
adapt	-8486
aware	-8487
chema	-8488
eclip	-8489
gedMf	-8490
icate	-8491
ifNum	-8492
igger	-8493
igher	-8494
isAPI	-8495
ither	-8496
loyed	-8497
outer	-8498
perly	-8499
recur	-8500
stDir	-8501
tible	-8502
token	-8503
uCase	-8504
ymous	-8505
▁"));	-8506
▁"3",	-8507
▁'.')	-8508
▁':')	-8509
▁('0'	-8510
▁1><#	-8511
▁2));	-8512
▁Call	-8513
▁Conf	-8514
▁MASK	-8515
▁SHOW	-8516
▁Seld	-8517
▁best	-8518
▁comb	-8519
▁head	-8520
▁less	-8521
▁mMap	-8522
▁pull	-8523
▁save	-8524
▁thus	-8525
▁tree	-8526
▁tzNY	-8527
▁view	-8528
▁}");	-8529
(">");	-8530
())));	-8531
(60000	-8532
-02-28	-8533
-03-02	-8534
2323()	-8535
ArgVal	-8536
Blamer	-8537
COMMON	-8538
DOTALL	-8539
Europe	-8540
Except	-8541
FRANCE	-8542
LOGGER	-8543
Logged	-8544
Mapper	-8545
READER	-8546
Render	-8547
Runner	-8548
SIMPLE	-8549
SensFS	-8550
SepIdx	-8551
ToNull	-8552
ToTest	-8553
Tupple	-8554
WebXml	-8555
WithSh	-8556
accept	-8557
agment	-8558
ashArg	-8559
before	-8560
cepted	-8561
detail	-8562
domain	-8563
lastBI	-8564
linked	-8565
nosuch	-8566
ooking	-8567
srcDir	-8568
tojava	-8569
trDesc	-8570
▁")");	-8571
▁"0000	-8572
▁"1.23	-8573
▁"1.50	-8574
▁"<#--	-8575
▁10.5,	-8576
▁1024;	-8577
▁Clear	-8578
▁TestF	-8579
▁\"/\"	-8580
▁basic	-8581
▁biNum	-8582
▁block	-8583
▁digit	-8584
▁mDate	-8585
▁month	-8586
▁qName	-8587
▁shown	-8588
▁tcXml	-8589
▁terse	-8590
("${'&'	-8591
("${\"'	-8592
1000.15	-8593
AndSame	-8594
BodyTag	-8595
Bracket	-8596
CLASSES	-8597
Caching	-8598
Checked	-8599
ENVIRON	-8600
ForThis	-8601
Interpo	-8602
JLogger	-8603
KeyName	-8604
LastIdx	-8605
MISSING	-8606
OnlyHas	-8607
OrDigit	-8608
Ordinal	-8609
Protect	-8610
SUBTYPE	-8611
Shadows	-8612
Slicing	-8613
Special	-8614
Through	-8615
TrueExp	-8616
_2_4_0.	-8617
atCount	-8618
clusion	-8619
eclipse	-8620
edError	-8621
ersands	-8622
firstBI	-8623
getNext	-8624
getText	-8625
ificant	-8626
jLogger	-8627
objects	-8628
ongHead	-8629
regedMf	-8630
runners	-8631
ssTools	-8632
stackEl	-8633
▁"&#39;	-8634
▁"(...)	-8635
▁'&'}",	-8636
▁10008;	-8637
▁24006;	-8638
▁NAMING	-8639
▁Return	-8640
▁Should	-8641
▁WebApp	-8642
▁detail	-8643
▁getAPI	-8644
▁getFTL	-8645
▁getMin	-8646
▁jspctx	-8647
▁jython	-8648
▁maxCnt	-8649
▁minCnt	-8650
▁modify	-8651
▁testUn	-8652
▁thrown	-8653
("${\"${	-8654
+04:00",	-8655
21474836	-8656
ArgCount	-8657
ArgTypes	-8658
Asterisk	-8659
ByString	-8660
DETECTED	-8661
Examples	-8662
FalseExp	-8663
Included	-8664
ItemType	-8665
LISTENER	-8666
NodeName	-8667
PathInfo	-8668
Previous	-8669
Protocol	-8670
PublicId	-8671
Returned	-8672
TMEquals	-8673
TokenEnd	-8674
VarNames	-8675
Versions	-8676
_2_3_0).	-8677
builtins	-8678
currency	-8679
extended	-8680
getFirst	-8681
hamcerst	-8682
location	-8683
multiple	-8684
opString	-8685
propName	-8686
property	-8687
ruStrong	-8688
sLogging	-8689
validate	-8690
valueExp	-8691
▁"\".");	-8692
▁/></@>\	-8693
▁CLASSIC	-8694
▁Dynamic	-8695
▁Example	-8696
▁Generic	-8697
▁Project	-8698
▁TRUSTED	-8699
▁adapter	-8700
▁argName	-8701
▁created	-8702
▁formats	-8703
▁ftlFile	-8704
▁getAuto	-8705
▁hourWas	-8706
▁literal	-8707
▁newArgs	-8708
▁noMatch	-8709
▁nsModel	-8710
▁perform	-8711
▁regedMf	-8712
▁regular	-8713
▁reqHash	-8714
▁rightMO	-8715
▁special	-8716
▁tDefEnc	-8717
▁testMap	-8718
▁unitStr	-8719
'>${'\\''	-8720
-8859-1",	-8721
10:30:05,	-8722
BACKSLASH	-8723
CamelCase	-8724
Classpath	-8725
Configure	-8726
Different	-8727
FindCount	-8728
Localized	-8729
SignifNum	-8730
Singleton	-8731
TestClass	-8732
UrlToFile	-8733
WithArray	-8734
_2_3_19).	-8735
anonymous	-8736
dateToISO	-8737
getTarget	-8738
▁16:30:05	-8739
▁Combined	-8740
▁Constant	-8741
▁Matchers	-8742
▁RmiDebug	-8743
▁ancestor	-8744
▁argArray	-8745
▁basePath	-8746
▁capacity	-8747
▁caseName	-8748
▁checkNot	-8749
▁debugger	-8750
▁escaping	-8751
▁extended	-8752
▁forceUTC	-8753
▁generate	-8754
▁lastChar	-8755
▁mBoolean	-8756
▁noOutput	-8757
▁nodeList	-8758
▁pyObject	-8759
▁squarify	-8760
Ampersands	-8761
BufferSize	-8762
BuiltInFor	-8763
CharStream	-8764
CommonPart	-8765
ELFunction	-8766
GenericGet	-8767
MetaInfTld	-8768
NotNullAnd	-8769
PyInstance	-8770
SetSetting	-8771
SimpleDate	-8772
SlicingBug	-8773
StartIndex	-8774
StrongHead	-8775
ThrowsWith	-8776
ToDefaults	-8777
WarnLogged	-8778
clearCache	-8779
formalType	-8780
hasContent	-8781
isFunction	-8782
iteratorTM	-8783
readObject	-8784
strongSize	-8785
sysPropVal	-8786
targetNode	-8787
▁Directive	-8788
▁Functions	-8789
▁LOCALIZED	-8790
▁NAMESPACE	-8791
▁Numerical	-8792
▁RECOGNIZE	-8793
▁Timestamp	-8794
▁bestMatch	-8795
▁byteValue	-8796
▁callPlace	-8797
▁classInfo	-8798
▁classpath	-8799
▁dotDotIdx	-8800
▁findInSeq	-8801
▁getActual	-8802
▁getNumber	-8803
▁listItems	-8804
▁localVars	-8805
▁pullCData	-8806
▁removePIs	-8807
▁rhoNumber	-8808
▁something	-8809
00:00:00");	-8810
ArgCntError	-8811
Assignables	-8812
Conversions	-8813
ENVIRONMENT	-8814
EntireInput	-8815
GettersRule	-8816
MessageUtil	-8817
NoSuchField	-8818
Permutation	-8819
UrlBIResult	-8820
WithBuilder	-8821
WithShorted	-8822
WithVersion	-8823
WithoutUnit	-8824
correctName	-8825
decodedName	-8826
httpSession	-8827
lessMethods	-8828
ssToolsMode	-8829
tryUnwrapTo	-8830
typePostfix	-8831
uCaseSensFS	-8832
▁"07:30:00.	-8833
▁ARITHMETIC	-8834
▁DebugBreak	-8835
▁REGISTERED	-8836
▁WHITESPACE	-8837
▁bufferSize	-8838
▁characters	-8839
▁checkChild	-8840
▁difficulty	-8841
▁extraTypes	-8842
▁fetchValue	-8843
▁formalType	-8844
▁foundAtIdx	-8845
▁getMessage	-8846
▁getRequest	-8847
▁getSession	-8848
▁lazyImport	-8849
▁newFactory	-8850
▁outputFile	-8851
▁startsWith	-8852
▁sysPropVal	-8853
("2014-01-01	-8854
AllParamName	-8855
AndSameClass	-8856
AndTransform	-8857
DirectoryFor	-8858
ForThisTrace	-8859
IterationTag	-8860
JavaVersions	-8861
RoundingMode	-8862
TagModelBase	-8863
TesterAction	-8864
TldLocations	-8865
Unmodifiable	-8866
edErrorStack	-8867
getBuildDate	-8868
invokeMethod	-8869
linkedJython	-8870
numConvPrice	-8871
orrectedName	-8872
setCharacter	-8873
xpathSupport	-8874
▁"2010-01-01	-8875
▁"2010-05-09	-8876
▁Conflicting	-8877
▁HashAdapter	-8878
▁JythonModel	-8879
▁MultiSource	-8880
▁addListener	-8881
▁coerceModel	-8882
▁containsKey	-8883
▁encodingExp	-8884
▁getArgument	-8885
▁hashExModel	-8886
▁rootElement	-8887
▁setTimeZone	-8888
▁settingName	-8889
▁stringArray	-8890
BooleanResult	-8891
DateMalformed	-8892
ForEvaluation	-8893
SeldomEscaped	-8894
StringBuilder	-8895
configuration	-8896
defaultBlamed	-8897
defaultConfig	-8898
defaultFormat	-8899
getEnumModels	-8900
ificantDigits	-8901
isInfoEnabled	-8902
isLogTemplate	-8903
keyExpression	-8904
labilityCheck	-8905
▁Alphabetical	-8906
▁MruReference	-8907
▁createCommon	-8908
▁extraInfoTmp	-8909
▁gaeCompliant	-8910
▁getParamType	-8911
▁heedsOpening	-8912
▁keyValuePair	-8913
▁normalizeNew	-8914
▁rightOMOrStr	-8915
▁seekTokenEnd	-8916
▁testOutputMO	-8917
▁tldDiscovery	-8918
▁typesToWiden	-8919
ArgumentsWrong	-8920
DateTimeString	-8921
DelayedOrdinal	-8922
ElementNotNull	-8923
InAttemptBlock	-8924
NamespaceIndex	-8925
ResponseLocale	-8926
WrappingResult	-8927
cachedTemplate	-8928
getDescription	-8929
getNonNullDate	-8930
initParamValue	-8931
isErrorEnabled	-8932
noSuchTemplate	-8933
setLazyImports	-8934
ulatedChildren	-8935
▁Introspection	-8936
▁OptInTemplate	-8937
▁SeldomEscaped	-8938
▁SoftReference	-8939
▁StopException	-8940
▁TestSimpleTag	-8941
▁TokenMgrError	-8942
▁commaSepItems	-8943
▁evalAndCoerce	-8944
▁expecedOutput	-8945
▁heedsTrailing	-8946
▁loggerFactory	-8947
▁parseDateTime	-8948
▁rawJarContent	-8949
▁setNewBuiltin	-8950
▁wideningTypes	-8951
AfterStrongHead	-8952
CommonClassCode	-8953
DefaultTimeZone	-8954
IterableAdapter	-8955
ShadowsProperty	-8956
ationExpression	-8957
getAbsolutePath	-8958
getColumnNumber	-8959
getLastModified	-8960
httpHeaderValue	-8961
isLetterOrDigit	-8962
isObjectWrapper	-8963
setMethodSorter	-8964
▁BufferedReader	-8965
▁DynamicKeyName	-8966
▁ZipInputStream	-8967
▁custLookupCond	-8968
▁javaStackTrace	-8969
▁operatorString	-8970
▁servletRequest	-8971
▁setChildBuffer	-8972
▁showZoneOffset	-8973
▁simpleTestName	-8974
AccessibleMethod	-8975
BuiltInsForNodes	-8976
StackTraceWriter	-8977
getURLConnection	-8978
ignoreMissingExp	-8979
loopVariableName	-8980
nextTerminalNode	-8981
▁EventForwarding	-8982
▁MruCacheStorage	-8983
▁SequenceAdapter	-8984
▁TrimInstruction	-8985
▁WebInfPerLibJar	-8986
▁cachedFormatsBy	-8987
▁cfgOutputFormat	-8988
▁createDataModel	-8989
▁httpHeaderValue	-8990
▁removeAttribute	-8991
▁setOutputFormat	-8992
'_	-8993
)"	-8994
46	-8995
4_	-8996
=-	-8997
=_	-8998
?"	-8999
CB	-9000
FG	-9001
IM	-9002
Im	-9003
Ms	-9004
NL	-9005
YE	-9006
YN	-9007
cn	-9008
cp	-9009
fm	-9010
mk	-9011
nx	-9012
pc	-9013
}]	-9014
(":	-9015
("=	-9016
(')	-9017
(5.	-9018
-31	-9019
.00	-9020
/..	-9021
01-	-9022
020	-9023
17:	-9024
1>"	-9025
1\"	-9026
2),	-9027
2\"	-9028
305	-9029
40)	-9030
512	-9031
610	-9032
930	-9033
>'?	-9034
AMP	-9035
ASS	-9036
Are	-9037
Bad	-9038
CEB	-9039
CHE	-9040
EXA	-9041
FER	-9042
FLO	-9043
Few	-9044
Ftm	-9045
GEN	-9046
JAX	-9047
MDC	-9048
OrL	-9049
Pan	-9050
Rew	-9051
UNT	-9052
USE	-9053
UTE	-9054
['\	-9055
_3,	-9056
asd	-9057
bit	-9058
cas	-9059
cmp	-9060
des	-9061
esn	-9062
hoc	-9063
ish	-9064
nio	-9065
oin	-9066
ost	-9067
two	-9068
une	-9069
uty	-9070
war	-9071
xAC	-9072
xBA	-9073
xss	-9074
}${	-9075
▁3:	-9076
▁AD	-9077
▁AT	-9078
▁Ch	-9079
▁IF	-9080
▁Pr	-9081
▁TM	-9082
▁kg	-9083
▁nu	-9084
("*(	-9085
("**	-9086
("01	-9087
("]]	-9088
(-0.	-9089
(-1.	-9090
(8);	-9091
/../	-9092
/>",	-9093
000,	-9094
1-12	-9095
1970	-9096
2115	-9097
2124	-9098
2128	-9099
2145	-9100
:17:	-9101
<?>)	-9102
>"),	-9103
Both	-9104
Cust	-9105
Deep	-9106
ERIC	-9107
HEXA	-9108
Http	-9109
IGHT	-9110
Leav	-9111
Left	-9112
MEND	-9113
OFSe	-9114
Pane	-9115
Pred	-9116
RIDE	-9117
SAME	-9118
STRU	-9119
Stub	-9120
YEAR	-9121
_24_	-9122
ainf	-9123
aved	-9124
conn	-9125
duct	-9126
ello	-9127
enti	-9128
flow	-9129
havi	-9130
ibly	-9131
idth	-9132
inet	-9133
loor	-9134
mMap	-9135
oder	-9136
onet	-9137
play	-9138
post	-9139
roll	-9140
tear	-9141
ulus	-9142
unks	-9143
xABC	-9144
}-'}	-9145
}>",	-9146
▁"@@	-9147
▁"[#	-9148
▁"[]	-9149
▁${1	-9150
▁'/'	-9151
▁'{'	-9152
▁(((	-9153
▁...	-9154
▁1",	-9155
▁12)	-9156
▁60;	-9157
▁Add	-9158
▁CFG	-9159
▁Fri	-9160
▁HDR	-9161
▁ICI	-9162
▁KVP	-9163
▁Man	-9164
▁\",	-9165
▁age	-9166
▁bwb	-9167
▁dep	-9168
▁ext	-9169
▁fmt	-9170
▁hap	-9171
▁its	-9172
▁let	-9173
▁mak	-9174
▁met	-9175
▁seg	-9176
▁tmi	-9177
▁ttm	-9178
▁xss	-9179
']}",	-9180
(""))	-9181
("'@'	-9182
("../	-9183
("</#	-9184
())).	-9185
()]);	-9186
(1)))	-9187
(123,	-9188
+01",	-9189
-6));	-9190
...";	-9191
/*");	-9192
00000	-9193
1());	-9194
8601,	-9195
<@'<#	-9196
ARKER	-9197
AndIn	-9198
AtBar	-9199
CTORS	-9200
Clash	-9201
Depth	-9202
Esced	-9203
FLOOR	-9204
ForIn	-9205
Hints	-9206
INDEX	-9207
INGLE	-9208
INPUT	-9209
Image	-9210
Inher	-9211
JAXEN	-9212
MULTI	-9213
RECOM	-9214
Recre	-9215
STACK	-9216
Stats	-9217
Store	-9218
TRACE	-9219
ToNon	-9220
URITo	-9221
Valid	-9222
XHTML	-9223
XMLID	-9224
\\''}	-9225
ality	-9226
allow	-9227
anned	-9228
based	-9229
ctors	-9230
eBean	-9231
edRef	-9232
impli	-9233
indTo	-9234
indow	-9235
isNaN	-9236
lease	-9237
lenge	-9238
lower	-9239
lySet	-9240
nNode	-9241
orten	-9242
poses	-9243
shown	-9244
stats	-9245
swing	-9246
vable	-9247
xAADB	-9248
xFFCA	-9249
xFFDA	-9250
▁"/";	-9251
▁"</@	-9252
▁"\""	-9253
▁"\"(	-9254
▁"}",	-9255
▁$\\{	-9256
▁${'.	-9257
▁'&',	-9258
▁1>\\	-9259
▁2006	-9260
▁3));	-9261
▁Back	-9262
▁DATA	-9263
▁SPEC	-9264
▁aVal	-9265
▁bVal	-9266
▁bool	-9267
▁duty	-9268
▁excl	-9269
▁ftlh	-9270
▁ftlx	-9271
▁getA	-9272
▁getM	-9273
▁hide	-9274
▁ifOr	-9275
▁impM	-9276
▁itIt	-9277
▁mSet	-9278
▁maps	-9279
▁setB	-9280
▁shut	-9281
▁tUTF	-9282
▁tcYN	-9283
"))));	-9284
(")");	-9285
(":");	-9286
(3)));	-9287
(5.9),	-9288
*.*"),	-9289
-02-03	-9290
00*10<	-9291
:17:36	-9292
ACTION	-9293
AsList	-9294
Backed	-9295
ByName	-9296
CONVER	-9297
Chunks	-9298
Coding	-9299
DIFFER	-9300
Digest	-9301
IGNORE	-9302
JavaCC	-9303
MINUTE	-9304
Mapped	-9305
Needle	-9306
OFSeen	-9307
OfType	-9308
OrSelf	-9309
StrLoc	-9310
ToText	-9311
TopFew	-9312
VarArg	-9313
ateful	-9314
bwConf	-9315
entity	-9316
exical	-9317
havior	-9318
iction	-9319
inedOF	-9320
isAuto	-9321
lected	-9322
mentOn	-9323
needle	-9324
offset	-9325
parity	-9326
ranges	-9327
ressWS	-9328
sIndex	-9329
sticky	-9330
tories	-9331
}-'}",	-9332
▁"2006	-9333
▁'\'')	-9334
▁BUILD	-9335
▁ERROR	-9336
▁Match	-9337
▁Xalan	-9338
▁adapt	-9339
▁attrs	-9340
▁blame	-9341
▁colon	-9342
▁ctors	-9343
▁evalu	-9344
▁getIn	-9345
▁isJar	-9346
▁keyTk	-9347
▁lhoMO	-9348
▁mName	-9349
▁tcUtf	-9350
▁tcXML	-9351
▁testM	-9352
▁testS	-9353
▁toABC	-9354
▁until	-9355
▁width	-9356
${*}");	-9357
("</").	-9358
("</");	-9359
('\\');	-9360
(-3)));	-9361
1970");	-9362
BoolFtm	-9363
CLASSIC	-9364
Calling	-9365
Created	-9366
DirUrls	-9367
EMARKER	-9368
EmptyIt	-9369
Execute	-9370
GENERIC	-9371
JFormat	-9372
Leaving	-9373
NLChars	-9374
Nothing	-9375
OfLists	-9376
OrLater	-9377
PATTERN	-9378
Project	-9379
Remover	-9380
ResPath	-9381
TAGLIBS	-9382
TagName	-9383
TimeStr	-9384
Unaware	-9385
WARNING	-9386
allenge	-9387
argType	-9388
ceiling	-9389
checked	-9390
contain	-9391
edValue	-9392
getMain	-9393
hetical	-9394
iggered	-9395
inetune	-9396
lerItem	-9397
maining	-9398
onetary	-9399
printfG	-9400
setLast	-9401
storage	-9402
tection	-9403
▁").");	-9404
▁"-2");	-9405
▁10004;	-9406
▁21003;	-9407
▁Cached	-9408
▁Format	-9409
▁Reason	-9410
▁Remote	-9411
▁STATIC	-9412
▁XMLEnc	-9413
▁\"/\":	-9414
▁ambigu	-9415
▁bindTo	-9416
▁coerce	-9417
▁deduce	-9418
▁exists	-9419
▁getUse	-9420
▁inform	-9421
▁insert	-9422
▁keyMap	-9423
▁lNames	-9424
▁leftMO	-9425
▁leftOF	-9426
▁mMixed	-9427
▁making	-9428
▁maried	-9429
▁models	-9430
▁putAll	-9431
▁strval	-9432
▁tupple	-9433
▁valExp	-9434
▁weight	-9435
("0.##;;	-9436
("101010	-9437
("<>"));	-9438
15:30:00	-9439
ARGTYPES	-9440
Accepted	-9441
AndStore	-9442
Building	-9443
CacheAPI	-9444
Category	-9445
CharCode	-9446
OVERRIDE	-9447
OfTypeBI	-9448
OrMarkup	-9449
Patterns	-9450
RELATIVE	-9451
RESOURCE	-9452
Unclosed	-9453
ViewPath	-9454
WhenCust	-9455
ZONELESS	-9456
_2_3_21)	-9457
accuracy	-9458
beginIdx	-9459
contLine	-9460
curEntry	-9461
dentical	-9462
detected	-9463
firstIdx	-9464
getOwner	-9465
getStart	-9466
included	-9467
isCustom	-9468
izerUtil	-9469
mBoolean	-9470
multiply	-9471
setDelay	-9472
setValue	-9473
typesLen	-9474
▁ALLOWED	-9475
▁Blaming	-9476
▁BodyTag	-9477
▁Failing	-9478
▁Include	-9479
▁JarFile	-9480
▁MESSAGE	-9481
▁Mutable	-9482
▁Prallel	-9483
▁Unicast	-9484
▁attrIdx	-9485
▁classTo	-9486
▁curChar	-9487
▁getReco	-9488
▁httpCon	-9489
▁introsp	-9490
▁isMinus	-9491
▁lastpos	-9492
▁library	-9493
▁lineBuf	-9494
▁matched	-9495
▁moOrStr	-9496
▁newRoot	-9497
▁outArgs	-9498
▁pageCtx	-9499
▁problem	-9500
▁sqlDate	-9501
▁statics	-9502
▁stopped	-9503
▁tMacros	-9504
▁tcStats	-9505
▁testNon	-9506
▁without	-9507
000-02-08	-9508
:00:00");	-9509
AndSimple	-9510
ArrayCopy	-9511
CONVERTER	-9512
CurrentTZ	-9513
DIFFERENT	-9514
HTMLModel	-9515
Interpret	-9516
LocaleSet	-9517
Locations	-9518
LoopCount	-9519
MULTILINE	-9520
NoStripWS	-9521
Predicate	-9522
RECOMMEND	-9523
Resources	-9524
STRUCTORS	-9525
Selection	-9526
SetMethod	-9527
TextChild	-9528
URILookup	-9529
WithMixed	-9530
addMethod	-9531
bitLength	-9532
callPlace	-9533
getGlobal	-9534
getWriter	-9535
ification	-9536
inputFile	-9537
jsptaglib	-9538
linkEntry	-9539
listeners	-9540
mIntArray	-9541
multipier	-9542
nextIndex	-9543
peatCount	-9544
testArray	-9545
utcToLong	-9546
wrapAsAPI	-9547
wrappable	-9548
▁+0400"),	-9549
▁BIBefore	-9550
▁EmptyMap	-9551
▁JarEntry	-9552
▁MyString	-9553
▁TestUtil	-9554
▁beanProp	-9555
▁cacheKey	-9556
▁checkAll	-9557
▁creating	-9558
▁custAttr	-9559
▁dealWith	-9560
▁defValue	-9561
▁document	-9562
▁getBegin	-9563
▁minScale	-9564
▁multiple	-9565
▁namedArg	-9566
▁newIndex	-9567
▁notEsced	-9568
▁oldValue	-9569
▁overflow	-9570
▁paramEnt	-9571
▁possibly	-9572
▁returned	-9573
▁segments	-9574
▁setClass	-9575
▁typesLen	-9576
▁unparsed	-9577
▁useCache	-9578
▁versions	-9579
Assertions	-9580
BeanModels	-9581
ClassBased	-9582
ComWithout	-9583
DeepUnwrap	-9584
Difficulty	-9585
EVALUATION	-9586
FMSettings	-9587
IcIVersion	-9588
NameFilter	-9589
ObjectInfo	-9590
OpenStream	-9591
Positional	-9592
Recreation	-9593
Superclass	-9594
TimeMillis	-9595
TimeString	-9596
areBracket	-9597
autoEscape	-9598
cListModel	-9599
commentEnd	-9600
consistent	-9601
dateFormat	-9602
dstRootDir	-9603
incubating	-9604
isPositive	-9605
parameters	-9606
setContext	-9607
setMethods	-9608
subdirPath	-9609
timeFormat	-9610
▁CallPlace	-9611
▁ClassPath	-9612
▁Composite	-9613
▁DateModel	-9614
▁KeepAfter	-9615
▁KeepUntil	-9616
▁NUMERICAL	-9617
▁allowNull	-9618
▁different	-9619
▁emulateNo	-9620
▁getSorted	-9621
▁isVarargs	-9622
▁lhoNumber	-9623
▁mIntArray	-9624
▁numerical	-9625
▁setLocale	-9626
▁tcBCommon	-9627
▁threadEnv	-9628
▁varargIdx	-9629
▁variation	-9630
AndExpected	-9631
AndTemplate	-9632
ArrayBacked	-9633
CompatibleN	-9634
ForToString	-9635
GlobSection	-9636
HttpRequest	-9637
INITIALIZED	-9638
LongOrShort	-9639
MemberDescs	-9640
MultiSource	-9641
NodeHandler	-9642
NumberClass	-9643
Specificity	-9644
WithCharset	-9645
ainfDirUrls	-9646
elementName	-9647
encodingExp	-9648
enumeration	-9649
firstEscIdx	-9650
getBeanInfo	-9651
getLanguage	-9652
getPrevious	-9653
getResponse	-9654
getSystemId	-9655
latedString	-9656
missingTemp	-9657
removeChild	-9658
rootElement	-9659
setVariable	-9660
xpathString	-9661
▁0.9999991,	-9662
▁ASTPrinter	-9663
▁AndMatcher	-9664
▁ArrayModel	-9665
▁MyTemplate	-9666
▁RangeModel	-9667
▁additional	-9668
▁calcedPart	-9669
▁combinedOF	-9670
▁compressWS	-9671
▁conversion	-9672
▁customData	-9673
▁dstRootDir	-9674
▁dynaSetter	-9675
▁expectedXS	-9676
▁floatValue	-9677
▁getContent	-9678
▁getContext	-9679
▁getWrapper	-9680
▁htmlMarkup	-9681
▁ifOrAssign	-9682
▁lastEscIdx	-9683
▁loadedLibs	-9684
▁setDefault	-9685
▁shouldUseS	-9686
▁singleLine	-9687
▁slashRight	-9688
▁timeZoneId	-9689
▁typesFlags	-9690
▁wrappedTsm	-9691
▁xpathCache	-9692
ClassIntrosp	-9693
CommentStart	-9694
FileNotFound	-9695
ForInclusion	-9696
JavaCharCode	-9697
JavaInstance	-9698
LocalContext	-9699
LocaleEquals	-9700
LocationFrom	-9701
MessagesTest	-9702
ParsingError	-9703
ReadOnlyList	-9704
RequiredChar	-9705
RunnerThread	-9706
ToFileOrNull	-9707
ToNonMissing	-9708
WithoutCache	-9709
aptureOutput	-9710
autoEscaping	-9711
checkVersion	-9712
dateOfTypeBI	-9713
errorHandler	-9714
evalToNumber	-9715
formatNumber	-9716
getFindCount	-9717
getPrefixFor	-9718
newMethodArg	-9719
newlineIndex	-9720
roundingMode	-9721
supiciousIdx	-9722
▁BodyContent	-9723
▁BooleanList	-9724
▁ThreadLocal	-9725
▁WeakHashMap	-9726
▁breakpoints	-9727
▁commonTypes	-9728
▁createModel	-9729
▁doubleValue	-9730
▁expectedISO	-9731
▁getEncoding	-9732
▁getInstance	-9733
▁getLocation	-9734
▁information	-9735
▁innerFormat	-9736
▁inputStream	-9737
▁memberDescs	-9738
▁newInstance	-9739
▁packagePath	-9740
▁putTemplate	-9741
▁templateDir	-9742
▁tryToString	-9743
▁xpathString	-9744
LoopDirective	-9745
NestedElement	-9746
PairAssertion	-9747
ReplacementOn	-9748
ResourcePaths	-9749
WhenCustForms	-9750
defaultTarget	-9751
jsptaglibrary	-9752
lySetTimeZone	-9753
modelToString	-9754
parentElement	-9755
patternString	-9756
▁DefaultModel	-9757
▁HTTPResponse	-9758
▁Introspector	-9759
▁SimpleMethod	-9760
▁Unrecognized	-9761
▁Unregistered	-9762
▁allowNoMatch	-9763
▁buildPattern	-9764
▁cTransformer	-9765
▁cfgableNames	-9766
▁copyrightIdx	-9767
▁doAssertions	-9768
▁findTemplate	-9769
▁flagWarnings	-9770
▁gCompatibleN	-9771
▁getEnclosing	-9772
▁getLocalName	-9773
▁newNamespace	-9774
▁normExpected	-9775
▁parsingStart	-9776
▁setTagSyntax	-9777
▁srcTypeFlags	-9778
▁testArrayAnd	-9779
▁testTemplate	-9780
▁tokenManager	-9781
12:30:05+02:00	-9782
FailsDirective	-9783
ICIChainMember	-9784
LegacyEscaping	-9785
NamedArgsCache	-9786
NumericalTypes	-9787
PropertiesFile	-9788
SignatureCData	-9789
TaglibBuilding	-9790
XMLOutputModel	-9791
exceptionClass	-9792
getChildBuffer	-9793
getClassLoader	-9794
setCustomState	-9795
vableException	-9796
writeProtected	-9797
ythonClassName	-9798
▁FailingReader	-9799
▁IteratorBlock	-9800
▁NumberLiteral	-9801
▁Parenthetical	-9802
▁camelCaseName	-9803
▁defaultFormat	-9804
▁defaultTarget	-9805
▁ftlStackTrace	-9806
▁getAttributes	-9807
▁getChildNodes	-9808
▁getJspContext	-9809
▁getLineNumber	-9810
▁introspection	-9811
▁keyComparator	-9812
▁localVarNames	-9813
▁mainNamespace	-9814
▁namedArgsSize	-9815
▁nestedElement	-9816
▁objectFactory	-9817
▁paramDefaults	-9818
▁patternString	-9819
▁printNodeLine	-9820
▁showErrorTips	-9821
▁srcParamCount	-9822
▁superParamCnt	-9823
▁tdmSourceExpr	-9824
▁testSuiteIcis	-9825
11:30:05+01:00\	-9826
AXParserFactory	-9827
AndStoreResults	-9828
AtFooComContent	-9829
CanonicalFormOf	-9830
ElementsToVisit	-9831
EqualsDirective	-9832
ExceptionAction	-9833
FileInputStream	-9834
FunctionContext	-9835
MockHttpServlet	-9836
OpenStreamFails	-9837
OutputDirective	-9838
PathGlobMatcher	-9839
RecreationCount	-9840
SubclassFactory	-9841
ValueExpression	-9842
basePackagePath	-9843
createAttribute	-9844
getMethodSorter	-9845
icCompatibleSet	-9846
iterableSupport	-9847
jarBaseEntryUrl	-9848
localizedLookup	-9849
newLookupResult	-9850
pendEnvironment	-9851
resetToDefaults	-9852
▁CachedTemplate	-9853
▁SpecialBuiltIn	-9854
▁allowedClasses	-9855
▁assertContains	-9856
▁functionMethod	-9857
▁lineBreakState	-9858
▁loadedTemplate	-9859
▁mNullAmbiguous	-9860
▁modelToBoolean	-9861
▁newRootLeaving	-9862
▁nextBigInteger	-9863
▁numberOfChunks	-9864
▁removeComments	-9865
▁shortArrayCopy	-9866
▁testHasContent	-9867
AccessController	-9868
BreakInstruction	-9869
DummyOutputModel	-9870
LDateOrTimeClass	-9871
ObjectWrapperInc	-9872
SoftCacheStorage	-9873
XHTMLOutputModel	-9874
addInitParameter	-9875
canBeStaticField	-9876
descriptionParts	-9877
getAdaptedObject	-9878
getInitParameter	-9879
getInstanceCache	-9880
javaDayErrorDate	-9881
providerIdentity	-9882
publicReadMethod	-9883
pureTemplatePath	-9884
▁CollectionModel	-9885
▁KeepAfterMethod	-9886
▁KeepUntilMethod	-9887
▁MutableTemplate	-9888
▁PatternCacheKey	-9889
▁defaultEncoding	-9890
▁getColumnNumber	-9891
▁getExpectedFile	-9892
▁getXPathSupport	-9893
▁initialEncoding	-9894
▁isComponentType	-9895
▁jarEntryDirPath	-9896
▁jarResourcePath	-9897
▁logWarnInLogger	-9898
▁namedParamNames	-9899
▁recoverySection	-9900
▁separatorString	-9901
▁setMethodSorter	-9902
'\	-9903
)-	-9904
)?	-9905
-"	-9906
-2	-9907
2>	-9908
73	-9909
79	-9910
<=	-9911
<>	-9912
>]	-9913
??	-9914
BO	-9915
CN	-9916
NM	-9917
Sg	-9918
UB	-9919
VI	-9920
Vu	-9921
We	-9922
]+	-9923
_6	-9924
cu	-9925
fd	-9926
ja	-9927
wa	-9928
ws	-9929
').	-9930
':'	-9931
'\\	-9932
("}	-9933
('@	-9934
(20	-9935
(7,	-9936
(?:	-9937
-13	-9938
/>,	-9939
/?.	-9940
1";	-9941
1))	-9942
207	-9943
24,	-9944
3:2	-9945
45,	-9946
7",	-9947
9",	-9948
='@	-9949
>}\	-9950
@')	-9951
Abc	-9952
BEL	-9953
Bac	-9954
DAY	-9955
DER	-9956
ENH	-9957
FFr	-9958
FIL	-9959
FIR	-9960
IVE	-9961
JET	-9962
JUL	-9963
JVM	-9964
KED	-9965
LAT	-9966
NTH	-9967
NWS	-9968
OST	-9969
OrR	-9970
STE	-9971
Sun	-9972
Vuu	-9973
Wor	-9974
[\\	-9975
\\/	-9976
cks	-9977
eco	-9978
exc	-9979
imi	-9980
men	-9981
mil	-9982
nan	-9983
nly	-9984
oci	-9985
sBy	-9986
sOf	-9987
see	-9988
stl	-9989
tnp	-9990
xps	-9991
▁"+	-9992
▁'?	-9993
▁,"	-9994
▁0-	-9995
▁25	-9996
▁4,	-9997
▁CR	-9998
▁HH	-9999
▁Is	-10000
▁[1	-10001
▁am	-10002
▁bo	-10003
▁fl	-10004
▁jf	-10005
▁lc	-10006
▁mi	-10007
▁tf	-10008
!");	-10009
####	-10010
&");	-10011
'"),	-10012
')",	-10013
'>]\	-10014
("("	-10015
("--	-10016
();)	-10017
()];	-10018
(22,	-10019
-8";	-10020
.0",	-10021
/*",	-10022
1(),	-10023
1(1,	-10024
1030	-10025
1>${	-10026
1><#	-10027
2'>"	-10028
2.4]	-10029
2028	-10030
22()	-10031
2=\"	-10032
3040	-10033
6");	-10034
9");	-10035
=${.	-10036
>${"	-10037
>}",	-10038
APIN	-10039
AsUn	-10040
Ault	-10041
CEIL	-10042
ENCE	-10043
Else	-10044
HASH	-10045
HOUR	-10046
ISSA	-10047
ITEM	-10048
Into	-10049
KEYS	-10050
LAST	-10051
LOSS	-10052
Logg	-10053
MANT	-10054
NOTI	-10055
Reli	-10056
STEP	-10057
SUCH	-10058
Safe	-10059
Sort	-10060
Stop	-10061
THRE	-10062
UNNE	-10063
Void	-10064
]}",	-10065
_1);	-10066
bEnd	-10067
cano	-10068
clCl	-10069
code	-10070
dirs	-10071
ecit	-10072
expr	-10073
fail	-10074
fers	-10075
flag	-10076
getX	-10077
hint	-10078
ital	-10079
jobj	-10080
join	-10081
kind	-10082
mSet	-10083
none	-10084
plus	-10085
ring	-10086
vers	-10087
vest	-10088
wait	-10089
wasn	-10090
zero	-10091
▁!((	-10092
▁"24	-10093
▁"]]	-10094
▁'!'	-10095
▁'$'	-10096
▁'['	-10097
▁'\"	-10098
▁(\"	-10099
▁)";	-10100
▁1.1	-10101
▁1/*	-10102
▁1].	-10103
▁2.4	-10104
▁2];	-10105
▁5),	-10106
▁</#	-10107
▁CSS	-10108
▁JAR	-10109
▁ONE	-10110
▁Pos	-10111
▁You	-10112
▁\"$	-10113
▁\".	-10114
▁ass	-10115
▁ctl	-10116
▁don	-10117
▁lex	-10118
▁tln	-10119
▁tnm	-10120
▁trt	-10121
▁{<#	-10122
▁{})	-10123
'}");	-10124
(2.3.	-10125
(4000	-10126
(5.0,	-10127
0.0;;	-10128
01");	-10129
5"));	-10130
9(1),	-10131
APTER	-10132
BEANS	-10133
BName	-10134
BothN	-10135
Calls	-10136
Desci	-10137
Eager	-10138
FIRST	-10139
Gener	-10140
JETTY	-10141
Known	-10142
Lossy	-10143
MONTH	-10144
Nonex	-10145
NotCh	-10146
Notes	-10147
PRICE	-10148
REBEL	-10149
REFER	-10150
Split	-10151
Trunc	-10152
UBLIC	-10153
Winer	-10154
Xalan	-10155
adhoc	-10156
alias	-10157
chunk	-10158
eeded	-10159
hance	-10160
loads	-10161
mName	-10162
mainM	-10163
major	-10164
ntext	-10165
ollar	-10166
orary	-10167
toURI	-10168
using	-10169
usive	-10170
valon	-10171
}"));	-10172
▁"...	-10173
▁"0.0	-10174
▁"4",	-10175
▁"</"	-10176
▁">";	-10177
▁"\\/	-10178
▁"{<#	-10179
▁'@')	-10180
▁'\''	-10181
▁("".	-10182
▁0.75	-10183
▁1500	-10184
▁Case	-10185
▁JDOM	-10186
▁JSON	-10187
▁LOOP	-10188
▁PLAT	-10189
▁POST	-10190
▁Reco	-10191
▁ZERO	-10192
▁apos	-10193
▁atts	-10194
▁cVal	-10195
▁code	-10196
▁fast	-10197
▁font	-10198
▁isIn	-10199
▁json	-10200
▁link	-10201
▁memb	-10202
▁perm	-10203
▁role	-10204
▁supp	-10205
▁want	-10206
'>${1}	-10207
("*"))	-10208
(".");	-10209
("1");	-10210
("]");	-10211
("}");	-10212
('=');	-10213
('\\',	-10214
-01");	-10215
-12-31	-10216
/**"),	-10217
Atomic	-10218
Banned	-10219
Checks	-10220
Destro	-10221
FILTER	-10222
FORCED	-10223
FixTip	-10224
HEADER	-10225
HasAll	-10226
Hashes	-10227
Higher	-10228
LUSIVE	-10229
MULATE	-10230
Precal	-10231
Remove	-10232
SECOND	-10233
Scheme	-10234
Scopes	-10235
Search	-10236
TagAnd	-10237
ToEnum	-10238
ToJava	-10239
ToSize	-10240
URABLE	-10241
XSMode	-10242
[0-9]+	-10243
[1].@@	-10244
access	-10245
atMode	-10246
biName	-10247
binary	-10248
coerce	-10249
constr	-10250
eciton	-10251
expStr	-10252
getFTL	-10253
halfUp	-10254
imilar	-10255
isJava	-10256
isLogg	-10257
lowing	-10258
mented	-10259
millis	-10260
mkdirs	-10261
necess	-10262
normal	-10263
ounded	-10264
quival	-10265
reader	-10266
ridden	-10267
sEqual	-10268
setFor	-10269
shared	-10270
starts	-10271
status	-10272
terals	-10273
tmArgs	-10274
unused	-10275
update	-10276
varArg	-10277
weight	-10278
xsMode	-10279
}</@>\	-10280
▁"/");	-10281
▁"1998	-10282
▁1000,	-10283
▁13:00	-10284
▁Beans	-10285
▁Gener	-10286
▁LOCAL	-10287
▁Right	-10288
▁Stack	-10289
▁[2.4]	-10290
▁canon	-10291
▁doTag	-10292
▁event	-10293
▁extLn	-10294
▁gName	-10295
▁mLong	-10296
▁meant	-10297
▁newIn	-10298
▁oldCI	-10299
▁order	-10300
▁prevC	-10301
▁tcNWS	-10302
▁testA	-10303
▁tkMan	-10304
▁where	-10305
("${11?	-10306
-11:00,	-10307
-8859-5	-10308
2323().	-10309
AndList	-10310
AsBoxed	-10311
Bacward	-10312
BadCase	-10313
CEILING	-10314
CESSARY	-10315
ComaIdx	-10316
DstPath	-10317
ENHANCE	-10318
Escapes	-10319
Escaple	-10320
FixArgs	-10321
ForName	-10322
HintsTo	-10323
History	-10324
KeyType	-10325
Keyword	-10326
Lenient	-10327
Locator	-10328
Looking	-10329
MainFtl	-10330
NameCon	-10331
OrValue	-10332
Runtime	-10333
Segment	-10334
TheSame	-10335
ToUnder	-10336
TreeMap	-10337
Unicast	-10338
UseReal	-10339
_2_3_23	-10340
appMeta	-10341
attrVal	-10342
dashArg	-10343
decimal	-10344
defAult	-10345
disable	-10346
divisor	-10347
globals	-10348
handler	-10349
isXMLID	-10350
italize	-10351
jarFile	-10352
leftPad	-10353
minutes	-10354
newSize	-10355
nothing	-10356
ociated	-10357
oftHead	-10358
prepare	-10359
regular	-10360
rethrow	-10361
revious	-10362
sprefix	-10363
tDefEnc	-10364
varArgs	-10365
vesting	-10366
▁"12345	-10367
▁"17300	-10368
▁"\".",	-10369
▁21005;	-10370
▁30006;	-10371
▁CONFIG	-10372
▁EXPOSE	-10373
▁LEGACY	-10374
▁SINGLE	-10375
▁Server	-10376
▁URLEnc	-10377
▁WEBAPP	-10378
▁abcSet	-10379
▁always	-10380
▁argVal	-10381
▁cannot	-10382
▁change	-10383
▁couldn	-10384
▁eClass	-10385
▁either	-10386
▁happen	-10387
▁keySeq	-10388
▁letter	-10389
▁numStr	-10390
▁oldsub	-10391
▁sticky	-10392
▁suffix	-10393
▁testIs	-10394
▁update	-10395
("...");	-10396
("1.2.3-	-10397
+02:00",	-10398
23:59:59	-10399
ArraySet	-10400
AsUntear	-10401
BNameSep	-10402
Combiner	-10403
Decimals	-10404
Declared	-10405
ErrorMsg	-10406
FlushSet	-10407
ITERATOR	-10408
IfNotSet	-10409
Infinite	-10410
JavaBean	-10411
LessThan	-10412
MANTISSA	-10413
NumberOf	-10414
Properly	-10415
Rendered	-10416
Scanning	-10417
ToExpose	-10418
Unassign	-10419
UntilEnd	-10420
UrlsFrom	-10421
_2_3_21;	-10422
argCount	-10423
cacheKey	-10424
cedValue	-10425
constant	-10426
encStart	-10427
entryUrl	-10428
findattr	-10429
frameIdx	-10430
isPublic	-10431
isStatic	-10432
isStrict	-10433
keyModel	-10434
keyNameI	-10435
lastFIRE	-10436
maxScale	-10437
minScale	-10438
nodeList	-10439
pojoArgs	-10440
prefixes	-10441
propDesc	-10442
recision	-10443
rollPane	-10444
sContain	-10445
setScale	-10446
testName	-10447
useCache	-10448
▁"\\\"",	-10449
▁1234567	-10450
▁ADAPTER	-10451
▁Charset	-10452
▁DocType	-10453
▁MyEntry	-10454
▁Shouldn	-10455
▁bwProps	-10456
▁cachedS	-10457
▁charKey	-10458
▁classes	-10459
▁constru	-10460
▁desired	-10461
▁destDir	-10462
▁doubleN	-10463
▁extract	-10464
▁failure	-10465
▁fixArgs	-10466
▁forEach	-10467
▁getSize	-10468
▁handler	-10469
▁heading	-10470
▁intFlag	-10471
▁keyType	-10472
▁kvpIter	-10473
▁logging	-10474
▁modulus	-10475
▁namesCC	-10476
▁nextIdx	-10477
▁nothing	-10478
▁numbers	-10479
▁recurse	-10480
▁reqPath	-10481
▁setName	-10482
▁setReco	-10483
▁subnode	-10484
▁subvars	-10485
▁tagName	-10486
▁tcBSpec	-10487
▁tokpath	-10488
▁treeMap	-10489
("\\\"");	-10490
("\\\\");	-10491
+01:00");	-10492
07:30:00.	-10493
10:30:05\	-10494
13:30:05,	-10495
13:30:05\	-10496
:30:05-01	-10497
AfterBody	-10498
AnyObject	-10499
ByDefault	-10500
Converion	-10501
DefaultsF	-10502
Deplected	-10503
Destroyed	-10504
DoublePop	-10505
Extractor	-10506
Implement	-10507
IsBuilder	-10508
ItemsType	-10509
JavaError	-10510
LookupKey	-10511
NonString	-10512
OrRethrow	-10513
ParamList	-10514
REFERENCE	-10515
ToTextual	-10516
Truncated	-10517
WrappedAs	-10518
XmlEscape	-10519
XmlParser	-10520
autoFlush	-10521
commonFTL	-10522
defaultTZ	-10523
directory	-10524
enceTable	-10525
getReturn	-10526
importLib	-10527
initCause	-10528
loadClass	-10529
lowerCase	-10530
mNumBoxed	-10531
malformed	-10532
necessary	-10533
parentDir	-10534
parseLong	-10535
setLength	-10536
specified	-10537
targetStr	-10538
tldParser	-10539
unknownBI	-10540
veryBlock	-10541
▁'\\''}",	-10542
▁+0400");	-10543
▁23:30:05	-10544
▁ITERABLE	-10545
▁Iterable	-10546
▁Negative	-10547
▁PLATFORM	-10548
▁TreeNode	-10549
▁ZipEntry	-10550
▁bodyVars	-10551
▁callable	-10552
▁classMap	-10553
▁doEndTag	-10554
▁executed	-10555
▁formalNP	-10556
▁getAllow	-10557
▁getEmpty	-10558
▁isStatic	-10559
▁keyModel	-10560
▁language	-10561
▁lastFIRE	-10562
▁lastLine	-10563
▁lexState	-10564
▁matching	-10565
▁maxScale	-10566
▁multiply	-10567
▁negative	-10568
▁newDesci	-10569
▁newLossy	-10570
▁nsPrefix	-10571
▁paramExp	-10572
▁possible	-10573
▁publicId	-10574
▁setLocal	-10575
▁setValue	-10576
▁shutdown	-10577
▁srcParam	-10578
▁startIdx	-10579
▁subtract	-10580
▁testSame	-10581
▁toJavaCC	-10582
▁toNumber	-10583
▁xmlPlain	-10584
("1998-10-	-10585
AndCorrect	-10586
BothNaming	-10587
DstRootDir	-10588
ExpectedSg	-10589
FREEMARKER	-10590
HigherThan	-10591
ISOBuiltIn	-10592
JavaScript	-10593
MaybeNonex	-10594
NoOverride	-10595
NotChanged	-10596
OfChildren	-10597
PARAMETERS	-10598
WrapperFor	-10599
calculated	-10600
difficulty	-10601
doStartTag	-10602
enumModels	-10603
expression	-10604
getEmptyIt	-10605
getEndLine	-10606
getMethods	-10607
getSession	-10608
hancements	-10609
isLoggable	-10610
isTimeZone	-10611
izedString	-10612
mCharacter	-10613
paramValue	-10614
showOffset	-10615
trimToSize	-10616
▁"19981030	-10617
▁"\"(\"");	-10618
▁AddConcat	-10619
▁CharArray	-10620
▁EntityRef	-10621
▁JspApplic	-10622
▁Navigator	-10623
▁SimpleTag	-10624
▁TextBlock	-10625
▁aArgument	-10626
▁actualOut	-10627
▁assertion	-10628
▁classname	-10629
▁contextOF	-10630
▁customTag	-10631
▁entryType	-10632
▁fnPattern	-10633
▁fromIndex	-10634
▁investing	-10635
▁iterModel	-10636
▁keepSlash	-10637
▁lastSlash	-10638
▁mNumBoxed	-10639
▁maybeTemp	-10640
▁memberMap	-10641
▁modelSpec	-10642
▁numberAnd	-10643
▁prevLocal	-10644
▁rightTrim	-10645
▁setStrict	-10646
▁strResult	-10647
▁targetStr	-10648
▁terseMode	-10649
▁testFixed	-10650
▁testMerge	-10651
Application	-10652
BuilderCall	-10653
DotDotSteps	-10654
EagerOutput	-10655
ElementName	-10656
EpochMillis	-10657
GreaterThan	-10658
ListLiteral	-10659
OrException	-10660
Reliability	-10661
ServletPath	-10662
SortKeyType	-10663
StringsMisc	-10664
UNNECESSARY	-10665
WithBadCase	-10666
cacheResult	-10667
ecitonCache	-10668
edClassName	-10669
getPublicId	-10670
getUseCache	-10671
indentation	-10672
isUpperCase	-10673
jarResource	-10674
modelsEqual	-10675
renderedFtl	-10676
sByCategory	-10677
setLocalVar	-10678
templateDir	-10679
tryToString	-10680
▁15:30:00:0	-10681
▁Attributes	-10682
▁JavaScript	-10683
▁MethodCall	-10684
▁NotMatcher	-10685
▁TestThread	-10686
▁arrayClass	-10687
▁associated	-10688
▁comparison	-10689
▁doStartTag	-10690
▁errorAfter	-10691
▁fillerItem	-10692
▁genericGet	-10693
▁getTabSize	-10694
▁getWrapped	-10695
▁hideMember	-10696
▁isTemplate	-10697
▁isWidening	-10698
▁iterations	-10699
▁lastDotIdx	-10700
▁localeName	-10701
▁mCharacter	-10702
▁nameFixTip	-10703
▁newHashSet	-10704
▁paramValue	-10705
▁setSetting	-10706
▁setTabSize	-10707
▁showBlamer	-10708
▁showOffset	-10709
▁successful	-10710
▁targetSize	-10711
▁testLocale	-10712
▁testMethod	-10713
▁tokenImage	-10714
▁unregister	-10715
▁valueInMsg	-10716
▁varargsRes	-10717
▁versionStr	-10718
("2000-02-08	-10719
AsUntearable	-10720
BacwardsFrom	-10721
BoundBuiltIn	-10722
CONSTRUCTORS	-10723
ClosingNotes	-10724
ENHANCEMENTS	-10725
MainTemplate	-10726
NonAmbiguous	-10727
OptionalChar	-10728
StringParser	-10729
ToMemberDesc	-10730
TypeAsString	-10731
Unassignable	-10732
binarySearch	-10733
checkOnlyHas	-10734
documentType	-10735
dynamicValue	-10736
edParamTypes	-10737
getCanonical	-10738
getClassName	-10739
getException	-10740
getLocalName	-10741
getTypeFlags	-10742
istentTarget	-10743
ptionBuilder	-10744
sOfDifferent	-10745
startedRange	-10746
tagNameCData	-10747
testCaseElem	-10748
▁AliasTarget	-10749
▁CachingText	-10750
▁NumberModel	-10751
▁UnifiedCall	-10752
▁application	-10753
▁expectedTCs	-10754
▁fixArgCount	-10755
▁formatCache	-10756
▁getArgTypes	-10757
▁getPrevious	-10758
▁getVariable	-10759
▁initialized	-10760
▁leftOMOrStr	-10761
▁nextElement	-10762
▁preposition	-10763
▁prevComaIdx	-10764
▁projectNode	-10765
▁rewrappable	-10766
▁setEncoding	-10767
▁subvariable	-10768
▁testEscaple	-10769
▁testListAnd	-10770
▁totalFrames	-10771
▁varargArray	-10772
▁whenTrueExp	-10773
([0-9]{2})(?:	-10774
AccessControl	-10775
DateFormatSet	-10776
DirectiveName	-10777
ExceptionsSet	-10778
Instantiating	-10779
LocalizedThen	-10780
LongOrInteger	-10781
MainFtlOutput	-10782
OutputWithout	-10783
SoftReference	-10784
Specification	-10785
StringsRegexp	-10786
TimeFormatSet	-10787
ToUnderscored	-10788
UseRealLogger	-10789
baseEntryPath	-10790
bossToolsMode	-10791
createDefault	-10792
endLineNumber	-10793
getDateFormat	-10794
getModelCache	-10795
getReturnType	-10796
getTimeFormat	-10797
loggerFactory	-10798
maxFracDigits	-10799
minFracDigits	-10800
outerIdentity	-10801
printStandard	-10802
seldomEscaped	-10803
varargMethods	-10804
verseSequence	-10805
▁ExamplesTest	-10806
▁FileTestCase	-10807
▁FormatHolder	-10808
▁OutputStream	-10809
▁StaticModels	-10810
▁argsErrorMsg	-10811
▁argumentName	-10812
▁clonedValues	-10813
▁customParser	-10814
▁errorHandler	-10815
▁expectedItem	-10816
▁finalJarFile	-10817
▁formatParams	-10818
▁getTagSyntax	-10819
▁getUnwrapped	-10820
▁ignoredParts	-10821
▁invokeMethod	-10822
▁lastDigitIdx	-10823
▁listNotEmpty	-10824
▁mVarParamCnt	-10825
▁replaceClass	-10826
▁resourceName	-10827
▁scanUntilEnd	-10828
▁secondSignum	-10829
▁serializable	-10830
▁tagNameCData	-10831
▁testStandard	-10832
▁variableName	-10833
▁whenFalseExp	-10834
▁widenHintsTo	-10835
:00:00+01:00",	-10836
CachedTemplate	-10837
ColonException	-10838
DateFormatsSet	-10839
DocToDataModel	-10840
EqualsOperator	-10841
ExposeMethodAs	-10842
FixArgsMethods	-10843
FloatOrInteger	-10844
Implementation	-10845
InitializedTME	-10846
IntegerOrShort	-10847
IsBuilderClass	-10848
NameConvention	-10849
NegativeLookup	-10850
PrecalcedValue	-10851
RequestWrapper	-10852
SignifNumBegin	-10853
SortedArraySet	-10854
ValueReference	-10855
WinerParamList	-10856
WithFreeMarker	-10857
formatLocation	-10858
getBreakpoints	-10859
getContentType	-10860
isTemplateName	-10861
mNullAmbiguous	-10862
mRareWrappings	-10863
odeWithCharset	-10864
openConnection	-10865
templateObject	-10866
throwException	-10867
toJavaCharCode	-10868
▁CaptureOutput	-10869
▁Interpolation	-10870
▁IteratorModel	-10871
▁ObjectFactory	-10872
▁RecoveryBlock	-10873
▁WebAppContext	-10874
▁afterWidening	-10875
▁assertOutputs	-10876
▁createXPathEx	-10877
▁dataModelHash	-10878
▁dstParamCount	-10879
▁emuCaseSensFS	-10880
▁flushInternal	-10881
▁getDebugModel	-10882
▁getExpression	-10883
▁getJavaString	-10884
▁getWhitespace	-10885
▁intFlagToLong	-10886
▁linkedHashMap	-10887
▁newExpectedSg	-10888
▁newInvocation	-10889
▁paramTypesLen	-10890
▁parseMatching	-10891
▁prevTextChild	-10892
▁printStandard	-10893
▁rightAdaptive	-10894
▁softSizeLimit	-10895
▁tagClassCData	-10896
▁unsetTemplate	-10897
AllowedToExpose	-10898
BothNamingStyle	-10899
BundleLookupKey	-10900
ContainingClass	-10901
ContainsCharset	-10902
DefaultNSPrefix	-10903
IdentityHashMap	-10904
IndexedProperty	-10905
KeyStaticFields	-10906
MergingTemplate	-10907
MetaInfUrlsFrom	-10908
MissingResource	-10909
NumberFormatSet	-10910
ScriptableModel	-10911
SequenceAdapter	-10912
WebInfPerLibJar	-10913
WebXmlException	-10914
endColumnNumber	-10915
getAbsoluteFile	-10916
getExposeFields	-10917
getNumberFormat	-10918
howErrorTipsSet	-10919
initialCapacity	-10920
jarResourcePath	-10921
quivalenceTable	-10922
sContainTheSame	-10923
sharedVariables	-10924
tldResourcePath	-10925
unmodifiableMap	-10926
unwrappingHints	-10927
▁CommonsLogging	-10928
▁GetlessMethods	-10929
▁InitParamValue	-10930
▁ModelReference	-10931
▁RightUnbounded	-10932
▁builderFactory	-10933
▁cachedCollator	-10934
▁callableMember	-10935
▁classToFactory	-10936
▁compareNumbers	-10937
▁currencySymbol	-10938
▁customTagModel	-10939
▁equalCurrentTZ	-10940
▁exceptionClass	-10941
▁firstLineIndex	-10942
▁forceUnwrapped	-10943
▁ftlPermutation	-10944
▁getXmlSystemId	-10945
▁inAttemptBlock	-10946
▁initialization	-10947
▁mRareWrappings	-10948
▁metainfDirUrls	-10949
▁nestingRelated	-10950
▁nodeNamespaces	-10951
▁setLogTemplate	-10952
▁testInvalidRef	-10953
▁toErrorMessage	-10954
▁varargItemType	-10955
AndCorrectFormat	-10956
BigIntegerOrLong	-10957
BooleanFormatSet	-10958
ClassResolverSet	-10959
CommonSupertypes	-10960
ConditionalBlock	-10961
EscapedByDefault	-10962
ExposeAsProperty	-10963
FullTemplateName	-10964
HasAllVariations	-10965
NumberConversion	-10966
NumberFormatsSet	-10967
ProcessingThread	-10968
SchemeSectionEnd	-10969
TagAndELFunction	-10970
TagsAndFunctions	-10971
TragetIdentifier	-10972
UTCTimeMSFString	-10973
evalToNonMissing	-10974
exceptionToThrow	-10975
getNodeNamespace	-10976
includedTemplate	-10977
isJavaIdentifier	-10978
prevTerminalNode	-10979
strictSyntaxMode	-10980
vailabilityCheck	-10981
▁AssertDirective	-10982
▁CSSOutputFormat	-10983
▁JspTagModelBase	-10984
▁MapKeyValuePair	-10985
▁MatchWithGroups	-10986
▁UndefinedCustom	-10987
▁autoImportsLazy	-10988
▁getDocumentType	-10989
▁getNamespaceUri	-10990
▁isSetMethodName	-10991
▁newInconsistent	-10992
▁plainTextResult	-10993
▁setIncompatible	-10994
▁setTemplateName	-10995
▁strongSizeLimit	-10996
▁testGetMimeType	-10997
▁toTemplateModel	-10998
▁underscoredName	-10999
▁varArgsCompType	-11000
'"	-11001
+'	-11002
,"	-11003
02	-11004
0}	-11005
2'	-11006
34	-11007
38	-11008
3=	-11009
41	-11010
82	-11011
9.	-11012
91	-11013
=>	-11014
>1	-11015
>6	-11016
@0	-11017
AW	-11018
EW	-11019
FO	-11020
HU	-11021
Ph	-11022
RT	-11023
SW	-11024
Ts	-11025
Tz	-11026
Us	-11027
[(	-11028
dn	-11029
fc	-11030
fn	-11031
fs	-11032
mr	-11033
nA	-11034
nm	-11035
rv	-11036
ux	-11037
yc	-11038
▁]	-11039
!'-	-11040
!--	-11041
!\"	-11042
&'?	-11043
('0	-11044
(6,	-11045
*\"	-11046
.//	-11047
/";	-11048
///	-11049
0';	-11050
0).	-11051
011	-11052
06;	-11053
1("	-11054
1).	-11055
11/	-11056
2";	-11057
21)	-11058
211	-11059
23,	-11060
318	-11061
5);	-11062
717	-11063
807	-11064
840	-11065
984	-11066
=${	-11067
=1)	-11068
=2)	-11069
>()	-11070
>//	-11071
ADS	-11072
ALY	-11073
ANS	-11074
ARI	-11075
Adj	-11076
Aff	-11077
Any	-11078
BIS	-11079
BIs	-11080
Brc	-11081
CLE	-11082
CTX	-11083
Cre	-11084
DAT	-11085
DTD	-11086
FIN	-11087
HAR	-11088
IAL	-11089
ILE	-11090
IOR	-11091
ISK	-11092
Ids	-11093
Iso	-11094
LEE	-11095
Lin	-11096
MOD	-11097
MOs	-11098
Mod	-11099
NCH	-11100
NCY	-11101
NIP	-11102
One	-11103
Opt	-11104
OrF	-11105
Pur	-11106
Ran	-11107
Red	-11108
Seg	-11109
Sen	-11110
TXT	-11111
Txt	-11112
YTE	-11113
[2]	-11114
\".	-11115
\\>	-11116
_0,	-11117
bab	-11118
day	-11119
dev	-11120
ern	-11121
had	-11122
ioe	-11123
isP	-11124
lie	-11125
mic	-11126
nws	-11127
odd	-11128
ove	-11129
pad	-11130
sig	-11131
sys	-11132
tnm	-11133
ung	-11134
{0}	-11135
{<#	-11136
}'}	-11137
});	-11138
}</	-11139
▁"|	-11140
▁']	-11141
▁/=	-11142
▁02	-11143
▁17	-11144
▁2]	-11145
▁30	-11146
▁4:	-11147
▁64	-11148
▁8,	-11149
▁</	-11150
▁Ac	-11151
▁GT	-11152
▁LT	-11153
▁OK	-11154
▁Or	-11155
▁["	-11156
▁]]	-11157
▁bc	-11158
▁et	-11159
▁fc	-11160
▁pv	-11161
▁sm	-11162
▁ts	-11163
▁vl	-11164
▁vp	-11165
")))	-11166
("-0	-11167
(".*	-11168
("0'	-11169
('('	-11170
('\'	-11171
(0).	-11172
(1))	-11173
(200	-11174
(5);	-11175
*/*.	-11176
++];	-11177
-08-	-11178
-6),	-11179
000;	-11180
11",	-11181
1234	-11182
1=\"	-11183
2029	-11184
2071	-11185
2090	-11186
2107	-11187
2183	-11188
3031	-11189
4:00	-11190
53:2	-11191
9(1,	-11192
:500	-11193
=_",	-11194
>${1	-11195
>6</	-11196
>\"?	-11197
>]",	-11198
ARGU	-11199
Apps	-11200
AsTM	-11201
Bind	-11202
CODE	-11203
CONS	-11204
CONT	-11205
Ctor	-11206
ELSE	-11207
EVEN	-11208
Even	-11209
FIER	-11210
FULL	-11211
Hier	-11212
ICIO	-11213
ILED	-11214
IMUM	-11215
IfAb	-11216
Kind	-11217
LEFT	-11218
LIMI	-11219
Mail	-11220
Math	-11221
Mism	-11222
PORT	-11223
Rank	-11224
SPEC	-11225
Side	-11226
Some	-11227
Tail	-11228
UOUS	-11229
Unam	-11230
VERE	-11231
Wins	-11232
[0].	-11233
\"[#	-11234
_2);	-11235
adap	-11236
coun	-11237
even	-11238
exBI	-11239
fTlX	-11240
fmth	-11241
font	-11242
gram	-11243
here	-11244
hold	-11245
ingF	-11246
ited	-11247
larm	-11248
mand	-11249
norm	-11250
olon	-11251
ooks	-11252
ptim	-11253
race	-11254
sSeq	-11255
send	-11256
setM	-11257
ssue	-11258
than	-11259
tify	-11260
ured	-11261
vMet	-11262
xAAE	-11263
xABF	-11264
xFFC	-11265
xFFD	-11266
ycle	-11267
}"),	-11268
▁")"	-11269
▁",#	-11270
▁"-"	-11271
▁"@"	-11272
▁"["	-11273
▁'+'	-11274
▁-1,	-11275
▁11,	-11276
▁3),	-11277
▁3..	-11278
▁5);	-11279
▁59)	-11280
▁60)	-11281
▁;//	-11282
▁AMP	-11283
▁Des	-11284
▁NOT	-11285
▁ODD	-11286
▁SAW	-11287
▁Use	-11288
▁WEB	-11289
▁[1,	-11290
▁\":	-11291
▁ast	-11292
▁big	-11293
▁edb	-11294
▁itf	-11295
▁low	-11296
▁ltb	-11297
▁qwe	-11298
▁rel	-11299
▁teh	-11300
▁tes	-11301
▁yet	-11302
(""),	-11303
("-//	-11304
("-0.	-11305
("201	-11306
("{",	-11307
('/',	-11308
('<',	-11309
('>',	-11310
(1)).	-11311
(1.25	-11312
(2)).	-11313
(2));	-11314
(22);	-11315
(4));	-11316
(5));	-11317
-2.3.	-11318
."));	-11319
.##;;	-11320
.002.	-11321
24:00	-11322
6.011	-11323
60000	-11324
:30",	-11325
AINER	-11326
ARIES	-11327
ARROW	-11328
Added	-11329
Affac	-11330
AnArg	-11331
CAUSE	-11332
CHECK	-11333
CLEAR	-11334
COUNT	-11335
CURRE	-11336
Close	-11337
DATAS	-11338
Effec	-11339
FLAGS	-11340
GetAs	-11341
Hello	-11342
ISOBI	-11343
ITALY	-11344
LOCAL	-11345
Linux	-11346
NonWS	-11347
Order	-11348
PLACE	-11349
PRIOR	-11350
Phase	-11351
RIGHT	-11352
Sente	-11353
Space	-11354
TEMPT	-11355
Usage	-11356
ZeroC	-11357
\""),	-11358
\\''?	-11359
_3));	-11360
abcBI	-11361
acent	-11362
alPur	-11363
archy	-11364
bTags	-11365
bably	-11366
comma	-11367
doGet	-11368
doesn	-11369
edded	-11370
equal	-11371
escBI	-11372
event	-11373
floor	-11374
image	-11375
isIcI	-11376
javax	-11377
lient	-11378
mDate	-11379
month	-11380
nodes	-11381
quote	-11382
spect	-11383
style	-11384
witch	-11385
▁"0';	-11386
▁"\",	-11387
▁"]";	-11388
▁$");	-11389
▁${11	-11390
▁'"';	-11391
▁',')	-11392
▁'9')	-11393
▁':';	-11394
▁'_')	-11395
▁("<#	-11396
▁..._	-11397
▁/></	-11398
▁1)",	-11399
▁16);	-11400
▁2");	-11401
▁2010	-11402
▁2500	-11403
▁3");	-11404
▁8601	-11405
▁BYTE	-11406
▁CHAR	-11407
▁EVAL	-11408
▁EVEN	-11409
▁Else	-11410
▁FAST	-11411
▁Html	-11412
▁LIST	-11413
▁Line	-11414
▁NODE	-11415
▁Only	-11416
▁Pure	-11417
▁SKIP	-11418
▁SNIP	-11419
▁Skip	-11420
▁TEST	-11421
▁Void	-11422
▁been	-11423
▁capt	-11424
▁conv	-11425
▁ctxt	-11426
▁denv	-11427
▁diff	-11428
▁eStr	-11429
▁fall	-11430
▁fmth	-11431
▁gMap	-11432
▁getC	-11433
▁hand	-11434
▁incM	-11435
▁inte	-11436
▁jobj	-11437
▁lidx	-11438
▁make	-11439
▁most	-11440
▁mval	-11441
▁pojo	-11442
▁port	-11443
▁room	-11444
▁setP	-11445
▁tcHH	-11446
▁tmap	-11447
▁user	-11448
("${1.	-11449
("(");	-11450
("0.00	-11451
("1.2.	-11452
("1998	-11453
("2.3.	-11454
("\"\\	-11455
('(');	-11456
(')');	-11457
('/');	-11458
(':');	-11459
()"));	-11460
+03");	-11461
-08-24	-11462
-16");	-11463
...}",	-11464
.05));	-11465
000009	-11466
020300	-11467
23*10<	-11468
999991	-11469
:00");	-11470
:05:04	-11471
;&#39;	-11472
Branch	-11473
BrcIdx	-11474
CALLEE	-11475
CHANGE	-11476
DESCRI	-11477
Delete	-11478
Effect	-11479
EndIdx	-11480
FRENCH	-11481
ForNon	-11482
ICIObj	-11483
INDENT	-11484
IfNotN	-11485
JYTHON	-11486
KindOf	-11487
LikeBI	-11488
Locals	-11489
NotSet	-11490
OrFunc	-11491
RebelA	-11492
Redund	-11493
SEVERE	-11494
SUBSTR	-11495
SrcExp	-11496
Stared	-11497
SysDef	-11498
TNames	-11499
Window	-11500
WithEF	-11501
Wrongc	-11502
[0].@@	-11503
\\\\",	-11504
ableBI	-11505
anging	-11506
applic	-11507
bigous	-11508
caseBI	-11509
declCl	-11510
edCase	-11511
export	-11512
getAPI	-11513
getIds	-11514
handle	-11515
isDate	-11516
isLeaf	-11517
itemBI	-11518
izeCon	-11519
jspctx	-11520
lation	-11521
lieses	-11522
newsub	-11523
noAuto	-11524
parset	-11525
pnames	-11526
quoted	-11527
rowIdx	-11528
sFalse	-11529
search	-11530
setter	-11531
should	-11532
signum	-11533
spring	-11534
subStr	-11535
syntax	-11536
tedVal	-11537
timize	-11538
tupple	-11539
ungary	-11540
webapp	-11541
}'></#	-11542
▁"0001	-11543
▁${12?	-11544
▁'[').	-11545
▁'\'';	-11546
▁'\\':	-11547
▁/>");	-11548
▁0)));	-11549
▁1][];	-11550
▁Block	-11551
▁Jaxen	-11552
▁Micro	-11553
▁Optim	-11554
▁SHORT	-11555
▁\",\"	-11556
▁\"?",	-11557
▁alarm	-11558
▁alias	-11559
▁alist	-11560
▁argTs	-11561
▁comma	-11562
▁epoch	-11563
▁fired	-11564
▁getOr	-11565
▁inint	-11566
▁latin	-11567
▁mater	-11568
▁might	-11569
▁nextC	-11570
▁nsuri	-11571
▁often	-11572
▁reset	-11573
▁resol	-11574
▁setUp	-11575
▁speed	-11576
▁still	-11577
▁tcUTF	-11578
▁thres	-11579
▁unset	-11580
▁unwar	-11581
("${'<@	-11582
0000");	-11583
12346",	-11584
Address	-11585
AndNull	-11586
BIGUOUS	-11587
Binding	-11588
COMMONS	-11589
ChildAt	-11590
Coerced	-11591
Copying	-11592
Decoder	-11593
FromTLD	-11594
IGNORED	-11595
IfCanBe	-11596
LIMITED	-11597
LongAnd	-11598
LowRank	-11599
MINUTES	-11600
MapList	-11601
NameArr	-11602
OrError	-11603
Recover	-11604
Removed	-11605
SetFrom	-11606
StoredT	-11607
THREADS	-11608
Taglibs	-11609
Tempate	-11610
TestTag	-11611
ToGetAs	-11612
VSBoxed	-11613
WebApps	-11614
_2_3_0.	-11615
adapted	-11616
argsLen	-11617
cmpType	-11618
doctype	-11619
endType	-11620
enqueue	-11621
entries	-11622
ernMode	-11623
exptect	-11624
fFormat	-11625
▁	-11626
e	-11627
t	-11628
a	-11629
r	-11630
i	-11631
n	-11632
o	-11633
l	-11634
s	-11635
p	-11636
c	-11637
m	-11638
u	-11639
(	-11640
)	-11641
.	-11642
d	-11643
g	-11644
;	-11645
f	-11646
T	-11647
E	-11648
"	-11649
b	-11650
S	-11651
h	-11652
,	-11653
v	-11654
C	-11655
x	-11656
{	-11657
}	-11658
=	-11659
M	-11660
N	-11661
O	-11662
A	-11663
I	-11664
_	-11665
w	-11666
y	-11667
L	-11668
0	-11669
F	-11670
D	-11671
k	-11672
P	-11673
R	-11674
B	-11675
1	-11676
j	-11677
U	-11678
2	-11679
+	-11680
q	-11681
W	-11682
'	-11683
V	-11684
:	-11685
<	-11686
/	-11687
-	-11688
>	-11689
H	-11690
\	-11691
@	-11692
3	-11693
G	-11694
&	-11695
]	-11696
z	-11697
[	-11698
!	-11699
Y	-11700
?	-11701
|	-11702
X	-11703
K	-11704
#	-11705
$	-11706
4	-11707
5	-11708
8	-11709
*	-11710
Z	-11711
9	-11712
J	-11713
6	-11714
7	-11715
