[PAD]	0
[UNK]	0
<s>	0
</s>	0
[SOS]	0
[EOL]	0
[EOS]	0
er	-0
on	-1
at	-2
or	-3
in	-4
);	-5
et	-6
st	-7
re	-8
ion	-9
le	-10
ic	-11
▁=	-12
▁{	-13
▁}	-14
al	-15
▁i	-16
te	-17
ce	-18
ap	-19
mp	-20
▁p	-21
St	-22
get	-23
()	-24
en	-25
ss	-26
ch	-27
ur	-28
de	-29
▁n	-30
ro	-31
▁t	-32
ad	-33
▁c	-34
lic	-35
ing	-36
it	-37
ort	-38
Re	-39
▁f	-40
an	-41
oc	-42
ut	-43
che	-44
ue	-45
ate	-46
ri	-47
oo	-48
ar	-49
Con	-50
ation	-51
▁imp	-52
▁import	-53
tion	-54
ew	-55
ub	-56
▁"	-57
se	-58
ile	-59
me	-60
ass	-61
In	-62
();	-63
il	-64
ode	-65
Ex	-66
ption	-67
Str	-68
▁or	-69
ublic	-70
ul	-71
▁(	-72
▁org	-73
ache	-74
String	-75
▁public	-76
▁r	-77
ent	-78
ception	-79
▁th	-80
Exception	-81
("	-82
apache	-83
▁new	-84
oop	-85
adoop	-86
hadoop	-87
ock	-88
▁s	-89
ert	-90
ag	-91
ver	-92
ath	-93
File	-94
id	-95
urn	-96
▁+	-97
▁b	-98
▁st	-99
eturn	-100
Id	-101
is	-102
ta	-103
ist	-104
un	-105
▁v	-106
ac	-107
▁return	-108
▁@	-109
▁in	-110
ame	-111
▁e	-112
ser	-113
fi	-114
▁re	-115
ab	-116
fs	-117
inal	-118
row	-119
pp	-120
as	-121
ec	-122
tain	-123
Path	-124
ter	-125
ed	-126
lass	-127
to	-128
Te	-129
▁throw	-130
ull	-131
",	-132
lock	-133
assert	-134
▁String	-135
IO	-136
riv	-137
▁if	-138
app	-139
Node	-140
tainer	-141
▁final	-142
▁con	-143
ir	-144
App	-145
Res	-146
Pro	-147
rivate	-148
▁vo	-149
ob	-150
fig	-151
▁stat	-152
▁void	-153
age	-154
▁l	-155
▁j	-156
());	-157
our	-158
Test	-159
ource	-160
put	-161
▁private	-162
um	-163
con	-164
ol	-165
am	-166
arn	-167
▁0	-168
Config	-169
At	-170
▁static	-171
▁null	-172
▁L	-173
▁d	-174
xt	-175
qu	-176
▁throws	-177
iz	-178
mpt	-179
ot	-180
");	-181
up	-182
og	-183
Name	-184
ey	-185
▁m	-186
als	-187
nt	-188
set	-189
fo	-190
lication	-191
▁get	-192
ime	-193
));	-194
ata	-195
que	-196
IOException	-197
ry	-198
To	-199
tempt	-200
Co	-201
th	-202
▁assert	-203
Container	-204
av	-205
).	-206
able	-207
▁A	-208
FS	-209
ity	-210
el	-211
quals	-212
em	-213
().	-214
Block	-215
Over	-216
ted	-217
tor	-218
ride	-219
uration	-220
Override	-221
us	-222
ong	-223
test	-224
Resource	-225
pe	-226
rue	-227
yte	-228
ava	-229
out	-230
▁int	-231
ster	-232
▁S	-233
Configuration	-234
lu	-235
Attempt	-236
▁1	-237
ild	-238
li	-239
▁java	-240
ask	-241
ype	-242
▁M	-243
and	-244
▁IOException	-245
Equals	-246
new	-247
yst	-248
ystem	-249
rec	-250
art	-251
ER	-252
▁D	-253
quest	-254
Application	-255
ken	-256
vent	-257
RE	-258
▁conf	-259
▁this	-260
ize	-261
Stat	-262
Ut	-263
ds	-264
om	-265
dfs	-266
class	-267
Util	-268
▁w	-269
Ser	-270
luster	-271
uild	-272
int	-273
Info	-274
State	-275
yarn	-276
Key	-277
anag	-278
(),	-279
▁Path	-280
Type	-281
Time	-282
▁ex	-283
anager	-284
text	-285
ve	-286
ack	-287
Job	-288
add	-289
Dir	-290
alue	-291
List	-292
00	-293
RM	-294
es	-295
reate	-296
ream	-297
Proto	-298
fa	-299
lean	-300
lient	-301
ra	-302
ress	-303
Task	-304
AT	-305
if	-306
atch	-307
lo	-308
[]	-309
IN	-310
vic	-311
uf	-312
Status	-313
▁test	-314
sh	-315
▁for	-316
Request	-317
Event	-318
red	-319
ched	-320
pon	-321
Stream	-322
alse	-323
ssert	-324
OG	-325
Rep	-326
▁C	-327
ponse	-328
▁app	-329
▁.	-330
Token	-331
Stor	-332
Log	-333
Inter	-334
oolean	-335
uilder	-336
Out	-337
gth	-338
vice	-339
▁pro	-340
util	-341
conf	-342
For	-343
▁File	-344
▁h	-345
Ac	-346
())	-347
end	-348
Data	-349
▁long	-350
tory	-351
Context	-352
Map	-353
DE	-354
ult	-355
rit	-356
▁assertEquals	-357
▁==	-358
io	-359
rent	-360
ocal	-361
▁!	-362
len	-363
ase	-364
fer	-365
System	-366
),	-367
chedul	-368
Output	-369
toc	-370
tocol	-371
pro	-372
read	-373
▁o	-374
Manager	-375
LE	-376
▁res	-377
▁fs	-378
hdfs	-379
▁try	-380
ost	-381
▁file	-382
Ch	-383
ID	-384
unt	-385
▁LOG	-386
AM	-387
ray	-388
mpl	-389
▁Assert	-390
ics	-391
▁to	-392
co	-393
ST	-394
uce	-395
Que	-396
▁!=	-397
DFS	-398
Queue	-399
rite	-400
Th	-401
tr	-402
Writ	-403
server	-404
Utils	-405
cheduler	-406
all	-407
ment	-408
▁true	-409
ator	-410
Byte	-411
ON	-412
ck	-413
cess	-414
lec	-415
▁boolean	-416
roup	-417
User	-418
stan	-419
Input	-420
Ar	-421
ive	-422
Ent	-423
▁H	-424
map	-425
▁class	-426
key	-427
Storage	-428
Ad	-429
pec	-430
▁false	-431
▁set	-432
Service	-433
Response	-434
length	-435
mo	-436
mi	-437
check	-438
cur	-439
De	-440
ords	-441
ow	-442
▁:	-443
etr	-444
Op	-445
▁Exception	-446
Yarn	-447
ine	-448
TE	-449
ll	-450
Client	-451
▁out	-452
▁<	-453
for	-454
Builder	-455
atan	-456
atanode	-457
";	-458
True	-459
uffer	-460
ex	-461
▁catch	-462
serv	-463
))	-464
EN	-465
res	-466
name	-467
ers	-468
ssion	-469
UR	-470
Un	-471
user	-472
En	-473
▁cluster	-474
1,	-475
Class	-476
api	-477
Report	-478
dir	-479
AL	-480
mat	-481
ten	-482
irec	-483
ader	-484
mission	-485
etrics	-486
ith	-487
ION	-488
file	-489
face	-490
ory	-491
lose	-492
Per	-493
Size	-494
mapred	-495
FA	-496
act	-497
▁-	-498
Conf	-499
Set	-500
mit	-501
rint	-502
ure	-503
toString	-504
ect	-505
str	-506
▁is	-507
records	-508
▁byte	-509
▁job	-510
pl	-511
ig	-512
▁el	-513
▁de	-514
ition	-515
KE	-516
let	-517
AC	-518
actory	-519
▁0;	-520
Group	-521
stance	-522
create	-523
rc	-524
Nodes	-525
▁P	-526
Interface	-527
▁Configuration	-528
abel	-529
ated	-530
cor	-531
UL	-532
Add	-533
▁else	-534
unit	-535
▁N	-536
ax	-537
ence	-538
path	-539
ail	-540
mon	-541
Po	-542
▁create	-543
bu	-544
▁F	-545
▁co	-546
ler	-547
▁block	-548
unter	-549
nap	-550
▁node	-551
junit	-552
LI	-553
(0	-554
AttemptId	-555
FileSystem	-556
▁List	-557
2.	-558
KEY	-559
Factory	-560
ash	-561
com	-562
ject	-563
Hand	-564
▁se	-565
ip	-566
yn	-567
▁rm	-568
napsh	-569
napshot	-570
▁/	-571
▁R	-572
servation	-573
queue	-574
All	-575
info	-576
LO	-577
▁Re	-578
▁value	-579
▁pack	-580
▁container	-581
CE	-582
Cluster	-583
OR	-584
leg	-585
▁a	-586
pected	-587
Local	-588
Len	-589
size	-590
▁package	-591
assertEquals	-592
Attr	-593
ication	-594
▁num	-595
arget	-596
Value	-597
Buffer	-598
AD	-599
Tr	-600
ify	-601
ext	-602
Impl	-603
ocation	-604
Array	-605
Int	-606
ger	-607
tec	-608
AP	-609
ly	-610
▁2	-611
tected	-612
mapreduce	-613
protocol	-614
Up	-615
1.	-616
Writable	-617
▁G	-618
per	-619
ho	-620
node	-621
Bytes	-622
Direc	-623
▁protected	-624
append	-625
tt	-626
▁exten	-627
ULT	-628
▁assertTrue	-629
ial	-630
Scheduler	-631
▁extends	-632
arg	-633
Handler	-634
ror	-635
DI	-636
▁check	-637
FI	-638
data	-639
Format	-640
▁Resource	-641
uc	-642
Num	-643
licy	-644
SS	-645
Entry	-646
Com	-647
di	-648
FAULT	-649
eb	-650
apac	-651
Keys	-652
(1	-653
▁wh	-654
ool	-655
ttp	-656
fault	-657
val	-658
eck	-659
▁path	-660
ized	-661
With	-662
print	-663
own	-664
▁RM	-665
rom	-666
plit	-667
job	-668
▁&	-669
Of	-670
UT	-671
Label	-672
manager	-673
Cache	-674
lement	-675
")	-676
NAM	-677
Comp	-678
Thread	-679
Ob	-680
EC	-681
▁name	-682
ink	-683
▁*	-684
▁key	-685
Instance	-686
OutputStream	-687
lector	-688
Protocol	-689
ODE	-690
▁0,	-691
ded	-692
▁Test	-693
os	-694
Sh	-695
Text	-696
▁I	-697
Object	-698
AR	-699
cord	-700
gist	-701
++	-702
op	-703
uth	-704
common	-705
write	-706
▁Job	-707
apacity	-708
InputStream	-709
ge	-710
start	-711
Check	-712
Sec	-713
LOC	-714
ifi	-715
ast	-716
▁of	-717
Long	-718
ait	-719
IT	-720
ener	-721
▁B	-722
▁>	-723
ies	-724
Not	-725
▁//	-726
Count	-727
▁not	-728
TaskAttempt	-729
ain	-730
pc	-731
log	-732
He	-733
Metrics	-734
ito	-735
ockito	-736
Counter	-737
▁add	-738
ann	-739
▁Application	-740
this	-741
Par	-742
ans	-743
Containers	-744
ification	-745
Au	-746
der	-747
▁DFS	-748
dit	-749
▁(!	-750
resource	-751
date	-752
▁Container	-753
Address	-754
Code	-755
Blocks	-756
▁System	-757
getName	-758
verify	-759
Start	-760
Policy	-761
rup	-762
▁&&	-763
uper	-764
SI	-765
Option	-766
Permission	-767
ish	-768
ATION	-769
time	-770
ak	-771
Vers	-772
PB	-773
Version	-774
AN	-775
Se	-776
getM	-777
ret	-778
line	-779
000	-780
▁builder	-781
dex	-782
RO	-783
Datanode	-784
xy	-785
▁user	-786
Server	-787
close	-788
ility	-789
ml	-790
current	-791
use	-792
Directory	-793
ts	-794
urrent	-795
equals	-796
"));	-797
attempt	-798
ln	-799
ME	-800
Read	-801
container	-802
ssage	-803
ority	-804
ilter	-805
DEFAULT	-806
ace	-807
▁In	-808
Qu	-809
An	-810
ini	-811
rip	-812
▁com	-813
▁Log	-814
println	-815
ind	-816
▁rep	-817
Fs	-818
ZE	-819
TA	-820
ay	-821
Acl	-822
ber	-823
byte	-824
inish	-825
dience	-826
2,	-827
uld	-828
Audience	-829
▁Ar	-830
▁g	-831
olu	-832
▁start	-833
ree	-834
vid	-835
▁Yarn	-836
SER	-837
▁Map	-838
Length	-839
▁stor	-840
move	-841
>();	-842
Be	-843
").	-844
legation	-845
value	-846
▁super	-847
▁the	-848
arent	-849
curity	-850
und	-851
▁FS	-852
stract	-853
of	-854
▁Array	-855
ocket	-856
enode	-857
ability	-858
sum	-859
amenode	-860
unn	-861
classification	-862
py	-863
istory	-864
riority	-865
args	-866
On	-867
form	-868
ill	-869
min	-870
Er	-871
ifier	-872
iled	-873
security	-874
bug	-875
▁ch	-876
▁response	-877
mand	-878
duce	-879
aster	-880
HE	-881
vider	-882
ConfigKeys	-883
Writer	-884
SIZE	-885
be	-886
▁ac	-887
upp	-888
("/	-889
▁do	-890
ary	-891
▁3	-892
▁read	-893
▁queue	-894
atcher	-895
▁task	-896
▁ab	-897
ocated	-898
Store	-899
];	-900
ep	-901
▁syn	-902
>>	-903
▁10	-904
NM	-905
▁ser	-906
tive	-907
Snapshot	-908
ron	-909
LOCK	-910
ollec	-911
▁T	-912
_(	-913
▁ent	-914
▁dir	-915
Labels	-916
▁request	-917
Del	-918
▁log	-919
Return	-920
URI	-921
Reader	-922
▁finally	-923
ailed	-924
0.	-925
▁?	-926
Replic	-927
TestUtil	-928
NAME	-929
formation	-930
oot	-931
▁0)	-932
UN	-933
ument	-934
ork	-935
▁mock	-936
\"	-937
▁1,	-938
ia	-939
MA	-940
build	-941
chron	-942
▁verify	-943
DIR	-944
ists	-945
Record	-946
tains	-947
()).	-948
im	-949
JS	-950
are	-951
Le	-952
++)	-953
▁Node	-954
JSON	-955
[0	-956
▁Block	-957
Information	-958
And	-959
▁data	-960
▁expected	-961
▁FileSystem	-962
LIC	-963
block	-964
▁|	-965
Assert	-966
Get	-967
lete	-968
ContainerId	-969
rm	-970
entifier	-971
ib	-972
getC	-973
legationToken	-974
ING	-975
ound	-976
gress	-977
Us	-978
Arg	-979
▁W	-980
▁be	-981
num	-982
chronized	-983
CON	-984
UE	-985
Edit	-986
UserGroup	-987
VAL	-988
Access	-989
resourcemanager	-990
sub	-991
emory	-992
ENT	-993
▁synchronized	-994
ign	-995
next	-996
abled	-997
gister	-998
▁result	-999
Socket	-1000
0000	-1001
Root	-1002
Param	-1003
src	-1004
From	-1005
Host	-1006
mpty	-1007
resh	-1008
pert	-1009
▁"/	-1010
Provider	-1011
newInstance	-1012
▁client	-1013
Dirs	-1014
ative	-1015
sed	-1016
PBImpl	-1017
Null	-1018
tro	-1019
APP	-1020
Im	-1021
eration	-1022
"),	-1023
commons	-1024
error	-1025
assertTrue	-1026
andom	-1027
Pool	-1028
Reservation	-1029
proto	-1030
af	-1031
CO	-1032
Dis	-1033
ribu	-1034
fset	-1035
UP	-1036
mplet	-1037
▁write	-1038
UM	-1039
iniDFS	-1040
Capacity	-1041
LOG	-1042
Trans	-1043
Private	-1044
vert	-1045
host	-1046
true	-1047
▁src	-1048
1);	-1049
rupted	-1050
Fail	-1051
Met	-1052
wait	-1053
par	-1054
teger	-1055
TI	-1056
▁ArrayList	-1057
Usage	-1058
hould	-1059
comp	-1060
▁all	-1061
▁application	-1062
sk	-1063
amp	-1064
▁max	-1065
24	-1066
Operation	-1067
ATE	-1068
apper	-1069
AppAttempt	-1070
lements	-1071
getApplication	-1072
one	-1073
mote	-1074
tent	-1075
URL	-1076
otal	-1077
▁Text	-1078
down	-1079
FileStatus	-1080
list	-1081
nec	-1082
Identifier	-1083
ecut	-1084
SE	-1085
Hel	-1086
▁while	-1087
▁Data	-1088
Split	-1089
▁selector	-1090
▁1);	-1091
Filter	-1092
MP	-1093
andle	-1094
AB	-1095
contains	-1096
ollection	-1097
DelegationToken	-1098
▁id	-1099
▁close	-1100
▁k	-1101
▁||	-1102
[0]	-1103
NameNode	-1104
▁target	-1105
.");	-1106
Constan	-1107
ging	-1108
iniDFSCluster	-1109
patcher	-1110
Ab	-1111
▁sh	-1112
Attrs	-1113
▁map	-1114
Stability	-1115
▁0);	-1116
OT	-1117
MR	-1118
valid	-1119
system	-1120
ota	-1121
Master	-1122
then	-1123
crip	-1124
RI	-1125
(0,	-1126
essage	-1127
ore	-1128
null	-1129
Proxy	-1130
Command	-1131
old	-1132
her	-1133
orted	-1134
▁Task	-1135
OP	-1136
po	-1137
pace	-1138
ashMap	-1139
FILE	-1140
▁fail	-1141
Index	-1142
kdir	-1143
cluster	-1144
▁((	-1145
reg	-1146
Auth	-1147
▁ret	-1148
▁when	-1149
LICATION	-1150
▁Fs	-1151
terator	-1152
Contro	-1153
fore	-1154
False	-1155
Default	-1156
init	-1157
Error	-1158
ys	-1159
StorageType	-1160
▁resource	-1161
TestUtils	-1162
▁dfs	-1163
Image	-1164
thenReturn	-1165
Propert	-1166
foo	-1167
Interrupted	-1168
timeout	-1169
Constants	-1170
▁token	-1171
nection	-1172
▁scheduler	-1173
ACL	-1174
aun	-1175
Enabled	-1176
umm	-1177
TEST	-1178
Helper	-1179
Secret	-1180
▁time	-1181
Finish	-1182
ged	-1183
imit	-1184
Lock	-1185
Sub	-1186
▁abstract	-1187
protocolrecords	-1188
hod	-1189
EventType	-1190
12	-1191
Http	-1192
son	-1193
▁comp	-1194
Entity	-1195
Uri	-1196
▁proto	-1197
root	-1198
Files	-1199
▁event	-1200
ries	-1201
net	-1202
▁Mock	-1203
has	-1204
cover	-1205
logging	-1206
fresh	-1207
Boolean	-1208
long	-1209
▁init	-1210
Delet	-1211
▁storage	-1212
ression	-1213
client	-1214
ange	-1215
mock	-1216
LED	-1217
Protos	-1218
GE	-1219
fter	-1220
delete	-1221
Empty	-1222
▁run	-1223
task	-1224
▁"-	-1225
any	-1226
local	-1227
▁should	-1228
▁RE	-1229
▁val	-1230
▁local	-1231
ization	-1232
▁state	-1233
Write	-1234
Runn	-1235
Timeline	-1236
As	-1237
inc	-1238
vel	-1239
▁context	-1240
final	-1241
Pre	-1242
Bl	-1243
<?	-1244
▁op	-1245
▁Thread	-1246
Resources	-1247
Hdfs	-1248
token	-1249
▁args	-1250
update	-1251
TER	-1252
greg	-1253
0,	-1254
fix	-1255
▁acl	-1256
==	-1257
PC	-1258
Base	-1259
debug	-1260
▁info	-1261
="	-1262
▁5	-1263
ug	-1264
▁me	-1265
IL	-1266
Reduce	-1267
▁attempt	-1268
Update	-1269
utdown	-1270
SK	-1271
Port	-1272
Argument	-1273
(1,	-1274
Execut	-1275
Location	-1276
nal	-1277
▁nm	-1278
Fi	-1279
Public	-1280
Dec	-1281
▁Ser	-1282
Rpc	-1283
▁x	-1284
ite	-1285
ell	-1286
▁en	-1287
()));	-1288
Or	-1289
TIME	-1290
ities	-1291
goo	-1292
History	-1293
omain	-1294
Track	-1295
aunch	-1296
Action	-1297
▁bytes	-1298
DFSConfigKeys	-1299
USER	-1300
BLOCK	-1301
▁config	-1302
stat	-1303
▁TaskAttempt	-1304
Before	-1305
low	-1306
exists	-1307
Checksum	-1308
▁MiniDFSCluster	-1309
Ag	-1310
izer	-1311
1",	-1312
MAX	-1313
Replica	-1314
ved	-1315
Progress	-1316
getBlock	-1317
▁list	-1318
gle	-1319
▁",	-1320
artbe	-1321
ForTest	-1322
▁Hdfs	-1323
Active	-1324
artbeat	-1325
TH	-1326
MS	-1327
_();	-1328
leep	-1329
TY	-1330
VE	-1331
vlet	-1332
▁am	-1333
▁Long	-1334
Complet	-1335
Quota	-1336
ible	-1337
ings	-1338
google	-1339
▁par	-1340
▁pre	-1341
Apps	-1342
Ret	-1343
ule	-1344
Init	-1345
Throw	-1346
▁Datanode	-1347
OUT	-1348
▁4	-1349
PER	-1350
▁status	-1351
▁input	-1352
▁UserGroup	-1353
▁implements	-1354
ake	-1355
ync	-1356
RequestProto	-1357
ending	-1358
reak	-1359
uccess	-1360
Failed	-1361
expected	-1362
Vis	-1363
olute	-1364
NodeId	-1365
2);	-1366
solute	-1367
Exp	-1368
Tx	-1369
event	-1370
Mode	-1371
olume	-1372
artition	-1373
ht	-1374
application	-1375
▁host	-1376
loat	-1377
other	-1378
mkdir	-1379
▁Byte	-1380
Found	-1381
handle	-1382
redent	-1383
EditLog	-1384
▁dis	-1385
)._();	-1386
ourn	-1387
--	-1388
remove	-1389
Lo	-1390
Enum	-1391
CH	-1392
▁Mockito	-1393
▁Ac	-1394
SH	-1395
lan	-1396
false	-1397
((	-1398
VER	-1399
DAT	-1400
over	-1401
▁Get	-1402
web	-1403
Call	-1404
SecretManager	-1405
do	-1406
cry	-1407
▁};	-1408
ENODE	-1409
parse	-1410
Limit	-1411
▁un	-1412
reemp	-1413
▁break	-1414
▁Set	-1415
TR	-1416
NAMENODE	-1417
PRE	-1418
Aggreg	-1419
▁current	-1420
target	-1421
untime	-1422
iaProto	-1423
▁tr	-1424
air	-1425
ner	-1426
namenode	-1427
▁instance	-1428
▁report	-1429
INode	-1430
Used	-1431
After	-1432
▁output	-1433
Priority	-1434
ournal	-1435
▁dn	-1436
getLog	-1437
NodeLabels	-1438
Gener	-1439
▁length	-1440
▁buffer	-1441
SC	-1442
▁count	-1443
iew	-1444
cond	-1445
legal	-1446
od	-1447
ocate	-1448
llegal	-1449
iff	-1450
race	-1451
aw	-1452
ResourceRequest	-1453
getPath	-1454
ResponseProto	-1455
▁case	-1456
FIX	-1457
Counters	-1458
ord	-1459
▁len	-1460
Compar	-1461
▁DE	-1462
Max	-1463
▁cdata	-1464
Des	-1465
Spec	-1466
▁E	-1467
Connection	-1468
annel	-1469
▁'	-1470
Control	-1471
▁writ	-1472
▁type	-1473
▁6	-1474
lag	-1475
▁-1	-1476
short	-1477
Link	-1478
▁last	-1479
PE	-1480
fail	-1481
HA	-1482
Servlet	-1483
agn	-1484
]);	-1485
ook	-1486
stable	-1487
getNum	-1488
Ren	-1489
▁with	-1490
▁per	-1491
SEC	-1492
Unstable	-1493
ms	-1494
Heartbeat	-1495
Cor	-1496
▁ur	-1497
▁V	-1498
gr	-1499
FoundException	-1500
Supp	-1501
code	-1502
▁sub	-1503
agnost	-1504
Last	-1505
ual	-1506
unk	-1507
RESS	-1508
annot	-1509
▁from	-1510
▁Reservation	-1511
ITY	-1512
▁1;	-1513
cdata	-1514
ature	-1515
APPLICATION	-1516
ave	-1517
Sys	-1518
config	-1519
New	-1520
PAT	-1521
▁{}	-1522
DataNodes	-1523
▁size	-1524
▁containerId	-1525
By	-1526
Fiel	-1527
warn	-1528
md	-1529
Internal	-1530
ribute	-1531
ials	-1532
getS	-1533
Memory	-1534
tribute	-1535
lear	-1536
getClass	-1537
tab	-1538
Create	-1539
stor	-1540
clu	-1541
load	-1542
redentials	-1543
buf	-1544
▁at	-1545
OB	-1546
Timeout	-1547
served	-1548
max	-1549
Executor	-1550
Allocation	-1551
3,	-1552
format	-1553
▁1024	-1554
ForTesting	-1555
Throwable	-1556
TION	-1557
NotNull	-1558
▁+=	-1559
count	-1560
Target	-1561
▁Web	-1562
XAttr	-1563
getValue	-1564
EX	-1565
▁100	-1566
▁J	-1567
Volume	-1568
dat	-1569
Admin	-1570
▁assertFalse	-1571
34	-1572
Addr	-1573
itor	-1574
Mapp	-1575
▁exception	-1576
mkdirs	-1577
lus	-1578
Options	-1579
scheduler	-1580
cords	-1581
▁viaProto	-1582
shutdown	-1583
point	-1584
▁K	-1585
Absolute	-1586
mockito	-1587
▁Object	-1588
Next	-1589
▁Local	-1590
cre	-1591
Remote	-1592
▁Class	-1593
tern	-1594
▁total	-1595
ust	-1596
sion	-1597
leanup	-1598
reemption	-1599
1");	-1600
No	-1601
▁on	-1602
0000)	-1603
▁met	-1604
group	-1605
▁DFSTestUtil	-1606
isEmpty	-1607
rupt	-1608
[1	-1609
▁call	-1610
Ms	-1611
SocketAddress	-1612
struc	-1613
Selector	-1614
concurrent	-1615
uff	-1616
▁Interrupted	-1617
CESS	-1618
Content	-1619
TxId	-1620
impl	-1621
Property	-1622
TokenIdentifier	-1623
Pos	-1624
▁".	-1625
Names	-1626
tract	-1627
RES	-1628
hen	-1629
▁split	-1630
▁instanceof	-1631
ressor	-1632
LA	-1633
Xml	-1634
▁nn	-1635
ApplicationId	-1636
tx	-1637
INTER	-1638
▁MR	-1639
Parent	-1640
(2	-1641
Integer	-1642
PATH	-1643
entication	-1644
Groups	-1645
stop	-1646
▁sb	-1647
"))	-1648
Result	-1649
rep	-1650
▁URI	-1651
TP	-1652
Aggregation	-1653
gra	-1654
▁Un	-1655
ance	-1656
afe	-1657
Interval	-1658
Iterator	-1659
led	-1660
etSocketAddress	-1661
TAIN	-1662
back	-1663
grade	-1664
lease	-1665
tmp	-1666
alth	-1667
Recover	-1668
▁inter	-1669
EnumSet	-1670
▁appId	-1671
▁HashMap	-1672
ialize	-1673
llegalArgument	-1674
ArrayList	-1675
(0);	-1676
PREFIX	-1677
NN	-1678
Offset	-1679
▁closeAttrs	-1680
DataOutputStream	-1681
rivile	-1682
utable	-1683
MAP	-1684
▁javax	-1685
].	-1686
iagnost	-1687
Exten	-1688
Web	-1689
attern	-1690
getFileSystem	-1691
Visible	-1692
▁cache	-1693
Transition	-1694
ee	-1695
type	-1696
▁bl	-1697
▁parent	-1698
EL	-1699
VALUE	-1700
az	-1701
Warn	-1702
vices	-1703
Line	-1704
Element	-1705
register	-1706
err	-1707
service	-1708
▁error	-1709
getCurrent	-1710
main	-1711
TAINER	-1712
▁default	-1713
oin	-1714
MB	-1715
▁Integer	-1716
CLI	-1717
gment	-1718
Dist	-1719
▁buf	-1720
cep	-1721
RED	-1722
▁writer	-1723
Paths	-1724
//	-1725
▁he	-1726
UC	-1727
Val	-1728
▁>=	-1729
criptor	-1730
▁str	-1731
▁Http	-1732
Collection	-1733
base	-1734
ugi	-1735
riped	-1736
3.	-1737
ADD	-1738
Child	-1739
OK	-1740
wner	-1741
▁snapshot	-1742
Message	-1743
Launch	-1744
▁service	-1745
Debug	-1746
irst	-1747
ptions	-1748
▁RMApp	-1749
lib	-1750
Retry	-1751
Tracker	-1752
▁FsPermission	-1753
he	-1754
▁hdfs	-1755
▁entity	-1756
InputFormat	-1757
▁act	-1758
ulator	-1759
FF	-1760
▁StringBuilder	-1761
imp	-1762
input	-1763
HT	-1764
ared	-1765
irectory	-1766
adata	-1767
mitter	-1768
ributed	-1769
Replication	-1770
▁server	-1771
uble	-1772
▁DEFAULT	-1773
>()	-1774
▁io	-1775
bytes	-1776
PRO	-1777
▁blocks	-1778
eature	-1779
webapp	-1780
▁INode	-1781
()))	-1782
sleep	-1783
Descriptor	-1784
acl	-1785
getRM	-1786
ummary	-1787
▁});	-1788
getMemory	-1789
aset	-1790
run	-1791
datanode	-1792
ery	-1793
Common	-1794
itions	-1795
HED	-1796
Exit	-1797
ROUP	-1798
when	-1799
Number	-1800
JSONObject	-1801
▁Collection	-1802
nodemanager	-1803
FO	-1804
untimeException	-1805
VI	-1806
clear	-1807
Tasks	-1808
EventHandler	-1809
▁datanode	-1810
▁setSelector	-1811
TYPE	-1812
▁store	-1813
Buf	-1814
getLocal	-1815
_0	-1816
Attribute	-1817
Mockito	-1818
Invalid	-1819
Ur	-1820
▁failed	-1821
cript	-1822
request	-1823
Url	-1824
quence	-1825
▁q	-1826
▁Writable	-1827
iv	-1828
Header	-1829
state	-1830
Warnings	-1831
READ	-1832
Delete	-1833
Logger	-1834
▁Client	-1835
getAbsolute	-1836
▁cs	-1837
)).	-1838
gin	-1839
cheduling	-1840
erge	-1841
getBytes	-1842
ach	-1843
imple	-1844
▁reader	-1845
setInt	-1846
▁metrics	-1847
Short	-1848
waitFor	-1849
upported	-1850
▁next	-1851
StateStore	-1852
Suppress	-1853
ding	-1854
metrics	-1855
INTERVAL	-1856
http	-1857
Level	-1858
▁code	-1859
Comparator	-1860
▁al	-1861
Dispatcher	-1862
▁wait	-1863
TED	-1864
Mapper	-1865
▁GB	-1866
▁has	-1867
▁group	-1868
▁++	-1869
uffle	-1870
SuppressWarnings	-1871
sc	-1872
Process	-1873
rivileged	-1874
ause	-1875
ller	-1876
Method	-1877
▁De	-1878
inter	-1879
gn	-1880
ORT	-1881
.*	-1882
Unit	-1883
▁counter	-1884
▁BLOCK	-1885
▁req	-1886
://	-1887
edia	-1888
bar	-1889
▁convert	-1890
CONTAINER	-1891
Flag	-1892
Work	-1893
Total	-1894
status	-1895
lush	-1896
▁FileStatus	-1897
istics	-1898
▁LogFactory	-1899
▁ApplicationId	-1900
▁end	-1901
▁reduce	-1902
alc	-1903
iter	-1904
DO	-1905
pid	-1906
PUT	-1907
Codec	-1908
Entries	-1909
▁old	-1910
gistry	-1911
Failure	-1912
maining	-1913
Feature	-1914
Locations	-1915
etric	-1916
JobConfig	-1917
illis	-1918
▁Ch	-1919
LogFactory	-1920
entry	-1921
icTestUtils	-1922
Compression	-1923
Mock	-1924
Striped	-1925
▁ContainerId	-1926
ns	-1927
Attempts	-1928
getResource	-1929
Al	-1930
Dat	-1931
▁dst	-1932
cei	-1933
Events	-1934
ute	-1935
▁cur	-1936
▁Sh	-1937
ediaType	-1938
("\	-1939
Queues	-1940
▁record	-1941
IOUtils	-1942
ADDRESS	-1943
Upgrade	-1944
oll	-1945
▁entry	-1946
est	-1947
Preemption	-1948
auth	-1949
onitor	-1950
getKey	-1951
HTTP	-1952
▁Key	-1953
storage	-1954
ant	-1955
ayout	-1956
ified	-1957
PO	-1958
>(	-1959
(1);	-1960
ED	-1961
▁lo	-1962
US	-1963
▁Service	-1964
version	-1965
ART	-1966
Append	-1967
ference	-1968
▁1000	-1969
▁offset	-1970
getQueue	-1971
ren	-1972
Encry	-1973
Services	-1974
ProtoFormat	-1975
isDebug	-1976
isDebugEnabled	-1977
Final	-1978
Red	-1979
Down	-1980
pos	-1981
▁setup	-1982
rim	-1983
▁te	-1984
Safe	-1985
▁number	-1986
▁ob	-1987
HashMap	-1988
RITE	-1989
],	-1990
▁Random	-1991
MIT	-1992
mic	-1993
getMessage	-1994
Cp	-1995
nn	-1996
getFile	-1997
▁child	-1998
asl	-1999
apability	-2000
TS	-2001
values	-2002
10	-2003
rect	-2004
ZK	-2005
Located	-2006
iagnostics	-2007
)));	-2008
Extended	-2009
▁min	-2010
IP	-2011
INI	-2012
RPC	-2013
Mapping	-2014
chedule	-2015
▁addAttr	-2016
▁Token	-2017
▁update	-2018
NodeLabel	-2019
Replicas	-2020
Copy	-2021
Diff	-2022
TASK	-2023
StorageInfo	-2024
default	-2025
▁process	-2026
End	-2027
▁arg	-2028
▁Gener	-2029
Random	-2030
NodeManager	-2031
ashSet	-2032
ight	-2033
context	-2034
pre	-2035
▁json	-2036
▁z	-2037
Space	-2038
work	-2039
ucer	-2040
▁float	-2041
Millis	-2042
rapper	-2043
ExtendedBlock	-2044
ACCESS	-2045
Partition	-2046
CLIENT	-2047
▁dispatcher	-2048
>");	-2049
dr	-2050
▁NameNode	-2051
ENAB	-2052
Listing	-2053
▁use	-2054
FAI	-2055
QUE	-2056
▁Timeline	-2057
Case	-2058
string	-2059
getApplicationId	-2060
bl	-2061
▁<=	-2062
IntWritable	-2063
VICE	-2064
anage	-2065
pi	-2066
▁may	-2067
older	-2068
▁other	-2069
▁remove	-2070
stamp	-2071
▁Dist	-2072
ACHE	-2073
▁8	-2074
▁[	-2075
LEN	-2076
ANODE	-2077
▁options	-2078
ha	-2079
OUR	-2080
ift	-2081
▁it	-2082
▁replic	-2083
MasterKey	-2084
convert	-2085
conditions	-2086
The	-2087
JobId	-2088
====	-2089
▁proxy	-2090
OL	-2091
▁YarnException	-2092
UCE	-2093
Cores	-2094
Requests	-2095
pol	-2096
newBuilder	-2097
pb	-2098
ps	-2099
Tokens	-2100
▁2,	-2101
▁root	-2102
▁EnumSet	-2103
cs	-2104
Trace	-2105
UserName	-2106
View	-2107
Summary	-2108
▁ms	-2109
▁NM	-2110
▁base	-2111
NODE	-2112
DB	-2113
▁valid	-2114
cent	-2115
Domain	-2116
Pending	-2117
Namenode	-2118
Disk	-2119
Properties	-2120
▁any	-2121
DATANODE	-2122
urity	-2123
StartTime	-2124
▁Throwable	-2125
appId	-2126
output	-2127
NUM	-2128
Source	-2129
▁stream	-2130
▁message	-2131
},	-2132
JOB	-2133
Maps	-2134
aded	-2135
▁Time	-2136
<?>	-2137
ashCode	-2138
Chunk	-2139
cache	-2140
▁TEST	-2141
▁files	-2142
++;	-2143
rinc	-2144
Applications	-2145
DataNode	-2146
_1	-2147
ogy	-2148
getAbsolutePath	-2149
Completion	-2150
ector	-2151
SchedulerEvent	-2152
open	-2153
word	-2154
isting	-2155
Mo	-2156
0);	-2157
getAll	-2158
Channel	-2159
ML	-2160
wift	-2161
asure	-2162
rincip	-2163
ek	-2164
ome	-2165
▁-1;	-2166
Finished	-2167
".	-2168
AGE	-2169
pology	-2170
submit	-2171
SafeMode	-2172
ving	-2173
SERVICE	-2174
▁ugi	-2175
.",	-2176
2",	-2177
Running	-2178
exception	-2179
actor	-2180
▁reservation	-2181
split	-2182
Owner	-2183
▁nodes	-2184
LL	-2185
Order	-2186
▁label	-2187
Types	-2188
cheme	-2189
ump	-2190
DataInputStream	-2191
▁mem	-2192
ORY	-2193
clude	-2194
Change	-2195
Recovery	-2196
Alloc	-2197
Edits	-2198
getInt	-2199
Journal	-2200
5,	-2201
▁conn	-2202
▁up	-2203
Records	-2204
Arrays	-2205
:"	-2206
▁ioe	-2207
tomic	-2208
▁replication	-2209
▁does	-2210
▁le	-2211
WRITE	-2212
▁maybe	-2213
▁pos	-2214
setBoolean	-2215
yml	-2216
ymlink	-2217
▁del	-2218
supported	-2219
Health	-2220
containerId	-2221
Tree	-2222
0;	-2223
)._(	-2224
ACLs	-2225
4,	-2226
ipc	-2227
Loader	-2228
NO	-2229
beros	-2230
acklist	-2231
erberos	-2232
getFileStatus	-2233
ully	-2234
Rename	-2235
apacityScheduler	-2236
▁Resources	-2237
▁READ	-2238
Contract	-2239
▁print	-2240
getType	-2241
OutputFormat	-2242
.*;	-2243
ations	-2244
Monitor	-2245
MI	-2246
Current	-2247
Expected	-2248
MRJobConfig	-2249
▁param	-2250
RUN	-2251
Calc	-2252
Logs	-2253
TEMP	-2254
▁Queue	-2255
Acls	-2256
array	-2257
NING	-2258
assertFalse	-2259
numDataNodes	-2260
▁StorageType	-2261
CACHE	-2262
assign	-2263
▁have	-2264
pto	-2265
ical	-2266
prec	-2267
▁2);	-2268
compress	-2269
▁ByteBuffer	-2270
("<	-2271
xml	-2272
struction	-2273
DS	-2274
Raw	-2275
ALL	-2276
Blob	-2277
Stats	-2278
▁short	-2279
▁an	-2280
index	-2281
buffer	-2282
FAILED	-2283
Runner	-2284
enc	-2285
ume	-2286
Av	-2287
GI	-2288
entity	-2289
▁12	-2290
CT	-2291
▁ByteArray	-2292
getRe	-2293
checked	-2294
▁and	-2295
getProto	-2296
parent	-2297
table	-2298
▁_	-2299
ummy	-2300
assword	-2301
▁Metrics	-2302
PLICATION	-2303
▁iter	-2304
action	-2305
▁Access	-2306
2");	-2307
▁append	-2308
Statistics	-2309
LIN	-2310
▁delete	-2311
uture	-2312
quenceFile	-2313
▁{"	-2314
ROOT	-2315
imer	-2316
ayoutVersion	-2317
getId	-2318
("-	-2319
▁exit	-2320
ration	-2321
stream	-2322
cu	-2323
rap	-2324
()),	-2325
▁po	-2326
Buffered	-2327
cept	-2328
0.0.	-2329
▁priority	-2330
▁Print	-2331
Shell	-2332
▁line	-2333
▁source	-2334
join	-2335
Opt	-2336
REDUCE	-2337
▁MockRM	-2338
▁rpc	-2339
crease	-2340
permission	-2341
(2,	-2342
▁fc	-2343
PORT	-2344
rincipal	-2345
StoragePolicy	-2346
MIN	-2347
▁0.	-2348
MediaType	-2349
Field	-2350
rename	-2351
▁checksum	-2352
mem	-2353
▁tmp	-2354
YTE	-2355
Erasure	-2356
Refresh	-2357
Directive	-2358
ECK	-2359
unc	-2360
snapshot	-2361
Ca	-2362
dn	-2363
unchecked	-2364
iginal	-2365
▁RMAppAttempt	-2366
Authentication	-2367
▁IN	-2368
indow	-2369
createFile	-2370
▁found	-2371
Submission	-2372
vol	-2373
▁},	-2374
cope	-2375
OURCE	-2376
▁load	-2377
unning	-2378
▁Arrays	-2379
iterator	-2380
▁maybeInit	-2381
▁IllegalArgument	-2382
Ass	-2383
[]{	-2384
wit	-2385
ingle	-2386
Metric	-2387
anagement	-2388
▁directory	-2389
UTF	-2390
ARN	-2391
Non	-2392
KIL	-2393
Reference	-2394
ircu	-2395
ONE	-2396
▁Acl	-2397
▁USER	-2398
qui	-2399
tin	-2400
witch	-2401
mutable	-2402
..	-2403
ious	-2404
ful	-2405
▁ns	-2406
ircuit	-2407
Register	-2408
arted	-2409
ERR	-2410
afQueue	-2411
gi	-2412
▁Ab	-2413
▁"\	-2414
asList	-2415
lace	-2416
Segment	-2417
oid	-2418
Stamp	-2419
▁merge	-2420
fc	-2421
()._(	-2422
last	-2423
correct	-2424
URLConnection	-2425
6,	-2426
Reports	-2427
(0).	-2428
counter	-2429
Ugi	-2430
▁uri	-2431
getDatanode	-2432
anner	-2433
▁Cache	-2434
▁JobConf	-2435
dis	-2436
ControlException	-2437
▁1)	-2438
AclEntry	-2439
▁url	-2440
ACK	-2441
Resol	-2442
▁finish	-2443
AX	-2444
nm	-2445
kip	-2446
Date	-2447
Calculator	-2448
Rack	-2449
▁first	-2450
▁as	-2451
Dataset	-2452
copy	-2453
resol	-2454
store	-2455
RY	-2456
DATA	-2457
YARN	-2458
Lease	-2459
▁Storage	-2460
▁aclEntry	-2461
▁toString	-2462
admin	-2463
label	-2464
Startup	-2465
reset	-2466
▁Rpc	-2467
ContainerStatus	-2468
Controller	-2469
SION	-2470
▁Pre	-2471
Match	-2472
ft	-2473
Fields	-2474
Topology	-2475
Close	-2476
newRecord	-2477
valueOf	-2478
▁IOUtils	-2479
00000	-2480
nown	-2481
ssing	-2482
reservation	-2483
vious	-2484
TestHelper	-2485
RequestPBImpl	-2486
ApplicationState	-2487
BU	-2488
RUNNING	-2489
Deco	-2490
▁Con	-2491
Prefix	-2492
lob	-2493
Paramet	-2494
localhost	-2495
Serial	-2496
TIMEOUT	-2497
▁configuration	-2498
ie	-2499
hasNext	-2500
getJob	-2501
nfs	-2502
Native	-2503
ABEL	-2504
gistration	-2505
eeper	-2506
boolean	-2507
getLength	-2508
▁Abstract	-2509
PAR	-2510
FinishTime	-2511
by	-2512
GROUP	-2513
Share	-2514
▁inode	-2515
Page	-2516
volving	-2517
▁filter	-2518
IVE	-2519
Evolving	-2520
Diagnostics	-2521
▁permission	-2522
▁cor	-2523
ured	-2524
moved	-2525
▁Snapshot	-2526
ff	-2527
▁success	-2528
GB	-2529
Parser	-2530
ty	-2531
lang	-2532
met	-2533
Mult	-2534
uses	-2535
▁auth	-2536
Namesystem	-2537
SP	-2538
andler	-2539
tinue	-2540
ATTEMP	-2541
Coding	-2542
Encryption	-2543
(10	-2544
lot	-2545
rig	-2546
Renew	-2547
▁index	-2548
history	-2549
Is	-2550
configuration	-2551
SUC	-2552
Stable	-2553
Success	-2554
▁handle	-2555
getNode	-2556
Pattern	-2557
ADO	-2558
ram	-2559
ADOOP	-2560
Decom	-2561
ws	-2562
Query	-2563
Circuit	-2564
ResourceUsage	-2565
COMP	-2566
CHECK	-2567
"}	-2568
20	-2569
cret	-2570
RMApp	-2571
▁version	-2572
MO	-2573
Char	-2574
▁");	-2575
Metadata	-2576
7.	-2577
Run	-2578
getProperty	-2579
ES	-2580
ark	-2581
ateg	-2582
Security	-2583
▁qu	-2584
Stop	-2585
JobConf	-2586
▁thread	-2587
▁rack	-2588
▁AM	-2589
(",	-2590
▁StringUtils	-2591
NT	-2592
<>();	-2593
getHost	-2594
Entities	-2595
lume	-2596
▁volume	-2597
getNamesystem	-2598
EW	-2599
Kill	-2600
Exists	-2601
Checkpoint	-2602
onent	-2603
▁containers	-2604
Cons	-2605
link	-2606
HO	-2607
ures	-2608
ENABLED	-2609
getContainer	-2610
assertNotNull	-2611
▁appAttemptId	-2612
cl	-2613
YTES	-2614
▁Iterator	-2615
Req	-2616
▁rmContext	-2617
jobId	-2618
jector	-2619
▁command	-2620
Col	-2621
▁Se	-2622
")));	-2623
▁policy	-2624
▁Preconditions	-2625
ocations	-2626
▁continue	-2627
sWith	-2628
XAttrs	-2629
Checker	-2630
ByteArray	-2631
OKEN	-2632
▁oper	-2633
Expir	-2634
attr	-2635
flec	-2636
eline	-2637
anc	-2638
TimeMillis	-2639
CL	-2640
▁addr	-2641
TestRoot	-2642
▁interface	-2643
Def	-2644
Tag	-2645
LINE	-2646
STATE	-2647
▁actual	-2648
getState	-2649
waitActive	-2650
Range	-2651
Expression	-2652
▁)	-2653
ByteBuffer	-2654
(3	-2655
▁plan	-2656
ClientConfigKeys	-2657
▁ne	-2658
Jobs	-2659
Ver	-2660
XML	-2661
▁HA	-2662
Stand	-2663
Meta	-2664
idth	-2665
▁Nfs	-2666
gnore	-2667
appAttemptId	-2668
▁spy	-2669
ailable	-2670
SA	-2671
pan	-2672
ansition	-2673
BuilderUtils	-2674
ollect	-2675
enerate	-2676
1234	-2677
▁jobId	-2678
ready	-2679
COM	-2680
Listener	-2681
Scheduling	-2682
8,	-2683
Fair	-2684
▁content	-2685
▁replica	-2686
50	-2687
▁Unsupported	-2688
[0]);	-2689
lowed	-2690
RESOURCE	-2691
Wait	-2692
ould	-2693
▁recover	-2694
▁blockSize	-2695
▁\"	-2696
UGI	-2697
VERSION	-2698
alified	-2699
▁("	-2700
avail	-2701
OrBuilder	-2702
Table	-2703
getTask	-2704
----	-2705
▁Math	-2706
getApp	-2707
getNameNode	-2708
DN	-2709
au	-2710
imum	-2711
▁namenode	-2712
UB	-2713
▁rename	-2714
InputSplit	-2715
req	-2716
zure	-2717
000);	-2718
▁method	-2719
FileName	-2720
▁startTime	-2721
ari	-2722
▁URL	-2723
▁fsd	-2724
issing	-2725
StringUtils	-2726
db	-2727
rid	-2728
Sign	-2729
Ids	-2730
▁Atomic	-2731
AMRM	-2732
▁edit	-2733
Available	-2734
containermanager	-2735
▁NUM	-2736
TOKEN	-2737
▁spec	-2738
7.0.0.	-2739
edList	-2740
cr	-2741
GTH	-2742
allocate	-2743
hs	-2744
▁Replica	-2745
tual	-2746
▁msg	-2747
QUEUE	-2748
DED	-2749
▁that	-2750
ATOR	-2751
sing	-2752
ResponsePBImpl	-2753
▁alloc	-2754
▁compare	-2755
STR	-2756
▁codec	-2757
END	-2758
SSION	-2759
▁ctx	-2760
▁port	-2761
Ops	-2762
▁no	-2763
▁Distributed	-2764
StateInternal	-2765
should	-2766
▁DataNode	-2767
▁RMContainer	-2768
1/	-2769
ET	-2770
RemoteException	-2771
QU	-2772
Net	-2773
etch	-2774
oose	-2775
LOCAL	-2776
▁Link	-2777
getDefault	-2778
arch	-2779
make	-2780
▁App	-2781
▁blk	-2782
▁work	-2783
result	-2784
▁splits	-2785
hase	-2786
pect	-2787
tal	-2788
BlockInfo	-2789
00);	-2790
11	-2791
CS	-2792
SET	-2793
Roll	-2794
place	-2795
Open	-2796
127.0.0.	-2797
▁fi	-2798
Assign	-2799
sl	-2800
wer	-2801
Valid	-2802
eight	-2803
▁InputStream	-2804
getConfiguration	-2805
▁stats	-2806
reshold	-2807
vocation	-2808
Part	-2809
CRE	-2810
Failover	-2811
▁progress	-2812
▁":	-2813
LENGTH	-2814
finish	-2815
available	-2816
cluded	-2817
=\"	-2818
achine	-2819
ceived	-2820
LABEL	-2821
serve	-2822
▁DFSConfigKeys	-2823
AUT	-2824
tem	-2825
Abstract	-2826
▁HashSet	-2827
CaScheduler	-2828
04	-2829
GET	-2830
ater	-2831
servlet	-2832
iod	-2833
nect	-2834
rack	-2835
flush	-2836
▁3,	-2837
Completed	-2838
Credentials	-2839
17	-2840
DELE	-2841
lugin	-2842
Threads	-2843
org	-2844
▁us	-2845
▁exp	-2846
ample	-2847
▁double	-2848
cmd	-2849
ide	-2850
OF	-2851
1_	-2852
roll	-2853
▁Le	-2854
Submit	-2855
compare	-2856
reduce	-2857
eer	-2858
response	-2859
Mem	-2860
ard	-2861
Sync	-2862
▁RPC	-2863
getRMContext	-2864
('	-2865
br	-2866
STAT	-2867
getLast	-2868
getContainerId	-2869
If	-2870
One	-2871
mix	-2872
[0].	-2873
▁assertNotNull	-2874
toUri	-2875
total	-2876
▁fileSys	-2877
ucce	-2878
▁Sec	-2879
dst	-2880
apped	-2881
ription	-2882
waitForState	-2883
getEntity	-2884
▁ExtendedBlock	-2885
Su	-2886
proxy	-2887
rw	-2888
Idx	-2889
▁validate	-2890
Do	-2891
▁7	-2892
Env	-2893
▁sc	-2894
▁real	-2895
TRI	-2896
eded	-2897
BYTES	-2898
ridmix	-2899
message	-2900
▁Fi	-2901
exceptions	-2902
IllegalArgument	-2903
▁RMNode	-2904
Reporter	-2905
AG	-2906
ines	-2907
illed	-2908
getClient	-2909
verter	-2910
Written	-2911
ECT	-2912
Wrapper	-2913
Decommission	-2914
PR	-2915
ools	-2916
SCHED	-2917
bin	-2918
orm	-2919
irtual	-2920
Attributes	-2921
▁loc	-2922
Scope	-2923
Committer	-2924
LASS	-2925
Namespace	-2926
[2	-2927
auge	-2928
ancel	-2929
MISSION	-2930
▁access	-2931
▁namesystem	-2932
ErasureCoding	-2933
▁FI	-2934
precated	-2935
(5	-2936
ASE	-2937
mouse	-2938
Reducer	-2939
▁nodeId	-2940
▁Privileged	-2941
dated	-2942
▁WebServices	-2943
Updat	-2944
▁Auth	-2945
▁values	-2946
rypto	-2947
Symlink	-2948
ServiceProtos	-2949
▁parse	-2950
onmouse	-2951
getStorage	-2952
▁y	-2953
child	-2954
▁FSImage	-2955
ne	-2956
▁my	-2957
Under	-2958
Standby	-2959
▁remote	-2960
▁IntWritable	-2961
eld	-2962
call	-2963
Async	-2964
▁Record	-2965
ProtocolProtos	-2966
iple	-2967
▁apps	-2968
Script	-2969
▁recordFactory	-2970
▁cl	-2971
▁im	-2972
▁Buffered	-2973
▁Priority	-2974
EB	-2975
▁pw	-2976
pped	-2977
▁JSON	-2978
▁link	-2979
▁dirs	-2980
▁pending	-2981
▁bufferSize	-2982
▁2;	-2983
▁Collections	-2984
▁bpid	-2985
setLong	-2986
▁domain	-2987
ServiceState	-2988
tml	-2989
LogDir	-2990
▁reporter	-2991
odification	-2992
nodeId	-2993
LayoutVersion	-2994
from	-2995
▁fsn	-2996
my	-2997
Handle	-2998
source	-2999
FINI	-3000
refresh	-3001
getString	-3002
getInstance	-3003
1));	-3004
Added	-3005
Infos	-3006
▁seed	-3007
ang	-3008
Secon	-3009
Cached	-3010
lative	-3011
▁cmd	-3012
CLASS	-3013
acket	-3014
▁copy	-3015
(-	-3016
uid	-3017
▁find	-3018
Transfer	-3019
▁address	-3020
Bad	-3021
▁non	-3022
▁by	-3023
AUTH	-3024
▁stm	-3025
INFO	-3026
▁NodeId	-3027
apacities	-3028
Registration	-3029
IST	-3030
Units	-3031
Percent	-3032
collect	-3033
now	-3034
item	-3035
▁but	-3036
(1024	-3037
Shuffle	-3038
getUser	-3039
Distributed	-3040
▁LocalResource	-3041
Sc	-3042
BE	-3043
ToProtoFormat	-3044
▁db	-3045
Based	-3046
irect	-3047
addAll	-3048
▁Logger	-3049
HttpServlet	-3050
1:	-3051
Remove	-3052
▁taskAttempt	-3053
DR	-3054
FromProtoFormat	-3055
DOW	-3056
ale	-3057
entic	-3058
Virtual	-3059
3);	-3060
recover	-3061
▁Compression	-3062
32	-3063
ches	-3064
▁original	-3065
TaskAttemptId	-3066
RuntimeException	-3067
\\	-3068
createResource	-3069
Syn	-3070
▁over	-3071
Reserved	-3072
bo	-3073
▁complet	-3074
▁exitCode	-3075
56	-3076
HADOOP	-3077
▁dat	-3078
Commit	-3079
ersist	-3080
uncate	-3081
LeafQueue	-3082
Splits	-3083
mpressor	-3084
Back	-3085
▁Refresh	-3086
management	-3087
not	-3088
▁pool	-3089
OUTPUT	-3090
Statuses	-3091
HDFS	-3092
BytesWritable	-3093
lat	-3094
sTo	-3095
Args	-3096
SECON	-3097
getConf	-3098
Utilization	-3099
▁JSONObject	-3100
▁"+	-3101
▁mgr	-3102
▁dest	-3103
Qualified	-3104
▁FileContext	-3105
fir	-3106
▁format	-3107
EDED	-3108
ALLOC	-3109
Updater	-3110
getParent	-3111
txt	-3112
▁xdr	-3113
Reduces	-3114
FIG	-3115
incre	-3116
▁Located	-3117
zip	-3118
64	-3119
Blk	-3120
Hash	-3121
That	-3122
▁jobConf	-3123
substring	-3124
ick	-3125
FileNot	-3126
lacement	-3127
exp	-3128
ssl	-3129
▁Net	-3130
coder	-3131
▁part	-3132
HOST	-3133
CEEDED	-3134
▁Check	-3135
Working	-3136
aclEntry	-3137
▁partition	-3138
EM	-3139
vc	-3140
Mgr	-3141
▁obj	-3142
Execution	-3143
AccessType	-3144
hashCode	-3145
_0.	-3146
Pair	-3147
Resolver	-3148
▁FileNot	-3149
',	-3150
COUN	-3151
▁renew	-3152
XDR	-3153
First	-3154
CREATE	-3155
▁reset	-3156
BufferSize	-3157
Same	-3158
▁exec	-3159
entrySet	-3160
▁waitFor	-3161
▁counters	-3162
...	-3163
Dfs	-3164
▁CON	-3165
Allocator	-3166
DatanodeInfo	-3167
ating	-3168
await	-3169
Json	-3170
Print	-3171
BLOCKS	-3172
WebApp	-3173
ializer	-3174
Deprecated	-3175
ceiver	-3176
rimary	-3177
ATTEMPT	-3178
AND	-3179
first	-3180
LocalTo	-3181
RMContainer	-3182
▁mergeLocalTo	-3183
ClientProtocol	-3184
MiniDFSCluster	-3185
MEM	-3186
▁ST	-3187
▁ie	-3188
RENT	-3189
▁All	-3190
live	-3191
known	-3192
tools	-3193
Shared	-3194
LaunchContext	-3195
uffix	-3196
▁assign	-3197
▁tx	-3198
▁make	-3199
Ignore	-3200
▁DatanodeInfo	-3201
▁SequenceFile	-3202
▁off	-3203
Direct	-3204
quired	-3205
Account	-3206
edBlock	-3207
ma	-3208
ting	-3209
▁are	-3210
▁tear	-3211
rapped	-3212
bind	-3213
eeded	-3214
Corrupt	-3215
Now	-3216
uri	-3217
▁GROUP	-3218
▁clusterResource	-3219
Comparable	-3220
RecordReader	-3221
▁exist	-3222
getLong	-3223
▁NN	-3224
Should	-3225
DataInput	-3226
MapOutput	-3227
▁appAttempt	-3228
amlet	-3229
▁1024,	-3230
getNodeId	-3231
AMP	-3232
startsWith	-3233
TO	-3234
LocatedBlock	-3235
00,	-3236
▁used	-3237
priority	-3238
TestRootPath	-3239
ke	-3240
3",	-3241
Bean	-3242
Gauge	-3243
space	-3244
CONFIG	-3245
1").	-3246
getUri	-3247
Machine	-3248
▁register	-3249
OS	-3250
Section	-3251
initialize	-3252
Users	-3253
▁")	-3254
[][]	-3255
cleanup	-3256
inition	-3257
▁testGet	-3258
Generation	-3259
▁connection	-3260
▁applicationId	-3261
raw	-3262
▁cleanup	-3263
BlockSize	-3264
QueueInfo	-3265
bs	-3266
its	-3267
Audit	-3268
alanc	-3269
FAIL	-3270
▁second	-3271
ux	-3272
nextInt	-3273
annotation	-3274
KMS	-3275
off	-3276
▁10,	-3277
etAddress	-3278
▁Scheduler	-3279
▁OutputStream	-3280
▁Im	-3281
iron	-3282
Times	-3283
Cleanup	-3284
Tracking	-3285
ironment	-3286
▁running	-3287
ACLsManager	-3288
spy	-3289
ERROR	-3290
SCHEDUL	-3291
7,	-3292
FFER	-3293
Future	-3294
mall	-3295
toArray	-3296
Live	-3297
Load	-3298
unlock	-3299
▁queueName	-3300
RMAppAttempt	-3301
Cap	-3302
mod	-3303
nio	-3304
tax	-3305
▁My	-3306
ExceptionAction	-3307
Window	-3308
▁DFSUtil	-3309
▁Mutable	-3310
▁elements	-3311
Collections	-3312
▁mo	-3313
2));	-3314
osen	-3315
DISK	-3316
ArrayEquals	-3317
Full	-3318
[0],	-3319
Counts	-3320
▁MAX	-3321
Factor	-3322
▁initial	-3323
SUCCEEDED	-3324
▁3);	-3325
▁opts	-3326
Only	-3327
qual	-3328
▁match	-3329
Localization	-3330
LocalResource	-3331
cp	-3332
▁MockNM	-3333
▁prefix	-3334
▁random	-3335
▁targets	-3336
Principal	-3337
ingUpgrade	-3338
containsKey	-3339
isDirectory	-3340
port	-3341
PoolId	-3342
▁after	-3343
Registry	-3344
anon	-3345
accept	-3346
▁sd	-3347
▁step	-3348
asterKey	-3349
▁history	-3350
RMContext	-3351
▁AclEntry	-3352
StartupOption	-3353
getTime	-3354
YarnException	-3355
url	-3356
InPath	-3357
OutputBuffer	-3358
Hosts	-3359
Parameter	-3360
Threshold	-3361
Syntax	-3362
ressed	-3363
Started	-3364
ice	-3365
▁<<	-3366
difi	-3367
▁bar	-3368
STATUS	-3369
TaskId	-3370
wrap	-3371
apsed	-3372
cheduled	-3373
timeline	-3374
▁Invalid	-3375
▁results	-3376
(4	-3377
BlockReport	-3378
LongWritable	-3379
limit	-3380
▁stop	-3381
Values	-3382
▁track	-3383
SyntaxException	-3384
▁Ret	-3385
capacity	-3386
EditLogOp	-3387
▁ta	-3388
ABLE	-3389
▁must	-3390
▁protocol	-3391
▁Credentials	-3392
WEB	-3393
width	-3394
blocks	-3395
AttemptReport	-3396
▁State	-3397
▁build	-3398
Deleted	-3399
▁factory	-3400
ContainerRequest	-3401
Head	-3402
Complete	-3403
▁http	-3404
Folder	-3405
Definition	-3406
Privileged	-3407
ServerConstants	-3408
tId	-3409
ored	-3410
ShortCircuit	-3411
nodeHeartbeat	-3412
GenerationStamp	-3413
Kind	-3414
poch	-3415
ategy	-3416
Single	-3417
▁Server	-3418
\":	-3419
ATTR	-3420
GATION	-3421
KILLED	-3422
▁web	-3423
Loaded	-3424
CachePool	-3425
KER	-3426
ToS	-3427
fully	-3428
FSImage	-3429
▁params	-3430
clusterResource	-3431
Msg	-3432
curs	-3433
Period	-3434
▁active	-3435
ormal	-3436
========	-3437
Limits	-3438
success	-3439
BeforeClass	-3440
LogAggregation	-3441
DT	-3442
PL	-3443
Temp	-3444
Params	-3445
report	-3446
TaskAttemptID	-3447
2;	-3448
=0;	-3449
cli	-3450
▁cre	-3451
▁Default	-3452
orization	-3453
ClientResponse	-3454
MPTY	-3455
▁mode	-3456
Blacklist	-3457
Placement	-3458
COR	-3459
Cannot	-3460
RMStateStore	-3461
makeQualified	-3462
Packet	-3463
FilePath	-3464
▁timeout	-3465
CacheDirective	-3466
ling	-3467
LIMIT	-3468
Hadoop	-3469
▁times	-3470
ipeline	-3471
Generator	-3472
ld	-3473
Nfs	-3474
Exist	-3475
▁meta	-3476
HER	-3477
inode	-3478
Operations	-3479
ookie	-3480
Compressor	-3481
Construction	-3482
▁{}",	-3483
▁Boolean	-3484
"+	-3485
SHED	-3486
▁ALL	-3487
▁Native	-3488
▁createFile	-3489
ContentSummary	-3490
Jar	-3491
ero	-3492
▁was	-3493
▁send	-3494
ibility	-3495
[1]	-3496
view	-3497
Localizer	-3498
imi	-3499
▁-1,	-3500
Password	-3501
position	-3502
▁operation	-3503
NFS	-3504
onic	-3505
resolve	-3506
Immutable	-3507
▁provider	-3508
dic	-3509
▁jobs	-3510
▁getConf	-3511
▁"",	-3512
Stack	-3513
▁Hadoop	-3514
15	-3515
22	-3516
_0,	-3517
sec	-3518
▁FILE	-3519
NS	-3520
IZE	-3521
HEAD	-3522
ipher	-3523
alancer	-3524
Capability	-3525
cc	-3526
BER	-3527
▁desc	-3528
▁enum	-3529
imited	-3530
▁switch	-3531
▁entities	-3532
▁HttpServlet	-3533
pted	-3534
Contains	-3535
▁fileName	-3536
getUserName	-3537
OC	-3538
mb	-3539
BUFFER	-3540
▁Config	-3541
▁generate	-3542
ref	-3543
labels	-3544
element	-3545
▁memory	-3546
FsPermission	-3547
VirtualCores	-3548
▁zk	-3549
▁foo	-3550
▁idx	-3551
flection	-3552
Reg	-3553
msg	-3554
ody	-3555
pool	-3556
rong	-3557
atest	-3558
▁Lists	-3559
Consume	-3560
HashSet	-3561
ResourceManager	-3562
WorkingDirectory	-3563
no	-3564
STO	-3565
imul	-3566
getLen	-3567
otonic	-3568
▁TaskType	-3569
newArrayList	-3570
Use	-3571
core	-3572
▁raw	-3573
increment	-3574
remaining	-3575
getAllocated	-3576
onents	-3577
ocument	-3578
Deletion	-3579
55	-3580
▁argv	-3581
content	-3582
Children	-3583
incorrect	-3584
setOutput	-3585
StorageTypes	-3586
registerNode	-3587
Zone	-3588
▁err	-3589
▁prev	-3590
anonical	-3591
rmContext	-3592
▁FSNamesystem	-3593
.0	-3594
[0];	-3595
_().	-3596
▁delet	-3597
▁secret	-3598
Decompressor	-3599
STER	-3600
Fully	-3601
slf	-3602
Timer	-3603
getData	-3604
▁handler	-3605
};	-3606
rmapp	-3607
CaSchedulerApp	-3608
({	-3609
Spi	-3610
▁Ad	-3611
▁retry	-3612
CUR	-3613
▁Tree	-3614
▁LinkedList	-3615
TEX	-3616
▁flag	-3617
RC	-3618
play	-3619
▁empty	-3620
DATE	-3621
PARATOR	-3622
setNum	-3623
▁aclSpec	-3624
SCHEDULER	-3625
parator	-3626
▁entries	-3627
▁invalid	-3628
▁BlockInfo	-3629
▁PrintWriter	-3630
+"	-3631
SECONDS	-3632
▁inOrder	-3633
Removed	-3634
Runnable	-3635
Strategy	-3636
getBoolean	-3637
SUM	-3638
writ	-3639
▁header	-3640
▁setUp	-3641
Collector	-3642
Min	-3643
Put	-3644
_000	-3645
with	-3646
Mappings	-3647
HS	-3648
▁Swift	-3649
NMToken	-3650
replace	-3651
attemptId	-3652
ReservationId	-3653
(1).	-3654
LOAD	-3655
Allocated	-3656
▁allocated	-3657
tep	-3658
bpid	-3659
ITION	-3660
files	-3661
parseInt	-3662
▁allocate	-3663
construction	-3664
▁PrintStream	-3665
OLD	-3666
Iter	-3667
LIST	-3668
head	-3669
Float	-3670
▁yarn	-3671
Missing	-3672
▁DFSClient	-3673
addTransition	-3674
applicationId	-3675
getID	-3676
ControlList	-3677
Ctx	-3678
▁iip	-3679
FileContext	-3680
Uuid	-3681
exec	-3682
mult	-3683
URITY	-3684
Launcher	-3685
ansitionTo	-3686
getAppAttemptId	-3687
</	-3688
LICY	-3689
Could	-3690
jm	-3691
(3,	-3692
▁3;	-3693
!");	-3694
journal	-3695
KeysPublic	-3696
azy	-3697
doAs	-3698
▁tag	-3699
launch	-3700
▁BLOCKSIZE	-3701
setPermission	-3702
igh	-3703
COMPLE	-3704
RMNode	-3705
fileSys	-3706
troller	-3707
▁equals	-3708
▁exists	-3709
AclEntries	-3710
idx	-3711
exit	-3712
Kerberos	-3713
▁FileUtil	-3714
compressed	-3715
Sort	-3716
find	-3717
▁Call	-3718
▁rsrc	-3719
ecutor	-3720
▁Retry	-3721
▁);	-3722
ency	-3723
incr	-3724
▁Mini	-3725
▁sleep	-3726
getShort	-3727
▁reserved	-3728
JobContext	-3729
REPLICATION	-3730
AS	-3731
eq	-3732
▁object	-3733
oolRunner	-3734
▁WritableUtils	-3735
MD	-3736
EDI	-3737
Slot	-3738
TaskType	-3739
▁refresh	-3740
▁ContainerState	-3741
java	-3742
dices	-3743
lator	-3744
FINISHED	-3745
Datanodes	-3746
UTE	-3747
States	-3748
SEPARATOR	-3749
getCurrentUser	-3750
2)	-3751
URE	-3752
gor	-3753
▁"'	-3754
ught	-3755
rs	-3756
▁Records	-3757
▁hashCode	-3758
ProtocolPB	-3759
▁initialize	-3760
▁now	-3761
Clock	-3762
Super	-3763
protobuf	-3764
(!	-3765
erUGI	-3766
gorith	-3767
▁getNum	-3768
Consumed	-3769
DataOutput	-3770
annotations	-3771
NEW	-3772
CONF	-3773
replic	-3774
▁limit	-3775
▁submit	-3776
▁History	-3777
▁Counters	-3778
CompletionEvent	-3779
FD	-3780
UID	-3781
bine	-3782
char	-3783
▁put	-3784
ustom	-3785
ferred	-3786
SECURITY	-3787
ServiceException	-3788
LOW	-3789
ARCH	-3790
Plugin	-3791
Network	-3792
▁getBlock	-3793
ContainerState	-3794
getEventHandler	-3795
PI	-3796
▁Ren	-3797
igest	-3798
UPDATE	-3799
getAcl	-3800
RpcServer	-3801
▁NetUtils	-3802
getMetrics	-3803
blockmanagement	-3804
AV	-3805
NAP	-3806
SHOT	-3807
ework	-3808
getMet	-3809
▁doesn	-3810
NAPSHOT	-3811
ramework	-3812
▁Pattern	-3813
otonicNow	-3814
chedulable	-3815
▁LogAggregation	-3816
QUO	-3817
getSimple	-3818
Cre	-3819
azz	-3820
RESH	-3821
Callback	-3822
Converter	-3823
▁tearDown	-3824
getSimpleName	-3825
ProtoOrBuilder	-3826
EXEC	-3827
Rule	-3828
anged	-3829
nodes	-3830
▁temp	-3831
Scheme	-3832
▁REPLICATION	-3833
-8	-3834
▁acls	-3835
NodesInPath	-3836
Can	-3837
Desc	-3838
Void	-3839
serialize	-3840
▁readLock	-3841
▁KeyProvider	-3842
ducer	-3843
1234",	-3844
DistCp	-3845
filter	-3846
Capacities	-3847
flectionUtils	-3848
54	-3849
▁than	-3850
TIMELINE	-3851
andwidth	-3852
LAY	-3853
▁can	-3854
▁owner	-3855
gorithm	-3856
▁Concurrent	-3857
getShortUserName	-3858
▁";	-3859
▁os	-3860
▁LongWritable	-3861
FOR	-3862
▁abs	-3863
testFile	-3864
WriteLock	-3865
ls	-3866
▁txid	-3867
Allocate	-3868
submitApp	-3869
IF	-3870
CLU	-3871
START	-3872
Needed	-3873
WIN	-3874
med	-3875
VENT	-3876
atio	-3877
Delay	-3878
licies	-3879
▁1024;	-3880
▁Shell	-3881
▁Immutable	-3882
getSnapshot	-3883
HdfsConstants	-3884
▁DI	-3885
(0));	-3886
Inode	-3887
VALID	-3888
▁Common	-3889
OD	-3890
ason	-3891
json	-3892
COUNT	-3893
▁char	-3894
▁locations	-3895
▁resourceManager	-3896
Mini	-3897
cursive	-3898
▁chosen	-3899
Visibility	-3900
▁attemptId	-3901
07	-3902
▁decom	-3903
unnable	-3904
▁launch	-3905
!",	-3906
Cmd	-3907
cat	-3908
jar	-3909
▁capacity	-3910
cludedNodes	-3911
)(	-3912
etail	-3913
AttemptState	-3914
RecordFactory	-3915
newContainerId	-3916
▁Z	-3917
ELD	-3918
ULL	-3919
cho	-3920
hel	-3921
KILL	-3922
(1024,	-3923
POLICY	-3924
VCores	-3925
arator	-3926
▁shell	-3927
▁native	-3928
▁DataInputStream	-3929
Done	-3930
STORE	-3931
▁10);	-3932
▁Level	-3933
Injector	-3934
getPermission	-3935
ud	-3936
offset	-3937
▁taskId	-3938
▁DelegationToken	-3939
ANS	-3940
dest	-3941
▁10;	-3942
prefix	-3943
send	-3944
process	-3945
▁existing	-3946
AfterClass	-3947
IG	-3948
▁1),	-3949
Parity	-3950
▁Proto	-3951
▁resol	-3952
▁string	-3953
Increase	-3954
progress	-3955
▁Cluster	-3956
StatusUpdater	-3957
▁ResourceRequest	-3958
del	-3959
Phase	-3960
codec	-3961
float	-3962
▁tasks	-3963
ExitStatus	-3964
CP	-3965
Ne	-3966
vm	-3967
More	-3968
▁queues	-3969
▁already	-3970
rimaryFilter	-3971
GenericTestUtils	-3972
Em	-3973
▁CO	-3974
▁SC	-3975
▁XAttr	-3976
▁clock	-3977
▁paths	-3978
Received	-3979
)))	-3980
Bar	-3981
TAB	-3982
SECTION	-3983
crement	-3984
."	-3985
8);	-3986
LEAN	-3987
RESP	-3988
Persist	-3989
Runtime	-3990
parseLong	-3991
{}	-3992
Off	-3993
Sasl	-3994
QueueName	-3995
ied	-3996
▁children	-3997
▁filename	-3998
StackTrace	-3999
▁ec	-4000
ORAGE	-4001
▁diff	-4002
▁Create	-4003
ToLabels	-4004
▁usage	-4005
channel	-4006
▁JSONException	-4007
=1	-4008
ous	-4009
▁'"	-4010
spec	-4011
▁sum	-4012
BEROS	-4013
Keeper	-4014
Created	-4015
▁Register	-4016
THREAD	-4017
aching	-4018
Seconds	-4019
▁completed	-4020
transitionTo	-4021
CTOR	-4022
ENTITY	-4023
upport	-4024
▁trans	-4025
▁assertNull	-4026
HelperClient	-4027
PT	-4028
Cpu	-4029
lect	-4030
▁one	-4031
▁full	-4032
▁segment	-4033
▁ClientResponse	-4034
▁"";	-4035
▁item	-4036
▁iterator	-4037
Authorization	-4038
▁env	-4039
Suite	-4040
▁back	-4041
▁groups	-4042
▁available	-4043
.";	-4044
TRY	-4045
onkey	-4046
Existing	-4047
Failures	-4048
listStatus	-4049
WA	-4050
ILLI	-4051
iffs	-4052
Unable	-4053
antile	-4054
remote	-4055
▁direc	-4056
Transaction	-4057
OutputCommitter	-4058
rain	-4059
▁getFile	-4060
▁OP	-4061
seek	-4062
lated	-4063
Weight	-4064
getMax	-4065
reader	-4066
getPort	-4067
▁BuilderUtils	-4068
16	-4069
[]>	-4070
▁>>	-4071
Move	-4072
erse	-4073
Epoch	-4074
▁Fake	-4075
InProgress	-4076
odificationTime	-4077
▁rb	-4078
clic	-4079
cores	-4080
CURRENT	-4081
▁returned	-4082
Dn	-4083
ere	-4084
apps	-4085
Clean	-4086
▁"");	-4087
▁1));	-4088
Generic	-4089
Renewer	-4090
setConf	-4091
Unexpected	-4092
▁appContext	-4093
IPC	-4094
rpc	-4095
MAGE	-4096
sync	-4097
XATTR	-4098
MEMORY	-4099
active	-4100
ARCHIVE	-4101
MUM	-4102
▁cm	-4103
pill	-4104
▁thrown	-4105
▁credentials	-4106
Err	-4107
Mod	-4108
▁bm	-4109
▁bp	-4110
sort	-4111
▁Option	-4112
Finalized	-4113
assertNull	-4114
getBlockId	-4115
▁logAggregation	-4116
da	-4117
mum	-4118
▁Del	-4119
Latch	-4120
▁hosts	-4121
▁TimeUnit	-4122
JobHistory	-4123
▁BufferedReader	-4124
Src	-4125
▁sync	-4126
WINDOW	-4127
FsVolume	-4128
structor	-4129
▁controller	-4130
createSnapshot	-4131
ix	-4132
AVA	-4133
FIN	-4134
non	-4135
umn	-4136
acer	-4137
rigger	-4138
Contents	-4139
readLine	-4140
1";	-4141
NMs	-4142
ower	-4143
HEADER	-4144
▁lease	-4145
0");	-4146
apter	-4147
getXml	-4148
iagnostic	-4149
MAN	-4150
▁ce	-4151
Opts	-4152
Azure	-4153
shell	-4154
▁10000	-4155
▁TestFile	-4156
YarnProtos	-4157
FC	-4158
RA	-4159
ITE	-4160
APAC	-4161
MILLI	-4162
OTHER	-4163
Extension	-4164
ki	-4165
itle	-4166
mark	-4167
track	-4168
▁image	-4169
▁30000)	-4170
Timestamp	-4171
Invocation	-4172
TrackerService	-4173
Remo	-4174
▁skip	-4175
AndGet	-4176
Adapter	-4177
FairShare	-4178
FinishedEvent	-4179
emon	-4180
▁col	-4181
ignal	-4182
Allowed	-4183
AppContext	-4184
getJSONObject	-4185
28	-4186
lier	-4187
ersey	-4188
perty	-4189
▁100,	-4190
keySet	-4191
Remaining	-4192
▁WebResource	-4193
Serialization	-4194
dc	-4195
eds	-4196
allow	-4197
▁flush	-4198
Multiple	-4199
Reconstruction	-4200
EDITS	-4201
TestDir	-4202
▁localFs	-4203
IC	-4204
▁repl	-4205
KERBEROS	-4206
resolved	-4207
Concurrent	-4208
');	-4209
▁-=	-4210
cket	-4211
trim	-4212
IMAGE	-4213
QUEST	-4214
TRANS	-4215
Position	-4216
▁Progress	-4217
▁testFile	-4218
▁TestUtils	-4219
▁RMAppState	-4220
eep	-4221
JobID	-4222
▁1234	-4223
▁bind	-4224
Chunks	-4225
▁1000;	-4226
▁Dummy	-4227
▁array	-4228
▁chunk	-4229
▁names	-4230
Retries	-4231
Strings	-4232
getRoot	-4233
redential	-4234
▁getProto	-4235
SequenceFile	-4236
adow	-4237
▁cause	-4238
Relative	-4239
▁blockId	-4240
▁filePath	-4241
getResponse	-4242
checkArgument	-4243
SL	-4244
ACE	-4245
MASK	-4246
image	-4247
dataset	-4248
▁corrupt	-4249
Translator	-4250
**	-4251
▁rc	-4252
chive	-4253
▁Azure	-4254
Matchers	-4255
ClassName	-4256
getDataNodes	-4257
AME	-4258
Old	-4259
▁mr	-4260
azure	-4261
▁main	-4262
▁script	-4263
KeyValue	-4264
KeyVersion	-4265
RemoteUser	-4266
▁CS	-4267
dified	-4268
APACITY	-4269
TimeoutException	-4270
Sum	-4271
▁Filter	-4272
▁hostname	-4273
("127.0.0.	-4274
▁remaining	-4275
Environment	-4276
KET	-4277
▁ad	-4278
uice	-4279
retry	-4280
▁Iter	-4281
ENABLE	-4282
Shadow	-4283
loader	-4284
Restart	-4285
ucceeded	-4286
getConfig	-4287
SharedCache	-4288
toByteArray	-4289
ContainerReport	-4290
▁ZK	-4291
▁Null	-4292
urable	-4293
getLogger	-4294
CreateFlag	-4295
▁INodeFile	-4296
▁Par	-4297
CLEAN	-4298
INPUT	-4299
renew	-4300
CONN	-4301
▁KEY	-4302
▁resp	-4303
connect	-4304
▁Remote	-4305
ookeeper	-4306
▁created	-4307
▁previous	-4308
ped	-4309
▁open	-4310
tories	-4311
getNumBytes	-4312
LocatedBlocks	-4313
1;	-4314
FORM	-4315
ripe	-4316
query	-4317
random	-4318
▁datum	-4319
▁commit	-4320
imulated	-4321
▁StringBuffer	-4322
sr	-4323
ism	-4324
000)	-4325
▁roll	-4326
apping	-4327
▁Short	-4328
recovery	-4329
reserved	-4330
▁getName	-4331
HAService	-4332
▁SE	-4333
▁[-	-4334
DIRE	-4335
uple	-4336
▁pri	-4337
Archive	-4338
ulative	-4339
getCluster	-4340
setCapacity	-4341
HIST	-4342
▁").	-4343
▁events	-4344
RMService	-4345
startTime	-4346
KeyProvider	-4347
▁u	-4348
Bit	-4349
Batch	-4350
Point	-4351
▁MRApps	-4352
▁shutdown	-4353
▁rmContainer	-4354
Bind	-4355
IZED	-4356
▁Dis	-4357
▁MAP	-4358
▁html	-4359
▁WebApp	-4360
▁serial	-4361
▁Iterable	-4362
getScheduler	-4363
(".	-4364
part	-4365
skip	-4366
Fetch	-4367
RESER	-4368
Specs	-4369
volume	-4370
aunched	-4371
Shutdown	-4372
▁Builder	-4373
3_	-4374
WN	-4375
IDs	-4376
1024	-4377
attrs	-4378
Release	-4379
getTotal	-4380
▁getApplication	-4381
Am	-4382
hite	-4383
leton	-4384
▁Options	-4385
getService	-4386
▁capability	-4387
▁TaskAttemptID	-4388
SCM	-4389
▁ag	-4390
ross	-4391
getGroup	-4392
viaProto	-4393
▁wrapper	-4394
▁attempts	-4395
▁dfsClient	-4396
ContainerToken	-4397
getBlockPoolId	-4398
vis	-4399
Java	-4400
▁Raw	-4401
forName	-4402
handler	-4403
--------	-4404
BlockReader	-4405
authentication	-4406
1"));	-4407
Upload	-4408
▁Final	-4409
▁rmApp	-4410
▁socket	-4411
▁appState	-4412
Expiration	-4413
ValueClass	-4414
▁DataInput	-4415
▁Operation	-4416
▁allocation	-4417
▁diagnostics	-4418
assertException	-4419
ORK	-4420
Trash	-4421
▁Start	-4422
Maximum	-4423
KeyClass	-4424
▁doReturn	-4425
▁dataNodes	-4426
▁getCurrent	-4427
getCanonical	-4428
getLocations	-4429
monotonicNow	-4430
rie	-4431
empty	-4432
▁-1);	-4433
Crypto	-4434
Secure	-4435
Unknown	-4436
▁csConf	-4437
dContainers	-4438
▁assertThat	-4439
▁BytesWritable	-4440
obj	-4441
});	-4442
etty	-4443
ther	-4444
ulate	-4445
PROPER	-4446
Policies	-4447
Previous	-4448
contract	-4449
▁Servlet	-4450
>)	-4451
▁AP	-4452
legate	-4453
▁100);	-4454
HISTORY	-4455
▁metadata	-4456
Parameters	-4457
PerChecksum	-4458
▁JobHistory	-4459
getBlockManager	-4460
XY	-4461
Cur	-4462
BASE	-4463
Sleep	-4464
▁been	-4465
▁Event	-4466
REQUEST	-4467
▁option	-4468
Encrypted	-4469
NAL	-4470
the	-4471
1"),	-4472
Side	-4473
▁"/"	-4474
Compos	-4475
DirPath	-4476
compressor	-4477
▁secondary	-4478
(12	-4479
Ans	-4480
SUB	-4481
▁15	-4482
meta	-4483
▁KMS	-4484
Delta	-4485
netty	-4486
Answer	-4487
Charset	-4488
▁Append	-4489
LabelsTo	-4490
▁Version	-4491
PERMISSION	-4492
▁MediaType	-4493
▁supported	-4494
▁Scheduling	-4495
blk	-4496
TEXT	-4497
conds	-4498
▁Copy	-4499
▁sasl	-4500
etails	-4501
(1000);	-4502
command	-4503
getUsed	-4504
strument	-4505
▁failure	-4506
interrupt	-4507
partition	-4508
▁fileSize	-4509
DELEGATION	-4510
strumentation	-4511
JM	-4512
IFT	-4513
▁PB	-4514
VInt	-4515
getP	-4516
plan	-4517
aemon	-4518
▁AMRM	-4519
Expiry	-4520
latile	-4521
▁mkdir	-4522
▁small	-4523
schedule	-4524
▁volatile	-4525
TrackingUrl	-4526
ONG	-4527
Than	-4528
opped	-4529
options	-4530
▁configured	-4531
getStartTime	-4532
SY	-4533
▁cli	-4534
SERVER	-4535
ention	-4536
inject	-4537
▁clean	-4538
▁DistCp	-4539
▁memStore	-4540
▁timestamp	-4541
TranslatorPB	-4542
▁br	-4543
",},	-4544
IDER	-4545
lish	-4546
▁ign	-4547
HTTPS	-4548
RETRY	-4549
▁rand	-4550
Double	-4551
crypto	-4552
▁quota	-4553
ocumentBuilder	-4554
[3	-4555
sd	-4556
SSL	-4557
WIFT	-4558
Signal	-4559
Simple	-4560
record	-4561
DFSUtil	-4562
Authentic	-4563
▁fileSplit	-4564
lem	-4565
PART	-4566
AppId	-4567
▁dump	-4568
▁post	-4569
Indices	-4570
sp	-4571
_1,	-4572
ugh	-4573
Rsrc	-4574
ench	-4575
▁pid	-4576
Chain	-4577
owner	-4578
domain	-4579
failed	-4580
SNAPSHOT	-4581
37	-4582
INODE	-4583
STORAGE	-4584
▁before	-4585
▁stateStore	-4586
EncryptionZone	-4587
oft	-4588
▁2)	-4589
ROLL	-4590
▁-1)	-4591
▁Met	-4592
▁hel	-4593
▁span	-4594
Closed	-4595
▁JobId	-4596
EXECUTE	-4597
▁admin	-4598
▁Writer	-4599
▁Namenode	-4600
("</	-4601
3");	-4602
OnNode	-4603
memory	-4604
Initial	-4605
restart	-4606
▁recovery	-4607
14	-4608
ape	-4609
▁16	-4610
▁kp	-4611
▁gen	-4612
QUOTA	-4613
RECOR	-4614
▁Domain	-4615
▁Counter	-4616
▁configure	-4617
▁comparator	-4618
0.0	-4619
SPEC	-4620
▁mat	-4621
hosts	-4622
inary	-4623
▁done	-4624
▁lines	-4625
pending	-4626
readLock	-4627
writeInt	-4628
compareTo	-4629
▁FsAction	-4630
▁Kerberos	-4631
ALLOCATION	-4632
▁EventHandler	-4633
fn	-4634
ToAM	-4635
▁(!(	-4636
▁EMPTY	-4637
complet	-4638
▁Command	-4639
▁restart	-4640
Preconditions	-4641
2_	-4642
full	-4643
isFile	-4644
▁MRApp	-4645
▁Quota	-4646
Without	-4647
original	-4648
▁Runnable	-4649
ClassLoader	-4650
SAF	-4651
xdr	-4652
▁4,	-4653
pare	-4654
Alive	-4655
▁Count	-4656
▁master	-4657
PermissionStatus	-4658
1\	-4659
ARY	-4660
000,	-4661
USAGE	-4662
▁lock	-4663
▁perm	-4664
author	-4665
policy	-4666
▁closed	-4667
counters	-4668
getCause	-4669
Algorithm	-4670
IgnoreCase	-4671
▁getTestRootPath	-4672
IZ	-4673
rea	-4674
▁"]	-4675
▁40	-4676
▁bad	-4677
cepted	-4678
▁field	-4679
Connect	-4680
▁journal	-4681
QueueMetrics	-4682
▁BlockManager	-4683
▁var	-4684
ADMIN	-4685
▁Date	-4686
▁1000);	-4687
DataUnits	-4688
▁userName	-4689
ThreadPool	-4690
Description	-4691
.<	-4692
INT	-4693
TIVE	-4694
readInt	-4695
ulation	-4696
ProcessTree	-4697
UpdateEvent	-4698
trace	-4699
▁release	-4700
ReduceTasks	-4701
StorageDirectory	-4702
=6	-4703
DF	-4704
FER	-4705
targets	-4706
Duration	-4707
checksum	-4708
▁located	-4709
▁Response	-4710
GroupsHandler	-4711
rb	-4712
▁St	-4713
BEAT	-4714
MOVE	-4715
rant	-4716
umen	-4717
Login	-4718
▁Kill	-4719
▁Type	-4720
anning	-4721
▁labels	-4722
Quantile	-4723
replication	-4724
CPU	-4725
IND	-4726
]));	-4727
▁mod	-4728
access	-4729
CHECKSUM	-4730
PrintStream	-4731
Crc	-4732
ANCE	-4733
ATED	-4734
loud	-4735
used	-4736
▁Mult	-4737
▁kill	-4738
▁under	-4739
readFully	-4740
▁finished	-4741
▁blacklist	-4742
▁specified	-4743
ChangeRequest	-4744
1)	-4745
yle	-4746
COVER	-4747
right	-4748
▁mini	-4749
▁Delet	-4750
Updated	-4751
▁element	-4752
▁position	-4753
Components	-4754
▁identifier	-4755
▁newInstance	-4756
▁Q	-4757
CRC	-4758
hods	-4759
inux	-4760
amDisk	-4761
▁choose	-4762
▁shuffle	-4763
urge	-4764
Other	-4765
ceeded	-4766
Truncate	-4767
precation	-4768
▁assigned	-4769
CompletionEvents	-4770
Man	-4771
Expi	-4772
gine	-4773
▁Sub	-4774
ARTBEAT	-4775
builder	-4776
TestCase	-4777
▁ignored	-4778
▁summary	-4779
▁HdfsConstants	-4780
,"	-4781
(0),	-4782
ates	-4783
fSys	-4784
▁NAME	-4785
Atomic	-4786
ByName	-4787
replica	-4788
getReserved	-4789
NamespaceInfo	-4790
▁HdfsFileStatus	-4791
fe	-4792
sun	-4793
▁ext	-4794
ingDir	-4795
FileUtil	-4796
▁absolute	-4797
printStackTrace	-4798
Ref	-4799
aved	-4800
▁got	-4801
▁hash	-4802
INVALID	-4803
getINode	-4804
setClass	-4805
▁writeLock	-4806
▁dirsHandler	-4807
▁GetApplication	-4808
EK	-4809
PA	-4810
nat	-4811
some	-4812
VIDER	-4813
param	-4814
uring	-4815
▁numOf	-4816
allback	-4817
▁RMStateStore	-4818
▁em	-4819
MAIN	-4820
Seek	-4821
Already	-4822
getStatus	-4823
▁interval	-4824
▁"127.0.0.	-4825
▁FSDirectory	-4826
currentThread	-4827
DatanodeProtocol	-4828
env	-4829
▁ro	-4830
ATIVE	-4831
CTORY	-4832
▁sort	-4833
▁JobID	-4834
WINDOWS	-4835
jobhistory	-4836
▁printUsage	-4837
▁FileInputStream	-4838
COL	-4839
fsd	-4840
clus	-4841
▁svc	-4842
▁vis	-4843
COMMIT	-4844
coding	-4845
▁LocatedBlock	-4846
bp	-4847
(0)	-4848
Lif	-4849
WIT	-4850
Step	-4851
▁0.0	-4852
THRESH	-4853
▁clear	-4854
ariable	-4855
▁expect	-4856
BlockPool	-4857
Supported	-4858
StateException	-4859
equalsIgnoreCase	-4860
BP	-4861
zk	-4862
Dst	-4863
IME	-4864
acy	-4865
pha	-4866
Killed	-4867
PROPERTY	-4868
getProxy	-4869
▁Allocate	-4870
▁nodeLabels	-4871
StripedBlock	-4872
getVirtualCores	-4873
OBJ	-4874
Repl	-4875
ends	-4876
haus	-4877
Unlock	-4878
codehaus	-4879
Composite	-4880
▁allocator	-4881
▁cp	-4882
")).	-4883
EXPI	-4884
▁down	-4885
▁RMContext	-4886
JournalManager	-4887
ym	-4888
▁[]	-4889
▁lfs	-4890
chema	-4891
▁Void	-4892
taskId	-4893
Volumes	-4894
AMRMToken	-4895
▁checkpoint	-4896
2/	-4897
Fenc	-4898
ient	-4899
omic	-4900
EMODE	-4901
Swift	-4902
ahead	-4903
Processor	-4904
Signature	-4905
dataNodes	-4906
▁datanodes	-4907
Schedulable	-4908
FairScheduler	-4909
ExecutorService	-4910
NOT	-4911
UND	-4912
rwx	-4913
Datum	-4914
Mount	-4915
SUCCESS	-4916
PROVIDER	-4917
Bandwidth	-4918
HEARTBEAT	-4919
containers	-4920
delegation	-4921
BR	-4922
Imp	-4923
xff	-4924
FIELD	-4925
FINAL	-4926
▁Read	-4927
▁table	-4928
Balancer	-4929
▁CacheDirective	-4930
WR	-4931
▁ins	-4932
getFS	-4933
double	-4934
groups	-4935
script	-4936
▁OTHER	-4937
readFields	-4938
▁Comparator	-4939
){	-4940
33	-4941
Perm	-4942
dirs	-4943
getE	-4944
▁sys	-4945
METRI	-4946
Mkdir	-4947
eters	-4948
▁toSet	-4949
address	-4950
indexOf	-4951
▁Socket	-4952
▁prepare	-4953
checkState	-4954
▁fileSystem	-4955
pth	-4956
▁av	-4957
addr	-4958
>());	-4959
>>();	-4960
▁TASK	-4961
commit	-4962
▁encry	-4963
▁fsdir	-4964
Matcher	-4965
RootDir	-4966
Pipeline	-4967
ClientNamenode	-4968
4);	-4969
Peer	-4970
▁ref	-4971
reempt	-4972
Waiting	-4973
ategory	-4974
Locality	-4975
▁Context	-4976
queueName	-4977
RollingUpgrade	-4978
IOD	-4979
gram	-4980
mode	-4981
none	-4982
aught	-4983
▁dist	-4984
resent	-4985
Decoder	-4986
generate	-4987
writeLock	-4988
checkString	-4989
getHostName	-4990
getPriority	-4991
EP	-4992
SU	-4993
medi	-4994
[1]);	-4995
swift	-4996
tasks	-4997
▁0));	-4998
▁racks	-4999
Appender	-5000
filePath	-5001
▁jobsMap	-5002
HttpAddress	-5003
▁statistics	-5004
rier	-5005
ermin	-5006
▁100;	-5007
jersey	-5008
second	-5009
ublish	-5010
writer	-5011
▁props	-5012
=60000)	-5013
Commands	-5014
iniDFSNN	-5015
InetAddress	-5016
iniDFSNNTopology	-5017
Gen	-5018
▁ts	-5019
Glob	-5020
Heap	-5021
This	-5022
▁":"	-5023
FORMAT	-5024
▁delta	-5025
BytesRead	-5026
PARTITION	-5027
THRESHOLD	-5028
▁FsDataset	-5029
▁NodeUpdate	-5030
CRY	-5031
Nan	-5032
Skip	-5033
▁view	-5034
getOwner	-5035
▁Security	-5036
OFException	-5037
▁entityType	-5038
78	-5039
])	-5040
][	-5041
xF	-5042
UNK	-5043
▁lb	-5044
▁rr	-5045
"});	-5046
Sink	-5047
Such	-5048
ivel	-5049
addTo	-5050
FACTOR	-5051
OBJECT	-5052
ExitCode	-5053
DownLatch	-5054
MetricsSystem	-5055
.\	-5056
36	-5057
ton	-5058
▁only	-5059
▁seek	-5060
anaged	-5061
diagnost	-5062
▁listing	-5063
▁amClient	-5064
▁executor	-5065
▁Authentication	-5066
vo	-5067
ATA	-5068
CEP	-5069
CIP	-5070
▁"1	-5071
Exec	-5072
jobs	-5073
▁ssl	-5074
EVENT	-5075
PERIOD	-5076
▁gener	-5077
▁Serial	-5078
▁health	-5079
▁connect	-5080
▁ToolRunner	-5081
▁MRJobConfig	-5082
FileOutputStream	-5083
AGER	-5084
Item	-5085
Plan	-5086
eras	-5087
▁ACL	-5088
Props	-5089
MANAGER	-5090
Hostname	-5091
▁getNode	-5092
▁fileStatus	-5093
but	-5094
can	-5095
▁kv	-5096
ince	-5097
temp	-5098
etask	-5099
▁disk	-5100
InBlock	-5101
Limited	-5102
archive	-5103
Sequence	-5104
ingQueue	-5105
SocketAddr	-5106
YarnServer	-5107
SideTranslatorPB	-5108
_2	-5109
DEN	-5110
▁ID	-5111
BACK	-5112
argv	-5113
room	-5114
ware	-5115
nativ	-5116
ination	-5117
▁MockAM	-5118
▁cached	-5119
SAFEMODE	-5120
Shm	-5121
dao	-5122
oom	-5123
WAIT	-5124
viders	-5125
registry	-5126
▁ecPolicy	-5127
▁callerUGI	-5128
FSEditLogOp	-5129
▁AtomicInteger	-5130
▁INodeDirectory	-5131
bd	-5132
ANY	-5133
▁same	-5134
gative	-5135
getLive	-5136
▁getJob	-5137
Uploader	-5138
▁EditLog	-5139
MapReduce	-5140
▁password	-5141
StripedFile	-5142
▁RecordFactory	-5143
MetricsConstants	-5144
DD	-5145
wo	-5146
xed	-5147
Multi	-5148
Hamlet	-5149
▁cannot	-5150
▁correct	-5151
DirectBuf	-5152
18	-5153
TRIES	-5154
click	-5155
OpParam	-5156
Scanner	-5157
perties	-5158
nextLong	-5159
▁exclude	-5160
▁reports	-5161
addOption	-5162
▁duration	-5163
rainDispatcher	-5164
PlacementPolicy	-5165
60	-5166
_1.	-5167
rsrc	-5168
▁XDR	-5169
▁def	-5170
▁ver	-5171
▁attr	-5172
setName	-5173
▁xAttrs	-5174
1:1234",	-5175
existing	-5176
▁testDir	-5177
Arguments	-5178
▁DataInputBuffer	-5179
/"	-5180
Mat	-5181
VEL	-5182
aos	-5183
MALL	-5184
OVER	-5185
gers	-5186
enied	-5187
flect	-5188
▁more	-5189
struct	-5190
▁system	-5191
Verifier	-5192
▁FileInputFormat	-5193
GS	-5194
IAL	-5195
loc	-5196
vals	-5197
oiner	-5198
types	-5199
Suffix	-5200
thread	-5201
entrant	-5202
testDir	-5203
▁rmNode	-5204
▁Gridmix	-5205
▁Recover	-5206
▁fileLen	-5207
▁testfile	-5208
nativetask	-5209
ClusterMetrics	-5210
atomic	-5211
▁Rename	-5212
Assigned	-5213
Exceeded	-5214
NodeState	-5215
allocated	-5216
arraycopy	-5217
getOption	-5218
createRemoteUser	-5219
UI	-5220
Loc	-5221
PED	-5222
Tool	-5223
▁peer	-5224
(100);	-5225
STRING	-5226
▁INPUT	-5227
Accessor	-5228
getAccess	-5229
Management	-5230
▁Directory	-5231
FinalApplication	-5232
fair	-5233
utils	-5234
▁Enum	-5235
umption	-5236
ParityUnits	-5237
▁InetAddress	-5238
4",	-5239
ond	-5240
udit	-5241
Logged	-5242
▁scanner	-5243
▁timeline	-5244
legationKey	-5245
TimelineStore	-5246
▁INodesInPath	-5247
GetApplication	-5248
sPer	-5249
▁PRE	-5250
Switch	-5251
Details	-5252
▁keytab	-5253
Launched	-5254
▁NodeAdded	-5255
CODE	-5256
▁Dec	-5257
▁Not	-5258
▁blob	-5259
▁cell	-5260
▁Mapper	-5261
connection	-5262
getReservation	-5263
▁TimelineEntity	-5264
tag	-5265
LogDirs	-5266
RECOVER	-5267
aterial	-5268
compute	-5269
ATTEMPTS	-5270
internal	-5271
closeStream	-5272
▁StartupOption	-5273
▁excludedNodes	-5274
▁512	-5275
())).	-5276
Using	-5277
reater	-5278
▁increase	-5279
azyPersist	-5280
▁attribute	-5281
▁Unresolved	-5282
getContainers	-5283
getReplication	-5284
ENTRY	-5285
PARAM	-5286
POINT	-5287
▁maps	-5288
RequestException	-5289
xB	-5290
UFF	-5291
Calls	-5292
quota	-5293
Compare	-5294
Encoder	-5295
Streamer	-5296
reempted	-5297
getOutput	-5298
singleton	-5299
▁numBlocks	-5300
▁writeFile	-5301
AMContainer	-5302
▁operations	-5303
LimitedPrivate	-5304
OutputCollector	-5305
▁MD	-5306
eter	-5307
▁Fail	-5308
BaseDir	-5309
METRICS	-5310
COMPLETE	-5311
RMAppState	-5312
AppAttempts	-5313
RecordWriter	-5314
xC	-5315
conn	-5316
▁ask	-5317
PROXY	-5318
Stale	-5319
andid	-5320
ollow	-5321
pping	-5322
ACTIVE	-5323
OpType	-5324
CAPACITY	-5325
endsWith	-5326
Snapshottable	-5327
ExistsException	-5328
FileInputStream	-5329
▁AppendTestUtil	-5330
checkStringMatch	-5331
"})	-5332
317	-5333
Help	-5334
SCRI	-5335
getD	-5336
stim	-5337
OutOf	-5338
▁TIME	-5339
liable	-5340
matches	-5341
Receiver	-5342
configure	-5343
localizer	-5344
Serializer	-5345
▁compressed	-5346
▁,	-5347
xta	-5348
FILES	-5349
▁Roll	-5350
Verify	-5351
WEBAPP	-5352
xtarea	-5353
▁Crypto	-5354
▁upload	-5355
Required	-5356
qjournal	-5357
Scheduled	-5358
directory	-5359
▁username	-5360
QuotaUsage	-5361
taskAttempt	-5362
kv	-5363
▁4;	-5364
Rate	-5365
CGroup	-5366
getMethod	-5367
LogSegment	-5368
DataTransfer	-5369
SystemTestUtil	-5370
▁ReflectionUtils	-5371
5);	-5372
rott	-5373
▁did	-5374
itional	-5375
authorize	-5376
queryParam	-5377
▁ReservationId	-5378
ct	-5379
ias	-5380
ood	-5381
ault	-5382
yped	-5383
▁("-	-5384
EXCLU	-5385
force	-5386
Delegate	-5387
setInput	-5388
▁transition	-5389
▁\	-5390
▁bec	-5391
secret	-5392
reliable	-5393
▁updated	-5394
getRMApps	-5395
▁we	-5396
LEVEL	-5397
Ratio	-5398
istog	-5399
00000)	-5400
Stripe	-5401
assume	-5402
setJob	-5403
▁using	-5404
Replace	-5405
FsAction	-5406
istogram	-5407
▁started	-5408
▁registry	-5409
▁overwrite	-5410
fullyDelete	-5411
▁getDefault	-5412
Wcc	-5413
▁20	-5414
▁ip	-5415
>(),	-5416
chor	-5417
▁Fair	-5418
▁mult	-5419
Holder	-5420
▁range	-5421
Combine	-5422
Defaults	-5423
▁directive	-5424
getFinishTime	-5425
▁TaskAttemptId	-5426
▁"[	-5427
Left	-5428
Sparse	-5429
running	-5430
rivilege	-5431
▁compute	-5432
▁removed	-5433
▁renewer	-5434
DiffReport	-5435
▁heartbeat	-5436
▁decommission	-5437
Decommissioning	-5438
77	-5439
Nanos	-5440
ucket	-5441
Errors	-5442
▁Simple	-5443
▁callback	-5444
allowSnapshot	-5445
AzureFileSystem	-5446
AF	-5447
▁bs	-5448
(2);	-5449
getI	-5450
seed	-5451
▁Add	-5452
UFFLE	-5453
▁text	-5454
▁level	-5455
validate	-5456
▁CSQueue	-5457
▁TreeMap	-5458
▁channel	-5459
Tokenizer	-5460
erContext	-5461
Compressed	-5462
izedResource	-5463
LabelsToNodes	-5464
"};	-5465
({"	-5466
roy	-5467
Seed	-5468
Send	-5469
crpc	-5470
▁"--	-5471
Ready	-5472
ertion	-5473
oncrpc	-5474
FsImage	-5475
resources	-5476
umulative	-5477
▁hostName	-5478
▁replicas	-5479
▁bytesRead	-5480
▁Properties	-5481
getAclStatus	-5482
▁NodeManager	-5483
SafeModeAction	-5484
TimelineEntity	-5485
25	-5486
35	-5487
Got	-5488
SOC	-5489
Dead	-5490
LAUN	-5491
MINI	-5492
isIn	-5493
sasl	-5494
quire	-5495
ansfer	-5496
direct	-5497
▁Memory	-5498
setStatus	-5499
▁Registry	-5500
▁argument	-5501
Configured	-5502
successful	-5503
▁NNStorage	-5504
MasterResponse	-5505
▁reservationId	-5506
go	-5507
▁5;	-5508
MENT	-5509
logs	-5510
▁"."	-5511
Black	-5512
verse	-5513
header	-5514
▁VALUE	-5515
COMPRESS	-5516
ToString	-5517
▁getUser	-5518
fsdataset	-5519
SnapshotId	-5520
FSNamesystem	-5521
ContainerManager	-5522
(6	-5523
4.	-5524
IOR	-5525
cen	-5526
▁5,	-5527
ased	-5528
▁JOB	-5529
▁fos	-5530
Lists	-5531
AsUser	-5532
splits	-5533
Filename	-5534
MetaInfo	-5535
NodeInfo	-5536
▁allowed	-5537
▁deleted	-5538
▁Protobuf	-5539
▁readFields	-5540
UsedCapacity	-5541
▁storageType	-5542
LinkException	-5543
LY	-5544
pt	-5545
Ack	-5546
prev	-5547
▁will	-5548
Engine	-5549
IORITY	-5550
loaded	-5551
▁Shuffle	-5552
▁FsVolume	-5553
▁Reporter	-5554
▁FSEditLogOp	-5555
▁storageTypes	-5556
':	-5557
06	-5558
hys	-5559
Home	-5560
INIT	-5561
VING	-5562
dist	-5563
rule	-5564
alpha	-5565
apply	-5566
igned	-5567
▁logs	-5568
Captor	-5569
LAYOUT	-5570
method	-5571
return	-5572
unwrap	-5573
▁tokens	-5574
▁volumes	-5575
TEN	-5576
▁DB	-5577
desc	-5578
▁204	-5579
biner	-5580
Category	-5581
LocalDirs	-5582
▁appReport	-5583
▁wc	-5584
Cont	-5585
OTAL	-5586
acter	-5587
▁NONE	-5588
answer	-5589
▁missing	-5590
▁records	-5591
serializer	-5592
getApplications	-5593
TX	-5594
atal	-5595
▁util	-5596
())));	-5597
Second	-5598
health	-5599
native	-5600
▁SWIFT	-5601
ForWrite	-5602
▁Converter	-5603
▁newLength	-5604
WebServices	-5605
ClusterNodes	-5606
▁RMNodeLabels	-5607
FailedException	-5608
ProtocolVersion	-5609
▁ConverterUtils	-5610
Lower	-5611
SOCKET	-5612
amples	-5613
▁trash	-5614
BlockId	-5615
NewFile	-5616
matcher	-5617
JobReport	-5618
▁Checksum	-5619
▁Localizer	-5620
mx	-5621
Abs	-5622
USE	-5623
ict	-5624
Beat	-5625
CIPAL	-5626
Flush	-5627
dummy	-5628
iffer	-5629
orary	-5630
setup	-5631
times	-5632
Keytab	-5633
▁edits	-5634
▁space	-5635
INCIPAL	-5636
RECORDS	-5637
artBeat	-5638
Disabled	-5639
▁reported	-5640
getDiagnostics	-5641
1(	-5642
yc	-5643
RACK	-5644
▁Num	-5645
▁keys	-5646
TimeUnit	-5647
storages	-5648
▁tracker	-5649
FSContract	-5650
UserGroups	-5651
▁finishTime	-5652
1).	-5653
sys	-5654
▁--	-5655
▁ar	-5656
REAM	-5657
Real	-5658
arge	-5659
ific	-5660
Equal	-5661
Setup	-5662
▁Char	-5663
▁clazz	-5664
▁wrong	-5665
tracker	-5666
▁strong	-5667
Readable	-5668
▁threads	-5669
INodeFile	-5670
QueueUser	-5671
HdfsFileSystem	-5672
TON	-5673
VED	-5674
▁"<	-5675
Fsck	-5676
urec	-5677
▁SCM	-5678
*1024	-5679
ALLOW	-5680
OPTION	-5681
PathData	-5682
erasurec	-5683
Authority	-5684
Submitter	-5685
getBlocks	-5686
zookeeper	-5687
Controlled	-5688
LinkedList	-5689
UpgradeUtil	-5690
deprecation	-5691
FileAttribute	-5692
Reconfiguration	-5693
jec	-5694
▁He	-5695
MAPS	-5696
▁"\"	-5697
▁APP	-5698
UTTON	-5699
ifest	-5700
▁sock	-5701
GroupId	-5702
attempts	-5703
Incorrect	-5704
PRINCIPAL	-5705
erasurecode	-5706
▁compression	-5707
▁JobEventType	-5708
▁ShortCircuit	-5709
▁LoggerFactory	-5710
xE	-5711
:",	-5712
MPLE	-5713
elds	-5714
Begin	-5715
Choose	-5716
RETRIES	-5717
▁inputs	-5718
▁committer	-5719
Permissions	-5720
BlockLocations	-5721
BL	-5722
▁})	-5723
edit	-5724
mount	-5725
subdir	-5726
▁expir	-5727
managed	-5728
▁fileId	-5729
▁scheme	-5730
ForTests	-5731
LogLevel	-5732
▁mapping	-5733
▁waiting	-5734
Privilege	-5735
Quantiles	-5736
appAttempt	-5737
DFSTestUtil	-5738
Reservations	-5739
ks	-5740
we	-5741
▁er	-5742
ampl	-5743
ited	-5744
▁top	-5745
ocker	-5746
▁srcs	-5747
AUTHOR	-5748
00000000	-5749
▁instream	-5750
WithSnapshot	-5751
aveNamespace	-5752
================	-5753
88	-5754
aim	-5755
▁cf	-5756
]");	-5757
Slots	-5758
ested	-5759
inclu	-5760
number	-5761
Streams	-5762
jobConf	-5763
reflect	-5764
▁outDir	-5765
Trackers	-5766
fileName	-5767
getNodeID	-5768
RetryPolicy	-5769
▁ResourceManager	-5770
3;	-5771
glob	-5772
orum	-5773
regex	-5774
▁impl	-5775
▁left	-5776
ableFrom	-5777
▁contents	-5778
VersionUID	-5779
diagnostics	-5780
LoggerFactory	-5781
▁blockManager	-5782
CaSchedulerNode	-5783
NodeLabelManager	-5784
uto	-5785
expr	-5786
▁1.0	-5787
▁XML	-5788
Codes	-5789
MRApp	-5790
Sched	-5791
▁action	-5792
Modified	-5793
ToAMToken	-5794
dispatcher	-5795
▁ErasureCoding	-5796
SecretManagerIn	-5797
xA	-5798
ays	-5799
oun	-5800
▁img	-5801
▁sec	-5802
TABLE	-5803
bruce	-5804
rumen	-5805
▁Host	-5806
DELETE	-5807
ackson	-5808
actual	-5809
edNodes	-5810
Charsets	-5811
▁Element	-5812
AuditLogger	-5813
ReplicaInfo	-5814
▁testRename	-5815
RecordBuilder	-5816
▁Progressable	-5817
[4	-5818
▁No	-5819
Prev	-5820
ToBe	-5821
[1];	-5822
Module	-5823
▁never	-5824
FsDataset	-5825
getHeader	-5826
TaskReport	-5827
▁principal	-5828
▁snapshotName	-5829
achingStrategy	-5830
setReplication	-5831
▁ResourceLimits	-5832
vi	-5833
)),	-5834
lfs	-5835
()];	-5836
uous	-5837
▁cId	-5838
Dummy	-5839
▁Sasl	-5840
▁samp	-5841
getPos	-5842
")._().	-5843
factory	-5844
▁future	-5845
▁normal	-5846
▁nsInfo	-5847
finished	-5848
▁EC	-5849
▁bk	-5850
(-1,	-5851
SCHE	-5852
body	-5853
sdir	-5854
▁bpos	-5855
OnMock	-5856
▁Close	-5857
▁Timer	-5858
Compress	-5859
getFirst	-5860
getScheme	-5861
▁rpcProxy	-5862
HAServiceState	-5863
rop	-5864
title	-5865
Redund	-5866
losing	-5867
▁QUEUE	-5868
lanning	-5869
▁HADOOP	-5870
▁Status	-5871
▁window	-5872
▁JobState	-5873
Consumption	-5874
▁dfsCluster	-5875
30	-5876
:\	-5877
(4,	-5878
cfs	-5879
NULL	-5880
kill	-5881
level	-5882
▁need	-5883
Connec	-5884
urator	-5885
▁60000)	-5886
▁latest	-5887
▁TaskState	-5888
▁resources	-5889
Unsupported	-5890
▁BlockReader	-5891
DC	-5892
GEN	-5893
Rec	-5894
(1),	-5895
getX	-5896
▁4);	-5897
▁dfn	-5898
▁kbd	-5899
▁abbr	-5900
▁cite	-5901
_00000	-5902
mediate	-5903
workDir	-5904
▁mapper	-5905
ingPolicy	-5906
▁required	-5907
▁CountDownLatch	-5908
(((	-5909
EEK	-5910
▁ME	-5911
▁["	-5912
DIRS	-5913
Dump	-5914
WITH	-5915
anges	-5916
▁heap	-5917
MRConfig	-5918
setOwner	-5919
CHECKPOINT	-5920
rimaryFilters	-5921
▁AtomicBoolean	-5922
SuperUserGroups	-5923
▁MutableCounter	-5924
UpgradeUtilities	-5925
26	-5926
href	-5927
real	-5928
▁Name	-5929
▁select	-5930
NetUtils	-5931
▁reduces	-5932
Recursive	-5933
separator	-5934
▁successful	-5935
▁description	-5936
help	-5937
pend	-5938
▁xid	-5939
2"));	-5940
login	-5941
▁YARN	-5942
kipped	-5943
protocolPB	-5944
readString	-5945
LabelsOnNode	-5946
▁ImmutableList	-5947
Nn	-5948
("1	-5949
def	-5950
Core	-5951
JAVA	-5952
Slic	-5953
enable	-5954
Barrier	-5955
LOADING	-5956
PRIORITY	-5957
isAssign	-5958
▁symlink	-5959
SubmitTime	-5960
writeString	-5961
▁decompressor	-5962
FileAttributes	-5963
75	-5964
80	-5965
(0.	-5966
NON	-5967
▁ls	-5968
sure	-5969
▁sup	-5970
exist	-5971
ookup	-5972
style	-5973
queues	-5974
▁Write	-5975
corrupt	-5976
HostName	-5977
ifferent	-5978
DFSClient	-5979
MAPREDUCE	-5980
setProperty	-5981
isAssignableFrom	-5982
uch	-5983
▁"*	-5984
▁"_	-5985
FFIX	-5986
NONE	-5987
Prox	-5988
Scan	-5989
Tags	-5990
[]{"	-5991
Lines	-5992
ivate	-5993
utoff	-5994
▁fSys	-5995
HAdmin	-5996
▁force	-5997
▁login	-5998
Include	-5999
▁getQueue	-6000
▁CONTAINER	-6001
▁FileHandle	-6002
HAdminConfig	-6003
HandlerService	-6004
missionContext	-6005
▁SchedulingMode	-6006
='	-6007
Tmp	-6008
ipe	-6009
▁+"	-6010
▁rw	-6011
DOWN	-6012
Zero	-6013
tems	-6014
▁Ass	-6015
ivity	-6016
▁locs	-6017
▁orig	-6018
▁Input	-6019
▁Proxy	-6020
CLEANUP	-6021
Accepted	-6022
ToGroups	-6023
▁Journal	-6024
Executors	-6025
getEvents	-6026
hasOption	-6027
▁MasterKey	-6028
TestAccount	-6029
▁AppContext	-6030
assignContainers	-6031
setConfiguration	-6032
BO	-6033
RAM	-6034
://"	-6035
left	-6036
▁rec	-6037
▁ren	-6038
▁xml	-6039
▁incr	-6040
▁slot	-6041
ToFile	-6042
shared	-6043
nameNode	-6044
▁support	-6045
Emulation	-6046
▁injector	-6047
NodeReport	-6048
getContext	-6049
▁testCreate	-6050
GR	-6051
SUP	-6052
ctx	-6053
▁IO	-6054
Trim	-6055
AMPLE	-6056
Cipher	-6057
SUFFIX	-6058
compile	-6059
jackson	-6060
▁answer	-6061
▁hadoop	-6062
▁nameNode	-6063
HttpServer	-6064
Partitioner	-6065
getCapacity	-6066
▁Allocation	-6067
UserMappings	-6068
▁BlockLocation	-6069
5.	-6070
BD	-6071
SHA	-6072
▁""	-6073
STRI	-6074
ally	-6075
(1)).	-6076
(1));	-6077
rieve	-6078
Cancel	-6079
ECTION	-6080
EXPIRY	-6081
lection	-6082
release	-6083
▁suffix	-6084
▁xattrs	-6085
▁FileWriter	-6086
MILLISECONDS	-6087
openConnection	-6088
▁ClientProtocol	-6089
<>(	-6090
<?,	-6091
:///	-6092
POOL	-6093
Txid	-6094
oper	-6095
ynam	-6096
▁5);	-6097
▁div	-6098
Merge	-6099
▁User	-6100
Fencer	-6101
▁creds	-6102
THREADS	-6103
▁Channel	-6104
COMMISSION	-6105
ClientImpl	-6106
finishTime	-6107
▁classname	-6108
testBaseDir	-6109
EOFException	-6110
getAvailable	-6111
EncryptionKey	-6112
RpcController	-6113
createNewFile	-6114
▁containerStatus	-6115
=");	-6116
CONT	-6117
Hook	-6118
Span	-6119
▁PRO	-6120
iness	-6121
▁Json	-6122
Column	-6123
ternal	-6124
▁STATE	-6125
Indexes	-6126
Targets	-6127
▁helper	-6128
FileSize	-6129
▁Illegal	-6130
getFileId	-6131
▁CachePool	-6132
InternalState	-6133
singletonList	-6134
▁DataChecksum	-6135
getInputStream	-6136
▁ContainerStatus	-6137
1.0	-6138
col	-6139
▁Do	-6140
Fake	-6141
Once	-6142
When	-6143
Zlib	-6144
ilic	-6145
▁cpu	-6146
Bound	-6147
OpAttr	-6148
SetFlag	-6149
▁display	-6150
FinishData	-6151
Replicated	-6152
▁localDirs	-6153
Authenticator	-6154
We	-6155
rx	-6156
ONSE	-6157
_0);	-6158
runn	-6159
▁move	-6160
ucceed	-6161
▁Async	-6162
▁inDir	-6163
Windows	-6164
RECOVERY	-6165
interval	-6166
▁matcher	-6167
DIRECTORY	-6168
▁clientName	-6169
SocketFactory	-6170
▁getContainer	-6171
▁expectedOutput	-6172
SSD	-6173
IMUM	-6174
Keep	-6175
VITY	-6176
Decre	-6177
field	-6178
▁mark	-6179
ynamic	-6180
include	-6181
trigger	-6182
HttpPort	-6183
entityId	-6184
getCache	-6185
▁upgrade	-6186
StartData	-6187
writeLong	-6188
HostException	-6189
▁eventHandler	-6190
SharePreemption	-6191
lanningException	-6192
wx	-6193
▁di	-6194
LEEP	-6195
Mark	-6196
Agent	-6197
▁head	-6198
▁live	-6199
▁allow	-6200
▁async	-6201
blockId	-6202
TRANSFER	-6203
getSpace	-6204
▁pattern	-6205
timestamp	-6206
▁location	-6207
▁testPath	-6208
▁HAService	-6209
▁mapOutput	-6210
Initializer	-6211
▁fileLength	-6212
DECOMMISSION	-6213
InvocationOnMock	-6214
Foo	-6215
▁eq	-6216
DONE	-6217
▁net	-6218
▁reg	-6219
alled	-6220
itive	-6221
DOMAIN	-6222
mockFs	-6223
Classes	-6224
SHUFFLE	-6225
WorkDir	-6226
FileInfo	-6227
Headroom	-6228
getTasks	-6229
Constructor	-6230
HistoryData	-6231
getAttempts	-6232
setResource	-6233
▁logVersion	-6234
▁CopyListing	-6235
MX	-6236
xD	-6237
_0_	-6238
post	-6239
Quorum	-6240
VATION	-6241
decode	-6242
CONTEXT	-6243
▁OBJECT	-6244
▁parity	-6245
setXAttr	-6246
apsedTime	-6247
▁Callable	-6248
AccessFile	-6249
▁lastBlock	-6250
▁getMetrics	-6251
▁NullWritable	-6252
▁SecurityUtil	-6253
ResourceHandler	-6254
▁PBHelperClient	-6255
",\"	-6256
Post	-6257
▁crc	-6258
Jetty	-6259
pport	-6260
▁CONF	-6261
STREAM	-6262
TaskID	-6263
▁users	-6264
EXCLUSI	-6265
kerberos	-6266
Successful	-6267
ifyException	-6268
izedException	-6269
PBHelperClient	-6270
ResponseStatus	-6271
▁containerToken	-6272
▁DocumentBuilder	-6273
2()	-6274
ply	-6275
▁AC	-6276
▁UN	-6277
▁CLI	-6278
Longs	-6279
alloc	-6280
anned	-6281
Digest	-6282
Tracer	-6283
modify	-6284
▁query	-6285
ismatch	-6286
▁TaskID	-6287
▁because	-6288
▁minimum	-6289
▁cellSize	-6290
getVersion	-6291
▁compressor	-6292
▁NodeHeartbeat	-6293
mr	-6294
IES	-6295
cap	-6296
uing	-6297
▁0),	-6298
Reset	-6299
▁absF	-6300
Across	-6301
ilical	-6302
▁Admin	-6303
getError	-6304
▁getValue	-6305
▁numberOf	-6306
NativeCode	-6307
RetryCache	-6308
▁Composite	-6309
▁JobClient	-6310
Directories	-6311
▁RecordReader	-6312
getResponseCode	-6313
▁;	-6314
000;	-6315
2850	-6316
appy	-6317
lash	-6318
Fault	-6319
Parse	-6320
Reply	-6321
▁fake	-6322
charAt	-6323
ibling	-6324
ootstr	-6325
simple	-6326
▁metric	-6327
▁mkdirs	-6328
StateData	-6329
andidates	-6330
AMResource	-6331
TraceScope	-6332
ightWeight	-6333
RMNodeLabels	-6334
NewApplication	-6335
getTestRootPath	-6336
2:	-6337
0",	-6338
820	-6339
▁Mo	-6340
("",	-6341
OPEN	-6342
echo	-6343
Fence	-6344
ampler	-6345
▁timer	-6346
getMock	-6347
▁Result	-6348
▁change	-6349
doReturn	-6350
testfile	-6351
▁include	-6352
framework	-6353
AclFeature	-6354
Aggregator	-6355
▁NodeState	-6356
▁blockFile	-6357
▁testAccount	-6358
PRI	-6359
fsn	-6360
▁jc	-6361
)");	-6362
=").	-6363
MAPP	-6364
RMAL	-6365
ancy	-6366
ique	-6367
prop	-6368
Fixed	-6369
datat	-6370
nappy	-6371
▁pass	-6372
SCHEME	-6373
unction	-6374
▁errors	-6375
Creation	-6376
Starting	-6377
▁replace	-6378
csContext	-6379
QueryParam	-6380
ReadWriteLock	-6381
getAppAttempt	-6382
Decommissioned	-6383
▁LocatedBlocks	-6384
>]	-6385
2";	-6386
Arc	-6387
OWN	-6388
Txn	-6389
[])	-6390
")),	-6391
ights	-6392
round	-6393
▁Diff	-6394
▁glob	-6395
0000);	-6396
ENDING	-6397
Exclus	-6398
Parsed	-6399
encode	-6400
IZATION	-6401
Methods	-6402
getYarn	-6403
▁parser	-6404
RESPONSE	-6405
getKeyId	-6406
▁enabled	-6407
EXCLUSIVITY	-6408
getProgress	-6409
getDirectory	-6410
MasterRequest	-6411
EG	-6412
▁fn	-6413
▁Arg	-6414
chunk	-6415
stats	-6416
Excess	-6417
FINISH	-6418
Reason	-6419
cached	-6420
socket	-6421
▁mtime	-6422
Segments	-6423
Delimited	-6424
FileSplit	-6425
▁security	-6426
setSafeMode	-6427
▁FairScheduler	-6428
Hs	-6429
KV	-6430
NC	-6431
OID	-6432
ORD	-6433
REA	-6434
bit	-6435
▁SP	-6436
▁ev	-6437
▁ss	-6438
▁ue	-6439
00",	-6440
▁sig	-6441
normal	-6442
weight	-6443
Expired	-6444
Visitor	-6445
▁render	-6446
Constant	-6447
EventInfo	-6448
▁property	-6449
▁storages	-6450
▁succeeded	-6451
ListManager	-6452
▁Dispatcher	-6453
38	-6454
>\	-6455
2).	-6456
Via	-6457
[++	-6458
3));	-6459
PROG	-6460
txid	-6461
locks	-6462
CEPTED	-6463
jected	-6464
exclude	-6465
Encoding	-6466
absolute	-6467
ootstrap	-6468
▁Request	-6469
▁seconds	-6470
getXAttrs	-6471
▁keyClass	-6472
SequenceNumber	-6473
getSchedulerApp	-6474
BlockReaderLocal	-6475
bad	-6476
))).	-6477
2"),	-6478
ular	-6479
▁","	-6480
names	-6481
▁REPL	-6482
MASTER	-6483
Exclude	-6484
monitor	-6485
▁getMax	-6486
▁ignore	-6487
▁monitor	-6488
▁resolve	-6489
InfoProto	-6490
▁creation	-6491
▁statuses	-6492
getEntries	-6493
findCounter	-6494
getAttemptId	-6495
DatanodeStorage	-6496
getLocatedBlocks	-6497
Ro	-6498
FIL	-6499
_("	-6500
ALTH	-6501
Dest	-6502
uted	-6503
▁low	-6504
EMPTY	-6505
ENTIC	-6506
Vector	-6507
Viewer	-6508
factor	-6509
Cleaner	-6510
LogFile	-6511
WEBHDFS	-6512
▁Number	-6513
LocalPath	-6514
Protocols	-6515
▁Protocol	-6516
▁recursive	-6517
LazyPersist	-6518
MapperClass	-6519
XmlAccessor	-6520
▁invocation	-6521
XmlAccessType	-6522
XmlAccessorType	-6523
Ide	-6524
tid	-6525
[1].	-6526
imal	-6527
ycle	-6528
STAMP	-6529
Linked	-6530
choose	-6531
Gridmix	-6532
▁counts	-6533
provider	-6534
▁contain	-6535
Additions	-6536
Separator	-6537
Percentage	-6538
RootElement	-6539
▁diagnostic	-6540
logAggregation	-6541
)0	-6542
td	-6543
Ext	-6544
JAR	-6545
▁!!	-6546
▁wa	-6547
OPTS	-6548
maps	-6549
▁Bad	-6550
▁DEL	-6551
▁bld	-6552
Guice	-6553
MBean	-6554
PTION	-6555
SPACE	-6556
Slice	-6557
ToRead	-6558
▁batch	-6559
Program	-6560
Trimmed	-6561
Callable	-6562
getToken	-6563
▁editLog	-6564
Recovering	-6565
capability	-6566
identifier	-6567
DataChecksum	-6568
getXmlString	-6569
XmlRootElement	-6570
rix	-6571
PERC	-6572
THOD	-6573
WORK	-6574
[1],	-6575
blob	-6576
ffect	-6577
▁pair	-6578
▁stub	-6579
Binary	-6580
FILTER	-6581
▁FSDir	-6582
▁types	-6583
0.0.0.0	-6584
Elements	-6585
Preempted	-6586
PERMISSIONS	-6587
FileOutputFormat	-6588
BY	-6589
TT	-6590
("[	-6591
▁>>>	-6592
(1234	-6593
CORES	-6594
NODES	-6595
queueB	-6596
▁WRITE	-6597
DfsDirs	-6598
DirType	-6599
shuffle	-6600
loudBlob	-6601
property	-6602
▁related	-6603
blockSize	-6604
▁Argument	-6605
▁contains	-6606
Redundancy	-6607
nodelabels	-6608
▁getOutput	-6609
AndRegister	-6610
getQueueName	-6611
▁requestProto	-6612
UserForTesting	-6613
AllocationState	-6614
ui	-6615
Leg	-6616
▁Bl	-6617
(10,	-6618
MODI	-6619
PASS	-6620
▁tid	-6621
ARTED	-6622
Reads	-6623
super	-6624
▁inner	-6625
TagName	-6626
▁1024);	-6627
JobState	-6628
▁changed	-6629
▁getLast	-6630
▁mapTask	-6631
COMPLETED	-6632
OVERWRITE	-6633
Retention	-6634
▁tracking	-6635
getPending	-6636
ContextImpl	-6637
asDirectory	-6638
▁parameters	-6639
FY	-6640
Gr	-6641
nd	-6642
ti	-6643
cId	-6644
▁MB	-6645
ooted	-6646
scape	-6647
▁HDFS	-6648
BlkNum	-6649
SAVING	-6650
Partial	-6651
▁tEvent	-6652
▁Wrapped	-6653
getTaskId	-6654
▁taskType	-6655
FileBlocks	-6656
aimContext	-6657
Interaction	-6658
contentHandler	-6659
▁MRBuilderUtils	-6660
EZ	-6661
sb	-6662
DOM	-6663
Lost	-6664
flow	-6665
▁COM	-6666
SUBMIT	-6667
▁flags	-6668
Changed	-6669
Pointer	-6670
RESPECT	-6671
getApps	-6672
▁TaskId	-6673
▁logger	-6674
Emulator	-6675
Identity	-6676
MapTasks	-6677
readLong	-6678
Submitted	-6679
setEntity	-6680
HealthStatus	-6681
ClientService	-6682
setOutputPath	-6683
▁EX	-6684
:");	-6685
SKIP	-6686
bose	-6687
Bench	-6688
icket	-6689
ision	-6690
▁trace	-6691
ByLabel	-6692
support	-6693
▁BUTTON	-6694
TestBase	-6695
▁execute	-6696
▁runTest	-6697
▁failover	-6698
▁encryption	-6699
▁getFileSystem	-6700
restartNameNode	-6701
(8	-6702
21	-6703
ros	-6704
LOSE	-6705
Word	-6706
Being	-6707
EXIST	-6708
Perms	-6709
_1317	-6710
hello	-6711
Daemon	-6712
Denied	-6713
▁Nodes	-6714
AsLongs	-6715
gridmix	-6716
hysical	-6717
▁Update	-6718
▁backup	-6719
▁decode	-6720
InMemory	-6721
filename	-6722
▁written	-6723
checkAccess	-6724
setLogLevel	-6725
NullWritable	-6726
StartedEvent	-6727
getLocalized	-6728
▁permissions	-6729
BW	-6730
--;	-6731
▁RLE	-6732
direc	-6733
▁Code	-6734
▁calc	-6735
APPEND	-6736
setMax	-6737
Offsets	-6738
reserve	-6739
▁cancel	-6740
▁tmpDir	-6741
getAppId	-6742
previous	-6743
AUTHENTIC	-6744
dfsClient	-6745
▁TIMELINE	-6746
▁ThreadLocal	-6747
NodeHeartbeat	-6748
FormatException	-6749
48	-6750
)07	-6751
ONLY	-6752
TERN	-6753
WRIT	-6754
acls	-6755
hing	-6756
racks	-6757
LABELS	-6758
aggreg	-6759
execute	-6760
▁doTest	-6761
ACCEPTED	-6762
LowerCase	-6763
iveliness	-6764
ListAsLongs	-6765
▁ProtobufHelper	-6766
ivelinessMonitor	-6767
00;	-6768
Row	-6769
TRA	-6770
mpo	-6771
udo	-6772
▁dt	-6773
ENCE	-6774
▁bdo	-6775
GROUPS	-6776
STARTED	-6777
▁during	-6778
ALLOCATED	-6779
NameNodes	-6780
OutStream	-6781
aryNameNode	-6782
UserToGroups	-6783
ProxyProvider	-6784
setMapperClass	-6785
ReflectionUtils	-6786
▁containerIdStr	-6787
▁TokenIdentifier	-6788
76	-6789
Rm	-6790
Did	-6791
ODY	-6792
voke	-6793
Racks	-6794
rmApp	-6795
uplic	-6796
▁Stat	-6797
HttpFS	-6798
NoSuch	-6799
OnSame	-6800
▁SMALL	-6801
localFs	-6802
setUser	-6803
▁erased	-6804
Preserve	-6805
▁maximum	-6806
▁nmToken	-6807
▁reading	-6808
blacklist	-6809
▁Deletion	-6810
RESERVATION	-6811
▁AppAttempt	-6812
▁getResource	-6813
EditsFileName	-6814
▁checkOperation	-6815
BAD	-6816
iven	-6817
ough	-6818
ANDOM	-6819
Tuple	-6820
Wrong	-6821
getUn	-6822
▁VOID	-6823
Inject	-6824
Inputs	-6825
▁Shared	-6826
▁Sorted	-6827
▁button	-6828
PROGRESS	-6829
getJobId	-6830
ooKeeper	-6831
▁NMToken	-6832
▁setConf	-6833
▁workDir	-6834
Transient	-6835
▁assignment	-6836
▁properties	-6837
')	-6838
Csr	-6839
▁..	-6840
▁pc	-6841
(2).	-6842
Csrf	-6843
▁cid	-6844
LEASE	-6845
edits	-6846
atency	-6847
ccData	-6848
scheme	-6849
▁Reader	-6850
AclsInfo	-6851
password	-6852
▁Charset	-6853
▁dataset	-6854
▁greater	-6855
Closeable	-6856
Temporary	-6857
▁requested	-6858
BlobStorage	-6859
TaskReports	-6860
▁DatanodeID	-6861
DomainSocket	-6862
UsersManager	-6863
▁TypeConverter	-6864
▁RMAppEventType	-6865
KMSConfiguration	-6866
Ip	-6867
ou	-6868
DBY	-6869
▁NO	-6870
▁ds	-6871
dout	-6872
just	-6873
pret	-6874
("");	-6875
multi	-6876
HEALTH	-6877
Legacy	-6878
MockRM	-6879
utures	-6880
▁delay	-6881
▁parts	-6882
Emitter	-6883
entries	-6884
initial	-6885
▁sorted	-6886
ummation	-6887
▁FsShell	-6888
completed	-6889
▁realUser	-6890
▁textarea	-6891
reinitialize	-6892
ArcTransition	-6893
setInputPaths	-6894
ru	-6895
Vol	-6896
ftp	-6897
5");	-6898
REAL	-6899
▁IPC	-6900
▁jar	-6901
▁opt	-6902
MAPRED	-6903
rmnode	-6904
stCsrf	-6905
Headers	-6906
Wrapped	-6907
executor	-6908
ChangeLog	-6909
Assignment	-6910
getFSImage	-6911
▁jobHistory	-6912
getNodeLabels	-6913
1()	-6914
MON	-6915
]",	-6916
▁64	-6917
CHED	-6918
Html	-6919
ares	-6920
cast	-6921
ness	-6922
▁Dep	-6923
▁The	-6924
▁yet	-6925
STRUC	-6926
ToSkip	-6927
readed	-6928
tmpDir	-6929
▁jobID	-6930
▁right	-6931
=10000)	-6932
URATION	-6933
mpotent	-6934
rmToken	-6935
▁Finish	-6936
Fallback	-6937
chorText	-6938
▁streams	-6939
▁services	-6940
ToolRunner	-6941
rmcontainer	-6942
▁snapshotId	-6943
INodeDirectory	-6944
CryptoExtension	-6945
Ask	-6946
▁24	-6947
UUID	-6948
LOVER	-6949
SLEEP	-6950
▁nsId	-6951
Sorted	-6952
cancel	-6953
▁Entry	-6954
▁Value	-6955
Healthy	-6956
PATTERN	-6957
Testing	-6958
renewer	-6959
ublisher	-6960
Component	-6961
JobStatus	-6962
Snapshots	-6963
countered	-6964
▁PathData	-6965
CONNECTION	-6966
▁Closeable	-6967
▁namespace	-6968
ByStorageType	-6969
SparseResource	-6970
createImmutable	-6971
=3	-6972
Boun	-6973
STOP	-6974
boss	-6975
RpcIds	-6976
▁Renew	-6977
Resolve	-6978
▁MiniMR	-6979
Endpoint	-6980
toNodeId	-6981
▁Generic	-6982
▁Message	-6983
Addresses	-6984
IndexInfo	-6985
BindAddress	-6986
DistCpUtils	-6987
getChildren	-6988
checkNotNull	-6989
▁createParent	-6990
getOptionValue	-6991
BAL	-6992
MSG	-6993
ich	-6994
▁60	-6995
diff	-6996
}");	-6997
▁avg	-6998
TOTAL	-6999
▁prog	-7000
adding	-7001
Buffers	-7002
Illegal	-7003
healthy	-7004
attemptID	-7005
▁NativeIO	-7006
▁starting	-7007
StatusProto	-7008
StorageDirs	-7009
getCounters	-7010
▁RemoteIterator	-7011
setStoragePolicy	-7012
66	-7013
IIP	-7014
INK	-7015
SIX	-7016
abc	-7017
Does	-7018
Math	-7019
SCAN	-7020
Tests	-7021
▁Base	-7022
285017	-7023
Latest	-7024
Tester	-7025
\">");	-7026
csConf	-7027
Display	-7028
▁Deprec	-7029
External	-7030
requests	-7031
setQuota	-7032
▁rmClient	-7033
namesystem	-7034
▁QuotaCounts	-7035
▁DatanodeStorage	-7036
▁NameNodeAdapter	-7037
_8	-7038
got	-7039
kms	-7040
▁DN	-7041
▁td	-7042
CALL	-7043
VIEW	-7044
lers	-7045
ANDBY	-7046
ToDir	-7047
isDir	-7048
MILLIS	-7049
NORMAL	-7050
Stored	-7051
asFile	-7052
PENDING	-7053
Xceiver	-7054
▁Entity	-7055
▁Stream	-7056
▁caught	-7057
▁fsView	-7058
▁taImpl	-7059
▁Reducer	-7060
▁getPath	-7061
Finishing	-7062
SecretKey	-7063
getServer	-7064
▁requests	-7065
▁MapReduce	-7066
toLowerCase	-7067
▁filesystem	-7068
Parameterized	-7069
createSymlink	-7070
▁uncompressed	-7071
-"	-7072
>,	-7073
Fr	-7074
100	-7075
ioe	-7076
Buff	-7077
REST	-7078
card	-7079
▁row	-7080
sFile	-7081
Follow	-7082
master	-7083
▁fields	-7084
▁inline	-7085
▁loaded	-7086
28501754	-7087
getStart	-7088
▁session	-7089
▁striped	-7090
▁complete	-7091
FinalState	-7092
globStatus	-7093
▁MockNodes	-7094
▁StripedFile	-7095
ServletContext	-7096
++]	-7097
ier	-7098
ubb	-7099
▁Lo	-7100
****	-7101
Disp	-7102
SASL	-7103
▁0",	-7104
▁SUB	-7105
▁Use	-7106
-8");	-7107
OWNER	-7108
▁zone	-7109
Custom	-7110
VCORES	-7111
single	-7112
▁Param	-7113
ERATION	-7114
hasMore	-7115
invalid	-7116
▁Remove	-7117
▁killed	-7118
Removals	-7119
Schedule	-7120
activate	-7121
▁realUgi	-7122
▁blocksize	-7123
PrintWriter	-7124
▁unexpected	-7125
28501754_000	-7126
▁NamespaceInfo	-7127
Cl	-7128
Sp	-7129
BUG	-7130
oth	-7131
▁}.	-7132
bean	-7133
dump	-7134
rary	-7135
uite	-7136
▁Ver	-7137
▁fis	-7138
(-1);	-7139
jboss	-7140
▁extr	-7141
MODIFY	-7142
Opport	-7143
ceptor	-7144
iguous	-7145
Domains	-7146
QueryUI	-7147
Results	-7148
ransfer	-7149
▁Logged	-7150
Decrease	-7151
FullPath	-7152
INTERNAL	-7153
▁RPCUtil	-7154
AdminAcls	-7155
TableData	-7156
▁compress	-7157
▁truncate	-7158
▁incorrect	-7159
YarnCluster	-7160
▁HATestUtil	-7161
▁getProgress	-7162
FailureSummary	-7163
▁DFSUtilClient	-7164
▁StringTokenizer	-7165
44	-7166
FAKE	-7167
ARGET	-7168
luser	-7169
ribut	-7170
▁Plan	-7171
▁baos	-7172
▁zero	-7173
HAUtil	-7174
hflush	-7175
micros	-7176
object	-7177
▁LABEL	-7178
FSIMAGE	-7179
▁Linked	-7180
▁factor	-7181
ribution	-7182
testPath	-7183
LocalFile	-7184
▁InMemory	-7185
▁NodeType	-7186
▁deletion	-7187
Accessible	-7188
Partitions	-7189
allocations	-7190
▁preemption	-7191
NodeResource	-7192
configurable	-7193
getCapability	-7194
▁applications	-7195
getQueueManager	-7196
AllocateResponse	-7197
getNumContainers	-7198
AA	-7199
elf	-7200
ian	-7201
▁HT	-7202
aging	-7203
aving	-7204
Layout	-7205
REPORT	-7206
SubDir	-7207
verage	-7208
CONNECT	-7209
FAILURE	-7210
Stopped	-7211
webhdfs	-7212
▁accept	-7213
▁bucket	-7214
getJobID	-7215
▁keyName	-7216
▁partial	-7217
▁rolling	-7218
▁relative	-7219
DatanodeID	-7220
getDispatcher	-7221
▁clientMachine	-7222
23	-7223
wn	-7224
ins	-7225
▁FO	-7226
LECT	-7227
PLIC	-7228
REGI	-7229
hind	-7230
ones	-7231
zone	-7232
▁cls	-7233
ceive	-7234
merge	-7235
rigin	-7236
▁Util	-7237
▁dead	-7238
000000	-7239
UTDOWN	-7240
getNew	-7241
▁sched	-7242
LEVELDB	-7243
Matches	-7244
Present	-7245
getNext	-7246
getXfer	-7247
JQueryUI	-7248
Rollback	-7249
instance	-7250
HeartBeat	-7251
callerUGI	-7252
getOffset	-7253
principal	-7254
▁internal	-7255
Credential	-7256
Idempotent	-7257
writeBytes	-7258
FromCluster	-7259
▁finalState	-7260
▁getCluster	-7261
ReducerClass	-7262
datatransfer	-7263
getLeafQueue	-7264
AndRegisterAM	-7265
▁DomainSocket	-7266
CommandExecutor	-7267
(5,	-7268
ELL	-7269
Kdc	-7270
box	-7271
tri	-7272
Conn	-7273
HAND	-7274
HOME	-7275
Pass	-7276
fake	-7277
home	-7278
▁NFS	-7279
▁SUP	-7280
ENCRY	-7281
Width	-7282
getIn	-7283
ifile	-7284
▁CELL	-7285
[0]));	-7286
getRaw	-7287
▁mount	-7288
DfsUsed	-7289
Elector	-7290
wrapper	-7291
▁Joiner	-7292
MemoryMB	-7293
PageBlob	-7294
Protobuf	-7295
RESERVED	-7296
microsoft	-7297
ypedBytes	-7298
▁LocalDirs	-7299
▁Connection	-7300
CounterGroup	-7301
getNumActive	-7302
ToSkipCompare	-7303
▁ReplicaState	-7304
▁RpcController	-7305
MaximumCapacity	-7306
▁ContentSummary	-7307
PointerException	-7308
("*	-7309
Bus	-7310
[2]	-7311
gen	-7312
▁_>	-7313
ario	-7314
CLOSE	-7315
DENTI	-7316
TRACK	-7317
seudo	-7318
▁curr	-7319
▁keep	-7320
MXBean	-7321
closed	-7322
dition	-7323
setAcl	-7324
TreeSet	-7325
atedURL	-7326
▁excess	-7327
▁signal	-7328
ExitUtil	-7329
Messages	-7330
QueueACL	-7331
▁elector	-7332
Recovered	-7333
▁localDir	-7334
▁Preemption	-7335
▁numDataNodes	-7336
2(	-7337
_.	-7338
ae	-7339
▁MA	-7340
omin	-7341
snap	-7342
rival	-7343
rough	-7344
▁scan	-7345
INITED	-7346
SCRIPT	-7347
▁Split	-7348
▁addTo	-7349
Framework	-7350
oomFilter	-7351
▁getProxy	-7352
▁received	-7353
AuthMethod	-7354
ReportType	-7355
getNameNodeRpc	-7356
SecurityEnabled	-7357
TaskAttemptInfo	-7358
TextInputFormat	-7359
getDatanodeUuid	-7360
▁numParityUnits	-7361
:/	-7362
FE	-7363
DEX	-7364
▁CH	-7365
NOWN	-7366
▁cap	-7367
toURI	-7368
users	-7369
▁50);	-7370
Origin	-7371
Recent	-7372
ayload	-7373
▁added	-7374
NodeType	-7375
Storages	-7376
FSDataset	-7377
ClientAsync	-7378
XAttrSetFlag	-7379
ReportRequest	-7380
[5	-7381
CMD	-7382
▁har	-7383
Coder	-7384
Depth	-7385
Saved	-7386
Spill	-7387
▁save	-7388
expect	-7389
mitive	-7390
▁dummy	-7391
▁fetch	-7392
LIMITER	-7393
▁taskID	-7394
KeyStore	-7395
ffective	-7396
▁Process	-7397
BLOCKSIZE	-7398
▁NodeLabel	-7399
▁increment	-7400
▁queueInfo	-7401
BytesWritten	-7402
HistoryServer	-7403
▁amNodeManager	-7404
FiCaSchedulerApp	-7405
My	-7406
MIX	-7407
Slow	-7408
opts	-7409
Slash	-7410
Termin	-7411
atible	-7412
repare	-7413
Queuing	-7414
cenario	-7415
▁inodes	-7416
KeySpecs	-7417
Manifest	-7418
TestFile	-7419
children	-7420
▁loading	-7421
▁startup	-7422
getAllJobs	-7423
▁FSEditLog	-7424
MetricsInfo	-7425
getTaskType	-7426
▁AtomicLong	-7427
▁TextFormat	-7428
▁RetryPolicy	-7429
DelegationKey	-7430
getAccessTime	-7431
ConverterUtils	-7432
historyservice	-7433
▁reservationID	-7434
CalculatorPlugin	-7435
ResourceRequests	-7436
▁DrainDispatcher	-7437
UX	-7438
ONY	-7439
lia	-7440
war	-7441
ture	-7442
ways	-7443
AVAIL	-7444
▁DATA	-7445
▁prop	-7446
KEYTAB	-7447
anglia	-7448
ential	-7449
▁since	-7450
hitebox	-7451
matched	-7452
finalize	-7453
rawtypes	-7454
taskType	-7455
▁outputs	-7456
CallQueue	-7457
JSONArray	-7458
multifile	-7459
▁Multiple	-7460
▁commands	-7461
getRpcServer	-7462
▁replicaInfo	-7463
StopContainers	-7464
TokenMasterKey	-7465
HeartbeatHandler	-7466
","	-7467
PERM	-7468
REPL	-7469
▁RED	-7470
VLong	-7471
keytab	-7472
rmNode	-7473
▁prior	-7474
COUNTER	-7475
Loading	-7476
STANDBY	-7477
▁modify	-7478
RootPath	-7479
HostsFile	-7480
nextToken	-7481
TaskStatus	-7482
getEditLog	-7483
getMaximum	-7484
▁assertSame	-7485
▁attributes	-7486
getLocalPath	-7487
getCurrentKey	-7488
deleteSnapshot	-7489
▁numContainers	-7490
LocalFileSystem	-7491
Top	-7492
▁DF	-7493
820/	-7494
▁too	-7495
▁Step	-7496
▁myFs	-7497
Accept	-7498
hamlet	-7499
vcores	-7500
▁Index	-7501
▁purge	-7502
UNKNOWN	-7503
disable	-7504
mapTask	-7505
setType	-7506
▁shared	-7507
reakable	-7508
protected	-7509
writeVInt	-7510
▁getClass	-7511
getNetwork	-7512
▁authority	-7513
CommandLine	-7514
foScheduler	-7515
ImageElement	-7516
Modification	-7517
getMethodName	-7518
MasterProtocol	-7519
createSocketAddr	-7520
getSpaceConsumed	-7521
ano	-7522
▁AB	-7523
Evic	-7524
Most	-7525
None	-7526
STEM	-7527
▁mer	-7528
begin	-7529
decom	-7530
Expect	-7531
▁audit	-7532
UCState	-7533
kipping	-7534
seconds	-7535
▁Double	-7536
▁stored	-7537
subtract	-7538
▁readFile	-7539
DateFormat	-7540
getCounter	-7541
▁Reentrant	-7542
getFileInfo	-7543
▁RMAppEvent	-7544
inuxContainer	-7545
▁chooseTarget	-7546
CGroupsHandler	-7547
▁clientVersion	-7548
TaskAttemptState	-7549
13	-7550
▁TH	-7551
▁nr	-7552
cons	-7553
▁STR	-7554
▁mon	-7555
numOf	-7556
usage	-7557
▁tags	-7558
▁then	-7559
Comput	-7560
Escape	-7561
▁atime	-7562
▁equal	-7563
▁phase	-7564
Session	-7565
getInfo	-7566
▁percent	-7567
▁testSet	-7568
▁without	-7569
▁newBlock	-7570
UsedResource	-7571
AUTHENTICATION	-7572
FileInputFormat	-7573
getAbsoluteFile	-7574
IS	-7575
Ta	-7576
EMP	-7577
GRA	-7578
OFF	-7579
ACLS	-7580
Diffs	-7581
GRADE	-7582
NAMES	-7583
bined	-7584
▁MASK	-7585
▁Open	-7586
EndTime	-7587
MAXIMUM	-7588
MapTask	-7589
UPGRADE	-7590
Writing	-7591
getReal	-7592
▁Active	-7593
▁Secret	-7594
CpuUsage	-7595
Distance	-7596
Producer	-7597
addToken	-7598
ancestor	-7599
readFile	-7600
▁webhdfs	-7601
▁LeafQueue	-7602
▁blockInfo	-7603
▁className	-7604
ControlledJob	-7605
MasterService	-7606
▁ConcurrentMap	-7607
fl	-7608
5",	-7609
UMM	-7610
]))	-7611
mgr	-7612
pri	-7613
4");	-7614
_1",	-7615
nego	-7616
rules	-7617
visit	-7618
▁bkjm	-7619
▁join	-7620
agment	-7621
concat	-7622
Fetcher	-7623
Preempt	-7624
baseDir	-7625
dirPath	-7626
▁10000)	-7627
▁author	-7628
▁cookie	-7629
services	-7630
truncate	-7631
▁perform	-7632
▁preserve	-7633
BlockToken	-7634
▁recovered	-7635
addResource	-7636
internalDir	-7637
AppAttemptId	-7638
HealthReport	-7639
----------------	-7640
▁StartContainers	-7641
mt	-7642
ql	-7643
INE	-7644
Spy	-7645
dom	-7646
iip	-7647
Good	-7648
done	-7649
icky	-7650
▁arr	-7651
IDMIX	-7652
attId	-7653
getAnd	-7654
serial	-7655
▁begin	-7656
▁spill	-7657
▁stage	-7658
getBase	-7659
▁Hamlet	-7660
Superuser	-7661
WithQuota	-7662
▁getLocal	-7663
LinkStatus	-7664
YarnClient	-7665
▁JobStatus	-7666
▁Recovered	-7667
▁attemptID	-7668
newNodeInfo	-7669
▁LightWeight	-7670
FaultInjector	-7671
CompressionCodec	-7672
El	-7673
It	-7674
iet	-7675
▁tc	-7676
AGNO	-7677
ETCH	-7678
IDTH	-7679
PROP	-7680
illi	-7681
▁20,	-7682
▁ADD	-7683
delta	-7684
edger	-7685
izing	-7686
lying	-7687
otify	-7688
paths	-7689
AGNOST	-7690
jobconf	-7691
located	-7692
▁COMMIT	-7693
▁Reduce	-7694
QJournal	-7695
Redirect	-7696
supports	-7697
▁getType	-7698
▁XMLUtils	-7699
▁appender	-7700
▁teardown	-7701
References	-7702
getAddress	-7703
▁AclStatus	-7704
▁getFileStatus	-7705
▁locatedBlocks	-7706
setReducerClass	-7707
27	-7708
BC	-7709
+"/	-7710
ATH	-7711
Arr	-7712
RET	-7713
ess	-7714
LONG	-7715
html	-7716
▁seq	-7717
vance	-7718
▁date	-7719
▁home	-7720
Caught	-7721
Thrott	-7722
clared	-7723
getDir	-7724
notify	-7725
select	-7726
REDUCES	-7727
▁getAll	-7728
Finalize	-7729
▁WccData	-7730
AVAILABLE	-7731
Connector	-7732
XmlElement	-7733
▁nmContext	-7734
▁scheduling	-7735
setApplication	-7736
ExceptionHandler	-7737
▁Reconfiguration	-7738
Upp	-7739
Zip	-7740
heh	-7741
top	-7742
(100	-7743
Book	-7744
▁GET	-7745
▁\""	-7746
Upper	-7747
WIDTH	-7748
clock	-7749
fetch	-7750
found	-7751
irror	-7752
press	-7753
▁SEED	-7754
▁expi	-7755
avored	-7756
▁EVENT	-7757
▁apply	-7758
Rolling	-7759
▁HAUtil	-7760
▁aggreg	-7761
▁tracer	-7762
hostName	-7763
▁dataLen	-7764
▁JobEvent	-7765
getTrimmed	-7766
shortDebug	-7767
ImmutableMap	-7768
eventHandler	-7769
▁assertCounter	-7770
PreemptionPolicy	-7771
shortDebugString	-7772
ById	-7773
Role	-7774
WORD	-7775
▁"="	-7776
▁DIV	-7777
SECOND	-7778
preter	-7779
FileCtx	-7780
PERCENT	-7781
Renamed	-7782
▁ensure	-7783
FAILOVER	-7784
Lifeline	-7785
hostname	-7786
DELIMITER	-7787
getGroups	-7788
longValue	-7789
Contiguous	-7790
reemptable	-7791
▁compareTo	-7792
▁nodeLabel	-7793
Allocations	-7794
ReportProto	-7795
ertionError	-7796
getChecksum	-7797
▁InputSplit	-7798
BlackListing	-7799
▁storageInfo	-7800
TransactionId	-7801
getStoragePolicy	-7802
bw	-7803
(){	-7804
(1)	-7805
▁00	-7806
▁81	-7807
Orig	-7808
alias	-7809
clone	-7810
OURNAL	-7811
atched	-7812
▁scope	-7813
MINIMUM	-7814
ToWrite	-7815
results	-7816
started	-7817
testdir	-7818
volumes	-7819
▁Future	-7820
▁obtain	-7821
SERVICES	-7822
beanName	-7823
▁Leveldb	-7824
▁endTime	-7825
▁manager	-7826
▁tEntity	-7827
▁tokenId	-7828
▁userBuf	-7829
Character	-7830
RpcEngine	-7831
attribute	-7832
locations	-7833
JobCounter	-7834
checkpoint	-7835
▁localizer	-7836
▁masterKey	-7837
▁mrCluster	-7838
FsVolumeSpi	-7839
amContainer	-7840
AcrossQueues	-7841
Unsuccessful	-7842
▁directories	-7843
▁storedBlock	-7844
▁serviceStart	-7845
ferredBlockSize	-7846
NativeFileSystem	-7847
▁OutputCollector	-7848
40	-7849
Bu	-7850
ok	-7851
Hex	-7852
ilt	-7853
▁sf	-7854
_1);	-7855
▁fix	-7856
▁sink	-7857
("/");	-7858
...");	-7859
Behind	-7860
SYSTEM	-7861
outDir	-7862
taskID	-7863
InQueue	-7864
▁expiry	-7865
▁packet	-7866
Administ	-7867
BaseTest	-7868
LAUNCHED	-7869
Splitter	-7870
TimeStamp	-7871
▁finalize	-7872
LaunchTime	-7873
MemorySize	-7874
assumeTrue	-7875
description	-7876
▁methodName	-7877
▁valueClass	-7878
Configurator	-7879
EventEmitter	-7880
RetryContext	-7881
▁serviceStop	-7882
ExecutionType	-7883
SplitMetaInfo	-7884
amDiskReplica	-7885
▁filterConfig	-7886
setInputFormat	-7887
▁storagePolicy	-7888
Cli	-7889
Seq	-7890
Utf	-7891
utf	-7892
▁fd	-7893
▁sp	-7894
MULT	-7895
addS	-7896
lied	-7897
▁dob	-7898
Annot	-7899
ENTER	-7900
TOCOL	-7901
TRASH	-7902
expir	-7903
▁Deco	-7904
▁Maps	-7905
tokens	-7906
Weights	-7907
NumberOf	-7908
ReadOnly	-7909
▁elapsed	-7910
OtherInfo	-7911
factories	-7912
heartbeat	-7913
▁"0.0.0.0	-7914
▁entityId	-7915
▁getTotal	-7916
Exclusivity	-7917
getEntities	-7918
getExitCode	-7919
DefaultValue	-7920
getAttribute	-7921
▁serviceInit	-7922
▁startOffset	-7923
saveNamespace	-7924
▁HAServiceState	-7925
▁GetApplications	-7926
0}	-7927
▁AL	-7928
▁sw	-7929
Secs	-7930
▁shm	-7931
("10.	-7932
Build	-7933
Zones	-7934
equal	-7935
▁NULL	-7936
▁safe	-7937
OnExit	-7938
SOURCE	-7939
onclick	-7940
▁Delete	-7941
Combiner	-7942
Killable	-7943
▁checkNN	-7944
▁getTest	-7945
Formatter	-7946
directive	-7947
▁decrease	-7948
ObjectPath	-7949
▁Breakable	-7950
▁assertNot	-7951
▁getClient	-7952
TokenService	-7953
▁RandomDatum	-7954
getLocalBlock	-7955
▁outputStream	-7956
getCanonicalName	-7957
Ns	-7958
22,	-7959
Mer	-7960
stm	-7961
MSEC	-7962
▁200	-7963
▁dom	-7964
▁qjm	-7965
▁tot	-7966
Known	-7967
duces	-7968
Bounds	-7969
Points	-7970
Asserts	-7971
Outputs	-7972
curator	-7973
▁reason	-7974
▁Network	-7975
▁YarnRPC	-7976
▁hasNext	-7977
▁srcPath	-7978
Increment	-7979
getRemote	-7980
▁ClassNot	-7981
▁startOpt	-7982
OnSameRack	-7983
TRANSITION	-7984
TextFormat	-7985
RequestInfo	-7986
▁YarnClient	-7987
▁fileWriter	-7988
RequestInter	-7989
▁ObjectMapper	-7990
▁snapshotRoot	-7991
DocumentBuilder	-7992
▁ResourceHandler	-7993
=,	-7994
gt	-7995
How	-7996
REL	-7997
Try	-7998
dob	-7999
▁8;	-8000
Gzip	-8001
TXID	-8002
orts	-8003
sink	-8004
▁INS	-8005
▁jid	-8006
Mtime	-8007
Story	-8008
UMask	-8009
coded	-8010
-8"));	-8011
addSax	-8012
▁Image	-8013
Produces	-8014
▁Running	-8015
▁Timeout	-8016
▁localFS	-8017
▁numMaps	-8018
▁NodeList	-8019
fileStatus	-8020
▁getConfig	-8021
▁listStatus	-8022
BlockManager	-8023
RelativePart	-8024
addSaxString	-8025
BlockLocation	-8026
OrderingPolicy	-8027
targetTestRoot	-8028
Ok	-8029
Any	-8030
CDF	-8031
isA	-8032
umb	-8033
Driv	-8034
SIST	-8035
asic	-8036
▁dec	-8037
▁rel	-8038
INDEX	-8039
TAREA	-8040
getNM	-8041
▁PATH	-8042
TARGET	-8043
▁attId	-8044
▁chain	-8045
▁which	-8046
blclick	-8047
TEXTAREA	-8048
fromYarn	-8049
listFile	-8050
▁getTask	-8051
IdMapping	-8052
Publisher	-8053
anyString	-8054
getActive	-8055
rincipals	-8056
▁listener	-8057
Exceptions	-8058
NodeAction	-8059
▁createAnd	-8060
ChildQueues	-8061
▁Configured	-8062
Transactions	-8063
▁SharedCache	-8064
BufferedReader	-8065
stateChangeLog	-8066
StartupProgress	-8067
▁pathComponents	-8068
PermissionDenied	-8069
0)	-8070
67	-8071
yy	-8072
6);	-8073
BLK	-8074
abs	-8075
Body	-8076
TENT	-8077
Wrap	-8078
▁vol	-8079
DELAY	-8080
EWORK	-8081
encry	-8082
Depend	-8083
JOURNAL	-8084
onkeyup	-8085
wrapped	-8086
RAMEWORK	-8087
▁archive	-8088
Classpath	-8089
appReport	-8090
isSymlink	-8091
nextBytes	-8092
onkeydown	-8093
onmouseup	-8094
operation	-8095
providers	-8096
serviceId	-8097
streaming	-8098
▁TEXTAREA	-8099
ondblclick	-8100
onkeypress	-8101
onmouseout	-8102
▁collector	-8103
onmousedown	-8104
onmousemove	-8105
onmouseover	-8106
FileChecksum	-8107
▁Decompressor	-8108
▁QueueMetrics	-8109
ProtocolClient	-8110
TaskAttemptImpl	-8111
={	-8112
]+	-8113
ni	-8114
▁X	-8115
Aux	-8116
FIC	-8117
REF	-8118
DIFF	-8119
Mmap	-8120
REMO	-8121
▁Ans	-8122
HANDL	-8123
▁Load	-8124
STANCE	-8125
Worker	-8126
▁Float	-8127
fsCheck	-8128
▁Answer	-8129
▁Buffer	-8130
▁baseDir	-8131
▁skipped	-8132
construct	-8133
▁domainId	-8134
registered	-8135
FSDirectory	-8136
StoredBlock	-8137
WithDefault	-8138
▁testDelete	-8139
▁environment	-8140
▁nodeManager	-8141
▁clientService	-8142
DistributedCache	-8143
Os	-8144
').	-8145
KJM	-8146
▁oc	-8147
fill	-8148
()]);	-8149
Stage	-8150
▁DELE	-8151
▁diffs	-8152
PERSIST	-8153
ToProto	-8154
destroy	-8155
enabled	-8156
▁Signal	-8157
NewBlock	-8158
Original	-8159
fullPath	-8160
metadata	-8161
▁sslConf	-8162
Readahead	-8163
managedAM	-8164
▁numBytes	-8165
getTestDir	-8166
DataManager	-8167
▁Checkpoint	-8168
getEventType	-8169
▁inputStream	-8170
▁ResourceUsage	-8171
▁DeletionService	-8172
:0	-8173
DIS	-8174
Lib	-8175
Hard	-8176
ffic	-8177
▁2),	-8178
▁lbs	-8179
▁ops	-8180
ADATA	-8181
Offer	-8182
Quiet	-8183
SETUP	-8184
cause	-8185
jobID	-8186
▁Supp	-8187
▁fair	-8188
▁getP	-8189
▁leaf	-8190
Ledger	-8191
manage	-8192
getKind	-8193
▁Cached	-8194
localDir	-8195
▁matches	-8196
FileUtils	-8197
getFailed	-8198
getReport	-8199
▁Supplier	-8200
▁localPath	-8201
▁scheduled	-8202
DBException	-8203
DisplayName	-8204
OutOfBounds	-8205
newResource	-8206
Interactions	-8207
claimContext	-8208
▁getEntities	-8209
▁layoutVersion	-8210
getServiceState	-8211
Has	-8212
Low	-8213
cid	-8214
seq	-8215
▁iv	-8216
Cell	-8217
MODE	-8218
▁MIN	-8219
(10);	-8220
DEBUG	-8221
FETCH	-8222
FOUND	-8223
[2]);	-8224
andby	-8225
▁Line	-8226
▁href	-8227
Cluser	-8228
Cookie	-8229
queueA	-8230
▁METHOD	-8231
▁Single	-8232
▁appsIn	-8233
CONSTRUC	-8234
DataSize	-8235
Handling	-8236
keyClass	-8237
PathParam	-8238
createKey	-8239
▁testList	-8240
▁verifyNo	-8241
WriteBatch	-8242
▁opContext	-8243
serviceInit	-8244
▁KeyVersion	-8245
reservationID	-8246
28501754_0001_	-8247
▁ArgumentCaptor	-8248
▁ClusterMetrics	-8249
CluserNodeLabels	-8250
65	-8251
dd	-8252
-20	-8253
▁1*	-8254
▁3)	-8255
▁Op	-8256
Locs	-8257
PRIV	-8258
▁LOC	-8259
▁SSL	-8260
tings	-8261
▁cons	-8262
Backup	-8263
Kbytes	-8264
Search	-8265
getOpt	-8266
▁Range	-8267
▁latch	-8268
Warning	-8269
argThat	-8270
segment	-8271
spector	-8272
▁SELECT	-8273
Download	-8274
complete	-8275
username	-8276
AclStatus	-8277
▁Balancer	-8278
BlockGroup	-8279
▁Authentic	-8280
FileManager	-8281
ServiceAcls	-8282
auseMonitor	-8283
coreSeconds	-8284
▁Statistics	-8285
▁exceptions	-8286
▁interrupted	-8287
ClientProvider	-8288
ReportResponse	-8289
ThrowException	-8290
getRecordFactory	-8291
:15	-8292
Doc	-8293
▁lr	-8294
SPLI	-8295
azon	-8296
_1234	-8297
edged	-8298
ForApp	-8299
Schema	-8300
Static	-8301
▁1000)	-8302
▁Codec	-8303
▁needs	-8304
MAPPING	-8305
Proxies	-8306
missing	-8307
DomainId	-8308
Reported	-8309
existent	-8310
getInput	-8311
getLease	-8312
intValue	-8313
▁testAdd	-8314
▁getState	-8315
▁negative	-8316
▁testRead	-8317
QueryString	-8318
rmContainer	-8319
▁HttpServer	-8320
▁testCoding	-8321
ObjectMapper	-8322
PBImplRecord	-8323
SecurityUtil	-8324
getAuthority	-8325
▁amContainer	-8326
▁assertGauge	-8327
HealthChecker	-8328
RESTConstants	-8329
ChangeListener	-8330
ServerDefaults	-8331
CallbackHandler	-8332
Instrumentation	-8333
waitReplication	-8334
DeletedBlockInfo	-8335
JobStateInternal	-8336
3/	-8337
jo	-8338
)",	-8339
)1,	-8340
1),	-8341
BIT	-8342
CER	-8343
Era	-8344
Too	-8345
[],	-8346
ote	-8347
rew	-8348
HTML	-8349
Join	-8350
SECS	-8351
hash	-8352
ptor	-8353
▁"1.	-8354
▁Big	-8355
Allow	-8356
trash	-8357
REMOVE	-8358
▁START	-8359
▁multi	-8360
RpcKind	-8361
▁enable	-8362
Archives	-8363
Blocking	-8364
Deadline	-8365
multiply	-8366
▁runTool	-8367
listFiles	-8368
FileHandle	-8369
PutResponse	-8370
removeChild	-8371
GroupMapping	-8372
ImmutableSet	-8373
getPartition	-8374
GroupsMapping	-8375
CheckpointTxId	-8376
3(	-8377
ASB	-8378
TOP	-8379
var	-8380
▁"{	-8381
▁Is	-8382
▁SH	-8383
(204	-8384
▁UTF	-8385
▁pub	-8386
istic	-8387
▁2));	-8388
▁Blob	-8389
PREEMP	-8390
getMap	-8391
riable	-8392
stanti	-8393
utDown	-8394
▁FIELD	-8395
getSize	-8396
▁REDUCE	-8397
▁parsed	-8398
PASSWORD	-8399
ATIVETASK	-8400
AttemptID	-8401
▁Injector	-8402
▁ancestor	-8403
Aggregated	-8404
Prevention	-8405
clientName	-8406
▁QueueInfo	-8407
TaskCounter	-8408
FromPrevious	-8409
OptionSwitch	-8410
RecoveryInfo	-8411
addEventInfo	-8412
▁FsDatasetSpi	-8413
▁rmDispatcher	-8414
▁CachePoolInfo	-8415
NetworkTopology	-8416
PendingResource	-8417
▁checkNNStartup	-8418
▁primaryFilters	-8419
PreventionFilter	-8420
MT	-8421
Nm	-8422
2),	-8423
600	-8424
ENV	-8425
Oct	-8426
div	-8427
▁"4	-8428
▁(0	-8429
▁Al	-8430
("/"	-8431
BODY	-8432
Cert	-8433
GSet	-8434
perm	-8435
poll	-8436
sock	-8437
▁CRE	-8438
▁RUN	-8439
▁SUC	-8440
▁_("	-8441
▁ace	-8442
▁dbf	-8443
▁lif	-8444
-2011	-8445
CODEC	-8446
TFile	-8447
etime	-8448
▁0");	-8449
▁FORM	-8450
▁Html	-8451
SIMPLE	-8452
bucket	-8453
izable	-8454
raffic	-8455
▁Error	-8456
▁Utils	-8457
prepare	-8458
▁fcView	-8459
▁weight	-8460
DATANODES	-8461
FINALIZED	-8462
▁transfer	-8463
▁Containers	-8464
▁checkQueue	-8465
OfferService	-8466
getBlockSize	-8467
▁getInstance	-8468
OperationType	-8469
getFSDirectory	-8470
▁RollingUpgrade	-8471
1<	-8472
AHS	-8473
NET	-8474
▁ez	-8475
Txns	-8476
that	-8477
▁VAR	-8478
0000,	-8479
:0");	-8480
Estim	-8481
tfile	-8482
▁inst	-8483
▁unit	-8484
ForPath	-8485
Mutable	-8486
Succeed	-8487
oftware	-8488
▁plugin	-8489
addClass	-8490
numberOf	-8491
▁getMock	-8492
▁sibling	-8493
HeapUsage	-8494
Reentrant	-8495
▁testName	-8496
DefaultAcl	-8497
getRMNodes	-8498
▁components	-8499
WithLocations	-8500
AttemptStateData	-8501
▁ExecutorService	-8502
VM	-8503
gz	-8504
wc	-8505
12,	-8506
KED	-8507
Reb	-8508
ear	-8509
xFF	-8510
▁"7	-8511
iece	-8512
NumOf	-8513
Taken	-8514
aming	-8515
inDir	-8516
▁FINI	-8517
(200);	-8518
Notify	-8519
▁extra	-8520
FsCheck	-8521
HEALTHY	-8522
Lengths	-8523
RunWith	-8524
afeMode	-8525
anoTime	-8526
created	-8527
latform	-8528
KeyField	-8529
NodeName	-8530
NotExist	-8531
copyFrom	-8532
▁account	-8533
srcStatus	-8534
▁schedule	-8535
AuditEvent	-8536
RequestFor	-8537
getChannel	-8538
nnTopology	-8539
▁renewDate	-8540
▁FileAlready	-8541
▁inOrderFsCheck	-8542
2<	-8543
3<	-8544
4<	-8545
5<	-8546
6<	-8547
_"	-8548
AGG	-8549
QJM	-8550
har	-8551
lip	-8552
STRY	-8553
flag	-8554
▁Int	-8555
▁Pro	-8556
GENER	-8557
mDisp	-8558
▁NODE	-8559
▁View	-8560
▁fill	-8561
▁medi	-8562
Lookup	-8563
SHARED	-8564
▁")");	-8565
▁still	-8566
Reverse	-8567
▁Secure	-8568
▁anyInt	-8569
▁custom	-8570
quential	-8571
▁maxSize	-8572
▁runtime	-8573
▁subject	-8574
LogFormat	-8575
▁bytesPer	-8576
AXException	-8577
ManagerImpl	-8578
compression	-8579
createProxy	-8580
getFairShare	-8581
▁InputSource	-8582
▁numDataUnits	-8583
FSEditLogOpCodes	-8584
):	-8585
Pb	-8586
QL	-8587
Dig	-8588
Svc	-8589
Two	-8590
cpu	-8591
▁1]	-8592
("1.	-8593
ATIO	-8594
BIND	-8595
UMMY	-8596
Uber	-8597
POSIX	-8598
Trust	-8599
iform	-8600
oring	-8601
▁HTTP	-8602
▁less	-8603
▁sent	-8604
Region	-8605
▁Audit	-8606
▁nread	-8607
CLUSTER	-8608
FSQueue	-8609
ReadOps	-8610
▁2048);	-8611
▁TestRM	-8612
nanoTime	-8613
▁TreeSet	-8614
▁another	-8615
▁specify	-8616
Committed	-8617
LastBlock	-8618
NodeGroup	-8619
ByteString	-8620
DataLength	-8621
Registered	-8622
▁finalized	-8623
ServiceName	-8624
resolvePath	-8625
▁blockToken	-8626
▁getStorage	-8627
AttemptEvent	-8628
getLocalName	-8629
ResourceTypes	-8630
▁RecordWriter	-8631
▁schedulerApp	-8632
▁testContainer	-8633
StandbyException	-8634
▁fixRelativePart	-8635
*/	-8636
Ha	-8637
fd	-8638
KEE	-8639
ead	-8640
sql	-8641
uar	-8642
zer	-8643
▁1.	-8644
derr	-8645
mort	-8646
rand	-8647
umns	-8648
match	-8649
▁wrap	-8650
KEEPER	-8651
RENAME	-8652
newDir	-8653
plugin	-8654
▁1234,	-8655
▁LOCAL	-8656
INITIAL	-8657
allowed	-8658
ickyBit	-8659
pattern	-8660
▁OUTPUT	-8661
▁vcores	-8662
DiffList	-8663
channels	-8664
stopProxy	-8665
▁assertIn	-8666
getUriPath	-8667
▁AMRMToken	-8668
▁checkPath	-8669
SpanReceiver	-8670
getFSDataset	-8671
ResourceLimits	-8672
▁CompressionType	-8673
8;	-8674
(":	-8675
MET	-8676
VOL	-8677
esc	-8678
jet	-8679
▁6,	-8680
▁dc	-8681
▁dm	-8682
▁{\	-8683
Seen	-8684
afem	-8685
Cause	-8686
RATIO	-8687
clazz	-8688
datum	-8689
getAM	-8690
tname	-8691
upper	-8692
yclic	-8693
ROLLER	-8694
copyOf	-8695
▁""));	-8696
▁Multi	-8697
▁mapId	-8698
CSQueue	-8699
afemode	-8700
getTest	-8701
METADATA	-8702
PoolSize	-8703
▁Matcher	-8704
FRAMEWORK	-8705
JobClient	-8706
NNStorage	-8707
Processed	-8708
▁FIELDSET	-8709
▁numNodes	-8710
Diagnostic	-8711
Invalidate	-8712
Processing	-8713
bufferSize	-8714
getRequest	-8715
setJobName	-8716
▁checkFile	-8717
AsyncLogger	-8718
getEntityId	-8719
▁capacities	-8720
AdminService	-8721
getMasterKey	-8722
▁encountered	-8723
INS	-8724
Mis	-8725
_1_	-8726
1(),	-8727
HITE	-8728
ZKFC	-8729
▁mid	-8730
erson	-8731
linux	-8732
▁CODE	-8733
▁word	-8734
Mkdirs	-8735
signed	-8736
▁1000,	-8737
▁BYTES	-8738
▁saved	-8739
ALLOWED	-8740
JLogger	-8741
MaxApps	-8742
Quietly	-8743
TRACKER	-8744
ournals	-8745
▁FAILED	-8746
▁Parsed	-8747
Negative	-8748
RackName	-8749
launcher	-8750
▁indices	-8751
▁retries	-8752
isStriped	-8753
nodeEvent	-8754
ipherSuite	-8755
▁construct	-8756
BlocksCount	-8757
CONFIGURATION	-8758
QuotaExceeded	-8759
YarnScheduler	-8760
▁InvalidToken	-8761
▁registration	-8762
▁logAuditEvent	-8763
ClientRMService	-8764
DistCpConstants	-8765
GetApplications	-8766
getSnapshotPath	-8767
>"	-8768
Ins	-8769
RAY	-8770
▁Ag	-8771
▁BP	-8772
▁_(	-8773
▁sm	-8774
SORT	-8775
▁own	-8776
PLICA	-8777
WHITE	-8778
creen	-8779
setId	-8780
▁SAMP	-8781
▁fsIn	-8782
▁high	-8783
▁priv	-8784
subsub	-8785
▁CACHE	-8786
▁USAGE	-8787
JobImpl	-8788
portion	-8789
raceful	-8790
▁notify	-8791
▁termin	-8792
increase	-8793
readVInt	-8794
▁120000)	-8795
▁MapFile	-8796
ErrorCode	-8797
getVolume	-8798
linkToDir	-8799
CONTROLLER	-8800
unregister	-8801
getJSONArray	-8802
▁destination	-8803
PolicyProvider	-8804
getFileContext	-8805
AllocateRequest	-8806
▁ReservationList	-8807
▁TestDistCpUtils	-8808
57	-8809
Me	-8810
]*	-8811
tl	-8812
UME	-8813
bay	-8814
era	-8815
▁EM	-8816
Hint	-8817
ined	-8818
lign	-8819
pass	-8820
peer	-8821
summ	-8822
▁rcs	-8823
Flags	-8824
agram	-8825
delet	-8826
ented	-8827
▁page	-8828
escape	-8829
mapper	-8830
parser	-8831
▁stale	-8832
Decimal	-8833
Deleter	-8834
mortbay	-8835
ucceeds	-8836
▁PREFIX	-8837
DiffType	-8838
Handlers	-8839
MetaFile	-8840
WaitTime	-8841
agingDir	-8842
variable	-8843
▁Unknown	-8844
▁getNext	-8845
▁unknown	-8846
Overwrite	-8847
numBlocks	-8848
▁mismatch	-8849
▁reference	-8850
avoredNodes	-8851
TaskAttempts	-8852
SchedulerNode	-8853
▁totalCapacity	-8854
02	-8855
Api	-8856
fos	-8857
sIn	-8858
▁Av	-8859
▁mb	-8860
("--	-8861
<?>>	-8862
URES	-8863
requ	-8864
▁1];	-8865
▁KIL	-8866
ARRAY	-8867
DATAT	-8868
river	-8869
ution	-8870
▁mask	-8871
CallId	-8872
Strict	-8873
▁CHECK	-8874
▁Inode	-8875
▁lower	-8876
▁ratio	-8877
▁xattr	-8878
("\",\"	-8879
ecution	-8880
reduces	-8881
▁Aggreg	-8882
▁Quorum	-8883
▁digest	-8884
▁logDir	-8885
LOCATION	-8886
MapProto	-8887
▁ADDRESS	-8888
▁Rolling	-8889
ValuePair	-8890
▁getBytes	-8891
LogHandler	-8892
createMock	-8893
▁leafQueue	-8894
▁queueConf	-8895
CleanerTask	-8896
getNamenode	-8897
writeUnlock	-8898
DirAllocator	-8899
LinkResolver	-8900
getNamespace	-8901
AclEntryScope	-8902
PathException	-8903
testDirectory	-8904
HandlerContext	-8905
▁healthChecker	-8906
ECReconstruction	-8907
ResourcesTracker	-8908
▁callbackHandler	-8909
*1	-8910
08	-8911
LS	-8912
DNS	-8913
baz	-8914
▁!(	-8915
▁PO	-8916
▁ha	-8917
▁hs	-8918
("{}	-8919
RMDT	-8920
Sent	-8921
Some	-8922
baos	-8923
span	-8924
▁DFN	-8925
▁KBD	-8926
Actor	-8927
CHUNK	-8928
UBLIC	-8929
props	-8930
▁ABBR	-8931
▁CITE	-8932
▁SPAN	-8933
▁able	-8934
OnDisk	-8935
ACLInfo	-8936
CREATED	-8937
Expirer	-8938
Writers	-8939
▁Method	-8940
▁STRONG	-8941
▁getApp	-8942
▁pathTo	-8943
▁anyLong	-8944
▁shouldn	-8945
▁entityTo	-8946
FileWriter	-8947
setRequest	-8948
▁JSONArray	-8949
▁Simulated	-8950
▁createMock	-8951
RunnableApps	-8952
▁SCMUploader	-8953
edBlockingQueue	-8954
MoreInteractions	-8955
StorageException	-8956
03	-8957
8(	-8958
Enc	-8959
▁rs	-8960
5678	-8961
pied	-8962
proc	-8963
zero	-8964
▁0.5	-8965
▁due	-8966
▁lib	-8967
ECTED	-8968
Least	-8969
Words	-8970
sumer	-8971
▁show	-8972
Concat	-8973
Saving	-8974
VOLUME	-8975
getMin	-8976
Delimit	-8977
RMProxy	-8978
elapsed	-8979
runners	-8980
unknown	-8981
▁direct	-8982
▁subdir	-8983
DIAGNOST	-8984
PROTOCOL	-8985
failover	-8986
uplicate	-8987
▁trigger	-8988
WHITELIST	-8989
vmMetrics	-8990
▁testNode	-8991
▁topology	-8992
removeXAttr	-8993
RequestEvent	-8994
NodesResources	-8995
KillApplication	-8996
▁AbstractService	-8997
[(	-8998
cy	-8999
lf	-9000
="+	-9001
▁2*	-9002
▁so	-9003
Decl	-9004
Save	-9005
[2];	-9006
ship	-9007
(0)).	-9008
AGGRE	-9009
RENEW	-9010
Decomp	-9011
INodes	-9012
Shares	-9013
binary	-9014
caught	-9015
▁5000)	-9016
▁estim	-9017
ForUser	-9018
isValid	-9019
▁10000;	-9020
AddBlock	-9021
NonExist	-9022
Settings	-9023
requency	-9024
retrieve	-9025
▁jobName	-9026
GroupName	-9027
ReportStr	-9028
▁endpoint	-9029
LinkTarget	-9030
▁appMaster	-9031
▁corrupted	-9032
▁nodeEvent	-9033
▁otherInfo	-9034
deserialize	-9035
serviceStop	-9036
▁workingDir	-9037
DeletionTask	-9038
FilterConfig	-9039
snapshotRoot	-9040
writeBoolean	-9041
▁IsPreemption	-9042
ContainerEvent	-9043
ProtocolServer	-9044
getTaskAttemptID	-9045
wd	-9046
ALE	-9047
DIV	-9048
RUP	-9049
▁fe	-9050
orig	-9051
▁SET	-9052
▁hsr	-9053
▁rhs	-9054
Abort	-9055
inner	-9056
▁COUN	-9057
▁sdir	-9058
APTION	-9059
Absent	-9060
JobACL	-9061
XATTRS	-9062
htrace	-9063
stored	-9064
PRIVATE	-9065
REFRESH	-9066
MetaData	-9067
location	-9068
userName	-9069
Condition	-9070
PolicyMap	-9071
emptyList	-9072
▁KeyStore	-9073
▁logFiles	-9074
▁minAlloc	-9075
▁oldBlock	-9076
FileLength	-9077
getConnect	-9078
▁different	-9079
▁simulated	-9080
storedBlock	-9081
updateEvent	-9082
▁delegation	-9083
▁expression	-9084
CONSTRUCTION	-9085
decommission	-9086
getBlockPool	-9087
isOnSameRack	-9088
▁fileContext	-9089
▁information	-9090
JHAdminConfig	-9091
PrimaryFilter	-9092
StartContainers	-9093
CGroupController	-9094
NativeCodeLoader	-9095
getLayoutVersion	-9096
-1	-9097
Mb	-9098
RS	-9099
bm	-9100
dt	-9101
fg	-9102
AXB	-9103
RBW	-9104
_00	-9105
(3);	-9106
alle	-9107
dOut	-9108
▁Hel	-9109
QUOTE	-9110
trans	-9111
▁Zlib	-9112
▁blks	-9113
▁evic	-9114
▁rule	-9115
LAUNCH	-9116
MiniMR	-9117
formed	-9118
setOut	-9119
▁calls	-9120
MapFile	-9121
RamDisk	-9122
▁Cancel	-9123
▁Sample	-9124
▁getNew	-9125
▁holder	-9126
▁testUn	-9127
FILENAME	-9128
finalized	-9129
getNumber	-9130
shouldRun	-9131
▁TreePath	-9132
▁resolved	-9133
AUTHORIZED	-9134
MetricsTag	-9135
privileged	-9136
▁numSplits	-9137
AGGREGATION	-9138
storageType	-9139
▁dataBlocks	-9140
▁spyService	-9141
▁testRemove	-9142
ContainersTo	-9143
FsVolumeImpl	-9144
KerberosInfo	-9145
▁ReplicaInfo	-9146
BlockingQueue	-9147
getParentFile	-9148
setAccessible	-9149
▁GetContainer	-9150
▁MutableGauge	-9151
▁defaultValue	-9152
oftwareVersion	-9153
▁secretManager	-9154
StorageLocation	-9155
▁GetTaskAttempt	-9156
MetricsPublisher	-9157
getCanonicalPath	-9158
6-	-9159
ERS	-9160
cls	-9161
▁"(	-9162
Elem	-9163
ider	-9164
ised	-9165
slot	-9166
▁cmp	-9167
▁enc	-9168
▁hal	-9169
Fails	-9170
SHORT	-9171
mtime	-9172
▁Deep	-9173
printf	-9174
window	-9175
▁Tuple	-9176
▁alias	-9177
▁items	-9178
▁reply	-9179
PerRack	-9180
TreeMap	-9181
ificate	-9182
▁setMax	-9183
ToSwitch	-9184
addBlock	-9185
setLevel	-9186
setState	-9187
▁Combine	-9188
▁curator	-9189
▁extract	-9190
DfsClient	-9191
MemKbytes	-9192
getMaster	-9193
▁CAPACITY	-9194
MapAttempt	-9195
ScriptPath	-9196
▁startTxId	-9197
▁outputPath	-9198
QueuingLimit	-9199
getLastINode	-9200
getStorageID	-9201
▁yarnCluster	-9202
▁ImmutableSet	-9203
▁remoteAddress	-9204
DeletionService	-9205
▁localResources	-9206
05	-9207
=[	-9208
jc	-9209
DNs	-9210
REG	-9211
[10	-9212
ymb	-9213
▁->	-9214
▁tm	-9215
Sets	-9216
enDB	-9217
orld	-9218
▁20;	-9219
Items	-9220
fatal	-9221
small	-9222
▁Tool	-9223
▁rDef	-9224
ground	-9225
inimum	-9226
setErr	-9227
▁caller	-9228
▁single	-9229
DrivenDB	-9230
numNodes	-9231
setValue	-9232
▁Expected	-9233
▁numFiles	-9234
▁pipeline	-9235
OutputPath	-9236
StaleNodes	-9237
ersonation	-9238
setStrings	-9239
▁testWrite	-9240
YARNCluster	-9241
getPassword	-9242
setProtocol	-9243
Distribution	-9244
InvalidToken	-9245
setMapOutput	-9246
AUTHORIZATION	-9247
LauncherEvent	-9248
TypeConverter	-9249
setFinishTime	-9250
ToSwitchMapping	-9251
▁SchedulerUtils	-9252
▁appendProperty	-9253
ARD	-9254
ARK	-9255
EED	-9256
OOT	-9257
▁dd	-9258
▁md	-9259
FSET	-9260
ONYM	-9261
OnNn	-9262
RONYM	-9263
iller	-9264
AMInfo	-9265
AndSet	-9266
REMOTE	-9267
orrupt	-9268
▁Clock	-9269
▁Guice	-9270
▁getRM	-9271
▁order	-9272
▁suite	-9273
Scanned	-9274
summary	-9275
▁HttpFS	-9276
▁Parent	-9277
▁chunks	-9278
HOSTNAME	-9279
Scenario	-9280
TempFile	-9281
getXAttr	-9282
setTimes	-9283
▁mockJob	-9284
▁testApp	-9285
DiskError	-9286
ostRecent	-9287
parseFrom	-9288
▁SNAPSHOT	-9289
▁getInput	-9290
▁testDirs	-9291
Processors	-9292
▁CloudBlob	-9293
▁Summation	-9294
▁getLength	-9295
Computation	-9296
MgrDelegate	-9297
▁Compressor	-9298
▁Expression	-9299
▁LogHandler	-9300
▁getEditLog	-9301
NotDirectory	-9302
getTimestamp	-9303
▁InputFormat	-9304
ProtocolProxy	-9305
getCurrentDir	-9306
▁FsVolumeImpl	-9307
SecretProvider	-9308
▁JHAdminConfig	-9309
▁LayoutVersion	-9310
▁MetricsSource	-9311
▁ContainerEvent	-9312
▁DummyHAService	-9313
▁ContainerReport	-9314
▁securityHandler	-9315
68	-9316
aa	-9317
lb	-9318
32,	-9319
LEG	-9320
NEG	-9321
VAR	-9322
anz	-9323
svc	-9324
was	-9325
Anon	-9326
▁rle	-9327
Round	-9328
TxnId	-9329
izers	-9330
phase	-9331
quote	-9332
▁200,	-9333
MULTIP	-9334
OFFSET	-9335
Vcores	-9336
alance	-9337
before	-9338
curren	-9339
▁INODE	-9340
▁sigma	-9341
OPTIONS	-9342
WebHdfs	-9343
keyName	-9344
percent	-9345
▁poolId	-9346
ClientId	-9347
Creating	-9348
▁newPath	-9349
Delimiter	-9350
DistCache	-9351
TaskState	-9352
ToCluster	-9353
WebParams	-9354
getByName	-9355
▁Verifier	-9356
▁dfsAdmin	-9357
▁mockTask	-9358
Additional	-9359
▁InodeTree	-9360
▁threshold	-9361
VersionInfo	-9362
▁NodeLabels	-9363
▁blockGroup	-9364
▁pathString	-9365
HttpResponse	-9366
serviceStart	-9367
▁checkAccess	-9368
▁successfully	-9369
ParseException	-9370
▁MetricsSystem	-9371
setOutputFormat	-9372
▁getReservation	-9373
FinishingMonitor	-9374
▁OutputCommitter	-9375
CA	-9376
lr	-9377
"},	-9378
Har	-9379
vok	-9380
▁8)	-9381
arsh	-9382
▁"</	-9383
ABLES	-9384
FORCE	-9385
UMASK	-9386
Watch	-9387
ively	-9388
▁Peer	-9389
▁snap	-9390
ARATOR	-9391
SCHEDU	-9392
latest	-9393
option	-9394
▁abort	-9395
Removal	-9396
Updates	-9397
listing	-9398
▁RANDOM	-9399
▁global	-9400
▁needed	-9401
NativeIO	-9402
callback	-9403
ingBlock	-9404
▁standby	-9405
SCRIPTION	-9406
WithCount	-9407
getPolicy	-9408
setQueues	-9409
▁metaFile	-9410
entityType	-9411
getLocalFS	-9412
newHashMap	-9413
HeaderProto	-9414
MapAttempts	-9415
CheckpointID	-9416
getParameter	-9417
AtomicInteger	-9418
HistoryWriter	-9419
▁TupleWritable	-9420
getInternalState	-9421
▁delegationToken	-9422
▁startupProgress	-9423
01	-9424
=5	-9425
IV	-9426
OO	-9427
gy	-9428
ICS	-9429
IMP	-9430
TTL	-9431
ids	-9432
tis	-9433
▁li	-9434
LAST	-9435
MARY	-9436
disk	-9437
resp	-9438
▁BDO	-9439
▁inf	-9440
acing	-9441
allel	-9442
clean	-9443
ymbol	-9444
▁many	-9445
▁nnId	-9446
inputs	-9447
search	-9448
▁width	-9449
CONTENT	-9450
DataDir	-9451
InodeId	-9452
rootDir	-9453
Validity	-9454
addGauge	-9455
memLimit	-9456
▁jobFile	-9457
▁newNode	-9458
▁numDirs	-9459
▁section	-9460
Histogram	-9461
▁fileType	-9462
▁verifier	-9463
scriptFile	-9464
QLException	-9465
getElements	-9466
getXferAddr	-9467
▁delService	-9468
▁FSLeafQueue	-9469
▁chosenNodes	-9470
DeletedBlocks	-9471
▁ResourceInfo	-9472
▁getStartTime	-9473
▁DistCpOptions	-9474
▁RMAuditLogger	-9475
DelegationTokens	-9476
HttpFSFileSystem	-9477
▁ClientRMService	-9478
';	-9479
)\	-9480
10,	-9481
11,	-9482
1_0	-9483
Are	-9484
Umb	-9485
ris	-9486
▁bb	-9487
Find	-9488
KEYS	-9489
blue	-9490
ceed	-9491
hest	-9492
tags	-9493
▁kdc	-9494
ITIES	-9495
KEYIN	-9496
Manip	-9497
Realm	-9498
Right	-9499
after	-9500
gener	-9501
▁diag	-9502
▁kind	-9503
▁sign	-9504
Matrix	-9505
Queued	-9506
ighest	-9507
lected	-9508
outStr	-9509
suffix	-9510
▁"*");	-9511
Chunked	-9512
Readers	-9513
▁trying	-9514
Standard	-9515
▁fsimage	-9516
Umbilical	-9517
blockFile	-9518
getSplits	-9519
normalize	-9520
▁CELLSIZE	-9521
▁creating	-9522
▁inFormat	-9523
▁redirect	-9524
▁resolver	-9525
▁taskInfo	-9526
DFSStriped	-9527
NodeStatus	-9528
nodeLabels	-9529
properties	-9530
toInstance	-9531
▁CodecPool	-9532
▁authentic	-9533
▁blockPool	-9534
ImageViewer	-9535
▁numThreads	-9536
BuildVersion	-9537
yclicBarrier	-9538
▁WebAppUtils	-9539
▁trackingUrl	-9540
ContainerInfo	-9541
PlacementRule	-9542
getDatanodeId	-9543
taskAttemptId	-9544
▁FSAppAttempt	-9545
HdfsFileStatus	-9546
▁OptionBuilder	-9547
▁nodeHeartbeat	-9548
▁taskAttemptId	-9549
WithQuotaFeature	-9550
▁NetworkTopology	-9551
▁RMNodeEventType	-9552
▁instrumentation	-9553
CY	-9554
EF	-9555
JT	-9556
ph	-9557
",\	-9558
(0*	-9559
BID	-9560
Ipc	-9561
Rel	-9562
Xmx	-9563
crc	-9564
▁*/	-9565
();)	-9566
FORE	-9567
Free	-9568
RUPT	-9569
_8);	-9570
anza	-9571
ibly	-9572
ning	-9573
▁Dir	-9574
▁kms	-9575
Ident	-9576
enter	-9577
▁RACK	-9578
▁tool	-9579
(",");	-9580
BIDDEN	-9581
Modify	-9582
Trying	-9583
ignore	-9584
Backoff	-9585
Caching	-9586
ConfKey	-9587
▁Second	-9588
▁period	-9589
Follower	-9590
Material	-9591
Physical	-9592
PutError	-9593
exitCode	-9594
fileSize	-9595
getCodec	-9596
▁getLong	-9597
AndVerify	-9598
Benchmark	-9599
Localized	-9600
RESOURCES	-9601
SplitSize	-9602
secondary	-9603
▁Capacity	-9604
▁lifeline	-9605
▁planName	-9606
isComplete	-9607
▁namenodes	-9608
▁waitCount	-9609
FailedEvent	-9610
ReportEntry	-9611
Configurable	-9612
HealthScript	-9613
▁BlockReport	-9614
▁verifyPaths	-9615
ExitException	-9616
getEntityType	-9617
▁ImmutableMap	-9618
▁assertResult	-9619
▁logRetryCache	-9620
CompressionType	-9621
DFSOutputStream	-9622
startLogSegment	-9623
▁BufferedWriter	-9624
getErasureCoding	-9625
getUsedResources	-9626
▁DiffReportEntry	-9627
▁FSImageTestUtil	-9628
▁RemoteException	-9629
(;	-9630
=",	-9631
ANA	-9632
THO	-9633
Tcp	-9634
[];	-9635
_2,	-9636
▁BR	-9637
▁ra	-9638
Summ	-9639
uman	-9640
▁"[-	-9641
▁ack	-9642
Large	-9643
ecome	-9644
licit	-9645
▁20);	-9646
▁Meta	-9647
▁getC	-9648
Called	-9649
▁title	-9650
DirName	-9651
ViaLink	-9652
getPool	-9653
ierarch	-9654
isTrace	-9655
▁Groups	-9656
▁NoSuch	-9657
▁Report	-9658
▁ticket	-9659
Rebooted	-9660
declared	-9661
▁Machine	-9662
▁combine	-9663
Corrupted	-9664
▁disabled	-9665
Annotation	-9666
JobPriority	-9667
Termination	-9668
▁PathFilter	-9669
▁testSingle	-9670
ServiceActor	-9671
ShutdownHook	-9672
getAMRMToken	-9673
▁APPLICATION	-9674
▁StorageInfo	-9675
▁WebAppTests	-9676
▁bytesWritten	-9677
SchedulingInfo	-9678
isTraceEnabled	-9679
getINodesInPath	-9680
incrementAndGet	-9681
▁AuditConstants	-9682
modifyAclEntries	-9683
6;	-9684
>.	-9685
RF	-9686
200	-9687
>";	-9688
LEA	-9689
dev	-9690
ham	-9691
ont	-9692
pop	-9693
▁(1	-9694
▁50	-9695
▁LI	-9696
▁Po	-9697
EOpt	-9698
firm	-9699
oted	-9700
("/",	-9701
(2)).	-9702
Since	-9703
crest	-9704
stand	-9705
▁ROOT	-9706
▁This	-9707
▁rate	-9708
▁sums	-9709
Inodes	-9710
toYarn	-9711
▁logFD	-9712
ForApps	-9713
Offline	-9714
ThanOne	-9715
example	-9716
scanner	-9717
updated	-9718
▁loader	-9719
EditsDir	-9720
hamcrest	-9721
▁closing	-9722
▁inodeId	-9723
▁outFile	-9724
BlackList	-9725
BlocksMap	-9726
ByTagName	-9727
FORBIDDEN	-9728
HAEnabled	-9729
Namenodes	-9730
className	-9731
umbilical	-9732
▁Metadata	-9733
▁Whitebox	-9734
▁dataSize	-9735
ColumnName	-9736
PathFilter	-9737
lineFormat	-9738
▁Histogram	-9739
Manipulator	-9740
containsAll	-9741
▁RunningJob	-9742
▁TaskStatus	-9743
▁assertPath	-9744
ProtocolInfo	-9745
enableFuture	-9746
▁currentUser	-9747
DFSUtilClient	-9748
layoutVersion	-9749
▁attemptState	-9750
GetTaskAttempt	-9751
getAppsInQueue	-9752
ProtocolService	-9753
getFileChecksum	-9754
xx	-9755
++,	-9756
TAG	-9757
Var	-9758
YNC	-9759
sig	-9760
▁LA	-9761
CELL	-9762
LIVE	-9763
iggy	-9764
raph	-9765
show	-9766
srcs	-9767
▁New	-9768
▁SER	-9769
AttId	-9770
Extra	-9771
SMALL	-9772
abort	-9773
▁help	-9774
()[0];	-9775
ACTION	-9776
Assume	-9777
Intern	-9778
Joiner	-9779
Nested	-9780
Signer	-9781
digest	-9782
▁epoch	-9783
▁xAttr	-9784
ArgName	-9785
Latency	-9786
Logging	-9787
MemInfo	-9788
imulate	-9789
▁Volume	-9790
Function	-9791
▁matched	-9792
▁pathStr	-9793
Aggregate	-9794
AndDelete	-9795
Succeeded	-9796
▁Contract	-9797
▁fileList	-9798
▁segments	-9799
DATATABLES	-9800
RootLogDir	-9801
compatible	-9802
▁Temporary	-9803
▁serialize	-9804
DelimitedTo	-9805
MaxPriority	-9806
izedReplica	-9807
▁Credential	-9808
▁dataBlkNum	-9809
▁processing	-9810
▁startIndex	-9811
▁targetPath	-9812
Progressable	-9813
isInSafeMode	-9814
▁Deprecation	-9815
▁processTree	-9816
▁testInvalid	-9817
MetricsRecord	-9818
ResolveResult	-9819
▁containerIds	-9820
MachineFactory	-9821
▁ServiceRecord	-9822
▁INodeReference	-9823
ServletException	-9824
8.	-9825
CC	-9826
Cnt	-9827
UMN	-9828
por	-9829
▁"5	-9830
▁DO	-9831
▁HS	-9832
KIND	-9833
Then	-9834
hile	-9835
▁Har	-9836
LogFD	-9837
MLINK	-9838
SWIFT	-9839
▁some	-9840
BACKUP	-9841
COLUMN	-9842
Caller	-9843
SECRET	-9844
Writes	-9845
inUser	-9846
▁again	-9847
▁jobid	-9848
▁pairs	-9849
▁perms	-9850
▁prime	-9851
Average	-9852
DELETED	-9853
Inequal	-9854
Objects	-9855
STOPPED	-9856
STRIPED	-9857
Through	-9858
Watcher	-9859
capture	-9860
getDecl	-9861
related	-9862
setLast	-9863
▁CREATE	-9864
Interner	-9865
currency	-9866
getQuota	-9867
setQueue	-9868
▁fsState	-9869
▁testing	-9870
▁wrapped	-9871
CLASSPATH	-9872
StartFile	-9873
ZooKeeper	-9874
portional	-9875
ropBehind	-9876
setLength	-9877
Inequality	-9878
appContext	-9879
▁parameter	-9880
COMPRESSION	-9881
Destination	-9882
ParentQueue	-9883
getFullPath	-9884
BeingWritten	-9885
NonRecursive	-9886
ReplicaState	-9887
setStartTime	-9888
▁transaction	-9889
NodesToLabels	-9890
getIdentifier	-9891
reservationId	-9892
▁StringWriter	-9893
▁spyRMContext	-9894
getStorageType	-9895
▁TimelineEvent	-9896
ResourceTracker	-9897
writeDelimitedTo	-9898
2\	-9899
WT	-9900
()[	-9901
7);	-9902
FTP	-9903
Grp	-9904
[0-	-9905
ady	-9906
▁"0	-9907
▁).	-9908
Plus	-9909
TIES	-9910
_200	-9911
keys	-9912
peat	-9913
priv	-9914
tree	-9915
▁1",	-9916
▁50,	-9917
About	-9918
inder	-9919
▁BASE	-9920
TimeMs	-9921
ackage	-9922
atures	-9923
change	-9924
events	-9925
metric	-9926
params	-9927
runner	-9928
▁Lease	-9929
▁avoid	-9930
▁testS	-9931
ragment	-9932
testing	-9933
▁banner	-9934
▁remain	-9935
IfAbsent	-9936
SHUTDOWN	-9937
examples	-9938
▁nameDir	-9939
▁renamed	-9940
Different	-9941
FINISHING	-9942
assertNot	-9943
bytesRead	-9944
▁Increase	-9945
▁toNodeId	-9946
SnapshotOp	-9947
▁readahead	-9948
LimitFactor	-9949
setPriority	-9950
▁Unreliable	-9951
▁candidates	-9952
NodeToLabels	-9953
getFinalized	-9954
getNodeLabel	-9955
hasWriteLock	-9956
Impersonation	-9957
▁numDatanodes	-9958
▁"127.0.0.1");	-9959
AbstractService	-9960
▁DeepInequality	-9961
▁MockFileSystem	-9962
RedundancyBlocks	-9963
!=	-9964
31	-9965
CD	-9966
Fc	-9967
(2*	-9968
ASS	-9969
Avg	-9970
▁uc	-9971
▁ul	-9972
:15:	-9973
SYNC	-9974
ZONE	-9975
[0])	-9976
avor	-9977
lend	-9978
▁dos	-9979
▁iug	-9980
▁lhs	-9981
▁{"-	-9982
UNDER	-9983
\":\"	-9984
chmod	-9985
getNN	-9986
teady	-9987
▁bits	-9988
▁fout	-9989
invoke	-9990
opping	-9991
▁media	-9992
Filters	-9993
GRIDMIX	-9994
Loggers	-9995
Tracked	-9996
circuit	-9997
tokenId	-9998
AndCheck	-9999
Boundary	-10000
FAILURES	-10001
Lifetime	-10002
Suffixes	-10003
entities	-10004
imulator	-10005
▁rmState	-10006
▁working	-10007
BlockFile	-10008
▁VALUEOUT	-10009
▁filtered	-10010
▁fsTarget	-10011
▁rackName	-10012
AddedEvent	-10013
Heartbeats	-10014
formatLine	-10015
▁FileSplit	-10016
▁MapOutput	-10017
▁calculate	-10018
▁eventInfo	-10019
counterName	-10020
sharedcache	-10021
▁JobContext	-10022
HistoryEvent	-10023
SnapshotPath	-10024
▁unavailable	-10025
ContainerLogs	-10026
▁locatedBlock	-10027
INodeReference	-10028
Reconfigurable	-10029
▁TaskEventType	-10030
▁AssertionError	-10031
BasedProcessTree	-10032
setApplicationId	-10033
targetFileSystem	-10034
(.	-10035
(_	-10036
46	-10037
Br	-10038
CR	-10039
iq	-10040
nr	-10041
032	-10042
Big	-10043
DIT	-10044
LEn	-10045
jid	-10046
▁DT	-10047
▁HE	-10048
▁NS	-10049
▁TR	-10050
▁rt	-10051
221.	-10052
CORD	-10053
HELL	-10054
Idle	-10055
SEED	-10056
tick	-10057
utes	-10058
▁...	-10059
▁CUR	-10060
▁eof	-10061
▁inc	-10062
Aware	-10063
TASKS	-10064
setUp	-10065
vided	-10066
▁Find	-10067
▁Gzip	-10068
▁retv	-10069
▁rmDT	-10070
MRApps	-10071
modifi	-10072
AppInfo	-10073
ordinal	-10074
▁logged	-10075
GENERATE	-10076
alformed	-10077
appState	-10078
getCount	-10079
iggyBack	-10080
▁jobInfo	-10081
InService	-10082
countDown	-10083
getSource	-10084
getTarget	-10085
▁DFSAdmin	-10086
▁QueueACL	-10087
▁download	-10088
▁referred	-10089
allocation	-10090
preemption	-10091
▁keyLength	-10092
▁qualified	-10093
setEntityId	-10094
▁CreateOpts	-10095
▁RawErasure	-10096
▁byteBuffer	-10097
PerPartition	-10098
Successfully	-10099
▁ClassLoader	-10100
▁DataTransfer	-10101
▁TestProtocol	-10102
▁monotonicNow	-10103
EncryptionInfo	-10104
▁snapshottable	-10105
AccessException	-10106
▁TimelineDomain	-10107
▁verifyChecksum	-10108
ContainerIdProto	-10109
getReservationId	-10110
▁KillApplication	-10111
KB	-10112
EXP	-10113
ILI	-10114
ROL	-10115
Tab	-10116
ank	-10117
▁"2	-10118
▁|=	-10119
3"),	-10120
ANGE	-10121
FIER	-10122
Mask	-10123
goti	-10124
ytes	-10125
▁its	-10126
))));	-10127
Chars	-10128
Parts	-10129
fence	-10130
getIs	-10131
trust	-10132
(1234,	-10133
Levels	-10134
Ranges	-10135
Sender	-10136
▁"]");	-10137
▁Merge	-10138
▁Trace	-10139
▁clone	-10140
PerFile	-10141
Setting	-10142
etailed	-10143
failure	-10144
setPath	-10145
toShort	-10146
upgrade	-10147
▁subDir	-10148
Consumer	-10149
Iterable	-10150
stClient	-10151
▁Dynamic	-10152
▁ECChunk	-10153
▁WebHdfs	-10154
▁dataDir	-10155
HexString	-10156
BlockCount	-10157
comparator	-10158
invocation	-10159
snapshotId	-10160
▁Committer	-10161
▁amrmToken	-10162
▁testNodes	-10163
DIAGNOSTICS	-10164
EscapeUtils	-10165
Interceptor	-10166
▁CacheEntry	-10167
▁nodeStatus	-10168
▁storageIDs	-10169
AclEntryType	-10170
DataStreamer	-10171
▁CommandLine	-10172
getSubmitTime	-10173
▁CounterGroup	-10174
▁verifyEntity	-10175
getHeaderField	-10176
getNodeManager	-10177
▁FSImageFormat	-10178
NameNodeDirType	-10179
YarnApplication	-10180
AuthenticatedURL	-10181
▁resourceTracker	-10182
":	-10183
ced	-10184
iss	-10185
▁Hs	-10186
▁LO	-10187
▁TD	-10188
etwe	-10189
late	-10190
ount	-10191
▁256	-10192
3"));	-10193
Addrs	-10194
cTime	-10195
throw	-10196
▁free	-10197
▁tail	-10198
Couldn	-10199
etween	-10200
getPro	-10201
lendar	-10202
logDir	-10203
▁newGS	-10204
cessary	-10205
doThrow	-10206
gnoring	-10207
removed	-10208
sertion	-10209
▁adjust	-10210
▁taskid	-10211
REGISTRY	-10212
ToDelete	-10213
Variable	-10214
getDiffs	-10215
getUnder	-10216
▁READDIR	-10217
▁Segment	-10218
▁TestCase	-10219
addCounter	-10220
alSecurity	-10221
▁arguments	-10222
PreviousDir	-10223
RunningApps	-10224
▁TaskReport	-10225
▁TestProtos	-10226
▁submitTime	-10227
adminService	-10228
minResources	-10229
refreshNodes	-10230
registration	-10231
▁blockReport	-10232
AbstractMetric	-10233
▁getDiagnostics	-10234
KMSRESTConstants	-10235
▁AsyncDispatcher	-10236
▁queueCapacities	-10237
+1	-10238
BB	-10239
HM	-10240
LV	-10241
▁O	-10242
56,	-10243
FAT	-10244
Pri	-10245
QUI	-10246
ush	-10247
who	-10248
▁/*	-10249
▁BU	-10250
▁bn	-10251
Avro	-10252
Gang	-10253
Qual	-10254
good	-10255
("*",	-10256
crete	-10257
itSet	-10258
liest	-10259
tison	-10260
▁good	-10261
▁puts	-10262
()[0].	-10263
AtMost	-10264
BEFORE	-10265
Decomm	-10266
Multip	-10267
PUBLIC	-10268
UPLOAD	-10269
secure	-10270
xAttrs	-10271
▁ALLOC	-10272
▁isDir	-10273
▁milli	-10274
▁nRead	-10275
WRITTEN	-10276
dataDir	-10277
getMeta	-10278
ilities	-10279
startup	-10280
▁denied	-10281
=300000)	-10282
AppState	-10283
WriteOps	-10284
ingleton	-10285
jettison	-10286
reporter	-10287
▁destroy	-10288
▁primary	-10289
▁reducer	-10290
BlockBlob	-10291
Formatted	-10292
WriteFile	-10293
ationTime	-10294
▁Received	-10295
▁queueMgr	-10296
COMPARATOR	-10297
CONTAINERS	-10298
ConfigFile	-10299
HdfsProtos	-10300
SSLFactory	-10301
modifiable	-10302
replaceAll	-10303
rossOrigin	-10304
▁component	-10305
NameDfsDirs	-10306
readBoolean	-10307
▁httpServer	-10308
▁getDatanode	-10309
▁writeUnlock	-10310
MessageFormat	-10311
StorageReport	-10312
remainingPath	-10313
▁AclException	-10314
▁FSPermission	-10315
RelativeExpiry	-10316
getTrackingUrl	-10317
▁ThreadFactory	-10318
▁getContainers	-10319
NativeCodeLoaded	-10320
ReplicatedBlocks	-10321
▁theRecordWriter	-10322
4_	-10323
84	-10324
df	-10325
ev	-10326
nb	-10327
sw	-10328
Rbw	-10329
Unt	-10330
Win	-10331
▁</	-10332
▁?>	-10333
▁RS	-10334
LINK	-10335
Unix	-10336
extr	-10337
▁DOT	-10338
▁dns	-10339
▁jce	-10340
▁two	-10341
▁}).	-10342
(100,	-10343
ANCER	-10344
Acked	-10345
jobid	-10346
▁Hash	-10347
MapRed	-10348
Normal	-10349
RECORD	-10350
button	-10351
expiry	-10352
logger	-10353
opCode	-10354
▁!!!",	-10355
▁XATTR	-10356
(2000);	-10357
CEPTION	-10358
combine	-10359
reducer	-10360
▁getKey	-10361
▁states	-10362
TaskInfo	-10363
listener	-10364
preserve	-10365
tracking	-10366
▁Attempt	-10367
▁RUNNING	-10368
▁parsing	-10369
▁sources	-10370
ClassPath	-10371
RMAppImpl	-10372
▁dataNode	-10373
PREEMPTION	-10374
RawEncoder	-10375
RpcService	-10376
▁checkOpen	-10377
▁jobStatus	-10378
MaxCapacity	-10379
getHeadroom	-10380
▁assertAuth	-10381
▁currentKey	-10382
▁serializer	-10383
▁unreliable	-10384
FsDatasetSpi	-10385
PoolExecutor	-10386
RemovedEvent	-10387
StorageInfos	-10388
UNAUTHORIZED	-10389
storageTypes	-10390
▁getCapacity	-10391
EditLogManifest	-10392
▁contentHandler	-10393
DataOutputBuffer	-10394
RMAppAttemptImpl	-10395
newApplicationId	-10396
▁MetricsRegistry	-10397
1"	-10398
5_	-10399
Hy	-10400
MG	-10401
PU	-10402
DOT	-10403
SIG	-10404
▁bc	-10405
("\\	-10406
ITOR	-10407
aver	-10408
site	-10409
Basic	-10410
Built	-10411
SHELL	-10412
_8));	-10413
jetty	-10414
order	-10415
▁BKJM	-10416
(2048,	-10417
*1024;	-10418
PARENT	-10419
addKey	-10420
runJob	-10421
▁nnRpc	-10422
Fencing	-10423
JobName	-10424
Proxied	-10425
inodeId	-10426
latency	-10427
parsers	-10428
setSize	-10429
▁decomm	-10430
▁dnConf	-10431
KEYSTORE	-10432
duration	-10433
getNodes	-10434
topology	-10435
▁VALUEIN	-10436
▁logFile	-10437
▁persist	-10438
▁stopped	-10439
OpCounter	-10440
Streaming	-10441
datanodes	-10442
localPath	-10443
▁baseDirs	-10444
▁checkAnd	-10445
StateProto	-10446
ortedBlock	-10447
▁FileUtils	-10448
▁HtmlBlock	-10449
▁SortedMap	-10450
▁classpath	-10451
SCMUploader	-10452
getMaterial	-10453
DoesNotExist	-10454
applications	-10455
doCheckpoint	-10456
getLoginUser	-10457
▁containerID	-10458
▁historyFile	-10459
▁keyProvider	-10460
UpdateRequest	-10461
getSocketAddr	-10462
setEntityType	-10463
▁INodeSection	-10464
▁SAXException	-10465
▁sysOutStream	-10466
iformInterface	-10467
ControlledClock	-10468
getCurrentValue	-10469
resourceManager	-10470
rossOriginFilter	-10471
▁ResourceTracker	-10472
._	-10473
BA	-10474
Ec	-10475
()+	-10476
31,	-10477
GER	-10478
Pid	-10479
Rol	-10480
_2.	-10481
aws	-10482
jvm	-10483
▁30	-10484
▁DD	-10485
Main	-10486
Pipe	-10487
ribe	-10488
▁EOF	-10489
▁fin	-10490
▁ips	-10491
."));	-10492
STALE	-10493
encer	-10494
ender	-10495
https	-10496
olded	-10497
▁0.00	-10498
▁poll	-10499
▁warn	-10500
CGROUP	-10501
FileId	-10502
PRESER	-10503
SECURE	-10504
Spaces	-10505
riping	-10506
Nothing	-10507
charset	-10508
leveldb	-10509
limiter	-10510
▁OPTION	-10511
▁Submit	-10512
BALANCER	-10513
BlockNum	-10514
IfNeeded	-10515
ToSimple	-10516
testRoot	-10517
▁COUNTER	-10518
▁SubView	-10519
▁getting	-10520
▁pidFile	-10521
▁println	-10522
EditsDirs	-10523
EmptyFile	-10524
getXmlInt	-10525
ithreaded	-10526
Delegation	-10527
asReadOnly	-10528
testFolder	-10529
▁normalize	-10530
▁rmService	-10531
dirsHandler	-10532
▁ObjectName	-10533
▁anchorText	-10534
CommandProto	-10535
deleteOnExit	-10536
oldedTreeSet	-10537
▁HttpOpParam	-10538
EmulationUtil	-10539
ReduceAttempt	-10540
YarnWebParams	-10541
LinuxContainer	-10542
StandbyElector	-10543
getRMContainer	-10544
LocalizationSpec	-10545
ReservationQueue	-10546
YarnServerCommon	-10547
58	-10548
Bp	-10549
CI	-10550
SD	-10551
TC	-10552
_;	-10553
dm	-10554
3";	-10555
JWT	-10556
]).	-10557
cum	-10558
hot	-10559
rel	-10560
▁6;	-10561
2.3.	-10562
AndC	-10563
Auto	-10564
COMM	-10565
Leaf	-10566
Vmem	-10567
[3];	-10568
atis	-10569
avro	-10570
only	-10571
▁16;	-10572
▁Aux	-10573
▁NOT	-10574
▁Utf	-10575
▁aux	-10576
LEAVE	-10577
LINUX	-10578
OpDir	-10579
REALM	-10580
TIMES	-10581
hsync	-10582
lines	-10583
range	-10584
▁Spec	-10585
▁getS	-10586
arizer	-10587
mockfs	-10588
rinter	-10589
▁Align	-10590
▁could	-10591
▁there	-10592
COMMAND	-10593
Namesys	-10594
Secrets	-10595
maximum	-10596
reports	-10597
setSeed	-10598
▁cipher	-10599
▁common	-10600
▁retVal	-10601
Election	-10602
EntryKey	-10603
servable	-10604
textarea	-10605
▁disable	-10606
▁fsImage	-10607
▁logDirs	-10608
▁network	-10609
▁present	-10610
AppReport	-10611
KeepAlive	-10612
TimerTask	-10613
anyObject	-10614
groupName	-10615
proxyuser	-10616
▁doAsUser	-10617
▁fallback	-10618
▁modified	-10619
▁aclEntries	-10620
▁nodeUpdate	-10621
▁thenReturn	-10622
LabelsToNode	-10623
▁aclsManager	-10624
▁createInput	-10625
▁testRootDir	-10626
HomeDirectory	-10627
ResourceLimit	-10628
▁Configurable	-10629
▁FileChecksum	-10630
▁erasedIndexes	-10631
SocketDirectory	-10632
TextOutputFormat	-10633
▁AtomicReference	-10634
5(	-10635
gd	-10636
>("	-10637
ACY	-10638
ARG	-10639
CAL	-10640
CES	-10641
JHS	-10642
PAC	-10643
Rss	-10644
[].	-10645
dec	-10646
ets	-10647
(3).	-10648
CSRF	-10649
_0";	-10650
calc	-10651
▁Put	-10652
▁raf	-10653
▁tri	-10654
▁{},	-10655
03250	-10656
ORTED	-10657
appen	-10658
atime	-10659
parts	-10660
▁cont	-10661
▁remo	-10662
AtTime	-10663
Inited	-10664
SPECUL	-10665
abytes	-10666
mplate	-10667
ookies	-10668
static	-10669
ulated	-10670
▁Inter	-10671
▁large	-10672
Curator	-10673
Library	-10674
Sampler	-10675
▁Tracer	-10676
▁daemon	-10677
▁opCode	-10678
03250600	-10679
ClassNot	-10680
contents	-10681
sCounter	-10682
transfer	-10683
▁RMState	-10684
▁newConf	-10685
Enclosing	-10686
StopWatch	-10687
▁Charsets	-10688
▁multiple	-10689
▁writable	-10690
BadRecords	-10691
ENCRYPTION	-10692
SCHEDULING	-10693
anchorText	-10694
getTagName	-10695
▁EventType	-10696
▁groupname	-10697
BLOCKREPORT	-10698
WithRetries	-10699
antResource	-10700
getPosition	-10701
getRealUser	-10702
▁addService	-10703
▁maxRetries	-10704
ConfigOption	-10705
NodeManagers	-10706
▁JobPriority	-10707
▁OpenFileCtx	-10708
OptionsParser	-10709
ShuffleHeader	-10710
WrappedStream	-10711
▁favoredNodes	-10712
FileDescriptor	-10713
MetricsAsserts	-10714
RemoteIterator	-10715
addKeySuffixes	-10716
▁RawComparator	-10717
▁taskAttemptID	-10718
▁getContainerId	-10719
KeyValueIterator	-10720
▁createContainer	-10721
5;	-10722
=12	-10723
AAS	-10724
DOC	-10725
dns	-10726
▁"6	-10727
-");	-10728
Defs	-10729
PROC	-10730
ULAR	-10731
flip	-10732
lies	-10733
locs	-10734
▁jas	-10735
▁rnd	-10736
▁zkc	-10737
Cycle	-10738
batch	-10739
ucers	-10740
▁auto	-10741
▁hand	-10742
▁into	-10743
During	-10744
EVENTS	-10745
getRpc	-10746
getenv	-10747
▁MBean	-10748
▁TFile	-10749
▁touch	-10750
Execute	-10751
FsShell	-10752
IndexOf	-10753
MONITOR	-10754
anyLong	-10755
symlink	-10756
▁docker	-10757
▁follow	-10758
▁manage	-10759
Supplier	-10760
ToRemove	-10761
assigned	-10762
rawcoder	-10763
▁testdir	-10764
OpDirAttr	-10765
ProxiedFS	-10766
▁TaskInfo	-10767
▁accepted	-10768
▁contract	-10769
▁jobToken	-10770
ReduceTask	-10771
getNMToken	-10772
▁MRAppWith	-10773
▁encrypted	-10774
▁outStream	-10775
CopyListing	-10776
credentials	-10777
▁CreateFlag	-10778
▁reduceTask	-10779
getRemaining	-10780
▁deserialize	-10781
▁retryPolicy	-10782
FifoScheduler	-10783
LocalPathInfo	-10784
▁reduceOutput	-10785
▁FsDatasetImpl	-10786
▁relatedEntity	-10787
▁ResourceOption	-10788
QueueUserACLInfo	-10789
▁MiniYARNCluster	-10790
/{	-10791
TD	-10792
ah	-10793
ILD	-10794
MAT	-10795
ral	-10796
▁AR	-10797
▁Ls	-10798
103.	-10799
IMPL	-10800
JAXB	-10801
Mbit	-10802
Prob	-10803
Resp	-10804
UNDE	-10805
atic	-10806
does	-10807
trol	-10808
▁Mod	-10809
▁cfg	-10810
▁itr	-10811
ATTRI	-10812
GMENT	-10813
SUPER	-10814
words	-10815
▁FAKE	-10816
▁Stub	-10817
▁Word	-10818
▁best	-10819
▁fsAs	-10820
▁here	-10821
1")));	-10822
Bucket	-10823
Merger	-10824
Spnego	-10825
getEnd	-10826
istent	-10827
ponder	-10828
signal	-10829
▁Inner	-10830
▁about	-10831
AclSpec	-10832
RECHECK	-10833
angling	-10834
ledLogs	-10835
logSync	-10836
runtime	-10837
▁Custom	-10838
▁Policy	-10839
▁cgroup	-10840
▁getMap	-10841
▁merged	-10842
▁newVal	-10843
▁thrott	-10844
▁worker	-10845
ENTITIES	-10846
Synchron	-10847
quotaDir	-10848
▁CURRENT	-10849
▁loggers	-10850
▁newFile	-10851
▁sockDir	-10852
PoolSlice	-10853
attemptid	-10854
▁ExitUtil	-10855
▁getCache	-10856
▁retrieve	-10857
▁valClass	-10858
AccessTime	-10859
AtMostOnce	-10860
OutputType	-10861
SpaceQuota	-10862
TestServer	-10863
fileSystem	-10864
valueClass	-10865
▁Executors	-10866
▁Partition	-10867
▁getRemote	-10868
BloomFilter	-10869
LoginModule	-10870
ToPolicyMap	-10871
agramSocket	-10872
lastIndexOf	-10873
▁parentPath	-10874
▁partitions	-10875
▁unregister	-10876
FSAppAttempt	-10877
INodeSection	-10878
SecureRandom	-10879
XmlException	-10880
▁MutableRate	-10881
ExcludedNodes	-10882
GetContainers	-10883
ImageFileName	-10884
ThreadFactory	-10885
▁StringReader	-10886
ReduceAttempts	-10887
▁FoldedTreeSet	-10888
▁historyServer	-10889
EncryptionZones	-10890
▁contentSummary	-10891
KeyStoreProvider	-10892
PrivateContainer	-10893
hi	-10894
("{	-10895
()]	-10896
aly	-10897
ops	-10898
try	-10899
BUTE	-10900
SWIT	-10901
scan	-10902
▁IMG	-10903
▁jvm	-10904
(2));	-10905
Beans	-10906
CRYPT	-10907
Https	-10908
Ports	-10909
SSAGE	-10910
delay	-10911
▁reqs	-10912
Enough	-10913
SWITCH	-10914
backup	-10915
noneOf	-10916
setJar	-10917
▁"'");	-10918
▁Bytes	-10919
▁Chain	-10920
▁actor	-10921
▁klass	-10922
▁least	-10923
1_00000	-10924
DECRYPT	-10925
Elapsed	-10926
Logical	-10927
Subject	-10928
arliest	-10929
isAlive	-10930
ruption	-10931
▁Assume	-10932
▁setNum	-10933
▁testNo	-10934
ListType	-10935
NMTokens	-10936
Removing	-10937
getFloat	-10938
hitelist	-10939
ollected	-10940
▁setting	-10941
Unhealthy	-10942
▁computed	-10943
▁newValue	-10944
Candidates	-10945
OpInstance	-10946
Sequential	-10947
StorageDir	-10948
parameters	-10949
▁execution	-10950
▁groupName	-10951
▁inputData	-10952
Initialized	-10953
SegmentTxId	-10954
Speculative	-10955
WebResource	-10956
ceiverCount	-10957
▁HamletSpec	-10958
EncryptedKey	-10959
stopDataNode	-10960
▁getChecksum	-10961
UpgradeDomain	-10962
WritableUtils	-10963
getDirDefault	-10964
▁NameNodeFile	-10965
createNameNode	-10966
ChannelException	-10967
4;	-10968
1")	-10969
DEL	-10970
TMP	-10971
uct	-10972
{0}	-10973
▁4)	-10974
(2),	-10975
1000	-10976
7));	-10977
Capt	-10978
POST	-10979
Sums	-10980
UDIT	-10981
ante	-10982
mous	-10983
save	-10984
tear	-10985
▁Foo	-10986
▁INT	-10987
▁att	-10988
▁man	-10989
▁sym	-10990
▁you	-10991
▁}",	-10992
Deleg	-10993
FINED	-10994
Frame	-10995
allOf	-10996
roken	-10997
ubbed	-10998
▁Book	-10999
▁EImp	-11000
▁Work	-11001
▁nfsd	-11002
("]");	-11003
Fenced	-11004
inodes	-11005
subDir	-11006
▁ident	-11007
Failing	-11008
Skipped	-11009
unistic	-11010
userBuf	-11011
▁Please	-11012
▁proper	-11013
▁resReq	-11014
▁stripe	-11015
Resolved	-11016
setFloat	-11017
▁VERSION	-11018
▁dirNode	-11019
▁generic	-11020
▁require	-11021
CacheFile	-11022
SECONDARY	-11023
Selection	-11024
getTaskID	-11025
setNodeId	-11026
▁Duration	-11027
▁FileName	-11028
▁MRConfig	-11029
▁PBHelper	-11030
▁verifyAM	-11031
LiveShadow	-11032
Unresolved	-11033
edTrackers	-11034
▁secretMgr	-11035
▁BookKeeper	-11036
▁UnRegister	-11037
▁dataShadow	-11038
▁underlying	-11039
NodesPerRack	-11040
activateNode	-11041
getCompleted	-11042
unmodifiable	-11043
▁currentTime	-11044
▁testFailure	-11045
FailedStorage	-11046
UnderRecovery	-11047
▁targetStatus	-11048
getStoredBlock	-11049
getTaskAttempt	-11050
▁DelegationKey	-11051
▁assertInState	-11052
EnclosingElement	-11053
UniformInterface	-11054
▁JobHistoryEvent	-11055
0(	-11056
Ts	-11057
rr	-11058
("@	-11059
DTS	-11060
IGN	-11061
Obj	-11062
\"?	-11063
ana	-11064
idd	-11065
opt	-11066
▁gs	-11067
LOGY	-11068
Loop	-11069
aves	-11070
less	-11071
00));	-11072
OLOGY	-11073
SPECI	-11074
model	-11075
scope	-11076
▁"(1,	-11077
▁Lock	-11078
▁form	-11079
▁isIn	-11080
▁slow	-11081
▁tree	-11082
-00000	-11083
=\"1.0	-11084
DOCKER	-11085
PARITY	-11086
[1]));	-11087
corpor	-11088
stores	-11089
ubbing	-11090
▁trust	-11091
▁updat	-11092
(1024);	-11093
Applied	-11094
Disable	-11095
Parsing	-11096
gabytes	-11097
isUnder	-11098
raphite	-11099
▁Packet	-11100
▁addApp	-11101
Excluded	-11102
Succeeds	-11103
▁Current	-11104
▁futures	-11105
▁instead	-11106
▁runFsck	-11107
("\",\"")	-11108
ATTRIBUTE	-11109
DENTIFIER	-11110
corporate	-11111
queueInfo	-11112
▁describe	-11113
▁initTime	-11114
InPipeline	-11115
NodeUpdate	-11116
TypedBytes	-11117
workingDir	-11118
▁ZooKeeper	-11119
▁fileCount	-11120
▁fsNamesys	-11121
▁getStatus	-11122
▁localized	-11123
▁sleepTime	-11124
distributed	-11125
getMetadata	-11126
▁BigInteger	-11127
▁RMNodeImpl	-11128
▁TypedBytes	-11129
▁retryCount	-11130
Unregistered	-11131
▁MetricsInfo	-11132
getNodeAction	-11133
▁checksumSize	-11134
▁snapshotPath	-11135
DECOMMISSIONED	-11136
ExceptionUtils	-11137
UpdateInterval	-11138
VerifyChecksum	-11139
startDataNodes	-11140
▁Authorization	-11141
KeeperException	-11142
▁processOptions	-11143
AbstractContract	-11144
TransientStorage	-11145
LU	-11146
ZY	-11147
su	-11148
Age	-11149
DEP	-11150
ZIP	-11151
ise	-11152
}",	-11153
▁AT	-11154
▁hf	-11155
(1.0	-11156
4));	-11157
BYTE	-11158
Choo	-11159
DTSM	-11160
HASH	-11161
InMB	-11162
Need	-11163
REBO	-11164
Uris	-11165
mine	-11166
▁8);	-11167
▁ipc	-11168
AFTER	-11169
anted	-11170
slive	-11171
wrong	-11172
▁"/";	-11173
▁Move	-11174
▁SIZE	-11175
▁echo	-11176
upload	-11177
viewfs	-11178
▁".");	-11179
▁being	-11180
▁visit	-11181
BALANCE	-11182
DENTIAL	-11183
Dynamic	-11184
HANDLER	-11185
REGULAR	-11186
▁called	-11187
▁getUri	-11188
=120000)	-11189
Journals	-11190
LogFiles	-11191
Parallel	-11192
PeriodMs	-11193
TOPOLOGY	-11194
TaskImpl	-11195
etermine	-11196
lemented	-11197
▁preempt	-11198
Connected	-11199
EXCEPTION	-11200
InputPath	-11201
ServiceId	-11202
UpperCase	-11203
getReduce	-11204
▁fileInfo	-11205
▁fileNode	-11206
AMLaunched	-11207
StreamPair	-11208
getShuffle	-11209
▁Scheduled	-11210
▁nonExcess	-11211
▁throwable	-11212
NodeIndices	-11213
▁ProtoUtils	-11214
▁RetryCache	-11215
▁getRunning	-11216
InputStreams	-11217
WithCapacity	-11218
getArguments	-11219
getQueueInfo	-11220
numDatanodes	-11221
setTimestamp	-11222
▁AdminStates	-11223
▁childQueues	-11224
▁counterName	-11225
▁createFiles	-11226
("127.0.0.1",	-11227
AtomicBoolean	-11228
WithoutScheme	-11229
hasMoreTokens	-11230
▁absolutePath	-11231
▁modification	-11232
▁reservations	-11233
shouldPreserve	-11234
▁CyclicBarrier	-11235
▁GridmixRecord	-11236
QueueAllocation	-11237
RESOURCEMANAGER	-11238
ServiceProvider	-11239
▁AzureException	-11240
ElementException	-11241
JobHistoryParser	-11242
getResourceUsage	-11243
HD	-11244
pu	-11245
qr	-11246
:"+	-11247
>",	-11248
CAC	-11249
Fed	-11250
Krb	-11251
TEC	-11252
aph	-11253
sls	-11254
▁KV	-11255
▁df	-11256
▁kB	-11257
("\"	-11258
COMB	-11259
Echo	-11260
Look	-11261
Oper	-11262
come	-11263
getG	-11264
peek	-11265
take	-11266
▁128	-11267
▁6);	-11268
▁Jar	-11269
▁mis	-11270
▁pgd	-11271
[]{"-	-11272
_1");	-11273
timer	-11274
usive	-11275
▁WASB	-11276
▁msec	-11277
fcView	-11278
quires	-11279
▁PROXY	-11280
▁tbody	-11281
Leveldb	-11282
UserUgi	-11283
WaitFor	-11284
▁amInfo	-11285
▁assume	-11286
▁errMsg	-11287
AdminCLI	-11288
Uploaded	-11289
Username	-11290
doAnswer	-11291
doFilter	-11292
▁latency	-11293
▁tmpFile	-11294
CacheSize	-11295
SpaceUsed	-11296
threshold	-11297
▁setInput	-11298
▁streamer	-11299
▁testData	-11300
▁verifyHs	-11301
CachePools	-11302
StorageIDs	-11303
consistent	-11304
▁splitSize	-11305
▁timeTaken	-11306
ByteChannel	-11307
Certificate	-11308
NonExistent	-11309
WithFailure	-11310
aggregation	-11311
▁BLOCKQUOTE	-11312
▁Comparable	-11313
▁bmSafeMode	-11314
Deserializer	-11315
editSchedule	-11316
DelimitedFrom	-11317
getNumPending	-11318
getScheduling	-11319
▁EOFException	-11320
ShuffleHandler	-11321
sendAMLaunched	-11322
▁ContainerType	-11323
▁GetContainers	-11324
▁OptionsParser	-11325
▁getAuthMethod	-11326
AttemptIdPBImpl	-11327
CacheDirectives	-11328
DirectoryStatus	-11329
▁authentication	-11330
▁createContract	-11331
▁getInputStream	-11332
▁reclaimContext	-11333
ModificationTime	-11334
▁TaskAttemptInfo	-11335
87	-11336
DA	-11337
Iv	-11338
(";	-11339
123	-11340
24,	-11341
POS	-11342
ili	-11343
ior	-11344
pub	-11345
▁07	-11346
▁SY	-11347
▁WA	-11348
▁gr	-11349
ADDR	-11350
CHAR	-11351
NEGO	-11352
dirX	-11353
expi	-11354
warm	-11355
zlib	-11356
▁ass	-11357
▁utf	-11358
(",",	-11359
Purge	-11360
xattr	-11361
ymous	-11362
▁PAGE	-11363
▁Span	-11364
▁prox	-11365
Decode	-11366
Erased	-11367
FileTo	-11368
InLast	-11369
PACKET	-11370
SAMPLE	-11371
Stanza	-11372
chunks	-11373
sorted	-11374
states	-11375
utting	-11376
▁appID	-11377
▁attrs	-11378
▁locTo	-11379
▁stack	-11380
▁upper	-11381
()[0]);	-11382
Advance	-11383
DelayMs	-11384
anceler	-11385
▁KILLED	-11386
▁Offset	-11387
▁doCall	-11388
pathData	-11389
stubbing	-11390
▁eltname	-11391
▁servlet	-11392
▁writeTo	-11393
CloudBlob	-11394
NodeIndex	-11395
TestJetty	-11396
UsedSpace	-11397
aggregate	-11398
amrmToken	-11399
getSystem	-11400
localDirs	-11401
mapOutput	-11402
singledir	-11403
unwrapAnd	-11404
▁appOwner	-11405
▁yarnConf	-11406
CacheEntry	-11407
getAttempt	-11408
getReplica	-11409
jobtracker	-11410
▁createReq	-11411
▁outBuffer	-11412
ecomeActive	-11413
getHostname	-11414
getMockNode	-11415
ignedStripe	-11416
setNumBytes	-11417
▁CreateMode	-11418
▁cacheEntry	-11419
▁jobContext	-11420
▁setupQueue	-11421
APPLICATIONS	-11422
BlockReports	-11423
DirectBuffer	-11424
TokenStorage	-11425
createWriter	-11426
filterConfig	-11427
getGroupName	-11428
getQueuePath	-11429
nameNodeDirs	-11430
▁SystemClock	-11431
AdminProtocol	-11432
getInProgress	-11433
SecurityProtos	-11434
getAvailableMB	-11435
getCredentials	-11436
▁ShuffleHeader	-11437
AsyncDispatcher	-11438
ominantResource	-11439
▁CGroupsHandler	-11440
▁StopContainers	-11441
▁DefaultResource	-11442
▁allocateRequest	-11443
,?	-11444
Fe	-11445
Sr	-11446
("'	-11447
*60	-11448
../	-11449
DNA	-11450
ILE	-11451
MER	-11452
fic	-11453
grp	-11454
▁2.	-11455
▁We	-11456
▁jh	-11457
▁lv	-11458
▁wr	-11459
Caps	-11460
EDIT	-11461
PMEM	-11462
very	-11463
▁(((	-11464
▁0))	-11465
▁DNS	-11466
▁SEC	-11467
▁SLS	-11468
▁des	-11469
▁doc	-11470
("{}:	-11471
Force	-11472
Links	-11473
SPLIT	-11474
Small	-11475
THODS	-11476
▁Back	-11477
Hedged	-11478
Images	-11479
Locale	-11480
Marker	-11481
Retain	-11482
Snappy	-11483
getPre	-11484
getRef	-11485
period	-11486
EXAMPLE	-11487
Minimum	-11488
Payload	-11489
PerNode	-11490
uarante	-11491
▁mockFs	-11492
▁outStr	-11493
▁secure	-11494
▁simple	-11495
▁testRe	-11496
▁tester	-11497
ANDWIDTH	-11498
Skipping	-11499
Threaded	-11500
getCTime	-11501
▁SUCCESS	-11502
▁decoder	-11503
▁setName	-11504
Existence	-11505
▁INSTANCE	-11506
▁Unsigned	-11507
▁clientId	-11508
axLocality	-11509
capacities	-11510
outputPath	-11511
setDefault	-11512
▁Attribute	-11513
▁bandwidth	-11514
▁firstTxId	-11515
▁testCheck	-11516
getDeclared	-11517
▁DELEGATION	-11518
▁registered	-11519
NAMESERVICES	-11520
SnapshotName	-11521
ToSimpleAuth	-11522
TrackerState	-11523
nextKeyValue	-11524
▁ChecksumOpt	-11525
▁bindAddress	-11526
▁blockPoolId	-11527
▁checkChoose	-11528
▁processPath	-11529
▁taskContext	-11530
BlockRecovery	-11531
ConcurrentMap	-11532
▁ServerSocket	-11533
▁testInternal	-11534
EmulatorPlugin	-11535
ServletRequest	-11536
TimelineDomain	-11537
asReadOnlyWrap	-11538
containerToken	-11539
▁CommandFormat	-11540
DataInputBuffer	-11541
MRServiceProtos	-11542
formatLineMtime	-11543
ResourceResponse	-11544
▁YarnApplication	-11545
3)	-11546
]\	-11547
()-	-11548
--)	-11549
GEX	-11550
IDS	-11551
erm	-11552
syn	-11553
▁()	-11554
▁ps	-11555
IGNO	-11556
PAGE	-11557
RIPT	-11558
Recs	-11559
UBER	-11560
▁PRI	-11561
▁scm	-11562
ACCES	-11563
Atime	-11564
PORTS	-11565
REGEX	-11566
drwho	-11567
ended	-11568
getAm	-11569
getSt	-11570
using	-11571
▁Sets	-11572
▁body	-11573
▁didn	-11574
▁each	-11575
Adding	-11576
EXECUT	-11577
NUMBER	-11578
WithNo	-11579
initID	-11580
▁Total	-11581
▁junit	-11582
:1234",	-11583
LogInfo	-11584
MESSAGE	-11585
METHODS	-11586
Related	-11587
Support	-11588
newLine	-11589
parated	-11590
stopped	-11591
uncated	-11592
▁Daemon	-11593
▁SCRIPT	-11594
▁reload	-11595
▁schema	-11596
AsString	-11597
Deleting	-11598
Discrete	-11599
EXISTENT	-11600
NodePath	-11601
OOKEEPER	-11602
Returned	-11603
filepath	-11604
▁10000);	-11605
▁STORAGE	-11606
▁collect	-11607
▁dstPath	-11608
=\"1.0\"?	-11609
Simulator	-11610
mountOnNn	-11611
▁diffList	-11612
▁failures	-11613
▁positive	-11614
▁readOnly	-11615
▁variable	-11616
FileReader	-11617
IDENTIFIER	-11618
TokensPath	-11619
▁journalId	-11620
▁readFully	-11621
▁targetPos	-11622
DiskService	-11623
TestWrapper	-11624
storageInfo	-11625
▁NodeStatus	-11626
▁dataLength	-11627
▁	-11628
e	-11629
t	-11630
r	-11631
o	-11632
a	-11633
i	-11634
n	-11635
s	-11636
l	-11637
c	-11638
p	-11639
.	-11640
u	-11641
d	-11642
)	-11643
(	-11644
g	-11645
;	-11646
m	-11647
h	-11648
f	-11649
S	-11650
E	-11651
,	-11652
b	-11653
I	-11654
v	-11655
C	-11656
y	-11657
"	-11658
A	-11659
T	-11660
R	-11661
=	-11662
w	-11663
O	-11664
P	-11665
k	-11666
L	-11667
N	-11668
{	-11669
x	-11670
}	-11671
D	-11672
F	-11673
M	-11674
_	-11675
0	-11676
B	-11677
U	-11678
1	-11679
+	-11680
q	-11681
j	-11682
H	-11683
<	-11684
G	-11685
>	-11686
@	-11687
2	-11688
K	-11689
W	-11690
z	-11691
V	-11692
[	-11693
]	-11694
/	-11695
Y	-11696
J	-11697
:	-11698
-	-11699
3	-11700
!	-11701
Q	-11702
4	-11703
X	-11704
5	-11705
\	-11706
&	-11707
*	-11708
6	-11709
Z	-11710
8	-11711
7	-11712
'	-11713
?	-11714
|	-11715
