[PAD]	0
[UNK]	0
<s>	0
</s>	0
[SOS]	0
[EOL]	0
[EOS]	0
er	-0
on	-1
or	-2
at	-3
in	-4
et	-5
);	-6
es	-7
ti	-8
al	-9
ic	-10
tr	-11
▁p	-12
▁{	-13
en	-14
mp	-15
▁}	-16
as	-17
▁=	-18
▁i	-19
()	-20
ec	-21
st	-22
tion	-23
ate	-24
le	-25
ing	-26
ro	-27
ch	-28
▁n	-29
▁t	-30
ur	-31
ar	-32
Str	-33
ap	-34
ce	-35
ort	-36
an	-37
▁f	-38
de	-39
ri	-40
ub	-41
me	-42
▁c	-43
get	-44
▁r	-45
te	-46
▁imp	-47
String	-48
ew	-49
▁import	-50
▁"	-51
ass	-52
ubl	-53
ul	-54
▁publ	-55
ad	-56
▁public	-57
▁s	-58
ut	-59
che	-60
▁(	-61
ption	-62
ue	-63
est	-64
Con	-65
ka	-66
Ex	-67
ent	-68
▁new	-69
fi	-70
re	-71
();	-72
ion	-73
is	-74
▁th	-75
org	-76
In	-77
se	-78
ert	-79
▁v	-80
inal	-81
▁org	-82
ception	-83
("	-84
ess	-85
qu	-86
ache	-87
Exception	-88
▁b	-89
alue	-90
ist	-91
il	-92
ac	-93
ter	-94
id	-95
urn	-96
▁ret	-97
ode	-98
",	-99
▁final	-100
lo	-101
am	-102
St	-103
▁st	-104
▁return	-105
op	-106
apache	-107
ect	-108
ey	-109
it	-110
▁e	-111
▁T	-112
riv	-113
ot	-114
fig	-115
un	-116
ed	-117
ame	-118
▁String	-119
ull	-120
up	-121
▁+	-122
assert	-123
List	-124
ag	-125
ata	-126
iz	-127
ord	-128
▁@	-129
▁priv	-130
▁in	-131
▁private	-132
um	-133
yp	-134
▁assert	-135
());	-136
));	-137
mpl	-138
co	-139
▁if	-140
av	-141
ile	-142
oid	-143
ff	-144
lass	-145
Re	-146
til	-147
ecord	-148
fka	-149
▁void	-150
▁S	-151
ver	-152
row	-153
▁m	-154
ation	-155
▁j	-156
ype	-157
opic	-158
▁stat	-159
▁0	-160
xt	-161
Config	-162
ava	-163
eam	-164
Co	-165
set	-166
ab	-167
Name	-168
Ti	-169
als	-170
▁static	-171
▁throw	-172
arti	-173
Value	-174
▁java	-175
mplate	-176
ment	-177
artition	-178
▁null	-179
kafka	-180
put	-181
Pro	-182
Map	-183
Bu	-184
ore	-185
Key	-186
li	-187
ult	-188
ON	-189
Type	-190
ong	-191
Res	-192
quals	-193
▁con	-194
eri	-195
ER	-196
der	-197
");	-198
rr	-199
File	-200
En	-201
oc	-202
emplate	-203
con	-204
able	-205
Met	-206
By	-207
el	-208
atch	-209
▁this	-210
mm	-211
ow	-212
00	-213
IN	-214
Time	-215
oo	-216
odel	-217
ay	-218
Record	-219
ted	-220
ind	-221
Test	-222
Equals	-223
end	-224
▁d	-225
Over	-226
db	-227
▁l	-228
ize	-229
ask	-230
cess	-231
Id	-232
ator	-233
().	-234
▁A	-235
ers	-236
ma	-237
str	-238
▁tr	-239
▁1	-240
),	-241
util	-242
Overri	-243
▁int	-244
Override	-245
uc	-246
Set	-247
(),	-248
ger	-249
ll	-250
int	-251
log	-252
ir	-253
age	-254
▁w	-255
Data	-256
ge	-257
bj	-258
key	-259
ME	-260
em	-261
us	-262
▁assertEquals	-263
time	-264
ath	-265
▁get	-266
▁pro	-267
Lo	-268
ock	-269
▁o	-270
▁throws	-271
per	-272
lient	-273
mmon	-274
ST	-275
Partition	-276
ure	-277
ader	-278
act	-279
[]	-280
orm	-281
ker	-282
bject	-283
ffer	-284
Stream	-285
Ser	-286
Model	-287
ilder	-288
ric	-289
our	-290
ection	-291
To	-292
ans	-293
nect	-294
lean	-295
chema	-296
ffset	-297
erial	-298
ected	-299
TI	-300
())	-301
Object	-302
xp	-303
new	-304
▁res	-305
cri	-306
roup	-307
State	-308
rray	-309
ory	-310
common	-311
vic	-312
▁I	-313
oolean	-314
ource	-315
RE	-316
to	-317
add	-318
ho	-319
▁==	-320
▁for	-321
quest	-322
ig	-323
adata	-324
Tr	-325
vice	-326
sum	-327
Ch	-328
ss	-329
pon	-330
stan	-331
cessor	-332
di	-333
iot	-334
iotdb	-335
ession	-336
▁value	-337
all	-338
Topic	-339
<>	-340
ve	-341
Util	-342
).	-343
▁re	-344
Log	-345
FI	-346
Template	-347
amp	-348
th	-349
ponse	-350
CON	-351
text	-352
tes	-353
sumer	-354
fo	-355
▁D	-356
erializ	-357
▁long	-358
ty	-359
art	-360
alse	-361
Node	-362
ext	-363
▁M	-364
read	-365
class	-366
AT	-367
mest	-368
mestamp	-369
ery	-370
▁class	-371
ack	-372
Th	-373
Path	-374
LE	-375
1,	-376
uth	-377
and	-378
reate	-379
Store	-380
ash	-381
stream	-382
let	-383
ormat	-384
AL	-385
cription	-386
▁List	-387
▁bu	-388
err	-389
▁!	-390
file	-391
pro	-392
bu	-393
▁C	-394
▁<	-395
try	-396
val	-397
▁boolean	-398
▁h	-399
indow	-400
▁co	-401
OR	-402
error	-403
tern	-404
yte	-405
Task	-406
app	-407
▁In	-408
Builder	-409
value	-410
▁:	-411
ith	-412
Offset	-413
pr	-414
▁el	-415
Coll	-416
root	-417
Info	-418
0,	-419
▁else	-420
teger	-421
▁en	-422
ber	-423
";	-424
Bytes	-425
Buffer	-426
▁log	-427
))	-428
ase	-429
▁time	-430
Utils	-431
Err	-432
Group	-433
ts	-434
Metadata	-435
Response	-436
▁to	-437
Error	-438
Qu	-439
topic	-440
ign	-441
▁Template	-442
Long	-443
po	-444
ud	-445
utput	-446
▁K	-447
anag	-448
▁!=	-449
Collection	-450
Hash	-451
▁F	-452
Request	-453
▁try	-454
final	-455
essage	-456
▁key	-457
IC	-458
port	-459
NA	-460
rite	-461
ml	-462
ersion	-463
▁P	-464
▁test	-465
ucer	-466
Array	-467
anager	-468
actory	-469
SE	-470
stance	-471
nector	-472
uddi	-473
fa	-474
kage	-475
ackage	-476
ubs	-477
▁Map	-478
ducer	-479
OException	-480
rics	-481
ues	-482
▁package	-483
uration	-484
Factory	-485
Result	-486
Stat	-487
▁result	-488
An	-489
Ass	-490
urr	-491
Num	-492
Un	-493
unt	-494
Byte	-495
uct	-496
▁Object	-497
ubscription	-498
▁ch	-499
▁V	-500
▁-	-501
arker	-502
Mock	-503
FIG	-504
CONFIG	-505
met	-506
io	-507
▁.	-508
xpected	-509
ain	-510
Context	-511
▁is	-512
Fil	-513
eld	-514
yn	-515
res	-516
▁config	-517
Size	-518
urrent	-519
De	-520
Par	-521
ust	-522
ener	-523
her	-524
streams	-525
Des	-526
Ms	-527
ail	-528
rap	-529
▁catch	-530
2,	-531
Manager	-532
And	-533
name	-534
iness	-535
Processor	-536
1.	-537
pl	-538
ser	-539
lose	-540
NAME	-541
▁byte	-542
Client	-543
KeyValue	-544
ence	-545
Window	-546
unit	-547
ann	-548
MA	-549
ity	-550
par	-551
Format	-552
Query	-553
unk	-554
Class	-555
Po	-556
loc	-557
(1	-558
DE	-559
od	-560
TE	-561
▁0;	-562
reem	-563
reemarker	-564
uld	-565
lement	-566
KE	-567
ens	-568
null	-569
TO	-570
eries	-571
▁false	-572
Service	-573
▁topic	-574
▁str	-575
▁de	-576
size	-577
junit	-578
▁record	-579
Schema	-580
▁met	-581
rom	-582
tsfile	-583
eng	-584
▁set	-585
UE	-586
terator	-587
▁sup	-588
▁a	-589
ine	-590
Consumer	-591
tic	-592
Streams	-593
ild	-594
Collections	-595
▁true	-596
ol	-597
back	-598
timestamp	-599
▁&	-600
▁partition	-601
RO	-602
alues	-603
api	-604
▁freemarker	-605
ast	-606
hould	-607
True	-608
ax	-609
sFile	-610
<>();	-611
dex	-612
LO	-613
Records	-614
ex	-615
Pl	-616
AR	-617
allback	-618
Be	-619
ield	-620
action	-621
erializer	-622
>>	-623
ace	-624
mpty	-625
Of	-626
Configuration	-627
++	-628
Null	-629
TION	-630
")	-631
append	-632
▁IOException	-633
▁state	-634
"));	-635
fault	-636
eck	-637
ill	-638
With	-639
▁Array	-640
ends	-641
Version	-642
Message	-643
of	-644
Ac	-645
▁E	-646
ength	-647
AN	-648
ps	-649
ID	-650
Output	-651
Batch	-652
HashMap	-653
▁2	-654
▁g	-655
▁ext	-656
AS	-657
orker	-658
Trans	-659
ly	-660
Sup	-661
Bus	-662
▁task	-663
Business	-664
KEY	-665
CE	-666
date	-667
For	-668
DB	-669
3.	-670
SER	-671
tity	-672
afka	-673
▁&&	-674
ken	-675
VAL	-676
be	-677
eader	-678
ING	-679
UT	-680
▁should	-681
\"	-682
ler	-683
etch	-684
Filter	-685
▁extends	-686
riter	-687
▁?	-688
out	-689
Oper	-690
Number	-691
ames	-692
CH	-693
Integer	-694
sing	-695
Logger	-696
nection	-697
▁TS	-698
ByteBuffer	-699
0000	-700
Dir	-701
Not	-702
uture	-703
ding	-704
record	-705
TS	-706
▁assertTrue	-707
oub	-708
ouble	-709
oin	-710
config	-711
one	-712
TIME	-713
UR	-714
▁B	-715
Count	-716
▁root	-717
▁|	-718
INT	-719
col	-720
create	-721
▁super	-722
isher	-723
ute	-724
<>(	-725
pi	-726
▁Schema	-727
Auth	-728
illis	-729
Reader	-730
orage	-731
Se	-732
tain	-733
Entry	-734
TopicPartition	-735
▁{}	-736
Struct	-737
▁the	-738
tected	-739
des	-740
partition	-741
▁Ti	-742
▁builder	-743
coding	-744
Connector	-745
▁R	-746
▁data	-747
ecur	-748
asure	-749
▁protected	-750
On	-751
▁/	-752
econ	-753
ft	-754
current	-755
Resource	-756
ternal	-757
▁node	-758
Date	-759
ink	-760
Cache	-761
arg	-762
ange	-763
▁javax	-764
use	-765
ak	-766
client	-767
ATE	-768
▁case	-769
form	-770
rapper	-771
asurement	-772
Read	-773
▁be	-774
Xml	-775
template	-776
ht	-777
Table	-778
valid	-779
DD	-780
▁expected	-781
PIC	-782
iti	-783
red	-784
▁Long	-785
opo	-786
opolog	-787
ds	-788
query	-789
leg	-790
QL	-791
tp	-792
VALUE	-793
mmit	-794
▁name	-795
SI	-796
▁Integer	-797
ecurity	-798
tocol	-799
opology	-800
(0	-801
▁File	-802
ties	-803
▁par	-804
bal	-805
si	-806
tri	-807
rg	-808
▁>	-809
stract	-810
own	-811
write	-812
yst	-813
ystem	-814
DataType	-815
▁(!	-816
Ad	-817
has	-818
ypes	-819
▁create	-820
son	-821
Plan	-822
test	-823
asy	-824
Producer	-825
Param	-826
ance	-827
01	-828
▁client	-829
All	-830
ublisher	-831
CO	-832
TDB	-833
▁instance	-834
pression	-835
length	-836
Instance	-837
AM	-838
Chunk	-839
Point	-840
Timestamp	-841
ensor	-842
Writer	-843
ded	-844
Arg	-845
▁*	-846
Expression	-847
perties	-848
Metric	-849
▁Ass	-850
▁me	-851
0.	-852
reg	-853
▁ex	-854
river	-855
▁Exception	-856
▁ArrayList	-857
▁buffer	-858
uster	-859
▁wh	-860
juddi	-861
xpect	-862
ument	-863
▁",	-864
NO	-865
Hand	-866
Index	-867
"),	-868
luster	-869
connect	-870
▁||	-871
UDD	-872
STR	-873
Listener	-874
mo	-875
om	-876
Iterator	-877
2.	-878
vert	-879
equals	-880
▁error	-881
air	-882
▁L	-883
Subscription	-884
Or	-885
model	-886
asyMock	-887
tains	-888
hort	-889
assign	-890
quence	-891
FF	-892
Serde	-893
Configs	-894
xml	-895
▁not	-896
▁KeyValue	-897
min	-898
Input	-899
inding	-900
gin	-901
ush	-902
node	-903
()));	-904
++)	-905
TOPIC	-906
leton	-907
Names	-908
▁instanceof	-909
poch	-910
▁HashMap	-911
next	-912
Assign	-913
Callback	-914
▁Collections	-915
VER	-916
▁J	-917
erty	-918
perty	-919
sition	-920
Comp	-921
UP	-922
ression	-923
Token	-924
hod	-925
▁trans	-926
Errors	-927
annot	-928
stant	-929
Ref	-930
update	-931
pt	-932
sl	-933
Entity	-934
Metrics	-935
ql	-936
Source	-937
AD	-938
oTDB	-939
Operator	-940
mes	-941
▁max	-942
expected	-943
Wrapper	-944
ized	-945
Status	-946
IT	-947
ip	-948
▁3	-949
▁Time	-950
ld	-951
loat	-952
Assert	-953
pli	-954
▁Class	-955
istic	-956
▁values	-957
ags	-958
▁offset	-959
long	-960
▁Kafka	-961
LT	-962
toString	-963
gr	-964
ordin	-965
ordinator	-966
ecute	-967
ead	-968
ector	-969
oun	-970
alid	-971
sert	-972
plier	-973
▁start	-974
▁store	-975
erialized	-976
Int	-977
Up	-978
lush	-979
▁of	-980
▁ser	-981
No	-982
im	-983
annel	-984
fy	-985
▁W	-986
EN	-987
close	-988
Field	-989
FA	-990
▁TemplateModel	-991
False	-992
os	-993
000	-994
singleton	-995
lements	-996
▁consumer	-997
▁Assert	-998
Next	-999
Publisher	-1000
auth	-1001
istics	-1002
▁file	-1003
imp	-1004
CL	-1005
▁//	-1006
((	-1007
Loader	-1008
Start	-1009
ated	-1010
▁Mock	-1011
▁resultSet	-1012
ync	-1013
Mem	-1014
arget	-1015
attern	-1016
fg	-1017
asl	-1018
user	-1019
task	-1020
umn	-1021
getName	-1022
▁Th	-1023
Property	-1024
Partitions	-1025
ght	-1026
lock	-1027
fix	-1028
byte	-1029
Env	-1030
fore	-1031
1",	-1032
econds	-1033
From	-1034
▁arg	-1035
start	-1036
itial	-1037
Ret	-1038
▁un	-1039
▁Con	-1040
processor	-1041
comp	-1042
legal	-1043
Code	-1044
mplet	-1045
12	-1046
▁statement	-1047
▁num	-1048
Encoding	-1049
utils	-1050
Storage	-1051
Get	-1052
▁0,	-1053
llegal	-1054
End	-1055
Keys	-1056
store	-1057
ication	-1058
nt	-1059
▁'	-1060
for	-1061
metrics	-1062
▁Set	-1063
▁logger	-1064
TsFile	-1065
ary	-1066
med	-1067
▁group	-1068
▁0)	-1069
At	-1070
unc	-1071
data	-1072
imple	-1073
(1,	-1074
▁props	-1075
▁EasyMock	-1076
CT	-1077
UDDI	-1078
reak	-1079
ave	-1080
ical	-1081
(0,	-1082
▁ByteBuffer	-1083
tive	-1084
ln	-1085
PE	-1086
▁implements	-1087
assertEquals	-1088
▁H	-1089
▁Ser	-1090
ody	-1091
▁System	-1092
Thread	-1093
hic	-1094
▁pre	-1095
Values	-1096
Paramet	-1097
MAX	-1098
enti	-1099
lobal	-1100
▁stream	-1101
ause	-1102
hicle	-1103
Method	-1104
vehicle	-1105
▁while	-1106
▁env	-1107
ound	-1108
erge	-1109
▁timestamp	-1110
Del	-1111
Le	-1112
Ab	-1113
▁((	-1114
AP	-1115
ytes	-1116
Statement	-1117
▁path	-1118
Supplier	-1119
annotation	-1120
Connection	-1121
4,	-1122
Empty	-1123
PL	-1124
▁se	-1125
▁context	-1126
Topics	-1127
iron	-1128
ironment	-1129
fter	-1130
TY	-1131
Loc	-1132
PAR	-1133
Handler	-1134
ool	-1135
▁SQL	-1136
bug	-1137
ported	-1138
Inter	-1139
du	-1140
Write	-1141
▁assertFalse	-1142
getBytes	-1143
Environment	-1144
CHE	-1145
Argument	-1146
▁batch	-1147
Sequence	-1148
TR	-1149
Constant	-1150
▁request	-1151
▁list	-1152
▁version	-1153
▁check	-1154
lete	-1155
empty	-1156
▁add	-1157
Properties	-1158
state	-1159
Series	-1160
".	-1161
Element	-1162
consumer	-1163
Future	-1164
format	-1165
▁Config	-1166
▁Topic	-1167
entic	-1168
cr	-1169
Windowed	-1170
ale	-1171
Rest	-1172
true	-1173
ting	-1174
etail	-1175
verter	-1176
Epoch	-1177
▁break	-1178
pace	-1179
ender	-1180
▁cfg	-1181
errors	-1182
ptor	-1183
ress	-1184
Offsets	-1185
IOException	-1186
Meta	-1187
ateg	-1188
ning	-1189
▁O	-1190
lumn	-1191
sed	-1192
Header	-1193
getString	-1194
eaders	-1195
pec	-1196
Serializer	-1197
SET	-1198
▁fail	-1199
▁cache	-1200
▁producer	-1201
URL	-1202
illiseconds	-1203
▁id	-1204
getInstance	-1205
war	-1206
DO	-1207
Types	-1208
Tasks	-1209
group	-1210
Exp	-1211
3,	-1212
ULT	-1213
Server	-1214
ck	-1215
Json	-1216
▁Streams	-1217
SS	-1218
meseries	-1219
▁size	-1220
That	-1221
untime	-1222
Binding	-1223
GE	-1224
irst	-1225
Transaction	-1226
▁Test	-1227
ternals	-1228
this	-1229
kup	-1230
Join	-1231
bind	-1232
▁des	-1233
▁_	-1234
contains	-1235
▁Illegal	-1236
▁end	-1237
)));	-1238
otal	-1239
print	-1240
.");	-1241
TModel	-1242
Internal	-1243
milliseconds	-1244
execute	-1245
trans	-1246
▁read	-1247
stat	-1248
inc	-1249
▁entry	-1250
getValue	-1251
Api	-1252
UN	-1253
metadata	-1254
▁5	-1255
internals	-1256
10	-1257
UM	-1258
ece	-1259
Pair	-1260
position	-1261
▁response	-1262
▁SQLException	-1263
ugin	-1264
ecei	-1265
CA	-1266
Detail	-1267
greg	-1268
Impl	-1269
qui	-1270
low	-1271
su	-1272
▁has	-1273
expect	-1274
ower	-1275
FAULT	-1276
sion	-1277
If	-1278
ResultSet	-1279
)",	-1280
Last	-1281
IO	-1282
getMessage	-1283
vlet	-1284
apt	-1285
Fa	-1286
Commit	-1287
STRING	-1288
request	-1289
ationException	-1290
ONE	-1291
▁op	-1292
ang	-1293
sup	-1294
Millis	-1295
ftl	-1296
<?	-1297
▁schema	-1298
sh	-1299
Add	-1300
▁10	-1301
▁subscription	-1302
ilter	-1303
_2	-1304
▁TopicPartition	-1305
rowable	-1306
▁connector	-1307
pre	-1308
CHEMA	-1309
▁worker	-1310
buffer	-1311
▁metadata	-1312
ait	-1313
Process	-1314
▁processor	-1315
iled	-1316
lear	-1317
valueOf	-1318
IS	-1319
Descri	-1320
clients	-1321
Match	-1322
ron	-1323
Exec	-1324
erialize	-1325
];	-1326
TH	-1327
▁type	-1328
TITION	-1329
▁Record	-1330
Dec	-1331
▁ac	-1332
inary	-1333
erence	-1334
Pre	-1335
false	-1336
Boolean	-1337
▁Processor	-1338
BLE	-1339
ms	-1340
▁out	-1341
tribu	-1342
▁IoTDB	-1343
Non	-1344
MS	-1345
kstream	-1346
▁records	-1347
(2	-1348
tro	-1349
▁Errors	-1350
parse	-1351
SCHEMA	-1352
▁le	-1353
ynch	-1354
ynchron	-1355
tim	-1356
aterialized	-1357
Before	-1358
temp	-1359
protocol	-1360
NE	-1361
offset	-1362
32	-1363
▁from	-1364
asList	-1365
▁assertThat	-1366
LOG	-1367
odes	-1368
Max	-1369
▁model	-1370
.<	-1371
▁ab	-1372
Report	-1373
security	-1374
▁>=	-1375
▁};	-1376
table	-1377
Kafka	-1378
ner	-1379
▁close	-1380
build	-1381
HashSet	-1382
▁metrics	-1383
pe	-1384
▁Un	-1385
gment	-1386
▁Type	-1387
▁Query	-1388
Statistics	-1389
tt	-1390
move	-1391
path	-1392
▁comp	-1393
▁auth	-1394
ib	-1395
main	-1396
ister	-1397
load	-1398
abled	-1399
▁window	-1400
Ap	-1401
ASS	-1402
▁api	-1403
values	-1404
result	-1405
SION	-1406
▁Node	-1407
AC	-1408
▁update	-1409
Topology	-1410
\\	-1411
MetaData	-1412
max	-1413
▁struct	-1414
Def	-1415
▁default	-1416
isEmpty	-1417
▁driver	-1418
Op	-1419
Call	-1420
duce	-1421
entry	-1422
Protocol	-1423
TED	-1424
Session	-1425
RES	-1426
foo	-1427
▁1;	-1428
Al	-1429
cl	-1430
Descriptor	-1431
▁measurement	-1432
ry	-1433
▁x	-1434
pare	-1435
Deserializer	-1436
Char	-1437
After	-1438
getClass	-1439
99	-1440
▁pl	-1441
Reference	-1442
▁IN	-1443
Channel	-1444
▁query	-1445
▁current	-1446
▁4	-1447
Zone	-1448
type	-1449
ces	-1450
▁Log	-1451
producer	-1452
ConsumerRecord	-1453
--	-1454
plic	-1455
version	-1456
with	-1457
▁Logger	-1458
sql	-1459
Default	-1460
ynchronized	-1461
source	-1462
info	-1463
The	-1464
arr	-1465
NONE	-1466
As	-1467
▁message	-1468
++;	-1469
check	-1470
▁TSDataType	-1471
SERI	-1472
Text	-1473
Fl	-1474
5,	-1475
▁partitions	-1476
.",	-1477
connector	-1478
ZE	-1479
easurement	-1480
▁connection	-1481
Reg	-1482
are	-1483
()).	-1484
Double	-1485
Return	-1486
▁source	-1487
ork	-1488
Files	-1489
word	-1490
other	-1491
TemplateModel	-1492
Ro	-1493
▁on	-1494
2",	-1495
TimeMs	-1496
Assignment	-1497
vel	-1498
▁mem	-1499
▁output	-1500
MP	-1501
bo	-1502
host	-1503
sub	-1504
ature	-1505
64	-1506
Case	-1507
array	-1508
▁chunk	-1509
▁synchronized	-1510
lerk	-1511
sc	-1512
wrap	-1513
Child	-1514
sumed	-1515
▁assign	-1516
ete	-1517
DataSet	-1518
ree	-1519
▁Path	-1520
actionManager	-1521
▁TsFile	-1522
ressionType	-1523
Close	-1524
ERR	-1525
ores	-1526
ertion	-1527
OFF	-1528
Fetch	-1529
▁with	-1530
GRO	-1531
GROUP	-1532
OUT	-1533
)).	-1534
User	-1535
Per	-1536
],	-1537
Ag	-1538
▁al	-1539
vid	-1540
core	-1541
").	-1542
schema	-1543
▁exp	-1544
▁0);	-1545
▁100	-1546
ES	-1547
tribute	-1548
list	-1549
1);	-1550
Change	-1551
Parameter	-1552
▁1,	-1553
qual	-1554
▁Task	-1555
ys	-1556
Back	-1557
insert	-1558
string	-1559
assword	-1560
wt	-1561
Option	-1562
usiness	-1563
▁Struct	-1564
any	-1565
ension	-1566
ach	-1567
Idx	-1568
ectory	-1569
Converter	-1570
REAM	-1571
ustom	-1572
delete	-1573
hasNext	-1574
▁Simple	-1575
[]>	-1576
ERROR	-1577
PARTITION	-1578
▁Ab	-1579
exception	-1580
SQL	-1581
▁);	-1582
▁De	-1583
field	-1584
remove	-1585
LI	-1586
Dis	-1587
▁target	-1588
▁Abstract	-1589
Pr	-1590
Coordinator	-1591
AMP	-1592
metric	-1593
lic	-1594
getKey	-1595
▁streams	-1596
TSDataType	-1597
CLASS	-1598
Var	-1599
itor	-1600
incip	-1601
▁user	-1602
Suppr	-1603
StateStore	-1604
[0	-1605
▁+=	-1606
incipal	-1607
▁<=	-1608
▁cnt	-1609
debug	-1610
Sc	-1611
▁"1	-1612
▁at	-1613
uto	-1614
service	-1615
supported	-1616
mock	-1617
Cont	-1618
StreamsConfig	-1619
Valid	-1620
Pattern	-1621
▁expect	-1622
1)	-1623
ANCE	-1624
vider	-1625
Out	-1626
▁template	-1627
Restore	-1628
Fail	-1629
oe	-1630
▁now	-1631
Description	-1632
PO	-1633
slf	-1634
▁Field	-1635
ved	-1636
Page	-1637
▁inter	-1638
OutputStream	-1639
PRO	-1640
Bag	-1641
▁abstract	-1642
concurrent	-1643
erialization	-1644
▁all	-1645
owerMock	-1646
▁session	-1647
Column	-1648
▁count	-1649
▁Configuration	-1650
tu	-1651
Level	-1652
▁1);	-1653
onitor	-1654
Access	-1655
Versions	-1656
▁StringBuilder	-1657
ML	-1658
code	-1659
OO	-1660
▁bytes	-1661
pc	-1662
Found	-1663
War	-1664
▁k	-1665
utor	-1666
▁double	-1667
▁last	-1668
gn	-1669
Props	-1670
▁oper	-1671
▁put	-1672
▁tsFile	-1673
rl	-1674
count	-1675
Url	-1676
0);	-1677
Timeout	-1678
RI	-1679
QUE	-1680
[]{	-1681
num	-1682
ATION	-1683
REATE	-1684
02	-1685
▁KTable	-1686
▁1000	-1687
AX	-1688
)),	-1689
▁metric	-1690
STREAM	-1691
gine	-1692
▁next	-1693
▁\"	-1694
▁write	-1695
inter	-1696
ArrayList	-1697
▁Date	-1698
</	-1699
map	-1700
dition	-1701
eco	-1702
Common	-1703
face	-1704
aw	-1705
FIX	-1706
older	-1707
Setting	-1708
ifi	-1709
ueue	-1710
▁do	-1711
TL	-1712
sg	-1713
TaskId	-1714
imal	-1715
Enabled	-1716
Authentic	-1717
from	-1718
Prefix	-1719
Sensor	-1720
ReadWrite	-1721
seq	-1722
Engine	-1723
▁fetch	-1724
▁","	-1725
{}	-1726
▁param	-1727
00000000	-1728
getC	-1729
▁server	-1730
▁sel	-1731
redenti	-1732
Suppress	-1733
CONNE	-1734
Find	-1735
DEFAULT	-1736
sel	-1737
▁first	-1738
="	-1739
NT	-1740
aded	-1741
CTOR	-1742
Warning	-1743
▁map	-1744
NUM	-1745
rup	-1746
Update	-1747
Complet	-1748
Joe	-1749
Invalid	-1750
STANCE	-1751
2);	-1752
(2,	-1753
agic	-1754
device	-1755
lter	-1756
orted	-1757
work	-1758
▁{}",	-1759
56	-1760
09	-1761
Check	-1762
Stack	-1763
Warnings	-1764
▁IllegalArgument	-1765
Port	-1766
TYPE	-1767
amic	-1768
ations	-1769
ynamic	-1770
MetricName	-1771
Transform	-1772
▁ts	-1773
Only	-1774
rott	-1775
Recei	-1776
▁Arrays	-1777
ValuePair	-1778
▁Mem	-1779
▁valid	-1780
Timeseries	-1781
▁te	-1782
▁or	-1783
Flags	-1784
Address	-1785
▁Properties	-1786
ake	-1787
SIZE	-1788
cribe	-1789
▁mock	-1790
iterator	-1791
Is	-1792
Spec	-1793
Line	-1794
▁input	-1795
unctu	-1796
NOT	-1797
()),	-1798
balance	-1799
STAMP	-1800
01.	-1801
▁body	-1802
Attribute	-1803
▁that	-1804
-00000000	-1805
UID	-1806
nown	-1807
vo	-1808
local	-1809
[],	-1810
Worker	-1811
▁HashSet	-1812
ism	-1813
▁Thread	-1814
▁PowerMock	-1815
▁exception	-1816
odi	-1817
cache	-1818
Memory	-1819
EL	-1820
▁callback	-1821
Sel	-1822
ible	-1823
erify	-1824
ingle	-1825
StorageGroup	-1826
POR	-1827
OFFSET	-1828
▁->	-1829
CREATE	-1830
ard	-1831
ADER	-1832
Sink	-1833
Gener	-1834
..	-1835
ep	-1836
▁into	-1837
status	-1838
VERSION	-1839
▁Serdes	-1840
▁sb	-1841
izer	-1842
▁short	-1843
Sasl	-1844
rottle	-1845
PUT	-1846
▁Comp	-1847
Provider	-1848
struct	-1849
▁status	-1850
▁Objects	-1851
last	-1852
mb	-1853
Connect	-1854
▁Offset	-1855
ual	-1856
run	-1857
fier	-1858
iter	-1859
30	-1860
mk	-1861
iry	-1862
▁DE	-1863
SuppressWarnings	-1864
US	-1865
ret	-1866
requi	-1867
roker	-1868
Fields	-1869
Cluster	-1870
ech	-1871
wf	-1872
maining	-1873
34	-1874
Ext	-1875
inked	-1876
BI	-1877
Lock	-1878
▁app	-1879
admin	-1880
▁verify	-1881
serialization	-1882
▁TO	-1883
▁thread	-1884
positionReport	-1885
Sh	-1886
mic	-1887
boolean	-1888
:00	-1889
▁Bytes	-1890
nio	-1891
▁future	-1892
Run	-1893
ByteArray	-1894
url	-1895
echan	-1896
▁Environment	-1897
conf	-1898
App	-1899
poll	-1900
tx	-1901
Stats	-1902
Create	-1903
tomic	-1904
rest	-1905
Login	-1906
flush	-1907
Groups	-1908
fication	-1909
Send	-1910
▁finally	-1911
0)	-1912
▁Invalid	-1913
ersist	-1914
Abs	-1915
filter	-1916
rc	-1917
"))	-1918
arer	-1919
▁device	-1920
Device	-1921
Serdes	-1922
▁assertOutput	-1923
▁6	-1924
ren	-1925
bytes	-1926
output	-1927
InputStream	-1928
ORD	-1929
ages	-1930
ists	-1931
window	-1932
subscription	-1933
qp	-1934
authInfo	-1935
▁Dis	-1936
▁sql	-1937
▁find	-1938
DI	-1939
Pool	-1940
qualTo	-1941
QUEST	-1942
REQUEST	-1943
Desc	-1944
right	-1945
context	-1946
▁filter	-1947
coder	-1948
▁field	-1949
▁configs	-1950
▁min	-1951
apture	-1952
worker	-1953
LastCall	-1954
ensions	-1955
▁string	-1956
Assertion	-1957
ee	-1958
▁},	-1959
short	-1960
uccess	-1961
Global	-1962
OutputFormat	-1963
Throw	-1964
ALI	-1965
LOAT	-1966
Float	-1967
Flush	-1968
ablet	-1969
Parser	-1970
▁format	-1971
ategy	-1972
▁Metadata	-1973
Decimal	-1974
println	-1975
IOUtils	-1976
TIMESTAMP	-1977
Stores	-1978
▁pr	-1979
PRE	-1980
FILE	-1981
sensor	-1982
(0);	-1983
ategory	-1984
Security	-1985
▁subscriptions	-1986
Range	-1987
▁Memory	-1988
▁resource	-1989
ASK	-1990
place	-1991
Arrays	-1992
tionException	-1993
itive	-1994
hys	-1995
Down	-1996
Unit	-1997
▁com	-1998
hysical	-1999
NotFound	-2000
AGE	-2001
Trace	-2002
▁8	-2003
ReadWriteIOUtils	-2004
▁ti	-2005
▁and	-2006
loaded	-2007
erature	-2008
types	-2009
exp	-2010
Coun	-2011
IoTDB	-2012
<>("	-2013
2)	-2014
▁it	-2015
fetch	-2016
Driver	-2017
requests	-2018
assertTrue	-2019
def	-2020
66	-2021
gregate	-2022
▁Throwable	-2023
3",	-2024
▁po	-2025
Beans	-2026
Servlet	-2027
ched	-2028
Produce	-2029
led	-2030
Parameters	-2031
0(	-2032
Role	-2033
▁entity	-2034
▁Session	-2035
▁coordinator	-2036
EX	-2037
down	-2038
lt	-2039
find	-2040
istry	-2041
Directory	-2042
andReturn	-2043
StateException	-2044
commit	-2045
▁service	-2046
ope	-2047
singletonMap	-2048
7,	-2049
Failed	-2050
▁number	-2051
Loo	-2052
Fault	-2053
message	-2054
rupted	-2055
Interval	-2056
ObjectWrapper	-2057
Wh	-2058
ite	-2059
ingStore	-2060
TER	-2061
Content	-2062
actor	-2063
▁total	-2064
ious	-2065
Condition	-2066
vi	-2067
DataPoint	-2068
point	-2069
▁Auth	-2070
▁Topology	-2071
▁Connector	-2072
6,	-2073
Windows	-2074
mar	-2075
light	-2076
▁table	-2077
runtime	-2078
aas	-2079
▁send	-2080
(3	-2081
play	-2082
▁Big	-2083
batch	-2084
▁join	-2085
wo	-2086
rapp	-2087
▁Des	-2088
Execu	-2089
BeansWrapper	-2090
clear	-2091
vious	-2092
BusinessService	-2093
utdown	-2094
▁tck	-2095
ocket	-2096
Mapper	-2097
etwork	-2098
TestUtils	-2099
emo	-2100
ilt	-2101
ging	-2102
Imp	-2103
▁State	-2104
Measurement	-2105
BOO	-2106
env	-2107
Binary	-2108
getConfig	-2109
▁Windowed	-2110
Lookup	-2111
▁Default	-2112
▁Tr	-2113
(5	-2114
az	-2115
my	-2116
enc	-2117
eter	-2118
▁ConfigDef	-2119
▁Partition	-2120
xA	-2121
uple	-2122
8,	-2123
no	-2124
Acl	-2125
AY	-2126
unction	-2127
ates	-2128
▁TSEncoding	-2129
vok	-2130
ED	-2131
00,	-2132
ller	-2133
▁index	-2134
()))	-2135
▁Trans	-2136
ashCode	-2137
xn	-2138
econd	-2139
troller	-2140
entrySet	-2141
CONNECTOR	-2142
redential	-2143
index	-2144
▁UDDI	-2145
AND	-2146
Esc	-2147
apter	-2148
▁parent	-2149
RLE	-2150
getS	-2151
▁buf	-2152
essages	-2153
▁sender	-2154
<?>	-2155
fer	-2156
▁"<	-2157
▁hand	-2158
itialize	-2159
MM	-2160
DOC	-2161
[]>>	-2162
formed	-2163
ProcessException	-2164
Mar	-2165
▁business	-2166
Locale	-2167
▁KStream	-2168
▁Re	-2169
ApiKeys	-2170
Abstract	-2171
echanism	-2172
Bearer	-2173
▁equalTo	-2174
plit	-2175
andom	-2176
▁rest	-2177
24	-2178
OP	-2179
▁});	-2180
ources	-2181
builder	-2182
partitions	-2183
erializable	-2184
One	-2185
▁use	-2186
▁Value	-2187
DateFormat	-2188
▁MemoryRecords	-2189
dby	-2190
Paths	-2191
StackTrace	-2192
▁init	-2193
rim	-2194
Bean	-2195
Reset	-2196
Executor	-2197
▁assertNull	-2198
ChunkMetadata	-2199
expectLastCall	-2200
cum	-2201
▁cont	-2202
locate	-2203
IL	-2204
Same	-2205
▁args	-2206
7.	-2207
OD	-2208
ugins	-2209
XML	-2210
▁ag	-2211
ilege	-2212
\":	-2213
}",	-2214
1");	-2215
▁headers	-2216
AuthBearer	-2217
▁sw	-2218
erder	-2219
Expected	-2220
eb	-2221
ule	-2222
LEAN	-2223
Merge	-2224
▁date	-2225
Getter	-2226
▁Timestamp	-2227
▁em	-2228
▁KSTREAM	-2229
Delete	-2230
ATOR	-2231
join	-2232
▁Api	-2233
▁Connect	-2234
Qual	-2235
▁N	-2236
match	-2237
PREFIX	-2238
AIN	-2239
resh	-2240
▁remo	-2241
▁writer	-2242
SU	-2243
af	-2244
Assignor	-2245
▁Filter	-2246
▁header	-2247
pipe	-2248
INSTANCE	-2249
▁cluster	-2250
known	-2251
Qualifi	-2252
leep	-2253
input	-2254
singletonList	-2255
ttp	-2256
ater	-2257
fail	-2258
▁cal	-2259
▁delete	-2260
orageGroup	-2261
SUP	-2262
▁ro	-2263
0));	-2264
▁global	-2265
pipeInput	-2266
WindowStore	-2267
ErrorMessage	-2268
]);	-2269
▁an	-2270
BusinessEntity	-2271
▁cause	-2272
temperature	-2273
67	-2274
RESP	-2275
▁can	-2276
TimeZone	-2277
▁cl	-2278
▁column	-2279
ify	-2280
ient	-2281
quiry	-2282
register	-2283
('	-2284
UST	-2285
OUR	-2286
SERT	-2287
SERIES	-2288
▁Utils	-2289
▁toString	-2290
untimeException	-2291
▁Par	-2292
▁member	-2293
currentTime	-2294
if	-2295
tries	-2296
PORTED	-2297
▁Atomic	-2298
Built	-2299
Flight	-2300
▁commit	-2301
▁plan	-2302
▁encoding	-2303
trol	-2304
▁manager	-2305
default	-2306
▁RecordBatch	-2307
▁ConsumerRecord	-2308
ating	-2309
▁child	-2310
▁parse	-2311
▁RE	-2312
ject	-2313
▁old	-2314
issing	-2315
JsonProperty	-2316
WN	-2317
▁reader	-2318
SUPPORTED	-2319
▁startTime	-2320
RecordBatch	-2321
ConsumerConfig	-2322
TsFileResource	-2323
ELD	-2324
FIELD	-2325
3_	-2326
System	-2327
▁interface	-2328
>,	-2329
ONSE	-2330
▁assignment	-2331
ged	-2332
les	-2333
char	-2334
▁token	-2335
ationToken	-2336
80	-2337
Failure	-2338
process	-2339
RESPONSE	-2340
ention	-2341
ASL	-2342
▁-1	-2343
Throwable	-2344
▁Statement	-2345
cram	-2346
▁iter	-2347
▁Producer	-2348
getTemplate	-2349
BY	-2350
...	-2351
▁".	-2352
ured	-2353
ready	-2354
NonNull	-2355
session	-2356
ruptedException	-2357
_2_	-2358
Length	-2359
Modi	-2360
Sync	-2361
prepare	-2362
▁option	-2363
resultSet	-2364
Qualifiers	-2365
TimeSeries	-2366
CASE	-2367
First	-2368
BE	-2369
VE	-2370
ITH	-2371
endar	-2372
▁Fetch	-2373
Ali	-2374
ost	-2375
OURCE	-2376
Results	-2377
ofMillis	-2378
send	-2379
Queue	-2380
PAT	-2381
▁1)	-2382
Tags	-2383
ubbo	-2384
PLAIN	-2385
Namespace	-2386
▁Collection	-2387
recordFactory	-2388
9,	-2389
▁q	-2390
ive	-2391
DATE	-2392
ency	-2393
tegr	-2394
▁dir	-2395
FaultMessage	-2396
▁"\	-2397
FLOAT	-2398
TIMEOUT	-2399
▁Unsupported	-2400
Local	-2401
Nodes	-2402
tegration	-2403
▁StreamsBuilder	-2404
fir	-2405
aybe	-2406
utes	-2407
▁Del	-2408
▁segment	-2409
Overloaded	-2410
Row	-2411
ulti	-2412
timer	-2413
▁validate	-2414
printStackTrace	-2415
};	-2416
▁base	-2417
atible	-2418
containsKey	-2419
ProcessorContext	-2420
FOR	-2421
itch	-2422
EndTime	-2423
▁Worker	-2424
TES	-2425
ses	-2426
▁other	-2427
▁as	-2428
Parent	-2429
Matcher	-2430
NumberFormat	-2431
eart	-2432
select	-2433
Operation	-2434
HE	-2435
Adapter	-2436
double	-2437
records	-2438
▁INT	-2439
▁ans	-2440
sleep	-2441
INSERT	-2442
},	-2443
ums	-2444
▁LOG	-2445
amespace	-2446
▁assertNot	-2447
beat	-2448
Encoder	-2449
eartbeat	-2450
Principal	-2451
edReference	-2452
▁Loc	-2453
▁have	-2454
QU	-2455
▁TI	-2456
▁fa	-2457
param	-2458
SSL	-2459
Buffered	-2460
▁TypeFlags	-2461
ATA	-2462
alar	-2463
▁serial	-2464
rottleTimeMs	-2465
KeyValueStore	-2466
DU	-2467
Delay	-2468
▁float	-2469
▁topics	-2470
Strategy	-2471
11	-2472
Priv	-2473
Scalar	-2474
SERIALI	-2475
cluster	-2476
VersionUID	-2477
TT	-2478
Doc	-2479
illi	-2480
Eval	-2481
▁loc	-2482
Generator	-2483
vent	-2484
TemplateLoader	-2485
SNA	-2486
METH	-2487
ored	-2488
METHOD	-2489
pair	-2490
EasyMock	-2491
response	-2492
▁DEFAULT	-2493
getLogger	-2494
ish	-2495
off	-2496
▁")	-2497
▁prepare	-2498
▁tp	-2499
Milli	-2500
Pan	-2501
Txn	-2502
0.0.	-2503
▁seq	-2504
plica	-2505
EpochMilli	-2506
Cl	-2507
▁TIME	-2508
Ids	-2509
opy	-2510
tem	-2511
▁"2	-2512
wait	-2513
Allow	-2514
Cal	-2515
Simple	-2516
Monitor	-2517
emptyMap	-2518
enums	-2519
complet	-2520
tl	-2521
kip	-2522
first	-2523
NullPo	-2524
▁Consumer	-2525
NullPointer	-2526
prepareResponse	-2527
▁CompressionType	-2528
▁merge	-2529
▁offsets	-2530
▁sc	-2531
▁url	-2532
7.0.0.	-2533
Folder	-2534
gd	-2535
gdor	-2536
MMIT	-2537
PortType	-2538
XT	-2539
[0]	-2540
mem	-2541
Clerk	-2542
active	-2543
▁append	-2544
▁switch	-2545
▁process	-2546
BU	-2547
▁0.	-2548
idth	-2549
andby	-2550
▁spec	-2551
engine	-2552
verify	-2553
>()	-2554
▁Double	-2555
▁insert	-2556
Duration	-2557
▁Subscription	-2558
sp	-2559
Syn	-2560
▁obj	-2561
▁build	-2562
ek	-2563
urable	-2564
require	-2565
127.0.0.	-2566
startTime	-2567
LoggerFactory	-2568
89	-2569
▁"-	-2570
▁run	-2571
Active	-2572
SERVER	-2573
entity	-2574
persist	-2575
ies	-2576
(0).	-2577
Latch	-2578
commons	-2579
▁Boolean	-2580
ategoryBag	-2581
(4	-2582
//	-2583
Min	-2584
Auto	-2585
▁timeout	-2586
▁properties	-2587
▁no	-2588
Block	-2589
Current	-2590
transform	-2591
AndMetadata	-2592
ClientConfigs	-2593
1:	-2594
:0	-2595
▁)	-2596
▁reg	-2597
StorageEngine	-2598
(",	-2599
PLIC	-2600
Infos	-2601
TEXT	-2602
ortance	-2603
MIN	-2604
fied	-2605
▁keys	-2606
Author	-2607
ReadOnly	-2608
Wri	-2609
▁flush	-2610
allocate	-2611
entifier	-2612
▁channel	-2613
hout	-2614
KTable	-2615
ithout	-2616
Accessor	-2617
▁topology	-2618
▁LoggerFactory	-2619
eval	-2620
olute	-2621
▁Find	-2622
▁Sasl	-2623
Contains	-2624
rimitive	-2625
SH	-2626
view	-2627
vices	-2628
getFile	-2629
resource	-2630
▁iterator	-2631
au	-2632
32,	-2633
BER	-2634
GER	-2635
▁tc	-2636
dubbo	-2637
ments	-2638
▁INTO	-2639
▁Client	-2640
▁Sensor	-2641
init	-2642
▁tag	-2643
ested	-2644
▁temp	-2645
chunk	-2646
header	-2647
parator	-2648
AG	-2649
New	-2650
Tag	-2651
▁initial	-2652
Extensions	-2653
0",	-2654
▁ssl	-2655
eriod	-2656
Initial	-2657
Options	-2658
MO	-2659
atio	-2660
Plain	-2661
actual	-2662
▁length	-2663
07	-2664
lang	-2665
▁when	-2666
requireNonNull	-2667
Load	-2668
▁Linked	-2669
Registry	-2670
▁KafkaFuture	-2671
>)	-2672
ZER	-2673
▁12	-2674
TASK	-2675
▁TOPIC	-2676
fl	-2677
DING	-2678
asic	-2679
line	-2680
very	-2681
▁Number	-2682
▁Inter	-2683
Su	-2684
Evalu	-2685
▁left	-2686
ISO	-2687
▁sh	-2688
Host	-2689
base	-2690
java	-2691
▁description	-2692
lib	-2693
LETE	-2694
Publ	-2695
UBLE	-2696
trogdor	-2697
▁TaskId	-2698
▁failed	-2699
rapped	-2700
minClient	-2701
topicPartition	-2702
Bit	-2703
MAT	-2704
▁remove	-2705
▁Pattern	-2706
Extr	-2707
prec	-2708
ward	-2709
▁char	-2710
emptySet	-2711
ProducerConfig	-2712
Cre	-2713
acy	-2714
Args	-2715
child	-2716
topics	-2717
BuiltIn	-2718
HashModel	-2719
▁OAuthBearer	-2720
Bo	-2721
Eq	-2722
fs	-2723
API	-2724
Resp	-2725
raph	-2726
ures	-2727
UDDIC	-2728
86	-2729
("<	-2730
USER	-2731
▁Float	-2732
▁publisher	-2733
Open	-2734
▁exec	-2735
taskId	-2736
Transformer	-2737
▁admin	-2738
encoding	-2739
='	-2740
DS	-2741
ade	-2742
args	-2743
Stand	-2744
==	-2745
trib	-2746
Panel	-2747
atest	-2748
XmlType	-2749
tributes	-2750
TimeoutMs	-2751
(1);	-2752
▁change	-2753
getColumn	-2754
▁ErrorMessage	-2755
▁ofEpochMilli	-2756
apac	-2757
SECON	-2758
apacity	-2759
▁Internal	-2760
▁Cluster	-2761
XmlElement	-2762
▁MetricName	-2763
▁Measurement	-2764
2");	-2765
▁sub	-2766
INTER	-2767
▁series	-2768
▁complet	-2769
▁storeName	-2770
16	-2771
MPTY	-2772
server	-2773
Messages	-2774
measurement	-2775
MET	-2776
▁match	-2777
HT	-2778
LL	-2779
Ssl	-2780
mit	-2781
▁2,	-2782
▁Metrics	-2783
TestDriver	-2784
▁materialized	-2785
Target	-2786
ayload	-2787
▁Delete	-2788
emptyList	-2789
Big	-2790
▁lo	-2791
exists	-2792
▁object	-2793
Done	-2794
aught	-2795
compare	-2796
SettingEvalu	-2797
▁TimestampType	-2798
dir	-2799
ABLE	-2800
▁gener	-2801
▁ByteArray	-2802
▁bw	-2803
left	-2804
▁epoch	-2805
Success	-2806
▁timeseries	-2807
CEP	-2808
▁TestUtils	-2809
define	-2810
▁recei	-2811
▁Source	-2812
XmlAccess	-2813
XmlAccessor	-2814
XmlAccessType	-2815
▁Materialized	-2816
BindingTemplate	-2817
XmlAccessorType	-2818
addT	-2819
▁conn	-2820
Absolute	-2821
Password	-2822
eg	-2823
▁Pl	-2824
Void	-2825
BYTES	-2826
Debug	-2827
iginal	-2828
Function	-2829
▁consumed	-2830
▁listener	-2831
▁shouldThrow	-2832
xF	-2833
PATH	-2834
mark	-2835
save	-2836
gnore	-2837
odule	-2838
▁internal	-2839
▁G	-2840
/",	-2841
Short	-2842
▁accum	-2843
▁taskId	-2844
▁Request	-2845
publisher	-2846
▁selector	-2847
ConnectorConfig	-2848
▁7	-2849
FTL	-2850
▁MAX	-2851
▁options	-2852
▁Expression	-2853
initialize	-2854
ynamicQuery	-2855
▁storageGroup	-2856
▁dis	-2857
▁was	-2858
atency	-2859
▁VR	-2860
Order	-2861
▁updated	-2862
ix	-2863
ROM	-2864
SASL	-2865
▁Acl	-2866
Leader	-2867
▁SchemaBuilder	-2868
MENT	-2869
(0));	-2870
PER	-2871
body	-2872
acter	-2873
ecurityProtocol	-2874
ws	-2875
UNK	-2876
▁idx	-2877
chedu	-2878
uplic	-2879
▁stop	-2880
Custom	-2881
forName	-2882
callback	-2883
localhost	-2884
▁dataType	-2885
Cnt	-2886
▁No	-2887
Stop	-2888
When	-2889
COMMIT	-2890
▁Produce	-2891
.*	-2892
://	-2893
quired	-2894
Position	-2895
▁wrapper	-2896
▁statistics	-2897
GIC	-2898
POCH	-2899
MAGIC	-2900
▁assertError	-2901
0;	-2902
Box	-2903
LOC	-2904
mote	-2905
▁Json	-2906
▁print	-2907
▁KeyValueStore	-2908
Sam	-2909
token	-2910
▁leader	-2911
StatusCode	-2912
SC	-2913
Fill	-2914
LIST	-2915
ared	-2916
ping	-2917
ponses	-2918
Backoff	-2919
SECONDS	-2920
▁measurements	-2921
(3,	-2922
ENT	-2923
States	-2924
Credential	-2925
getProperty	-2926
Te	-2927
64,	-2928
▁ST	-2929
sync	-2930
sWith	-2931
Member	-2932
▁right	-2933
▁expectedKey	-2934
ICE	-2935
aim	-2936
global	-2937
▁array	-2938
Headers	-2939
seException	-2940
Period	-2941
▁kafka	-2942
▁broker	-2943
storeName	-2944
▁Describe	-2945
▁tsRecord	-2946
Identifier	-2947
KER	-2948
YPE	-2949
▁?>	-2950
Clear	-2951
ample	-2952
▁conf	-2953
metricName	-2954
▁load	-2955
TopologyBuilder	-2956
SY	-2957
begin	-2958
icate	-2959
Seq	-2960
NOWN	-2961
tros	-2962
▁Tck	-2963
grade	-2964
Markup	-2965
▁login	-2966
Completion	-2967
aming	-2968
props	-2969
▁prev	-2970
SubscriptionInfo	-2971
')	-2972
COL	-2973
aasConfig	-2974
Full	-2975
warn	-2976
ToString	-2977
▁operator	-2978
ILE	-2979
cul	-2980
esc	-2981
onical	-2982
▁Serde	-2983
channel	-2984
▁authInfo	-2985
("{}	-2986
trosp	-2987
Without	-2988
vements	-2989
RU	-2990
YY	-2991
▁2;	-2992
>();	-2993
▁locale	-2994
AuthToken	-2995
BA	-2996
rpc	-2997
Times	-2998
reader	-2999
Unknown	-3000
▁topicPartition	-3001
13	-3002
UTH	-3003
FFER	-3004
Tree	-3005
verted	-3006
▁nodes	-3007
▁Create	-3008
business	-3009
now	-3010
stop	-3011
OUTPUT	-3012
▁inner	-3013
StartTime	-3014
substring	-3015
127.0.0.1:	-3016
ORE	-3017
▁EN	-3018
float	-3019
ition	-3020
▁Data	-3021
▁Driver	-3022
JoePublisher	-3023
▁by	-3024
6667	-3025
erged	-3026
parent	-3027
ressor	-3028
Charset	-3029
Refresh	-3030
Reporter	-3031
85	-3032
Av	-3033
net	-3034
que	-3035
total	-3036
▁wait	-3037
Tmodel	-3038
ceptor	-3039
ending	-3040
ressed	-3041
InBytes	-3042
hashCode	-3043
>"	-3044
Hel	-3045
atal	-3046
[])	-3047
dat	-3048
Base	-3049
Marker	-3050
Control	-3051
validate	-3052
Transient	-3053
▁Ag	-3054
Acls	-3055
Socket	-3056
storage	-3057
AndValue	-3058
▁StringUtil	-3059
BackingStore	-3060
UTF	-3061
▁STR	-3062
beros	-3063
CODING	-3064
Insert	-3065
Single	-3066
keySet	-3067
XmlTransient	-3068
(((	-3069
1));	-3070
inue	-3071
utility	-3072
Resources	-3073
hysicalPlan	-3074
▁BeansWrapper	-3075
▁throttleTimeMs	-3076
22	-3077
[1	-3078
eq	-3079
conn	-3080
hold	-3081
MNode	-3082
▁sensor	-3083
Standard	-3084
▁windowSize	-3085
Ts	-3086
▁are	-3087
Escap	-3088
reshold	-3089
Remaining	-3090
▁operation	-3091
voc	-3092
MetricValue	-3093
▁Overloaded	-3094
▁DriverManager	-3095
bar	-3096
(100	-3097
target	-3098
ationId	-3099
▁author	-3100
compatible	-3101
EntityManager	-3102
createStatement	-3103
HER	-3104
▁up	-3105
▁lock	-3106
▁must	-3107
▁Binary	-3108
serialize	-3109
OffsetCommit	-3110
▁transaction	-3111
FlightRequest	-3112
acro	-3113
Ratio	-3114
▁after	-3115
persistence	-3116
▁BigDecimal	-3117
CORD	-3118
ADATA	-3119
▁TSFile	-3120
METADATA	-3121
coordinator	-3122
RestoreListener	-3123
MAP	-3124
Tablet	-3125
servlet	-3126
▁Future	-3127
Location	-3128
▁StorageEngine	-3129
04	-3130
OS	-3131
cnt	-3132
▁PAR	-3133
Graph	-3134
future	-3135
▁Iterator	-3136
legationToken	-3137
▁sink	-3138
Children	-3139
authInfoJoe	-3140
)");	-3141
chem	-3142
shake	-3143
▁page	-3144
Counts	-3145
6667/",	-3146
▁cached	-3147
▁rebalance	-3148
LTER	-3149
ility	-3150
Joiner	-3151
UNKNOWN	-3152
▁Stream	-3153
ObjectBuilder	-3154
merge	-3155
rement	-3156
▁shouldNot	-3157
Repartition	-3158
(-	-3159
bl	-3160
Web	-3161
modi	-3162
Alias	-3163
BOOLEAN	-3164
Extractor	-3165
KeyedReference	-3166
RecordMetadata	-3167
4.	-3168
ham	-3169
lication	-3170
▁UnsupportedOper	-3171
▁[	-3172
(10	-3173
ulator	-3174
Calendar	-3175
Collector	-3176
▁entityKey	-3177
19	-3178
▁z	-3179
Action	-3180
Punctu	-3181
bw	-3182
MPL	-3183
Obj	-3184
CODE	-3185
Startup	-3186
structor	-3187
▁supported	-3188
ANS	-3189
Part	-3190
Ready	-3191
ective	-3192
Capture	-3193
▁transform	-3194
>",	-3195
▁Ad	-3196
Deco	-3197
ORAGE	-3198
▁Math	-3199
Module	-3200
▁apply	-3201
addTuple	-3202
▁ClassNotFound	-3203
Can	-3204
Lim	-3205
0000,	-3206
▁before	-3207
▁configuration	-3208
Sub	-3209
AUTH	-3210
CESS	-3211
voke	-3212
ware	-3213
Optim	-3214
crest	-3215
▁call	-3216
hamcrest	-3217
▁TSRecord	-3218
ian	-3219
Limit	-3220
Total	-3221
getPath	-3222
ptional	-3223
Privilege	-3224
SERIALIZER	-3225
Unsupported	-3226
TimeValuePair	-3227
15	-3228
)))	-3229
Old	-3230
VICE	-3231
oper	-3232
ables	-3233
▁info	-3234
HEADER	-3235
ssl	-3236
EPOCH	-3237
▁Sync	-3238
Counter	-3239
GraphNode	-3240
Rebalance	-3241
Item	-3242
▁ref	-3243
MPLATE	-3244
▁paths	-3245
▁binding	-3246
ote	-3247
▁part	-3248
column	-3249
atis	-3250
login	-3251
▁Param	-3252
▁outputStream	-3253
CallbackHandler	-3254
FS	-3255
sink	-3256
rovements	-3257
ACK	-3258
URI	-3259
not	-3260
tag	-3261
▁Imp	-3262
STORE	-3263
▁host	-3264
Decoder	-3265
Writable	-3266
▁configure	-3267
Iter	-3268
cept	-3269
▁will	-3270
Allowed	-3271
Batches	-3272
Threshold	-3273
▁Parameter	-3274
▁NullPointer	-3275
ined	-3276
addAll	-3277
▁second	-3278
complete	-3279
Transport	-3280
Improvements	-3281
Transactions	-3282
▁IoTDBDescriptor	-3283
AU	-3284
-01	-3285
EMPTY	-3286
USTER	-3287
▁")";	-3288
▁prop	-3289
▁tags	-3290
▁Count	-3291
properties	-3292
▁transport	-3293
3;	-3294
ns	-3295
ime	-3296
avail	-3297
FORMAT	-3298
replay	-3299
Received	-3300
▁produce	-3301
▁position	-3302
▁1.	-3303
Sign	-3304
dest	-3305
gener	-3306
▁sasl	-3307
Aggreg	-3308
Should	-3309
olation	-3310
▁active	-3311
instance	-3312
▁StreamsConfig	-3313
03	-3314
3_2	-3315
DEL	-3316
LECT	-3317
▁row	-3318
_2_3_2	-3319
headers	-3320
▁results	-3321
▁contains	-3322
:30	-3323
ONG	-3324
ended	-3325
mplates	-3326
available	-3327
getAbsolute	-3328
ExceptionHandler	-3329
INF	-3330
▁Metric	-3331
▁STRING	-3332
WS	-3333
CLI	-3334
Root	-3335
This	-3336
IOTDB	-3337
checked	-3338
precated	-3339
plication	-3340
▁TimeUnit	-3341
CommonFields	-3342
Serializable	-3343
ped	-3344
http	-3345
▁per	-3346
ision	-3347
FILTER	-3348
Plugin	-3349
Contain	-3350
DateTime	-3351
statistics	-3352
MetadataList	-3353
▁val	-3354
▁actual	-3355
vocation	-3356
Character	-3357
▁y	-3358
RAY	-3359
Req	-3360
Use	-3361
▁--	-3362
▁2);	-3363
SELECT	-3364
manager	-3365
PLICATION	-3366
▁keySerde	-3367
assignment	-3368
▁Importance	-3369
▁KafkaStreams	-3370
=[	-3371
>>>	-3372
licy	-3373
▁");	-3374
Multi	-3375
VALID	-3376
▁sync	-3377
series	-3378
Objects	-3379
BatchData	-3380
::	-3381
Len	-3382
Delet	-3383
SERDE	-3384
isDone	-3385
plicas	-3386
namespace	-3387
▁continue	-3388
▁TIMESERIES	-3389
PartitionData	-3390
Us	-3391
].	-3392
tc	-3393
509	-3394
Rel	-3395
UTC	-3396
etched	-3397
Register	-3398
Vari	-3399
Quote	-3400
Absent	-3401
LEADER	-3402
unchecked	-3403
RestoreCallback	-3404
Init	-3405
▁URL	-3406
▁but	-3407
▁tmp	-3408
▁pool	-3409
dataType	-3410
▁support	-3411
separator	-3412
AdminClient	-3413
Such	-3414
Introsp	-3415
matches	-3416
▁BuiltIn	-3417
Primitive	-3418
▁sequence	-3419
▁tsFileResource	-3420
65	-3421
ced	-3422
Sort	-3423
▁magic	-3424
CONFIGS	-3425
Inquiry	-3426
Shutdown	-3427
configure	-3428
NumberUtil	-3429
atedBusiness	-3430
eed	-3431
lease	-3432
▁line	-3433
logging	-3434
▁handle	-3435
ScalarModel	-3436
▁producerId	-3437
▁Group	-3438
▁prefix	-3439
AuthInfo	-3440
14	-3441
CI	-3442
dis	-3443
Entries	-3444
aptured	-3445
IfAbsent	-3446
keySerde	-3447
▁assertSame	-3448
23	-3449
ET	-3450
2));	-3451
akeup	-3452
magic	-3453
▁does	-3454
Ignore	-3455
member	-3456
▁reset	-3457
getTime	-3458
▁herder	-3459
mt	-3460
xB	-3461
ctx	-3462
▁cur	-3463
▁FROM	-3464
isting	-3465
RUCache	-3466
topicName	-3467
▁BigInteger	-3468
xC	-3469
cur	-3470
ere	-3471
▁tx	-3472
Mode	-3473
UUID	-3474
inner	-3475
▁restore	-3476
UDDIClerk	-3477
▁Consumed	-3478
-8	-3479
TTL	-3480
azz	-3481
▁})	-3482
ummy	-3483
mmand	-3484
DOUBLE	-3485
Execute	-3486
Illegal	-3487
▁Change	-3488
▁expectedKeys	-3489
ob	-3490
lob	-3491
Conf	-3492
enter	-3493
▁Join	-3494
▁parser	-3495
▁convert	-3496
▁transformed	-3497
▁DynamicQuery	-3498
two	-3499
▁"[	-3500
Dirs	-3501
PRODU	-3502
▁retry	-3503
PlainText	-3504
ValueGetter	-3505
▁non	-3506
AndClear	-3507
▁execute	-3508
TopicName	-3509
▁PARTITION	-3510
▁Serializable	-3511
mi	-3512
anges	-3513
chemas	-3514
Segment	-3515
Conversion	-3516
LOW	-3517
oop	-3518
3");	-3519
▁10;	-3520
▁doc	-3521
▁0));	-3522
Details	-3523
Deprecated	-3524
assertFalse	-3525
XX	-3526
gh	-3527
DBC	-3528
adoop	-3529
arted	-3530
eeded	-3531
leader	-3532
▁MockTime	-3533
▁MockProcessor	-3534
1;	-3535
ATAT	-3536
open	-3537
sFor	-3538
ATATYPE	-3539
Supported	-3540
deserialize	-3541
SequenceModel	-3542
▁assertNotNull	-3543
SO	-3544
▁any	-3545
escap	-3546
▁save	-3547
Replica	-3548
required	-3549
sequence	-3550
▁endTime	-3551
BooleanModel	-3552
SequenceReader	-3553
getAbsolutePath	-3554
2;	-3555
84	-3556
TSTR	-3557
otstr	-3558
TSTRAP	-3559
getInt	-3560
portlet	-3561
▁batches	-3562
▁principal	-3563
DelegationToken	-3564
');	-3565
Lay	-3566
sasl	-3567
sure	-3568
SERVERS	-3569
DateModel	-3570
▁password	-3571
▁SimpleRecord	-3572
JO	-3573
xE	-3574
1),	-3575
Enum	-3576
STAR	-3577
aster	-3578
▁unseq	-3579
▁StateStore	-3580
▁Statistics	-3581
getResultSet	-3582
checkAndClear	-3583
AXB	-3584
▁("	-3585
TITY	-3586
ackson	-3587
▁setUp	-3588
Support	-3589
ability	-3590
otstrap	-3591
timeout	-3592
Mechanism	-3593
DOW	-3594
ORT	-3595
dbc	-3596
ero	-3597
Transfer	-3598
StoreName	-3599
▁register	-3600
ProcessResult	-3601
SON	-3602
▁CO	-3603
culate	-3604
expression	-3605
▁compressionType	-3606
55	-3607
ta	-3608
idx	-3609
ito	-3610
JDBC	-3611
▁ctx	-3612
beans	-3613
TOPICS	-3614
▁Global	-3615
▁method	-3616
PARTITIONS	-3617
▁KafkaException	-3618
com	-3619
ugh	-3620
hods	-3621
over	-3622
tems	-3623
▁pid	-3624
")));	-3625
▁resp	-3626
atisfy	-3627
faster	-3628
stants	-3629
jackson	-3630
toArray	-3631
physical	-3632
fasterxml	-3633
▁deviceId	-3634
▁LinkedHashMap	-3635
sw	-3636
xD	-3637
und	-3638
Rate	-3639
NUMBER	-3640
TIONAL	-3641
assigned	-3642
redicate	-3643
DownLatch	-3644
Interface	-3645
doc	-3646
▁src	-3647
ative	-3648
limit	-3649
mkSet	-3650
CLIENT	-3651
▁Locale	-3652
0_	-3653
nap	-3654
orr	-3655
(0),	-3656
ROTT	-3657
ROTTLE	-3658
setProperty	-3659
▁workerTask	-3660
PP	-3661
edRef	-3662
nodes	-3663
reset	-3664
▁Byte	-3665
prefix	-3666
▁select	-3667
ationType	-3668
UNT	-3669
obj	-3670
COMP	-3671
utures	-3672
Receive	-3673
Selector	-3674
▁pattern	-3675
CER	-3676
Rpc	-3677
▁1),	-3678
fromC	-3679
▁Text	-3680
▁coll	-3681
Helper	-3682
RECORD	-3683
BOOTSTRAP	-3684
Controller	-3685
FindQualifiers	-3686
AF	-3687
Stub	-3688
Linked	-3689
▁ParameterRole	-3690
25	-3691
100	-3692
goo	-3693
8601	-3694
METR	-3695
OutOf	-3696
METRIC	-3697
▁found	-3698
Latency	-3699
getParent	-3700
:"	-3701
IG	-3702
.";	-3703
gex	-3704
rel	-3705
INDOW	-3706
split	-3707
DELETE	-3708
Holder	-3709
Needed	-3710
getLong	-3711
▁errors	-3712
BackoffMs	-3713
QueryPlan	-3714
DL	-3715
0),	-3716
ALL	-3717
Two	-3718
sIn	-3719
▁av	-3720
Noti	-3721
ally	-3722
Lower	-3723
Scope	-3724
▁Sink	-3725
change	-3726
▁element	-3727
Validator	-3728
▁SessionWindow	-3729
08	-3730
(4,	-3731
CUR	-3732
dec	-3733
ful	-3734
▁ad	-3735
Poll	-3736
amed	-3737
▁sum	-3738
))));	-3739
ecover	-3740
utable	-3741
PARATOR	-3742
▁equals	-3743
▁sorted	-3744
▁INSTANCE	-3745
▁hashCode	-3746
▁nodeName	-3747
easy	-3748
Consumed	-3749
easymock	-3750
▁invalid	-3751
▁serialized	-3752
SED	-3753
old	-3754
rift	-3755
Closed	-3756
iteral	-3757
segment	-3758
atermark	-3759
▁replace	-3760
▁ProducerRecord	-3761
gt	-3762
TRANS	-3763
ization	-3764
▁authentic	-3765
▁compression	-3766
Authentication	-3767
Gr	-3768
cfg	-3769
pad	-3770
▁"",	-3771
nable	-3772
▁used	-3773
TSFile	-3774
fiable	-3775
getNode	-3776
deviceId	-3777
so	-3778
Tri	-3779
tur	-3780
bine	-3781
▁0),	-3782
SOURCE	-3783
FileNum	-3784
turbine	-3785
MemTable	-3786
▁Resource	-3787
97	-3788
mis	-3789
Proj	-3790
number	-3791
▁types	-3792
▁valueSerde	-3793
▁IExpression	-3794
iv	-3795
Core	-3796
jdbc	-3797
▁req	-3798
etime	-3799
▁role	-3800
Policy	-3801
cessed	-3802
SERVICE	-3803
alformed	-3804
topology	-3805
ubscribe	-3806
MIL	-3807
utf	-3808
▁TE	-3809
kers	-3810
ByName	-3811
▁Common	-3812
ApiVersions	-3813
MethodModel	-3814
gregateResult	-3815
SIG	-3816
ixed	-3817
iring	-3818
▁proc	-3819
▁empty	-3820
viewDoc	-3821
INTERVAL	-3822
▁previous	-3823
LEN	-3824
\",	-3825
▁tl	-3826
here	-3827
▁cip	-3828
▁msg	-3829
Width	-3830
trace	-3831
Exists	-3832
Creator	-3833
▁thrown	-3834
Services	-3835
getConnection	-3836
MEL	-3837
});	-3838
Event	-3839
▁tasks	-3840
Matchers	-3841
Changelog	-3842
IndexNode	-3843
OperatorType	-3844
▁TimeValuePair	-3845
26	-3846
NODE	-3847
arch	-3848
▁bld	-3849
Final	-3850
▁Tree	-3851
▁WITH	-3852
Literal	-3853
TimeFilter	-3854
99,	-3855
Equ	-3856
cat	-3857
lip	-3858
▁port	-3859
endTime	-3860
▁DATATYPE	-3861
▁assigned	-3862
▁segments	-3863
▁Assertion	-3864
▁batchSize	-3865
▁converter	-3866
▁getParameter	-3867
▁9	-3868
AUTO	-3869
full	-3870
shot	-3871
JUDDI	-3872
iffer	-3873
ified	-3874
charAt	-3875
orrect	-3876
Methods	-3877
Missing	-3878
napshot	-3879
▁original	-3880
ChunkGroup	-3881
LeaderEpoch	-3882
getBusiness	-3883
37	-3884
3);	-3885
ant	-3886
hel	-3887
ude	-3888
▁++	-3889
HTML	-3890
ired	-3891
▁qry	-3892
binding	-3893
replace	-3894
▁standby	-3895
getTimestamp	-3896
moteException	-3897
NS	-3898
SL	-3899
INIT	-3900
LOCK	-3901
TEST	-3902
hash	-3903
▁{},	-3904
▁1024	-3905
Modified	-3906
ConfigDef	-3907
TestConstant	-3908
----	-3909
ETCH	-3910
derly	-3911
vention	-3912
Escaping	-3913
TEMPLATE	-3914
▁Authentic	-3915
AB	-3916
We	-3917
cc	-3918
yy	-3919
DRI	-3920
▁CL	-3921
CEPTS	-3922
Magic	-3923
TOCOL	-3924
▁Http	-3925
DRIVER	-3926
Running	-3927
▁cipEqu	-3928
TModelKey	-3929
▁"127.0.0.1:	-3930
/*	-3931
ymb	-3932
Show	-3933
alId	-3934
rior	-3935
used	-3936
▁inc	-3937
ymbol	-3938
▁ERROR	-3939
▁Login	-3940
Assigned	-3941
▁DateUtil	-3942
▁IoTDBConnection	-3943
PI	-3944
Tld	-3945
Uns	-3946
▁setup	-3947
▁3;	-3948
auto	-3949
▁CON	-3950
1"));	-3951
CAMEL	-3952
aller	-3953
▁only	-3954
Directive	-3955
KeySchema	-3956
connection	-3957
Ow	-3958
01(	-3959
PPY	-3960
▁"3	-3961
ling	-3962
▁Row	-3963
Delta	-3964
Layer	-3965
Split	-3966
tsFile	-3967
ecision	-3968
matcher	-3969
waitFor	-3970
▁username	-3971
Compressor	-3972
▁TemplateElement	-3973
><	-3974
("0	-3975
Upd	-3976
▁my	-3977
▁tm	-3978
Http	-3979
READ	-3980
ight	-3981
▁Get	-3982
▁len	-3983
Standby	-3984
redentials	-3985
▁repartition	-3986
▁hasResultSet	-3987
06	-3988
EY	-3989
1";	-3990
sDB	-3991
1"),	-3992
ILED	-3993
▁TASK	-3994
ecause	-3995
invalid	-3996
tributed	-3997
18	-3998
11,	-3999
nan	-4000
▁15	-4001
▁-1;	-4002
▁net	-4003
hadoop	-4004
Container	-4005
ProducerId	-4006
▁attributes	-4007
ConnectorTaskId	-4008
izationException	-4009
05	-4010
39	-4011
Ud	-4012
>");	-4013
Prop	-4014
Uddi	-4015
logger	-4016
▁delet	-4017
PerTopic	-4018
Ter	-4019
dic	-4020
Body	-4021
NABLE	-4022
Retry	-4023
SNAKE	-4024
ToTxn	-4025
Enable	-4026
mkList	-4027
▁allow	-4028
▁clear	-4029
GroupId	-4030
longValue	-4031
startsWith	-4032
StoreBuilder	-4033
.12	-4034
Cach	-4035
▁KEY	-4036
▁Key	-4037
▁pos	-4038
PARAM	-4039
STATE	-4040
getMax	-4041
should	-4042
▁names	-4043
ArrayEquals	-4044
Modification	-4045
Red	-4046
_1,	-4047
lem	-4048
ref	-4049
HAND	-4050
rain	-4051
▁bit	-4052
▁Write	-4053
groupBy	-4054
IOWriter	-4055
▁Serializer	-4056
hasResultSet	-4057
ATI	-4058
afe	-4059
mbed	-4060
tick	-4061
▁Input	-4062
▁cannot	-4063
FilePath	-4064
▁because	-4065
▁connect	-4066
▁hasNext	-4067
▁Callback	-4068
ParseException	-4069
SES	-4070
gle	-4071
MESS	-4072
WITH	-4073
ename	-4074
maybe	-4075
voked	-4076
VERTER	-4077
▁10000	-4078
MESSAGE	-4079
Stability	-4080
TIMESERIES	-4081
▁deserialize	-4082
▁KafkaFutureImpl	-4083
OT	-4084
{'	-4085
GET	-4086
BACK	-4087
ific	-4088
lapt	-4089
Factor	-4090
laptop	-4091
configs	-4092
constant	-4093
intValue	-4094
CONVERTER	-4095
17	-4096
{"	-4097
END	-4098
▁(!(	-4099
eners	-4100
isual	-4101
▁Merge	-4102
▁clean	-4103
RESOURCE	-4104
▁factory	-4105
SEPARATOR	-4106
transaction	-4107
subscriptions	-4108
KeyValueIterator	-4109
014	-4110
MLO	-4111
uce	-4112
ITER	-4113
hand	-4114
kens	-4115
▁Int	-4116
MODEL	-4117
tempt	-4118
thread	-4119
ustody	-4120
Contact	-4121
Selected	-4122
▁Version	-4123
▁dataSet	-4124
▁fetcher	-4125
createTimeseries	-4126
ple	-4127
Form	-4128
tags	-4129
trim	-4130
▁"\"	-4131
▁var	-4132
Handle	-4133
▁xform	-4134
lerance	-4135
retArray	-4136
▁already	-4137
▁groupId	-4138
▁LRUCache	-4139
▁getClass	-4140
▁calculate	-4141
Materialized	-4142
1+	-4143
Enc	-4144
LONG	-4145
▁Non	-4146
Could	-4147
olver	-4148
rough	-4149
scope	-4150
▁enum	-4151
SNAPPY	-4152
Symbol	-4153
▁Short	-4154
▁maybe	-4155
UddiEntity	-4156
freemarker	-4157
Introspector	-4158
OF	-4159
.*;	-4160
Ack	-4161
LIS	-4162
can	-4163
Java	-4164
SCRI	-4165
pend	-4166
(1));	-4167
ormal	-4168
Cached	-4169
object	-4170
perCase	-4171
AsString	-4172
▁CLUSTER	-4173
▁Network	-4174
verifyAll	-4175
▁ResultSet	-4176
▁logContext	-4177
▁configState	-4178
CollectionModel	-4179
0+	-4180
ffix	-4181
html	-4182
COUNT	-4183
Scram	-4184
essed	-4185
SizeIn	-4186
chedul	-4187
stores	-4188
thrift	-4189
Delayed	-4190
▁single	-4191
PROTOCOL	-4192
selector	-4193
Completed	-4194
newInstance	-4195
INE	-4196
SUF	-4197
Sql	-4198
tml	-4199
▁Ex	-4200
anage	-4201
BUFFER	-4202
offsets	-4203
Precision	-4204
▁fq	-4205
Stmt	-4206
Herder	-4207
▁Method	-4208
▁clientId	-4209
TopicConfig	-4210
▁IoTDBConstant	-4211
Aggr	-4212
ENABLE	-4213
▁queue	-4214
chedule	-4215
▁caught	-4216
▁tmodel	-4217
ingLevel	-4218
ingleton	-4219
internal	-4220
▁Service	-4221
Publication	-4222
windowStore	-4223
otstrapServer	-4224
></	-4225
▁8;	-4226
copy	-4227
▁mar	-4228
▁raw	-4229
:30:0	-4230
CTION	-4231
await	-4232
order	-4233
WINDOW	-4234
▁GROUP	-4235
logical	-4236
riority	-4237
toStream	-4238
Tolerance	-4239
▁completed	-4240
Transactional	-4241
20	-4242
32_	-4243
req	-4244
impl	-4245
▁def	-4246
▁Valid	-4247
MLOutput	-4248
cheduler	-4249
ifferent	-4250
replayAll	-4251
Concurrent	-4252
StateStores	-4253
▁MockClient	-4254
EM	-4255
Val	-4256
yth	-4257
HERE	-4258
plan	-4259
▁Rpc	-4260
▁open	-4261
WithKey	-4262
mission	-4263
▁CONFIG	-4264
Checksum	-4265
TSEncoding	-4266
getColumnType	-4267
0).	-4268
Inf	-4269
yle	-4270
▁<<	-4271
▁kv	-4272
(10,	-4273
▁-->	-4274
▁one	-4275
▁over	-4276
SUFFIX	-4277
covery	-4278
google	-4279
uction	-4280
▁getter	-4281
TimeUnit	-4282
BigDecimal	-4283
▁dataTypes	-4284
Integration	-4285
▁DataException	-4286
▁CountDownLatch	-4287
▁consumerClient	-4288
',	-4289
ke	-4290
})	-4291
4",	-4292
789	-4293
TEN	-4294
▁poll	-4295
▁AtomicInteger	-4296
87	-4297
456	-4298
SUM	-4299
lta	-4300
▁Ac	-4301
▁<--	-4302
MILLI	-4303
▁Inet	-4304
FAILED	-4305
Sensors	-4306
▁dPoint	-4307
▁supplier	-4308
▁responses	-4309
NumberModel	-4310
DebugEnabled	-4311
."	-4312
GRE	-4313
tax	-4314
▁AR	-4315
More	-4316
WSDL	-4317
(1000	-4318
ython	-4319
▁uddi	-4320
arDown	-4321
▁begin	-4322
afMNode	-4323
Complete	-4324
Handshake	-4325
LowerCase	-4326
getCurrent	-4327
▁serialize	-4328
Constructor	-4329
DESERIALIZER	-4330
TemplateName	-4331
▁SourceRecord	-4332
RelatedBusiness	-4333
SeriesExpression	-4334
-07	-4335
WORD	-4336
enew	-4337
iles	-4338
ites	-4339
ving	-4340
ecoder	-4341
ensure	-4342
▁local	-4343
Variable	-4344
getCause	-4345
SizeInByte	-4346
getDefault	-4347
▁namespace	-4348
▁LogContext	-4349
▁SchemaAndValue	-4350
▁containsString	-4351
▁ln	-4352
5094	-4353
Lang	-4354
ased	-4355
oring	-4356
orrel	-4357
▁auto	-4358
▁than	-4359
Convert	-4360
Plugins	-4361
restore	-4362
satisfy	-4363
Formatter	-4364
atalError	-4365
remaining	-4366
Assignments	-4367
IST	-4368
ZED	-4369
ular	-4370
Bound	-4371
orian	-4372
▁cach	-4373
▁Single	-4374
▁common	-4375
regorian	-4376
Constants	-4377
▁AuthException	-4378
Wait	-4379
peek	-4380
014-07	-4381
dPoint	-4382
STORAGE	-4383
Required	-4384
password	-4385
anyObject	-4386
transforms	-4387
▁Transport	-4388
▁changelog	-4389
description	-4390
▁timestamps	-4391
otstrapServers	-4392
35	-4393
json	-4394
Exist	-4395
LOGIN	-4396
atype	-4397
▁main	-4398
014-07-	-4399
Network	-4400
erberos	-4401
ination	-4402
Committed	-4403
▁argument	-4404
AggrResult	-4405
▁propOrder	-4406
SocketAddress	-4407
FilterOperator	-4408
▁FetchResponse	-4409
securityProtocol	-4410
])	-4411
sys	-4412
the	-4413
▁mk	-4414
▁us	-4415
site	-4416
Descr	-4417
clean	-4418
izedName	-4419
▁ArrayOf	-4420
struction	-4421
BytesStore	-4422
IgnoreCase	-4423
valueSerde	-4424
ConnectData	-4425
FetchResponse	-4426
PartitionInfo	-4427
(6	-4428
tm	-4429
KEN	-4430
Uri	-4431
eek	-4432
▁'\	-4433
▁2)	-4434
▁3,	-4435
▁4;	-4436
RENT	-4437
Async	-4438
Basic	-4439
CCESS	-4440
Space	-4441
dicator	-4442
Optional	-4443
PRODUCER	-4444
derlying	-4445
keyValue	-4446
▁entries	-4447
getService	-4448
producerId	-4449
Credentials	-4450
<-	-4451
▁X	-4452
BAL	-4453
DIR	-4454
Leg	-4455
dfs	-4456
▁Ts	-4457
SIGN	-4458
▁OFF	-4459
apply	-4460
▁ensure	-4461
▁Capture	-4462
JaasConfig	-4463
▁converted	-4464
StateManager	-4465
▁fl	-4466
tten	-4467
ounds	-4468
Sorted	-4469
atform	-4470
▁Cache	-4471
▁plugin	-4472
▁report	-4473
▁tModel	-4474
THROTTLE	-4475
listener	-4476
▁Unknown	-4477
▁getNode	-4478
▁groupBy	-4479
TypeFlags	-4480
▁tearDown	-4481
APPLICATION	-4482
▁expression	-4483
SQLException	-4484
▁outputFormat	-4485
iringCredential	-4486
equalsIgnoreCase	-4487
CF	-4488
GR	-4489
80,	-4490
Dig	-4491
ampl	-4492
Style	-4493
author	-4494
NotNull	-4495
▁Punctu	-4496
▁tablet	-4497
Unexpected	-4498
▁remaining	-4499
Partitioner	-4500
metricValue	-4501
▁Concurrent	-4502
TimeExpression	-4503
';	-4504
▁"/	-4505
coll	-4506
▁VAL	-4507
edTime	-4508
jQuote	-4509
ToBytes	-4510
▁Assign	-4511
Signature	-4512
Templates	-4513
BigInteger	-4514
ClassLoader	-4515
SizeThreshold	-4516
isDebugEnabled	-4517
▁streamsConfig	-4518
HO	-4519
REF	-4520
Sum	-4521
tmp	-4522
CHAR	-4523
exec	-4524
inish	-4525
:00:00	-4526
ACCEPTS	-4527
ASSWORD	-4528
Deleted	-4529
wrapper	-4530
formation	-4531
▁executor	-4532
▁topicName	-4533
StreamsBuilder	-4534
▁RequestFuture	-4535
1(	-4536
27	-4537
BB	-4538
("/	-4539
GTH	-4540
\\.	-4541
▁<-	-4542
▁Ap	-4543
Flag	-4544
Left	-4545
.123.	-4546
Cannot	-4547
LENGTH	-4548
Seconds	-4549
wrapped	-4550
▁JsonNode	-4551
toLowerCase	-4552
PhysicalPlan	-4553
ExecuteStatement	-4554
ias	-4555
▁DO	-4556
ROLE	-4557
role	-4558
seek	-4559
Claim	-4560
▁OFFSET	-4561
parseInt	-4562
GroupRequest	-4563
▁LRUCacheEntry	-4564
▁SE	-4565
Temp	-4566
[0],	-4567
imum	-4568
page	-4569
TEGER	-4570
:30:05	-4571
Dynamic	-4572
convert	-4573
pattern	-4574
▁Window	-4575
▁windows	-4576
▁MManager	-4577
▁TimeZone	-4578
▁TimeWindow	-4579
▁windowStore	-4580
▁tsFileWriter	-4581
UDDIClerkManager	-4582
regorianCalendar	-4583
INPUT	-4584
Bounds	-4585
Legacy	-4586
unlock	-4587
Logging	-4588
▁custom	-4589
EndPoint	-4590
FileName	-4591
legating	-4592
getCustom	-4593
InstanceInfo	-4594
▁ThreadCache	-4595
ACE	-4596
APP	-4597
lay	-4598
ATUS	-4599
▁"";	-4600
▁full	-4601
Random	-4602
getLog	-4603
Capacity	-4604
▁success	-4605
writeLock	-4606
Syndicator	-4607
application	-4608
▁controller	-4609
▁getTemplate	-4610
GroupResponse	-4611
IoTDBConstant	-4612
StreamsMetrics	-4613
PS	-4614
INK	-4615
Pos	-4616
TRY	-4617
gor	-4618
▁Pr	-4619
OVER	-4620
QUER	-4621
ancel	-4622
osite	-4623
▁dest	-4624
amples	-4625
encode	-4626
gorith	-4627
METRICS	-4628
mbedded	-4629
previous	-4630
aasContext	-4631
▁CONNECTOR	-4632
▁singleton	-4633
▁tckTModel	-4634
▁BytesUtils	-4635
XmlAttribute	-4636
getMeasurement	-4637
▁StatementExecu	-4638
(5,	-4639
Avail	-4640
▁been	-4641
▁putBI	-4642
▁where	-4643
getText	-4644
ENCODING	-4645
▁assignor	-4646
▁received	-4647
▁mechanism	-4648
OutOfBounds	-4649
Incompatible	-4650
MILLISECONDS	-4651
WithTolerance	-4652
1>	-4653
Raw	-4654
TRO	-4655
ict	-4656
flip	-4657
medi	-4658
▁"10	-4659
▁PRO	-4660
SUMER	-4661
acker	-4662
▁modi	-4663
latest	-4664
gorithm	-4665
KafkaException	-4666
75	-4667
ous	-4668
refl	-4669
▁OUT	-4670
Ranges	-4671
escape	-4672
Pending	-4673
ardware	-4674
Resolver	-4675
▁retArray	-4676
sizeInBytes	-4677
getParentFile	-4678
▁producerEpoch	-4679
ExecutorService	-4680
▁AbstractRequest	-4681
bi	-4682
xx	-4683
arli	-4684
edBy	-4685
Owner	-4686
Naming	-4687
tModel	-4688
▁Scram	-4689
KStream	-4690
cheduled	-4691
▁Buffered	-4692
▁ReadOnly	-4693
▁required	-4694
SslConfigs	-4695
▁dataModel	-4696
StreamThread	-4697
▁WindowStore	-4698
▁PartitionInfo	-4699
CompressionType	-4700
▁topicPartitions	-4701
>\	-4702
md	-4703
Avg	-4704
▁mo	-4705
crud	-4706
rupt	-4707
CACHE	-4708
metic	-4709
caught	-4710
shaller	-4711
▁encode	-4712
Charsets	-4713
Disabled	-4714
ClassName	-4715
ThreadPool	-4716
modifiable	-4717
▁directory	-4718
OverviewDoc	-4719
ChannelBuilder	-4720
▁TsFileResource	-4721
StandardCharsets	-4722
36	-4723
Sec	-4724
mer	-4725
tify	-4726
▁BOO	-4727
invoke	-4728
INVALID	-4729
mediate	-4730
▁joiner	-4731
ensitive	-4732
▁Timeout	-4733
▁missing	-4734
subscribe	-4735
uplicated	-4736
▁parameter	-4737
CategoryBag	-4738
SQLConstant	-4739
RecordContext	-4740
▁measurementId	-4741
28	-4742
UB	-4743
ACL	-4744
MEM	-4745
▁EX	-4746
CHAN	-4747
abel	-4748
aker	-4749
omic	-4750
Named	-4751
ented	-4752
rokers	-4753
second	-4754
▁WHERE	-4755
GroupBy	-4756
▁Header	-4757
edStream	-4758
▁Builder	-4759
StringUtil	-4760
materialized	-4761
configuration	-4762
1_	-4763
TF	-4764
xFF	-4765
▁bl	-4766
Pass	-4767
orer	-4768
Chang	-4769
Weaker	-4770
▁block	-4771
compile	-4772
▁receive	-4773
connected	-4774
▁mockTime	-4775
OffsetReset	-4776
Authenticate	-4777
WeakerAccess	-4778
ErrorResponse	-4779
NC	-4780
_8	-4781
CONN	-4782
nodeId	-4783
▁clazz	-4784
Queries	-4785
Schemas	-4786
Upgrade	-4787
getType	-4788
plugins	-4789
▁toList	-4790
Available	-4791
▁ENCODING	-4792
▁heartbeat	-4793
▁privilege	-4794
WorkerConfig	-4795
olationLevel	-4796
▁ConfigException	-4797
':	-4798
MI	-4799
aa	-4800
But	-4801
ESC	-4802
Each	-4803
Skip	-4804
▁"");	-4805
Atomic	-4806
TMODEL	-4807
▁FLOAT	-4808
quested	-4809
optional	-4810
shutdown	-4811
operation	-4812
LoginContext	-4813
IoTDBDescriptor	-4814
WR	-4815
Jar	-4816
]",	-4817
NING	-4818
cont	-4819
rate	-4820
Equal	-4821
voker	-4822
▁100;	-4823
▁pair	-4824
▁Chunk	-4825
▁VALUE	-4826
▁scope	-4827
Previous	-4828
filePath	-4829
portlets	-4830
uplicate	-4831
addSource	-4832
vletContext	-4833
storageGroup	-4834
▁accumulator	-4835
▁cachingStore	-4836
▁RemoteException	-4837
5",	-4838
LER	-4839
dom	-4840
▁BU	-4841
▁due	-4842
Print	-4843
Right	-4844
lower	-4845
Broker	-4846
arator	-4847
ByTopic	-4848
▁enable	-4849
Appender	-4850
itespace	-4851
▁queryPlan	-4852
PointReader	-4853
valueSchema	-4854
▁tckBusiness	-4855
SamSyndicator	-4856
SG	-4857
UL	-4858
fr	-4859
xlt	-4860
ENER	-4861
Rule	-4862
gram	-4863
tool	-4864
▁-1)	-4865
▁ftl	-4866
START	-4867
dummy	-4868
eters	-4869
unknown	-4870
mmutable	-4871
▁children	-4872
▁batchData	-4873
LoginModule	-4874
QueryDataSet	-4875
▁taskManager	-4876
ProducerBatch	-4877
getSubscription	-4878
78	-4879
8_	-4880
dd	-4881
ou	-4882
AST	-4883
▁li	-4884
(2);	-4885
Expi	-4886
okup	-4887
▁SSL	-4888
Unseq	-4889
atomic	-4890
losing	-4891
network	-4892
▁params	-4893
.123.456	-4894
AndEpoch	-4895
External	-4896
OldValues	-4897
Watermark	-4898
getDevice	-4899
▁protocol	-4900
Validation	-4901
33	-4902
ru	-4903
NCE	-4904
▁ms	-4905
Answ	-4906
bers	-4907
troy	-4908
▁"."	-4909
erage	-4910
Answer	-4911
▁ARRAY	-4912
rapping	-4913
▁procTime	-4914
DataSource	-4915
SourceTask	-4916
EB	-4917
do	-4918
ULL	-4919
buf	-4920
Head	-4921
TERN	-4922
olve	-4923
rong	-4924
BLOCK	-4925
TRANSAC	-4926
groupId	-4927
OPTIONAL	-4928
▁created	-4929
cumulator	-4930
▁RpcUtils	-4931
▁pathList	-4932
integration	-4933
▁Assignment	-4934
Configurable	-4935
FirstMessage	-4936
unmodifiable	-4937
PrimitiveType	-4938
etchedRecords	-4939
▁deserialized	-4940
▁templateName	-4941
NAL	-4942
raw	-4943
▁5;	-4944
▁To	-4945
JOIN	-4946
PORT	-4947
quire	-4948
▁hash	-4949
▁json	-4950
sumers	-4951
▁Index	-4952
Parsing	-4953
reflect	-4954
▁closed	-4955
▁punctu	-4956
▁handler	-4957
Malformed	-4958
ableStore	-4959
▁property	-4960
TabletPlan	-4961
▁RowRecord	-4962
onCompletion	-4963
▁Deserializer	-4964
▁AtomicBoolean	-4965
▁ObjectWrapper	-4966
FL	-4967
,",	-4968
IGH	-4969
Hint	-4970
STEM	-4971
ther	-4972
▁-1,	-4973
oTime	-4974
▁desc	-4975
▁zone	-4976
▁joined	-4977
PASSWORD	-4978
getStatus	-4979
▁Produced	-4980
▁generate	-4981
Convention	-4982
onicalForm	-4983
ByTimestamp	-4984
orrelationId	-4985
▁QueryDataSet	-4986
29	-4987
CC	-4988
Do	-4989
4);	-4990
prev	-4991
Meter	-4992
stats	-4993
unused	-4994
INTEGER	-4995
compute	-4996
Category	-4997
Specific	-4998
strategy	-4999
▁BOOLEAN	-5000
▁Headers	-5001
Selection	-5002
▁workerId	-5003
SessionStore	-5004
▁replacement	-5005
TimestampType	-5006
XN	-5007
URE	-5008
power	-5009
UPDATE	-5010
enable	-5011
setting	-5012
original	-5013
▁println	-5014
▁Expected	-5015
Processing	-5016
missionType	-5017
TSStatusCode	-5018
▁createClient	-5019
MT	-5020
Cur	-5021
ais	-5022
box	-5023
cho	-5024
jsp	-5025
▁bi	-5026
00);	-5027
▁"1:	-5028
▁Ssl	-5029
_2_3_	-5030
cript	-5031
▁item	-5032
▁need	-5033
▁text	-5034
QUENCE	-5035
Static	-5036
SUCCESS	-5037
iration	-5038
Extension	-5039
authentic	-5040
ActiveTasks	-5041
SaslConfigs	-5042
outputFormat	-5043
ANY	-5044
Has	-5045
avg	-5046
Incl	-5047
NAMES	-5048
▁meta	-5049
Created	-5050
atatype	-5051
▁Buffer	-5052
NumberOf	-5053
nanoTime	-5054
nodeName	-5055
▁Monitor	-5056
Aggregate	-5057
UpperCase	-5058
▁requests	-5059
authInfoSam	-5060
▁adminClient	-5061
▁targetNamespace	-5062
._	-5063
00;	-5064
isc	-5065
▁cb	-5066
Endi	-5067
▁fill	-5068
Endian	-5069
Handling	-5070
SEQUENCE	-5071
kerberos	-5072
uststore	-5073
014-07-12	-5074
coveryURL	-5075
serializer	-5076
▁ApiVersions	-5077
▁InputStream	-5078
PEC	-5079
ony	-5080
ton	-5081
(1).	-5082
HIGH	-5083
bean	-5084
QUERY	-5085
plain	-5086
uring	-5087
▁curr	-5088
BACKOFF	-5089
initial	-5090
ismatch	-5091
▁marker	-5092
▁parsed	-5093
Requests	-5094
ableFrom	-5095
isAssign	-5096
▁refresh	-5097
gregation	-5098
▁Optional	-5099
▁committed	-5100
OAuthBearer	-5101
ProducerRecord	-5102
▁ParseException	-5103
isAssignableFrom	-5104
pos	-5105
TRUE	-5106
isto	-5107
▁wri	-5108
("{}:	-5109
ecogn	-5110
FACTOR	-5111
closed	-5112
tmodel	-5113
Forward	-5114
Publish	-5115
MemChunk	-5116
istogram	-5117
▁compare	-5118
▁filePath	-5119
compressed	-5120
controller	-5121
FlightRequests	-5122
IntegrationTest	-5123
3)	-5124
(0.	-5125
gwt	-5126
▁"|	-5127
0");	-5128
Based	-5129
Least	-5130
▁Rest	-5131
Clause	-5132
Runner	-5133
riable	-5134
mockito	-5135
▁inquiry	-5136
anagement	-5137
getEndTime	-5138
▁initialize	-5139
▁initialized	-5140
SecurityProtocol	-5141
xy	-5142
ADD	-5143
NTS	-5144
SUB	-5145
src	-5146
▁"{	-5147
Term	-5148
▁off	-5149
Other	-5150
getOr	-5151
outer	-5152
tools	-5153
▁JSON	-5154
ASSIGN	-5155
capture	-5156
egative	-5157
indexOf	-5158
▁latest	-5159
choServer	-5160
TypeSymbol	-5161
HashModelEx	-5162
repartition	-5163
▁SimpleScalar	-5164
MLOutputFormat	-5165
TsFileIOWriter	-5166
95	-5167
"};	-5168
GREG	-5169
ries	-5170
▁3);	-5171
▁Doc	-5172
allow	-5173
▁10);	-5174
ENTITY	-5175
Syntax	-5176
UNNING	-5177
isible	-5178
plugin	-5179
LogDirs	-5180
arliest	-5181
▁action	-5182
econnect	-5183
generate	-5184
▁deleted	-5185
▁expired	-5186
▁selected	-5187
▁sinkTask	-5188
inputStream	-5189
▁extensions	-5190
▁chunkMetaData	-5191
2(	-5192
skip	-5193
sume	-5194
TOKEN	-5195
tasks	-5196
▁JAXB	-5197
orable	-5198
▁latch	-5199
▁aggregate	-5200
▁increment	-5201
ustodyTransfer	-5202
▁partitionData	-5203
*/	-5204
2+	-5205
ND	-5206
PR	-5207
{.	-5208
<?,	-5209
Com	-5210
RIV	-5211
▁NO	-5212
Save	-5213
rith	-5214
▁App	-5215
Align	-5216
apsed	-5217
flink	-5218
(15094	-5219
merged	-5220
putAll	-5221
CEPTION	-5222
▁Random	-5223
▁Server	-5224
▁replay	-5225
username	-5226
FSFactory	-5227
rithmetic	-5228
▁keyValue	-5229
▁sessionId	-5230
getStartTime	-5231
▁updatedValue	-5232
MonitorService	-5233
TsFileProcessor	-5234
▁bindingTemplate	-5235
Ftl	-5236
▁"'	-5237
000,	-5238
LOAD	-5239
Until	-5240
▁sign	-5241
Sender	-5242
▁DOUBLE	-5243
▁TOPICS	-5244
FullPath	-5245
ableMember	-5246
▁credential	-5247
▁StringWriter	-5248
▁KafkaConsumer	-5249
dl	-5250
Grp	-5251
NAM	-5252
Put	-5253
baz	-5254
ves	-5255
ICAL	-5256
item	-5257
mail	-5258
spec	-5259
▁NUM	-5260
▁Ret	-5261
▁Sel	-5262
ences	-5263
vance	-5264
▁Call	-5265
(",");	-5266
<>());	-5267
▁fields	-5268
mechanism	-5269
EchoServer	-5270
▁throwable	-5271
Instruction	-5272
deserializer	-5273
assertNotNull	-5274
waitForCondition	-5275
ARY	-5276
lex	-5277
("\\	-5278
MEDI	-5279
▁Add	-5280
Begin	-5281
VList	-5282
gress	-5283
())));	-5284
AndGet	-5285
ByType	-5286
STATUS	-5287
Wakeup	-5288
▁clone	-5289
setNode	-5290
FromUser	-5291
▁plugins	-5292
Arguments	-5293
Heartbeat	-5294
converter	-5295
Compatible	-5296
toUpperCase	-5297
▁Integration	-5298
throttleTimeMs	-5299
ationEnvironment	-5300
▁ConnectorTaskId	-5301
▁transactionalId	-5302
El	-5303
ANT	-5304
ich	-5305
ume	-5306
))).	-5307
curr	-5308
itly	-5309
sort	-5310
ZATION	-5311
getAll	-5312
ceptors	-5313
monitor	-5314
▁system	-5315
▁ApiKeys	-5316
assertNull	-5317
▁baseOffset	-5318
defaultValue	-5319
MethodModelEx	-5320
LookupStrategy	-5321
KA	-5322
2()	-5323
acl	-5324
rmi	-5325
▁fs	-5326
Cost	-5327
Zero	-5328
demp	-5329
▁dec	-5330
AMPLE	-5331
ROKER	-5332
▁1));	-5333
▁SASL	-5334
▁skip	-5335
▁wrap	-5336
dempot	-5337
random	-5338
Restored	-5339
▁average	-5340
▁forward	-5341
▁storage	-5342
Importance	-5343
▁specified	-5344
▁timeoutMs	-5345
CacheStorage	-5346
▁ValueFilter	-5347
▁standbyTasks	-5348
KafkaPrincipal	-5349
▁PartitionData	-5350
▁ResourcePattern	-5351
!=	-5352
DC	-5353
[2	-5354
fq	-5355
("\	-5356
ince	-5357
regex	-5358
▁show	-5359
Button	-5360
apiKey	-5361
IntType	-5362
RunWith	-5363
produce	-5364
Document	-5365
endsWith	-5366
▁started	-5367
▁waitFor	-5368
EXCEPTION	-5369
▁complete	-5370
AppendTime	-5371
StreamTime	-5372
OutputModel	-5373
putTemplate	-5374
CoreMatchers	-5375
▁valueGetter	-5376
▁StreamThread	-5377
94	-5378
RTF	-5379
("0:	-5380
OPER	-5381
Veri	-5382
ench	-5383
▁foo	-5384
▁TEST	-5385
▁timer	-5386
CONNECT	-5387
HANDLER	-5388
▁BUFFER	-5389
▁memberId	-5390
▁messages	-5391
FileWriter	-5392
RpcDataSet	-5393
SERIALIZED	-5394
assertThat	-5395
TargetState	-5396
ValueFilter	-5397
▁ListOffset	-5398
▁connectors	-5399
ServletContext	-5400
SourceConnector	-5401
saveJoePublisher	-5402
1()	-5403
DIS	-5404
LEG	-5405
SHA	-5406
▁{"	-5407
[0];	-5408
call	-5409
hing	-5410
▁own	-5411
Abort	-5412
aiter	-5413
Applic	-5414
▁delta	-5415
▁socket	-5416
Describe	-5417
IfNeeded	-5418
▁contain	-5419
▁futures	-5420
▁matches	-5421
ContentType	-5422
StartEndTime	-5423
▁application	-5424
▁metricGroup	-5425
▁TsFileWriter	-5426
▁timeValuePair	-5427
MetricsReporter	-5428
PublisherDetail	-5429
45	-5430
sb	-5431
0";	-5432
IES	-5433
PUB	-5434
Glob	-5435
aint	-5436
▁"</	-5437
▁Leg	-5438
ARRAY	-5439
ILEGE	-5440
LOBAL	-5441
acked	-5442
tract	-5443
▁Pair	-5444
CONTRO	-5445
Passed	-5446
Search	-5447
broker	-5448
▁claim	-5449
▁memory	-5450
RIVILEGE	-5451
ersistent	-5452
IntervalMs	-5453
NotAllowed	-5454
▁Converter	-5455
▁adminStmt	-5456
▁AclBinding	-5457
▁sourceName	-5458
TSFileConfig	-5459
bootstrapServers	-5460
AV	-5461
VO	-5462
(14	-5463
32:	-5464
Bug	-5465
Dns	-5466
GMT	-5467
RST	-5468
UMN	-5469
(1),	-5470
Copy	-5471
SINK	-5472
ines	-5473
iven	-5474
ORDIN	-5475
SYSTEM	-5476
method	-5477
econfig	-5478
▁LOGGER	-5479
▁serdes	-5480
Sessions	-5481
children	-5482
ORDINATOR	-5483
committed	-5484
activeTasks	-5485
▁jaasConfig	-5486
ConfigResource	-5487
▁stateDirectory	-5488
JE	-5489
64:	-5490
=\"	-5491
Agg	-5492
ges	-5493
igh	-5494
var	-5495
▁Sh	-5496
ents	-5497
▁>>>	-5498
FIRST	-5499
PTION	-5500
Parse	-5501
Caching	-5502
DelayMs	-5503
defined	-5504
readInt	-5505
▁Insert	-5506
bytesKey	-5507
▁Binding	-5508
▁dynamic	-5509
BufferSize	-5510
Exceptions	-5511
▁AdminClient	-5512
currentThread	-5513
CK	-5514
MX	-5515
("[	-5516
ARG	-5517
ERGE	-5518
INFO	-5519
2"));	-5520
FETCH	-5521
▁100,	-5522
Nested	-5523
ecured	-5524
failed	-5525
▁JUDDI	-5526
▁items	-5527
GREGATE	-5528
results	-5529
▁asList	-5530
▁binary	-5531
▁replica	-5532
entityKey	-5533
▁taskName	-5534
Applicable	-5535
AclsRequest	-5536
▁fileRecords	-5537
▁inputStream	-5538
ProcessorNode	-5539
RecordingLevel	-5540
PartitionsToTxn	-5541
FB	-5542
▁'"	-5543
▁Se	-5544
▁su	-5545
=").	-5546
TIVE	-5547
ires	-5548
▁Null	-5549
▁UUID	-5550
CATION	-5551
before	-5552
verage	-5553
LogNode	-5554
Replace	-5555
▁Legacy	-5556
▁upgrade	-5557
DnsLookup	-5558
transport	-5559
▁Duration	-5560
Whitespace	-5561
▁ClassLoader	-5562
▁PhysicalPlan	-5563
▁stateManager	-5564
▁AssertionError	-5565
▁changelogReader	-5566
Ns	-5567
BIG	-5568
LIC	-5569
oth	-5570
▁qu	-5571
olat	-5572
Items	-5573
aused	-5574
▁lang	-5575
▁ready	-5576
▁volat	-5577
Command	-5578
▁OUTPUT	-5579
Multiple	-5580
Validate	-5581
roughput	-5582
▁subject	-5583
▁volatile	-5584
getTimeZone	-5585
getParameter	-5586
SettingEvaluator	-5587
-1	-5588
47	-5589
TOK	-5590
[1]	-5591
bed	-5592
Misc	-5593
keys	-5594
then	-5595
(100,	-5596
ITERAL	-5597
REPLIC	-5598
concat	-5599
warded	-5600
▁range	-5601
▁which	-5602
Updates	-5603
▁STORAGE	-5604
CacheSize	-5605
▁duration	-5606
▁existing	-5607
LogFactory	-5608
▁available	-5609
NodeBuilder	-5610
ningOffsets	-5611
▁apiVersions	-5612
ValueException	-5613
▁templateSource	-5614
▁QueryExpression	-5615
88	-5616
Ev	-5617
998	-5618
Mgr	-5619
ROW	-5620
Wal	-5621
arge	-5622
▁Not	-5623
Usage	-5624
apped	-5625
datas	-5626
IsNull	-5627
driver	-5628
setMax	-5629
toList	-5630
RUNNING	-5631
tyEntry	-5632
gregator	-5633
▁encoder	-5634
▁matcher	-5635
powermock	-5636
▁numberOf	-5637
COORDINATOR	-5638
▁errorCounts	-5639
processorName	-5640
BusinessDetail	-5641
'>	-5642
2";	-5643
CIP	-5644
TXN	-5645
arn	-5646
azy	-5647
mma	-5648
▁so	-5649
QUAL	-5650
[]{"	-5651
Admin	-5652
ToISO	-5653
cause	-5654
▁width	-5655
Privile	-5656
▁getMax	-5657
operator	-5658
▁getValue	-5659
Attributes	-5660
fileSystem	-5661
▁metricGrp	-5662
BeforeClass	-5663
metricGroup	-5664
▁xformValue	-5665
▁TSFileConfig	-5666
computeIfAbsent	-5667
ARD	-5668
Cli	-5669
TAG	-5670
duc	-5671
igr	-5672
msg	-5673
ook	-5674
STRU	-5675
aces	-5676
etty	-5677
isms	-5678
ALIAS	-5679
MBean	-5680
ecess	-5681
Import	-5682
MEMBER	-5683
NoSuch	-5684
▁tuple	-5685
setTime	-5686
▁Access	-5687
▁blamed	-5688
INTERNAL	-5689
▁UNKNOWN	-5690
▁setting	-5691
echanisms	-5692
▁shutdown	-5693
JsonCreator	-5694
compression	-5695
▁2014-07-12	-5696
▁LogFactory	-5697
▁BuiltInsFor	-5698
▁JoinWindows	-5699
▁timestampType	-5700
(7	-5701
3+	-5702
}\	-5703
▁Le	-5704
ATCH	-5705
Appe	-5706
Comb	-5707
Html	-5708
show	-5709
mkdir	-5710
opVar	-5711
▁This	-5712
▁back	-5713
Appear	-5714
MEDIUM	-5715
cached	-5716
sizeOf	-5717
▁1000;	-5718
payload	-5719
Snapshot	-5720
Listeners	-5721
principal	-5722
▁dateType	-5723
Aggregator	-5724
Appearance	-5725
LogContext	-5726
SequenceFile	-5727
addProcessor	-5728
DataQueryPlan	-5729
TopicPartitions	-5730
▁FindQualifiers	-5731
DF	-5732
22,	-5733
NEW	-5734
====	-5735
SOAP	-5736
▁The	-5737
TABLE	-5738
macro	-5739
recei	-5740
verse	-5741
▁LIST	-5742
CHANIS	-5743
Params	-5744
▁renew	-5745
Fetches	-5746
HEADERS	-5747
Wrapped	-5748
▁random	-5749
MECHANIS	-5750
Settings	-5751
channels	-5752
memberId	-5753
property	-5754
▁another	-5755
▁payload	-5756
▁capacity	-5757
▁security	-5758
getFullPath	-5759
▁bytesStore	-5760
ToTransaction	-5761
DFS	-5762
IMP	-5763
(102	-5764
COPE	-5765
Cast	-5766
DATA	-5767
JAXB	-5768
istr	-5769
loom	-5770
▁ISO	-5771
INode	-5772
ecomm	-5773
grace	-5774
▁more	-5775
Explic	-5776
ocksDB	-5777
▁Plain	-5778
amework	-5779
igrated	-5780
▁apiKey	-5781
▁mapper	-5782
setValue	-5783
impleName	-5784
▁Validate	-5785
▁replicas	-5786
ynchronous	-5787
ConfigState	-5788
StatMonitor	-5789
FinalMessage	-5790
ResourceType	-5791
▁activeTasks	-5792
▁MetricConfig	-5793
inFlightRequest	-5794
":	-5795
EF	-5796
mx	-5797
▁"(	-5798
▁0:	-5799
pool	-5800
MENTS	-5801
\":\"	-5802
anner	-5803
vided	-5804
▁Page	-5805
▁USER	-5806
▁getP	-5807
Remove	-5808
atcher	-5809
locale	-5810
stanti	-5811
CURRENT	-5812
▁Option	-5813
CONSUMER	-5814
TOSTRING	-5815
▁testGet	-5816
PowerMock	-5817
▁hardware	-5818
▁leaderEpoch	-5819
setStorageGroup	-5820
▁FloatDataPoint	-5821
77	-5822
BR	-5823
IP	-5824
01,	-5825
BUG	-5826
Qry	-5827
▁16	-5828
exit	-5829
mple	-5830
▁10,	-5831
▁API	-5832
ORKER	-5833
paths	-5834
queue	-5835
▁Init	-5836
BROKER	-5837
rained	-5838
KSTREAM	-5839
BasedLog	-5840
KeyPassed	-5841
arraycopy	-5842
AclBinding	-5843
Explicitly	-5844
Invocation	-5845
Punctuator	-5846
▁retention	-5847
ValueJoiner	-5848
▁underlying	-5849
MiscTemplate	-5850
Authenticator	-5851
MemoryRecords	-5852
▁KafkaProducer	-5853
▁keySerializer	-5854
CaptureAppender	-5855
▁businessEntity	-5856
EnvironmentUtils	-5857
Es	-5858
Lag	-5859
MAR	-5860
Msg	-5861
VEN	-5862
("",	-5863
8056	-5864
ffic	-5865
publ	-5866
▁Sub	-5867
LISHER	-5868
▁Execu	-5869
▁ioTDB	-5870
getLast	-5871
▁DELETE	-5872
▁access	-5873
Kerberos	-5874
SinkTask	-5875
UDDINode	-5876
▁content	-5877
SCRIPTION	-5878
Separator	-5879
getEntity	-5880
▁newValue	-5881
Timestamps	-5882
compareAnd	-5883
▁serializer	-5884
▁TestConstant	-5885
getBusinessKey	-5886
▁KeyValueMapper	-5887
▁findQualifiers	-5888
>(	-5889
("@	-5890
(1.	-5891
02.	-5892
AVA	-5893
BJE	-5894
non	-5895
JSON	-5896
Quot	-5897
CIPAL	-5898
TYPES	-5899
items	-5900
lared	-5901
round	-5902
xpath	-5903
▁NoOp	-5904
▁addr	-5905
▁incl	-5906
-01-01	-5907
▁clerk	-5908
Builtin	-5909
INCIPAL	-5910
PATTERN	-5911
▁TModel	-5912
tsRecord	-5913
▁address	-5914
Algorithm	-5915
KeyValues	-5916
increment	-5917
▁connName	-5918
FileFactory	-5919
▁LinkedList	-5920
▁mockClient	-5921
ControlEntry	-5922
MetricsGroup	-5923
getSimpleName	-5924
▁Configurable	-5925
▁responseData	-5926
Mo	-5927
(12	-5928
Inc	-5929
▁VO	-5930
DOWN	-5931
KEYS	-5932
Acked	-5933
Break	-5934
igned	-5935
▁code	-5936
OrByte	-5937
▁100);	-5938
forward	-5939
missing	-5940
supplier	-5941
▁isEmpty	-5942
sessionId	-5943
▁Response	-5944
▁compressed	-5945
▁createTask	-5946
://127.0.0.1:	-5947
LookupCondition	-5948
RecordException	-5949
▁calculateResult	-5950
-"	-5951
ui	-5952
"})	-5953
▁20	-5954
▁HE	-5955
."),	-5956
BASE	-5957
PACE	-5958
getM	-5959
▁xFF	-5960
Overl	-5961
after	-5962
binary	-5963
▁PRODU	-5964
▁delay	-5965
Logical	-5966
Strings	-5967
element	-5968
▁loader	-5969
Identity	-5970
Mismatch	-5971
Executors	-5972
ertStores	-5973
KTableImpl	-5974
Projection	-5975
connectors	-5976
▁className	-5977
getEncoding	-5978
▁timeFilter	-5979
▁Transaction	-5980
ExplicitlySet	-5981
96	-5982
▁;	-5983
mac	-5984
}),	-5985
▁we	-5986
AFKA	-5987
ARGS	-5988
HOST	-5989
WRAP	-5990
▁"0,	-5991
▁Arg	-5992
ToKey	-5993
force	-5994
oauth	-5995
805626	-5996
writer	-5997
▁Local	-5998
Already	-5999
pressed	-6000
▁Author	-6001
▁ENTITY	-6002
▁merged	-6003
Elements	-6004
StoreKey	-6005
TSRecord	-6006
aledTime	-6007
getChild	-6008
registry	-6009
▁Element	-6010
EndOffset	-6011
PUBLISHER	-6012
completed	-6013
▁keyedRef	-6014
JsonSchema	-6015
loomFilter	-6016
PartitionId	-6017
▁apiVersion	-6018
▁authorizer	-6019
SeriesReader	-6020
executeQuery	-6021
▁baseSequence	-6022
ServletRequest	-6023
▁ConsumerRecords	-6024
21	-6025
EC	-6026
EXT	-6027
ial	-6028
iso	-6029
tck	-6030
▁gr	-6031
000;	-6032
ALSE	-6033
Remo	-6034
math	-6035
part	-6036
▁Run	-6037
▁dst	-6038
DEBUG	-6039
until	-6040
▁TEXT	-6041
TSFILE	-6042
olving	-6043
▁isKey	-6044
Grouped	-6045
TypeInfo	-6046
asurable	-6047
ceptance	-6048
clientId	-6049
▁maxTime	-6050
▁monitor	-6051
setCustom	-6052
▁ApiError	-6053
▁function	-6054
▁returned	-6055
Comparator	-6056
▁PARTITIONS	-6057
ExternalSort	-6058
▁SQLConstant	-6059
FlushListener	-6060
▁StorageGroup	-6061
TemplateSource	-6062
▁singletonList	-6063
1).	-6064
Ded	-6065
Ste	-6066
alt	-6067
ide	-6068
xff	-6069
▁60	-6070
▁tz	-6071
incl	-6072
ules	-6073
}");	-6074
▁MIN	-6075
Deque	-6076
names	-6077
times	-6078
▁orig	-6079
▁sqls	-6080
0000",	-6081
Attempt	-6082
Receives	-6083
TestBean	-6084
▁GroupBy	-6085
▁aborted	-6086
▁byteLen	-6087
DataTypes	-6088
precation	-6089
▁timeZone	-6090
BaseParser	-6091
Checkpoint	-6092
▁TimeFilter	-6093
AclsResponse	-6094
ObjectFactory	-6095
Subscriptions	-6096
RequestMatcher	-6097
ToPhysicalPlan	-6098
▁ProcessorNode	-6099
XS	-6100
rs	-6101
={}	-6102
COM	-6103
▁1:	-6104
▁ob	-6105
HEAD	-6106
ROOT	-6107
▁New	-6108
Aware	-6109
epoch	-6110
bearer	-6111
custom	-6112
▁Entity	-6113
▁command	-6114
Punctuate	-6115
▁TestBean	-6116
PluginDesc	-6117
serialized	-6118
▁metricTags	-6119
Exceptionally	-6120
▁KTableKTable	-6121
PermissionType	-6122
▁ConnectSchema	-6123
▁ProduceRequest	-6124
TimeoutException	-6125
▁keyDeserializer	-6126
BC	-6127
DA	-6128
ITY	-6129
TIC	-6130
Too	-6131
bit	-6132
▁oc	-6133
Inet	-6134
ZONE	-6135
attr	-6136
requ	-6137
BJECT	-6138
Fixed	-6139
▁sent	-6140
ToDate	-6141
fields	-6142
params	-6143
simple	-6144
▁Plugin	-6145
--------	-6146
ChunkNum	-6147
NodeName	-6148
Optimize	-6149
Progress	-6150
Verifier	-6151
connName	-6152
wrapping	-6153
▁Channel	-6154
framework	-6155
▁toStruct	-6156
▁ByteUtils	-6157
Distributed	-6158
OpenFileNum	-6159
oauthbearer	-6160
▁paramTypes	-6161
▁stateStore	-6162
Deduplicated	-6163
getTModelKey	-6164
NetworkClient	-6165
assignFromUser	-6166
▁AssignmentInfo	-6167
RuntimeException	-6168
TZ	-6169
({"	-6170
ACY	-6171
▁JO	-6172
2"),	-6173
CLAS	-6174
Inst	-6175
Urls	-6176
Wrap	-6177
\"",	-6178
▁red	-6179
Estim	-6180
QUALS	-6181
onent	-6182
upper	-6183
▁Save	-6184
▁copy	-6185
▁work	-6186
InfTld	-6187
NAMING	-6188
ToLong	-6189
cNames	-6190
CLASSES	-6191
RECORDS	-6192
Captured	-6193
InFlight	-6194
existing	-6195
▁Logical	-6196
▁correct	-6197
Closeable	-6198
heartbeat	-6199
▁datatype	-6200
AfterClass	-6201
▁keySchema	-6202
annotations	-6203
wrappingHint	-6204
▁IoTDBConfig	-6205
ErrorDescription	-6206
UDDISubscription	-6207
200	-6208
859	-6209
aos	-6210
eta	-6211
}</	-6212
▁"4	-6213
LICY	-6214
[0].	-6215
less	-6216
▁Hel	-6217
Parts	-6218
enced	-6219
inted	-6220
retry	-6221
scram	-6222
ticky	-6223
ByPath	-6224
SAMPLE	-6225
atched	-6226
naming	-6227
report	-6228
▁event	-6229
▁order	-6230
collect	-6231
ecessor	-6232
▁Writer	-6233
Extended	-6234
getArray	-6235
idString	-6236
▁Security	-6237
EndianType	-6238
opartition	-6239
redecessor	-6240
▁condition	-6241
▁columnName	-6242
DynamicQuery	-6243
SqlBaseParser	-6244
▁operatorType	-6245
▁numPartitions	-6246
beginTransaction	-6247
▁callbackHandler	-6248
2>	-6249
5.	-6250
:\	-6251
we	-6252
yb	-6253
CLO	-6254
abc	-6255
osh	-6256
ason	-6257
rary	-6258
tric	-6259
Chain	-6260
ibosh	-6261
CONVEN	-6262
POLICY	-6263
arable	-6264
punctu	-6265
▁Basic	-6266
▁Batch	-6267
▁times	-6268
inished	-6269
Memtable	-6270
Receiver	-6271
Replicas	-6272
▁failure	-6273
AGGREGATE	-6274
Retention	-6275
RowRecord	-6276
compareTo	-6277
dempotent	-6278
getOffset	-6279
rebalance	-6280
reeMarker	-6281
▁captured	-6282
CONVENTION	-6283
Connectors	-6284
SourceName	-6285
▁ClassUtil	-6286
Compression	-6287
Initialized	-6288
deprecation	-6289
▁assertNext	-6290
ModelFactory	-6291
ynchronously	-6292
▁PatternType	-6293
▁categoryBag	-6294
ChunkMetaData	-6295
▁QueryContext	-6296
▁defaultValue	-6297
AbstractStream	-6298
FindCoordinator	-6299
▁FilterOperator	-6300
▁checkTypeFlags	-6301
ElementException	-6302
83	-6303
hi	-6304
▁"]	-6305
▁()	-6306
▁ns	-6307
9999	-6308
PLUS	-6309
oint	-6310
▁Jsp	-6311
▁TSF	-6312
Clock	-6313
FALSE	-6314
GMENT	-6315
Large	-6316
MATCH	-6317
POINT	-6318
Queri	-6319
SetUp	-6320
basic	-6321
erson	-6322
AUTHOR	-6323
Forwar	-6324
GROUPS	-6325
Select	-6326
artial	-6327
▁Print	-6328
▁alias	-6329
▁since	-6330
ForTest	-6331
Querier	-6332
STARTED	-6333
▁NoSuch	-6334
▁ignore	-6335
▁keysIn	-6336
Creation	-6337
OVERHEAD	-6338
cleanEnv	-6339
▁Message	-6340
▁getTime	-6341
Positions	-6342
aggregate	-6343
changelog	-6344
▁endpoint	-6345
Assertions	-6346
SinkRecord	-6347
▁collector	-6348
▁connProps	-6349
ChunkLoader	-6350
kafkaClient	-6351
▁scaledTime	-6352
templateName	-6353
▁temperature	-6354
getColumnCount	-6355
TargetException	-6356
▁retryBackoffMs	-6357
meseriesMetadata	-6358
ILD	-6359
0001	-6360
Bool	-6361
▁End	-6362
."));	-6363
BATCH	-6364
datap	-6365
▁Iter	-6366
PECTED	-6367
TVList	-6368
ZoneId	-6369
ential	-6370
CONTEXT	-6371
Registr	-6372
URATION	-6373
standby	-6374
uncated	-6375
▁expiry	-6376
BitWidth	-6377
capacity	-6378
parseSQL	-6379
▁startMs	-6380
datapoint	-6381
▁Runnable	-6382
▁Publisher	-6383
FetchRequest	-6384
▁StateSerdes	-6385
GroupsResponse	-6386
OutputVerifier	-6387
▁getConnection	-6388
StartupException	-6389
StreamsException	-6390
("(	-6391
10,	-6392
LEV	-6393
Nan	-6394
Tck	-6395
_2,	-6396
rid	-6397
tor	-6398
▁sg	-6399
")),	-6400
0.0,	-6401
1234	-6402
[][]	-6403
▁"\\	-6404
ARGET	-6405
LEVEL	-6406
RETRY	-6407
ToEnd	-6408
cksDB	-6409
COLUMN	-6410
GLOBAL	-6411
Strict	-6412
reduce	-6413
▁Alter	-6414
Sending	-6415
batches	-6416
ordinal	-6417
▁CREATE	-6418
▁Target	-6419
Evolving	-6420
MockTime	-6421
appender	-6422
envSetUp	-6423
workerId	-6424
▁contact	-6425
▁mkEntry	-6426
(14805626	-6427
Different	-6428
ErrorCode	-6429
▁calendar	-6430
▁memTable	-6431
▁TIMESTAMP	-6432
▁resources	-6433
DateFormats	-6434
TRANSACTION	-6435
▁Coordinator	-6436
▁ValueJoiner	-6437
ClientRequest	-6438
ProcessorName	-6439
TopicMetadata	-6440
▁IntDataPoint	-6441
▁LegacyRecord	-6442
▁TckPublisher	-6443
▁queryDataSet	-6444
ChangelogTopic	-6445
getConfiguration	-6446
▁FindCoordinator	-6447
LY	-6448
'",	-6449
Any	-6450
VAR	-6451
iew	-6452
998-	-6453
NTAX	-6454
that	-6455
▁crc	-6456
▁rel	-6457
-8859	-6458
Macro	-6459
SCOPE	-6460
hello	-6461
paces	-6462
range	-6463
▁push	-6464
▁unit	-6465
EQUALS	-6466
SYNTAX	-6467
Usable	-6468
ancell	-6469
handle	-6470
jected	-6471
lename	-6472
DataFile	-6473
executor	-6474
readLock	-6475
▁+0000",	-6476
getMethod	-6477
▁metaData	-6478
ReadBuffer	-6479
SourceNode	-6480
ValueSerde	-6481
flushState	-6482
adminClient	-6483
▁metricName	-6484
▁numRecords	-6485
KafkaCluster	-6486
Measurements	-6487
▁ClientState	-6488
JsonConverter	-6489
tsFileResource	-6490
ConfigException	-6491
IllegalArgument	-6492
▁expectLastCall	-6493
VersionException	-6494
reemarkerServlet	-6495
▁AggregateResult	-6496
kv	-6497
pw	-6498
Ign	-6499
Mer	-6500
grp	-6501
")).	-6502
FROM	-6503
roll	-6504
Inner	-6505
etter	-6506
ybrid	-6507
Points	-6508
▁Empty	-6509
▁FETCH	-6510
▁named	-6511
NextKey	-6512
SESSION	-6513
Started	-6514
Visible	-6515
success	-6516
Throttle	-6517
▁Grouped	-6518
▁TreeMap	-6519
DataModel	-6520
getBinding	-6521
▁different	-6522
▁handshake	-6523
TimeWindows	-6524
setAuthInfo	-6525
▁generation	-6526
storagegroup	-6527
▁listenerName	-6528
▁tsFileConfig	-6529
legatingLoader	-6530
producerRecord	-6531
▁StreamsMetrics	-6532
▁serviceCounter	-6533
▁streamsMetrics	-6534
InFlightRequests	-6535
▁assertNotEquals	-6536
▁businessService	-6537
NY	-6538
ah	-6539
ACT	-6540
Pub	-6541
▁CA	-6542
▁bo	-6543
Loop	-6544
Work	-6545
]));	-6546
desc	-6547
help	-6548
▁XML	-6549
Bench	-6550
ffers	-6551
▁coun	-6552
marker	-6553
oreach	-6554
▁files	-6555
charset	-6556
minTime	-6557
FilesMap	-6558
describe	-6559
▁Argument	-6560
Registered	-6561
cksDBStore	-6562
management	-6563
▁checkpoint	-6564
▁KafkaMetric	-6565
ConsumerGroup	-6566
Synchronously	-6567
getCompressor	-6568
fetchedRecords	-6569
InstanceDetails	-6570
StreamsTestUtils	-6571
TP	-6572
td	-6573
▁,	-6574
Are	-6575
BUS	-6576
Crc	-6577
Ins	-6578
ice	-6579
oft	-6580
usp	-6581
▁13	-6582
Expo	-6583
TENT	-6584
▁2),	-6585
▁PAT	-6586
(2));	-6587
fixed	-6588
▁make	-6589
livery	-6590
mkdirs	-6591
putInt	-6592
tablet	-6593
▁align	-6594
TreeSet	-6595
dataset	-6596
equalTo	-6597
inition	-6598
schedule	-6599
▁atLeast	-6600
OrInteger	-6601
keySchema	-6602
responses	-6603
▁interval	-6604
Arithmetic	-6605
ersistence	-6606
workerTask	-6607
KafkaFuture	-6608
destination	-6609
getInternal	-6610
▁InsertPlan	-6611
▁parameters	-6612
measurements	-6613
▁TargetState	-6614
getStatusCode	-6615
▁deserializer	-6616
HandlingMetrics	-6617
IoTDBConnection	-6618
▁OutputVerifier	-6619
groupCoordinator	-6620
44	-6621
60	-6622
Sw	-6623
10-	-6624
lot	-6625
rew	-6626
tif	-6627
▁BY	-6628
▁FS	-6629
▁Ro	-6630
')",	-6631
SYNC	-6632
ToBe	-6633
tual	-6634
▁acl	-6635
▁may	-6636
▁{}.	-6637
Timer	-6638
fully	-6639
javax	-6640
KeyBag	-6641
blamed	-6642
getCan	-6643
▁Files	-6644
▁split	-6645
LogFile	-6646
Payload	-6647
Reducer	-6648
eration	-6649
Deletion	-6650
databind	-6651
COMMITTED	-6652
MethodArg	-6653
Requested	-6654
parseLong	-6655
processed	-6656
▁TSStatus	-6657
▁stateMgr	-6658
▁windowed	-6659
extensions	-6660
Initializer	-6661
RootElement	-6662
▁KTableImpl	-6663
SessionWindows	-6664
▁shouldNotAllow	-6665
▁ValueNotAllowed	-6666
]:	-6667
++]	-6668
:0+	-6669
ART	-6670
DEF	-6671
ays	-6672
qtt	-6673
rop	-6674
▁HT	-6675
789)	-6676
rice	-6677
agent	-6678
delet	-6679
event	-6680
▁Base	-6681
▁http	-6682
▁mode	-6683
▁EMPTY	-6684
Aborted	-6685
SQLDate	-6686
▁accept	-6687
▁getName	-6688
▁running	-6689
timeoutMs	-6690
▁starting	-6691
Insensitive	-6692
▁FatalError	-6693
▁privilegeId	-6694
MetadataIndex	-6695
applicationId	-6696
▁AclOperation	-6697
▁seriesReader	-6698
ConsumerGroups	-6699
FormatException	-6700
▁servletContext	-6701
▁transportLayer	-6702
NamingConvention	-6703
'?	-6704
50	-6705
Buf	-6706
tEq	-6707
uri	-6708
Exit	-6709
Mark	-6710
Used	-6711
[]{0	-6712
ATEST	-6713
▁Help	-6714
Digest	-6715
Varint	-6716
998-10-	-6717
CLUSTER	-6718
Listing	-6719
Mockito	-6720
andStub	-6721
seqFile	-6722
▁lookup	-6723
▁nodeId	-6724
▁retval	-6725
▁integer	-6726
templates	-6727
▁Password	-6728
BytesUtils	-6729
Mechanisms	-6730
Suppressed	-6731
tification	-6732
▁BatchData	-6733
▁arguments	-6734
modification	-6735
▁UDDIInquiry	-6736
▁businessKey	-6737
TransformModel	-6738
Transformation	-6739
schemaVersions	-6740
AbstractRequest	-6741
▁schemaVersions	-6742
▁transformation	-6743
TSFileDescriptor	-6744
▁PunctuationType	-6745
▁connectorConfig	-6746
31	-6747
("1	-6748
])\	-6749
▁ow	-6750
▁tv	-6751
(-1,	-6752
-1",	-6753
Enti	-6754
Sent	-6755
Trip	-6756
VOKE	-6757
[])\	-6758
ucts	-6759
▁));	-6760
▁avg	-6761
LOCAL	-6762
▁User	-6763
▁[])\	-6764
SITIVE	-6765
herder	-6766
▁doesn	-6767
Expired	-6768
OrShort	-6769
ferType	-6770
forEach	-6771
sInPage	-6772
JsonNode	-6773
Runnable	-6774
▁recover	-6775
Optimizer	-6776
easurable	-6777
▁registry	-6778
EndOffsets	-6779
SaslServer	-6780
TimeSensor	-6781
▁TimeRange	-6782
▁processed	-6783
Interceptor	-6784
▁AtomicLong	-6785
▁testDriver	-6786
PointsInPage	-6787
▁taskConfigs	-6788
NumberFormats	-6789
ParserException	-6790
▁QueryableStore	-6791
SecurityPortType	-6792
38	-6793
4;	-6794
59	-6795
cb	-6796
wh	-6797
▁\	-6798
2),	-6799
CEI	-6800
IND	-6801
Nam	-6802
sec	-6803
web	-6804
▁2.	-6805
▁4,	-6806
cent	-6807
▁"2:	-6808
▁Dir	-6809
▁did	-6810
Price	-6811
White	-6812
▁Void	-6813
Expect	-6814
ategor	-6815
submit	-6816
▁exist	-6817
▁limit	-6818
LITERAL	-6819
Regular	-6820
Structs	-6821
itionTo	-6822
skipped	-6823
DateType	-6824
Starting	-6825
location	-6826
▁release	-6827
ClaimName	-6828
NodeModel	-6829
parameter	-6830
▁Listener	-6831
▁Priority	-6832
▁stateDir	-6833
MethodUtil	-6834
authorized	-6835
invalidkey	-6836
mainRanges	-6837
timestamps	-6838
▁Composite	-6839
Application	-6840
InputFormat	-6841
IoTDBConfig	-6842
▁chunkGroup	-6843
Notification	-6844
oreachAction	-6845
▁kafkaStreams	-6846
AuthorizedName	-6847
TimeSeriesPlan	-6848
getDescription	-6849
▁EntityManager	-6850
▁TestJaasConfig	-6851
ClientConnection	-6852
StringSerializer	-6853
▁ProduceResponse	-6854
PC	-6855
3")	-6856
Jsp	-6857
uid	-6858
xxx	-6859
("--	-6860
Bits	-6861
Once	-6862
▁"3:	-6863
▁agg	-6864
Digit	-6865
Round	-6866
abort	-6867
cheme	-6868
clazz	-6869
▁Show	-6870
▁TYPE	-6871
▁elem	-6872
OBJECT	-6873
▁"1");	-6874
▁Multi	-6875
ByIndex	-6876
Matches	-6877
factory	-6878
▁simple	-6879
▁tsfile	-6880
Migrated	-6881
Platform	-6882
SeqFiles	-6883
duration	-6884
▁Segment	-6885
▁allowed	-6886
Scheduler	-6887
Serialize	-6888
osEnabled	-6889
▁construct	-6890
▁transient	-6891
GlobMatcher	-6892
TaskConfigs	-6893
TemplateAPI	-6894
ToPlainText	-6895
▁assertSink	-6896
SUBSCRIPTION	-6897
EncodingUtils	-6898
▁FetchRequest	-6899
▁StoreBuilder	-6900
▁assertFormat	-6901
CallableMember	-6902
▁ioTDBRpcDataSet	-6903
72	-6904
Im	-6905
TM	-6906
tf	-6907
▁Z	-6908
dst	-6909
▁"@	-6910
▁(_	-6911
▁7;	-6912
▁TR	-6913
Conn	-6914
NULL	-6915
Step	-6916
ZERO	-6917
some	-6918
▁"-"	-6919
▁Max	-6920
▁Tag	-6921
▁job	-6922
▁rec	-6923
▁you	-6924
DELAY	-6925
▁Name	-6926
▁flag	-6927
Router	-6928
Shared	-6929
markup	-6930
sender	-6931
▁Debug	-6932
▁Error	-6933
ByParam	-6934
COMPRES	-6935
Folders	-6936
nextInt	-6937
resolve	-6938
▁groups	-6939
TestCase	-6940
fficient	-6941
ormalize	-6942
▁written	-6943
getClient	-6944
▁maxBytes	-6945
Accumulator	-6946
▁configured	-6947
▁ConfigValue	-6948
▁valueJoiner	-6949
SinkConnector	-6950
andStubReturn	-6951
▁OffsetCommit	-6952
EscapingPolicy	-6953
XmlRootElement	-6954
ServerException	-6955
CoordinatorReady	-6956
40	-6957
79	-6958
IM	-6959
__	-6960
nf	-6961
▁u	-6962
KET	-6963
Tab	-6964
[].	-6965
▁":	-6966
▁";	-6967
()];	-6968
Peek	-6969
rime	-6970
▁":"	-6971
▁mod	-6972
▁tab	-6973
INESS	-6974
MERGE	-6975
Outer	-6976
TRUST	-6977
ertif	-6978
▁Java	-6979
Fenced	-6980
Remote	-6981
adline	-6982
ailing	-6983
alInfo	-6984
encies	-6985
▁Deque	-6986
▁MNode	-6987
▁prime	-6988
▁using	-6989
▁timeTo	-6990
▁zoneId	-6991
Changing	-6992
readLong	-6993
▁INVALID	-6994
▁maximum	-6995
Projector	-6996
▁Iterable	-6997
▁filtered	-6998
Refreshing	-6999
▁FileUtils	-7000
▁BuiltInFor	-7001
KafkaStreams	-7002
OffsetsToTxn	-7003
▁chunkWriter	-7004
AuthException	-7005
ServiceDetail	-7006
ConfigsResponse	-7007
getOutputFormat	-7008
▁SimpleSequence	-7009
▁queryExpression	-7010
4)	-7011
46	-7012
02(	-7013
20,	-7014
LTA	-7015
arm	-7016
pid	-7017
RITE	-7018
peat	-7019
prop	-7020
yyyy	-7021
Clone	-7022
Paren	-7023
SHORT	-7024
TRIES	-7025
▁attr	-7026
▁done	-7027
Loaded	-7028
▁owner	-7029
Compare	-7030
Threads	-7031
aintain	-7032
example	-7033
recover	-7034
▁Custom	-7035
▁getAll	-7036
▁stores	-7037
BUSINESS	-7038
readable	-7039
Predicate	-7040
Scheduled	-7041
getLocale	-7042
listFiles	-7043
▁supports	-7044
ASSIGNMENT	-7045
ApiVersion	-7046
Idempotent	-7047
UDDIClient	-7048
consumerId	-7049
getBoolean	-7050
groupByKey	-7051
▁nodeNames	-7052
ExceptionOn	-7053
ServiceWSDL	-7054
▁Assertions	-7055
TModelDetail	-7056
TopicManager	-7057
▁workerProps	-7058
MatcherAssert	-7059
getStatistics	-7060
▁rocksDBStore	-7061
▁logAppendTime	-7062
▁updatedSchema	-7063
AccessException	-7064
RefreshingLogin	-7065
▁statusListener	-7066
''	-7067
UG	-7068
(6,	-7069
/*<	-7070
20.	-7071
64_	-7072
aly	-7073
lap	-7074
Than	-7075
ULTI	-7076
aise	-7077
getR	-7078
oned	-7079
▁tbl	-7080
Joins	-7081
Proxy	-7082
TASKS	-7083
XPath	-7084
press	-7085
▁"1",	-7086
▁Meta	-7087
ERRORS	-7088
cribed	-7089
wakeup	-7090
▁1000,	-7091
▁agent	-7092
▁enter	-7093
AndTime	-7094
FileMap	-7095
Loaders	-7096
PROCESS	-7097
▁STREAM	-7098
▁detail	-7099
▁tokens	-7100
▁TreeSet	-7101
Businesses	-7102
FindEntity	-7103
PageReader	-7104
Serialized	-7105
ertificate	-7106
persistent	-7107
getChildren	-7108
▁SinkRecord	-7109
FileSelector	-7110
MetricConfig	-7111
▁assignments	-7112
▁entityAlias	-7113
ServerConfigs	-7114
▁WorkerConfig	-7115
SecurityConfigs	-7116
ToDateConverter	-7117
getIncompatible	-7118
▁producerConfig	-7119
▁StringContainer	-7120
▁UDDIPublication	-7121
▁topologyBuilder	-7122
[3	-7123
bb	-7124
USH	-7125
▁31	-7126
▁At	-7127
▁TH	-7128
01",	-7129
ACLS	-7130
_1",	-7131
amel	-7132
dsig	-7133
hone	-7134
zero	-7135
Alter	-7136
Clean	-7137
Pairs	-7138
serde	-7139
▁Load	-7140
-8859-	-7141
DESCRI	-7142
Produc	-7143
Sample	-7144
▁stats	-7145
▁wrong	-7146
alendar	-7147
include	-7148
xmldsig	-7149
Entities	-7150
Nullable	-7151
Replaced	-7152
rivilege	-7153
▁RocksDB	-7154
▁keyName	-7155
▁queryId	-7156
▁seqFile	-7157
FetchSize	-7158
PLAINTEXT	-7159
▁Document	-7160
▁modified	-7161
▁Character	-7162
AccessPoint	-7163
▁endOffsets	-7164
ingException	-7165
▁QueryStatus	-7166
▁valueSchema	-7167
AckedSequence	-7168
toConnectData	-7169
▁ApiException	-7170
▁CreateTopics	-7171
▁SaslExtensions	-7172
▁valueSerializer	-7173
(8	-7174
74	-7175
76	-7176
>*/	-7177
GOR	-7178
NED	-7179
Now	-7180
RAM	-7181
WEB	-7182
ats	-7183
rie	-7184
▁"5	-7185
DIFF	-7186
SHUT	-7187
card	-7188
case	-7189
etwe	-7190
pack	-7191
Using	-7192
clerk	-7193
▁calc	-7194
arness	-7195
etween	-7196
izable	-7197
mented	-7198
single	-7199
▁Agent	-7200
▁addTo	-7201
▁outer	-7202
FromKey	-7203
Written	-7204
Skipping	-7205
TaskSpec	-7206
Unsigned	-7207
getFloat	-7208
getLocal	-7209
newValue	-7210
▁Initial	-7211
▁Matcher	-7212
998-10-30	-7213
MECHANISM	-7214
TimeRange	-7215
ersonName	-7216
iteration	-7217
▁Constant	-7218
▁document	-7219
▁elements	-7220
▁provider	-7221
MapWrapper	-7222
▁ReadWrite	-7223
▁commonFTL	-7224
▁dateToISO	-7225
▁reconnect	-7226
127.0.0.1",	-7227
getDataType	-7228
▁Comparable	-7229
OutputRecord	-7230
▁testInvalid	-7231
▁topicStruct	-7232
IdentifierBag	-7233
LinkedHashMap	-7234
TransferToken	-7235
measurementId	-7236
▁incompatible	-7237
BufferedReader	-7238
▁TestCondition	-7239
▁producerProps	-7240
AndTimeTimeZone	-7241
▁AtomicReference	-7242
▁TsPrimitiveType	-7243
FE	-7244
("-	-7245
3()	-7246
DEX	-7247
Foo	-7248
RED	-7249
cen	-7250
▁UN	-7251
▁pa	-7252
("1.	-7253
sent	-7254
▁VER	-7255
▁two	-7256
Alarm	-7257
Nanos	-7258
tiles	-7259
ulate	-7260
▁inst	-7261
(1000,	-7262
:30:00	-7263
Latest	-7264
Suffix	-7265
notify	-7266
▁grace	-7267
▁serde	-7268
IZATION	-7269
latency	-7270
▁COMMIT	-7271
ByDevice	-7272
FillPlan	-7273
WINDOWED	-7274
centiles	-7275
uspended	-7276
▁VERSION	-7277
▁brokers	-7278
InferType	-7279
▁Business	-7280
▁Property	-7281
▁TextNode	-7282
▁oldValue	-7283
ArrayIndex	-7284
DirtyEntry	-7285
logContext	-7286
setSetting	-7287
sufficient	-7288
windowedBy	-7289
StartOffset	-7290
globalTable	-7291
▁elementIdx	-7292
▁fileWriter	-7293
▁firstValue	-7294
getAuthToken	-7295
▁AbstractCli	-7296
▁authInfoJoe	-7297
▁recordValue	-7298
getServiceKey	-7299
ConnectMetrics	-7300
▁SaslException	-7301
▁connectorName	-7302
ServletResponse	-7303
▁KafkaPrincipal	-7304
ForEncodingUtils	-7305
▁ConnectorStatus	-7306
24,	-7307
▁dr	-7308
▁os	-7309
▁xs	-7310
(2),	-7311
Else	-7312
Prim	-7313
SORT	-7314
alyz	-7315
pret	-7316
▁fil	-7317
Strip	-7318
clone	-7319
▁INIT	-7320
Append	-7321
Tables	-7322
Tokens	-7323
legate	-7324
▁await	-7325
PRODUCE	-7326
Readers	-7327
content	-7328
ollower	-7329
▁Sender	-7330
▁Stores	-7331
▁hybrid	-7332
▁invoke	-7333
DESCRIBE	-7334
IfExists	-7335
earliest	-7336
windowed	-7337
▁Helpers	-7338
▁apiDesc	-7339
Immutable	-7340
StyleName	-7341
countDown	-7342
▁TEMPLATE	-7343
▁maxBlock	-7344
FileReader	-7345
baseOffset	-7346
thenReturn	-7347
▁Predicate	-7348
▁errorCode	-7349
IExpression	-7350
addArgument	-7351
doubleValue	-7352
putIfAbsent	-7353
▁seriesPath	-7354
DiscoveryURL	-7355
IPointReader	-7356
StandardFile	-7357
▁destination	-7358
▁getInstance	-7359
▁groupByPlan	-7360
▁loginModule	-7361
ConnectorInfo	-7362
latestVersion	-7363
▁SessionStore	-7364
ClientResponse	-7365
DirectiveModel	-7366
▁RecordCollector	-7367
71	-7368
CB	-7369
OL	-7370
Sk	-7371
TC	-7372
Job	-7373
ome	-7374
▁),	-7375
3));	-7376
=[{}	-7377
boun	-7378
gexp	-7379
isit	-7380
▁xml	-7381
APING	-7382
GRANT	-7383
▁sort	-7384
▁alter	-7385
▁fatal	-7386
▁least	-7387
Consume	-7388
foreach	-7389
▁Status	-7390
▁markup	-7391
ESCAPING	-7392
Matching	-7393
SHUTDOWN	-7394
WithNull	-7395
ecognize	-7396
etaJoins	-7397
▁publish	-7398
.123.456(	-7399
directory	-7400
newCapture	-7401
▁DataPoint	-7402
getArgument	-7403
SettingsTest	-7404
baseSequence	-7405
KeyValueMapper	-7406
▁ChunkMetadata	-7407
compressionType	-7408
▁authentication	-7409
▁createTemplate	-7410
_1	-7411
("2	-7412
GEX	-7413
▁TP	-7414
Both	-7415
Lead	-7416
VELO	-7417
]");	-7418
wsdl	-7419
Build	-7420
Manag	-7421
iable	-7422
ollow	-7423
▁Eval	-7424
▁Publ	-7425
▁head	-7426
(10000	-7427
00000,	-7428
PROPER	-7429
TARGET	-7430
tempts	-7431
▁klass	-7432
Prepare	-7433
WebParam	-7434
entities	-7435
leftJoin	-7436
▁Records	-7437
▁grouped	-7438
▁pending	-7439
Factories	-7440
▁EvalUtil	-7441
▁Location	-7442
▁throttle	-7443
Authorizer	-7444
Marshaller	-7445
TException	-7446
byteBuffer	-7447
BatchReader	-7448
UDDIInquiry	-7449
▁UddiEntity	-7450
▁consumerId	-7451
▁expiration	-7452
MockProducer	-7453
SourceRecord	-7454
▁FileChannel	-7455
RequestResult	-7456
TypeException	-7457
timestampType	-7458
▁checkRequest	-7459
▁mockConsumer	-7460
▁storeBuilder	-7461
xnOffsetCommit	-7462
▁applicationId	-7463
▁configStorage	-7464
▁sendOldValues	-7465
HeaderConverter	-7466
MetadataRequest	-7467
81	-7468
Py	-7469
ha	-7470
ia	-7471
(()	-7472
-02	-7473
xAA	-7474
▁3.	-7475
▁5,	-7476
▁>>	-7477
▁ip	-7478
▁|=	-7479
Rows	-7480
pond	-7481
("");	-7482
Agent	-7483
ForUn	-7484
Sends	-7485
expos	-7486
mited	-7487
usted	-7488
▁extr	-7489
AUTHEN	-7490
LEANUP	-7491
[0]));	-7492
sqlStr	-7493
▁Meter	-7494
▁nonce	-7495
Varlong	-7496
WRAPPER	-7497
baseDir	-7498
▁Herder	-7499
▁Joined	-7500
▁sqlStr	-7501
AsDouble	-7502
formance	-7503
getFirst	-7504
maybeAdd	-7505
▁control	-7506
ClusterId	-7507
PRINCIPAL	-7508
canonical	-7509
Collectors	-7510
ParamValue	-7511
Privileges	-7512
TimeFormat	-7513
columnName	-7514
sourceName	-7515
▁FSFactory	-7516
Aggregation	-7517
▁Connection	-7518
▁assertTask	-7519
Registration	-7520
CanonicalForm	-7521
CurArrayIndex	-7522
getSourceName	-7523
▁ChannelState	-7524
▁sessionStore	-7525
incrementAndGet	-7526
▁channelBuilder	-7527
▁schemaAndValue	-7528
00.	-7529
189	-7530
ADE	-7531
Lib	-7532
Rle	-7533
Tun	-7534
Wid	-7535
ire	-7536
▁6;	-7537
▁Op	-7538
▁br	-7539
BAOS	-7540
\",\	-7541
flow	-7542
hole	-7543
orld	-7544
▁Web	-7545
▁\""	-7546
▁err	-7547
▁jar	-7548
99)",	-7549
CHILD	-7550
GENER	-7551
KAFKA	-7552
Water	-7553
tions	-7554
LATEST	-7555
Unable	-7556
ineTun	-7557
▁0.0);	-7558
▁Types	-7559
▁force	-7560
▁juddi	-7561
CONTENT	-7562
DirInfo	-7563
Instant	-7564
UseType	-7565
limited	-7566
overlap	-7567
▁HEADER	-7568
▁folder	-7569
▁suffix	-7570
isClosed	-7571
javaDate	-7572
▁display	-7573
▁minTime	-7574
▁mySerde	-7575
▁unknown	-7576
Variables	-7577
WaterMark	-7578
▁EXPECTED	-7579
CertStores	-7580
Overlapped	-7581
getVersion	-7582
randomUUID	-7583
setDefault	-7584
▁Primitive	-7585
▁attribute	-7586
▁endOffset	-7587
ChunkHeader	-7588
Information	-7589
▁Restorable	-7590
▁instanceOf	-7591
StandbyTasks	-7592
getAttribute	-7593
arrayToString	-7594
correlationId	-7595
plicationFactor	-7596
unmodifiableMap	-7597
▁partitionState	-7598
▁getSubscription	-7599
-2	-7600
yc	-7601
("*	-7602
()[	-7603
AVE	-7604
Dat	-7605
cep	-7606
eap	-7607
▁df	-7608
▁hi	-7609
199,	-7610
Uses	-7611
]:0+	-7612
coun	-7613
oing	-7614
▁12.	-7615
▁lib	-7616
▁squ	-7617
Calls	-7618
[0]);	-7619
alias	-7620
alone	-7621
iding	-7622
pared	-7623
▁peek	-7624
▁same	-7625
Includ	-7626
Parsed	-7627
VELOPE	-7628
center	-7629
sorted	-7630
▁occur	-7631
▁xpath	-7632
FineTun	-7633
▁KTABLE	-7634
▁decode	-7635
▁render	-7636
Equality	-7637
PageData	-7638
TooLarge	-7639
▁Subject	-7640
BatchSize	-7641
FineTuner	-7642
andAnswer	-7643
getTModel	-7644
▁Embedded	-7645
▁partName	-7646
▁readOnly	-7647
▁versions	-7648
▁fsFactory	-7649
▁Persistence	-7650
AUTHORIZATION	-7651
ClassResolver	-7652
Introspection	-7653
responseSchema	-7654
▁socketChannel	-7655
AssertionStatus	-7656
fromConnectData	-7657
▁BusinessEntity	-7658
▁unseqResources	-7659
delegatingLoader	-7660
▁ClientDnsLookup	-7661
▁WindowKeySchema	-7662
▁consumerGroupId	-7663
)[	-7664
SK	-7665
xs	-7666
'>"	-7667
Bad	-7668
ZIP	-7669
ied	-7670
jws	-7671
mod	-7672
xFB	-7673
▁""	-7674
▁00	-7675
!");	-7676
>>()	-7677
Tips	-7678
lers	-7679
tFtl	-7680
"))).	-7681
DISPL	-7682
Email	-7683
PROPS	-7684
getAs	-7685
olved	-7686
▁"1".	-7687
▁cast	-7688
CURITY	-7689
InThis	-7690
Letter	-7691
alance	-7692
▁Token	-7693
▁space	-7694
▁until	-7695
Minutes	-7696
OrFloat	-7697
Package	-7698
contain	-7699
setText	-7700
subject	-7701
Restorer	-7702
RowCount	-7703
ToDelete	-7704
ingState	-7705
▁decoder	-7706
▁loopVar	-7707
fieldName	-7708
idingStep	-7709
▁checksum	-7710
▁negative	-7711
InThisPage	-7712
TRUSTSTORE	-7713
alTemplate	-7714
createMock	-7715
▁duplicate	-7716
▁hasCached	-7717
▁versionId	-7718
ByPartition	-7719
FileChannel	-7720
REPLICATION	-7721
getAuthInfo	-7722
getMetaData	-7723
BufferConfig	-7724
Insufficient	-7725
PubAssertion	-7726
addParameter	-7727
▁StringBuffer	-7728
▁modification	-7729
businessEntity	-7730
paredStatement	-7731
MetricsRegistry	-7732
getStorageGroup	-7733
▁BufferedReader	-7734
▁FutureCallback	-7735
InitTransactions	-7736
getCanonicalForm	-7737
▁SchemaProjector	-7738
▁restoreConsumer	-7739
,\	-7740
EA	-7741
("{	-7742
02,	-7743
:80	-7744
DAY	-7745
IDE	-7746
MAL	-7747
alm	-7748
▁ct	-7749
▁ps	-7750
EXPI	-7751
RESH	-7752
avar	-7753
aved	-7754
tree	-7755
ALLOW	-7756
Annot	-7757
Actual	-7758
Notify	-7759
ecimal	-7760
CONTROL	-7761
Changed	-7762
IndexOf	-7763
REFRESH	-7764
metavar	-7765
project	-7766
▁bitmap	-7767
▁please	-7768
ENVELOPE	-7769
Follower	-7770
JUDDIApi	-7771
Uncaught	-7772
datetime	-7773
declared	-7774
ectories	-7775
restored	-7776
Consumers	-7777
Responses	-7778
▁mmanager	-7779
FatalError	-7780
▁consumers	-7781
▁deviceIds	-7782
valueGetter	-7783
▁serviceKey	-7784
▁updateStats	-7785
DecimalFormat	-7786
▁SimpleNumber	-7787
▁conditionMet	-7788
ReplicaLogDirs	-7789
▁entityKeyList	-7790
queryExpression	-7791
▁BindingTemplate	-7792
OK	-7793
jo	-7794
og	-7795
123	-7796
Occ	-7797
Ops	-7798
Siz	-7799
Sys	-7800
▁Is	-7801
))),	-7802
Does	-7803
ENCE	-7804
done	-7805
repl	-7806
sPer	-7807
▁'{}	-7808
▁URI	-7809
▁lho	-7810
ESCRI	-7811
Force	-7812
WRITE	-7813
▁"2",	-7814
▁Hash	-7815
Setter	-7816
getMin	-7817
loader	-7818
tifier	-7819
▁appID	-7820
ArrayOf	-7821
Classes	-7822
dataSet	-7823
queryId	-7824
startMs	-7825
▁DESCRI	-7826
▁follow	-7827
▁timeMs	-7828
Combined	-7829
Debugger	-7830
IService	-7831
rollback	-7832
▁logNode	-7833
CharArray	-7834
RIVILEGES	-7835
Unsecured	-7836
WhiteList	-7837
batchData	-7838
plainText	-7839
▁Calendar	-7840
▁Kerberos	-7841
▁NewTopic	-7842
▁describe	-7843
FilterTest	-7844
InputSplit	-7845
InsertPlan	-7846
Throughput	-7847
▁fetchSize	-7848
▁fieldName	-7849
▁keysFound	-7850
▁projected	-7851
▁topicData	-7852
ChunkReader	-7853
AbsoluteName	-7854
Aggregations	-7855
seqResources	-7856
SocketChannel	-7857
StateListener	-7858
▁MockConsumer	-7859
▁LocationAware	-7860
▁metricGrpName	-7861
ConversionPrice	-7862
bindingTemplate	-7863
▁expectedResult	-7864
▁requestBuilder	-7865
▁ConnectorConfig	-7866
fm	-7867
0))	-7868
LIM	-7869
SEN	-7870
▁io	-7871
("</	-7872
101,	-7873
Have	-7874
LLER	-7875
▁Raw	-7876
(10);	-7877
8601_	-7878
ADDER	-7879
EXTEN	-7880
ICATE	-7881
getUn	-7882
onyms	-7883
optim	-7884
JOINER	-7885
Sorter	-7886
Termin	-7887
memory	-7888
models	-7889
option	-7890
runner	-7891
toPath	-7892
▁descr	-7893
▁{}.",	-7894
Correct	-7895
DISPLAY	-7896
DirPath	-7897
Varargs	-7898
▁VALUES	-7899
ForTopic	-7900
TOSTREAM	-7901
ToSearch	-7902
ToSource	-7903
VERSIONS	-7904
ancelled	-7905
▁Decimal	-7906
▁Runtime	-7907
▁attempt	-7908
▁reverse	-7909
Sensitive	-7910
getFields	-7911
▁DESCRIBE	-7912
SaslClient	-7913
getSession	-7914
hasCurrent	-7915
▁formatter	-7916
▁rowRecord	-7917
Enumeration	-7918
StandbyTask	-7919
aggregation	-7920
getAsString	-7921
▁bytesValue	-7922
▁connConfig	-7923
getFSFactory	-7924
getPublisher	-7925
storeBuilder	-7926
▁publication	-7927
URLConnection	-7928
▁formatString	-7929
liveryTimeoutMs	-7930
riableException	-7931
AbstractResponse	-7932
AppConfiguration	-7933
▁partitionStruct	-7934
Bl	-7935
001	-7936
131	-7937
CLU	-7938
EAR	-7939
EST	-7940
UND	-7941
▁An	-7942
,11,	-7943
_2",	-7944
gtEq	-7945
sign	-7946
▁cre	-7947
CData	-7948
INDEX	-7949
fiers	-7950
▁Stop	-7951
▁exit	-7952
boxing	-7953
uspend	-7954
▁getOr	-7955
▁multi	-7956
REPLICA	-7957
Updater	-7958
getData	-7959
KeySerde	-7960
TaskPool	-7961
ferToken	-7962
provider	-7963
▁Servlet	-7964
MapValues	-7965
getDouble	-7966
iresAfter	-7967
joinGroup	-7968
ubscribed	-7969
▁THROTTLE	-7970
▁filename	-7971
Configured	-7972
▁Heartbeat	-7973
▁Immutable	-7974
▁byteBuffer	-7975
▁insertPlan	-7976
▁persistent	-7977
(14805626189	-7978
setStyleName	-7979
▁addTemplate	-7980
PartitionState	-7981
TransportLayer	-7982
sequenceNumber	-7983
▁processorName	-7984
WithKeySupplier	-7985
DataOutputStream	-7986
getEntityManager	-7987
▁StreamsMetadata	-7988
▁workerConnector	-7989
FC	-7990
Fr	-7991
OW	-7992
+01	-7993
232	-7994
Ctx	-7995
cli	-7996
jar	-7997
ose	-7998
ump	-7999
▁"?	-8000
Post	-8001
Swap	-8002
fill	-8003
need	-8004
▁5);	-8005
▁got	-8006
CEIVE	-8007
estim	-8008
▁"201	-8009
ATIBLE	-8010
During	-8011
JQuote	-8012
LoadIn	-8013
decode	-8014
mapper	-8015
socket	-8016
▁Close	-8017
▁abort	-8018
▁level	-8019
▁parts	-8020
▁plain	-8021
Balance	-8022
▁RECORD	-8023
▁Reader	-8024
▁Update	-8025
▁obtain	-8026
LRUCache	-8027
Provided	-8028
Segments	-8029
consumed	-8030
isActive	-8031
▁maxWait	-8032
▁endPoint	-8033
▁tblCount	-8034
COMPATIBLE	-8035
▁Condition	-8036
▁canonical	-8037
▁convertTo	-8038
▁groupName	-8039
▁newRecord	-8040
segmentName	-8041
setTemplate	-8042
▁FreeMarker	-8043
▁NumberUtil	-8044
▁TaskStatus	-8045
▁compressor	-8046
icCompatible	-8047
onedDateTime	-8048
▁JaasContext	-8049
▁ValueMapper	-8050
▁newConsumer	-8051
MockProcessor	-8052
▁Authenticate	-8053
▁ListenerName	-8054
▁taskAssignor	-8055
StatementExecu	-8056
TopicException	-8057
getCategoryBag	-8058
getTransaction	-8059
OperationalInfo	-8060
MetadataResponse	-8061
getStreamsConfig	-8062
▁MockValueJoiner	-8063
53	-8064
54	-8065
(":	-8066
++,	-8067
--;	-8068
../	-8069
2).	-8070
Gen	-8071
ONY	-8072
etc	-8073
ird	-8074
▁11	-8075
▁1]	-8076
▁ID	-8077
3456	-8078
64);	-8079
cryp	-8080
▁JOE	-8081
INGLE	-8082
▁hdfs	-8083
apping	-8084
fetime	-8085
istent	-8086
visual	-8087
▁1.0);	-8088
▁13131	-8089
Invoker	-8090
Sources	-8091
advance	-8092
getLang	-8093
▁Sticky	-8094
AndCheck	-8095
Embedded	-8096
snapshot	-8097
▁CONFIGS	-8098
▁STREAMS	-8099
▁columns	-8100
▁elapsed	-8101
SENSITIVE	-8102
▁METADATA	-8103
▁getChild	-8104
▁userStmt	-8105
CONNECTION	-8106
FindTModel	-8107
SystemTime	-8108
▁operating	-8109
▁sslEngine	-8110
MergeReader	-8111
SerializeId	-8112
accumulator	-8113
▁PRIVILEGES	-8114
▁dynamicQry	-8115
▁invocation	-8116
QueryContext	-8117
configcenter	-8118
incompatible	-8119
Configurations	-8120
▁assertNotSame	-8121
▁ServletContext	-8122
▁StateDirectory	-8123
SaslAuthenticate	-8124
▁tsFileProcessor	-8125
Cb	-8126
03.	-8127
ENG	-8128
IDS	-8129
wer	-8130
▁"&	-8131
▁Av	-8132
Disk	-8133
UPGR	-8134
aged	-8135
mary	-8136
park	-8137
▁4);	-8138
▁For	-8139
▁ROW	-8140
▁utf	-8141
,789)	-8142
Added	-8143
Occup	-8144
RESET	-8145
spark	-8146
▁Modi	-8147
▁lead	-8148
Escape	-8149
Expire	-8150
Public	-8151
Supert	-8152
Visual	-8153
▁could	-8154
▁debug	-8155
Tracker	-8156
UPGRADE	-8157
centage	-8158
erences	-8159
getUser	-8160
▁1000);	-8161
▁answer	-8162
(1509465	-8163
DateUtil	-8164
InstInfo	-8165
KEYSTORE	-8166
LOCATION	-8167
OffsetOf	-8168
cacheKey	-8169
function	-8170
lexTable	-8171
maxValue	-8172
roleName	-8173
ustStore	-8174
writelog	-8175
▁Plugins	-8176
▁include	-8177
▁retries	-8178
Isolation	-8179
TagSyntax	-8180
addRecord	-8181
className	-8182
Disconnect	-8183
PageHeader	-8184
ResultFrom	-8185
▁authToken	-8186
▁getString	-8187
▁logPrefix	-8188
ErrorHelper	-8189
dIdentifier	-8190
taskManager	-8191
theCaptured	-8192
toByteArray	-8193
▁collection	-8194
Intermediate	-8195
▁interceptor	-8196
DelayedJQuote	-8197
tempDirectory	-8198
▁OutputStream	-8199
▁SyncConstant	-8200
StoreKeyBinary	-8201
▁RecordHeaders	-8202
AggregateResult	-8203
RemoteException	-8204
workerConnector	-8205
▁ConfigResource	-8206
▁Transformation	-8207
▁selectedSeries	-8208
HTMLOutputFormat	-8209
ValueTransformer	-8210
▁BusinessService	-8211
(@	-8212
1=	-8213
48	-8214
8;	-8215
@0	-8216
0.0	-8217
2))	-8218
ryp	-8219
▁50	-8220
▁If	-8221
("\"	-8222
Mary	-8223
aled	-8224
apos	-8225
appy	-8226
blah	-8227
ftlx	-8228
▁"--	-8229
▁"1,	-8230
▁"2,	-8231
(3)).	-8232
Chars	-8233
Three	-8234
ToInt	-8235
▁HTML	-8236
▁dump	-8237
▁hmac	-8238
▁rate	-8239
▁stub	-8240
Caches	-8241
Synced	-8242
lookup	-8243
▁TRANS	-8244
▁added	-8245
▁numOf	-8246
▁there	-8247
()))));	-8248
addSink	-8249
encoder	-8250
epClone	-8251
running	-8252
▁WORKER	-8253
SECURITY	-8254
getShort	-8255
isEnable	-8256
ockPanel	-8257
oseconds	-8258
▁enabled	-8259
▁without	-8260
Connected	-8261
NullInput	-8262
WebMethod	-8263
assertion	-8264
ectionKey	-8265
forwarded	-8266
getResult	-8267
isolation	-8268
▁delegate	-8269
Successful	-8270
timeseries	-8271
▁Transform	-8272
ConfigValue	-8273
PluginUtils	-8274
PointNumber	-8275
SwapLoaders	-8276
▁Invocation	-8277
▁prepareAdd	-8278
▁thetaJoins	-8279
resourceType	-8280
▁TimeWindows	-8281
▁outputTopic	-8282
▁partitioner	-8283
▁stringSerde	-8284
▁ExpectedTask	-8285
▁errorMessage	-8286
DeviceMetadata	-8287
▁correlationId	-8288
▁documentation	-8289
▁IsolationLevel	-8290
ArithmeticEngine	-8291
ConnectorContext	-8292
getMeasurementId	-8293
opartitionGroups	-8294
▁segmentInterval	-8295
,"	-8296
AA	-8297
Tl	-8298
[4	-8299
cs	-8300
(15	-8301
6",	-8302
HAS	-8303
IBU	-8304
ITI	-8305
Win	-8306
inf	-8307
▁SY	-8308
(3);	-8309
AndM	-8310
Help	-8311
META	-8312
POSE	-8313
PRED	-8314
Refl	-8315
docs	-8316
ique	-8317
orge	-8318
▁").	-8319
▁uri	-8320
(5));	-8321
CLUDE	-8322
Numer	-8323
Stamp	-8324
appen	-8325
eeper	-8326
graph	-8327
nappy	-8328
▁"0";	-8329
▁2000	-8330
▁DATE	-8331
▁LONG	-8332
▁Send	-8333
▁drfm	-8334
(0)));	-8335
(100);	-8336
Models	-8337
Retain	-8338
aiters	-8339
getter	-8340
▁DELTA	-8341
▁needs	-8342
Complex	-8343
Imports	-8344
InGroup	-8345
exposes	-8346
writeTo	-8347
▁Series	-8348
▁pushTo	-8349
FileList	-8350
MManager	-8351
readLine	-8352
replicas	-8353
▁IAnswer	-8354
▁require	-8355
Addresses	-8356
ArrayPool	-8357
PREDICATE	-8358
izationId	-8359
▁PRODUCER	-8360
▁langCode	-8361
▁schedule	-8362
Compressed	-8363
Definition	-8364
StoreNames	-8365
▁longStats	-8366
SortedCache	-8367
getUDDINode	-8368
lastIndexOf	-8369
publication	-8370
sendFetches	-8371
CommonSupert	-8372
LookupResult	-8373
▁maxMessages	-8374
RestExtension	-8375
SessionWindow	-8376
connectorName	-8377
▁RecordHeader	-8378
▁currentIndex	-8379
▁shouldReturn	-8380
consumerRecord	-8381
▁FilterFactory	-8382
StringInferType	-8383
▁TemplateLoader	-8384
▁createAndCheck	-8385
▁inputRemaining	-8386
ConnectException	-8387
InstructionStack	-8388
PrincipalBuilder	-8389
ergedSortedCache	-8390
▁subscriptionKey	-8391
92	-8392
FT	-8393
VR	-8394
[5	-8395
AME	-8396
TLD	-8397
Top	-8398
▁!(	-8399
▁?,	-8400
▁AG	-8401
▁Wh	-8402
-8",	-8403
DIAN	-8404
GZIP	-8405
ONLY	-8406
else	-8407
▁Sup	-8408
▁its	-8409
▁leg	-8410
raise	-8411
swing	-8412
▁FILE	-8413
▁here	-8414
ENDIAN	-8415
ERENCE	-8416
isPath	-8417
▁1024;	-8418
▁Epoch	-8419
▁Width	-8420
Devices	-8421
LOGICAL	-8422
StartMs	-8423
decoder	-8424
failure	-8425
futures	-8426
▁repeat	-8427
:00:00:0	-8428
Notifier	-8429
getQuery	-8430
minValue	-8431
▁fetched	-8432
▁logFile	-8433
MemoryFor	-8434
_2_3_22);	-8435
converted	-8436
▁Callable	-8437
▁cacheKey	-8438
▁restored	-8439
▁unmerged	-8440
Acceptance	-8441
ForCompare	-8442
ecommender	-8443
firstValue	-8444
▁Executors	-8445
TldLocation	-8446
epCloneWith	-8447
getResource	-8448
seriesIndex	-8449
▁Delegating	-8450
▁entityName	-8451
ArrayAdapter	-8452
getEntityKey	-8453
outputStream	-8454
▁FileRecords	-8455
▁createState	-8456
chunkMetaData	-8457
▁InternalMock	-8458
▁maxTimestamp	-8459
ContextFactory	-8460
DynamicAdapter	-8461
▁ProducerBatch	-8462
▁shouldThrowIf	-8463
businessService	-8464
connectionStates	-8465
getObjectWrapper	-8466
▁ConnectProtocol	-8467
(9	-8468
CD	-8469
LZ	-8470
OM	-8471
][	-8472
09.	-8473
▁25	-8474
ATER	-8475
POLL	-8476
Pane	-8477
TIMI	-8478
erce	-8479
meta	-8480
safe	-8481
sgcc	-8482
▁bar	-8483
())).	-8484
>());	-8485
FLUSH	-8486
andid	-8487
block	-8488
jetty	-8489
pause	-8490
▁2));	-8491
▁Exit	-8492
▁eval	-8493
(")");	-8494
REVOKE	-8495
Tsfile	-8496
alyzer	-8497
istory	-8498
nowled	-8499
▁Gener	-8500
RangeId	-8501
autoEsc	-8502
ecovery	-8503
fetcher	-8504
ForNamed	-8505
numberOf	-8506
▁charset	-8507
▁waiting	-8508
▁wrapped	-8509
Forwarder	-8510
ategories	-8511
hasResult	-8512
throwable	-8513
trictions	-8514
▁dataSize	-8515
▁optional	-8516
COMPRESSED	-8517
LinkedList	-8518
StartIndex	-8519
Truststore	-8520
WithOffset	-8521
ancellable	-8522
readyNodes	-8523
withFields	-8524
▁Scheduled	-8525
▁listeners	-8526
▁paramType	-8527
▁parentKey	-8528
▁valueList	-8529
GlobalStore	-8530
ResultsList	-8531
ValueMapper	-8532
▁FileReader	-8533
ComplexArray	-8534
findSessions	-8535
▁chunkReader	-8536
AtomicInteger	-8537
CreateSegment	-8538
FlightBatches	-8539
ParameterType	-8540
WorkerRequest	-8541
▁TSStatusCode	-8542
metricInstance	-8543
producerConfig	-8544
▁checkResponse	-8545
ConsumerConfigs	-8546
LoadInIsolation	-8547
ResourceManager	-8548
TsPrimitiveType	-8549
compareKeyValue	-8550
readableRecords	-8551
▁AuthorOperator	-8552
▁firstException	-8553
▁maxBlockTimeMs	-8554
63	-8555
73	-8556
8(	-8557
It	-8558
WH	-8559
-";	-8560
970	-8561
AAS	-8562
Cmd	-8563
tiv	-8564
▁24	-8565
▁3)	-8566
▁db	-8567
▁mt	-8568
'}",	-8569
MARK	-8570
Many	-8571
acks	-8572
entr	-8573
ffff	-8574
head	-8575
lder	-8576
mute	-8577
till	-8578
▁col	-8579
▁web	-8580
3"));	-8581
:00",	-8582
MULTI	-8583
Regex	-8584
[0]),	-8585
delta	-8586
descr	-8587
forge	-8588
tuple	-8589
▁CUST	-8590
Chunks	-8591
OrSame	-8592
Reduce	-8593
STRUCT	-8594
Second	-8595
resher	-8596
▁fault	-8597
▁junit	-8598
▁optim	-8599
▁trace	-8600
ForTask	-8601
Mapping	-8602
adapter	-8603
addTail	-8604
flushed	-8605
▁Values	-8606
▁doTest	-8607
▁sample	-8608
▁sizeOf	-8609
CallBack	-8610
argparse	-8611
pendents	-8612
selected	-8613
writeInt	-8614
ypeForUn	-8615
▁Inquiry	-8616
▁measure	-8617
▁squared	-8618
Benchmark	-8619
LeafMNode	-8620
QueryLock	-8621
REFERENCE	-8622
Tokenizer	-8623
createNew	-8624
logvisual	-8625
▁DateTime	-8626
▁accessor	-8627
▁allocate	-8628
FileLoader	-8629
ListOffset	-8630
aterialize	-8631
lidingStep	-8632
parameters	-8633
▁Malformed	-8634
▁tModelKey	-8635
AXException	-8636
sourceforge	-8637
▁getDefault	-8638
▁shouldFail	-8639
BugException	-8640
FindBusiness	-8641
BindingDetail	-8642
ResetStrategy	-8643
Serialization	-8644
operationName	-8645
▁MockProducer	-8646
▁disconnected	-8647
▁interceptors	-8648
RequestHandler	-8649
▁StateRestorer	-8650
▁recordFactory	-8651
RecordCollector	-8652
TemplateElement	-8653
closeStatMonitor	-8654
▁restoreListener	-8655
2=	-8656
Kv	-8657
64;	-8658
Det	-8659
Hit	-8660
Uid	-8661
▁8)	-8662
▁BI	-8663
▁am	-8664
000.	-8665
BEAT	-8666
FLAG	-8667
acos	-8668
uted	-8669
▁Avg	-8670
▁syn	-8671
("1",	-8672
(3));	-8673
LIEST	-8674
Namer	-8675
Sizes	-8676
Tries	-8677
▁-1);	-8678
▁0)),	-8679
▁baos	-8680
▁down	-8681
▁tips	-8682
000");	-8683
Packed	-8684
VALUES	-8685
WEBAPP	-8686
WithNo	-8687
anyInt	-8688
import	-8689
points	-8690
system	-8691
▁1)));	-8692
▁1024,	-8693
ARTBEAT	-8694
Comment	-8695
CurList	-8696
NonList	-8697
Recover	-8698
ZeroNum	-8699
created	-8700
dynamic	-8701
entrant	-8702
isReady	-8703
isValid	-8704
mething	-8705
upgrade	-8706
Channels	-8707
Keystore	-8708
compress	-8709
▁getLast	-8710
▁sensors	-8711
▁taskIds	-8712
ClassUtil	-8713
Iteration	-8714
LogReader	-8715
SaslState	-8716
authToken	-8717
getLength	-8718
▁intStats	-8719
▁mManager	-8720
NameFormat	-8721
getContext	-8722
▁Attribute	-8723
▁Namespace	-8724
▁apiTModel	-8725
▁configDef	-8726
▁extension	-8727
▁localName	-8728
▁scheduler	-8729
ChunkWriter	-8730
InfoEnabled	-8731
SizeInBytes	-8732
StringUtils	-8733
businessKey	-8734
▁Aggregator	-8735
▁StreamTask	-8736
▁sslFactory	-8737
CurListIndex	-8738
FormatString	-8739
▁InetAddress	-8740
TemplateCache	-8741
numPartitions	-8742
producerEpoch	-8743
▁FetchSession	-8744
▁TaskMigrated	-8745
▁recordContext	-8746
FencedException	-8747
TransformValues	-8748
▁BufferedWriter	-8749
RequestException	-8750
({	-8751
2:	-8752
AE	-8753
Ha	-8754
LA	-8755
QUI	-8756
ket	-8757
mot	-8758
tab	-8759
▁pd	-8760
▁pw	-8761
DECI	-8762
NSOR	-8763
THER	-8764
ltEq	-8765
ssue	-8766
uded	-8767
▁END	-8768
▁Min	-8769
▁tld	-8770
000);	-8771
=[{}]	-8772
SCRAM	-8773
SerDe	-8774
Users	-8775
Whole	-8776
acted	-8777
▁Cont	-8778
▁quot	-8779
DEVICE	-8780
EndTxn	-8781
ILABLE	-8782
LEGACY	-8783
SENSOR	-8784
Throws	-8785
ToType	-8786
estOps	-8787
itebox	-8788
rewind	-8789
▁flags	-8790
(1000);	-8791
CHARSET	-8792
DECIMAL	-8793
address	-8794
bounded	-8795
control	-8796
culated	-8797
entries	-8798
hasMore	-8799
ibility	-8800
▁Broker	-8801
▁UPDATE	-8802
▁getMin	-8803
▁happen	-8804
▁shared	-8805
▁testNo	-8806
CacheKey	-8807
PathList	-8808
TypeName	-8809
ookeeper	-8810
otential	-8811
▁SEGMENT	-8812
▁allData	-8813
PRIVILEGE	-8814
RECONNECT	-8815
RoundTrip	-8816
interrupt	-8817
lastValue	-8818
▁Extended	-8819
▁Registry	-8820
ByCategory	-8821
MetaInfTld	-8822
MoreOrSame	-8823
TopicNames	-8824
readDouble	-8825
setCurrent	-8826
▁leafMNode	-8827
configState	-8828
isPathExist	-8829
nanoseconds	-8830
setTimeZone	-8831
▁FilterType	-8832
▁concurrent	-8833
▁convention	-8834
▁schemaList	-8835
▁storeNames	-8836
resherThread	-8837
seriesReader	-8838
▁PrintWriter	-8839
▁sizeInBytes	-8840
▁assertSchema	-8841
CountDownLatch	-8842
▁clientSupplier	-8843
▁TxnOffsetCommit	-8844
2_	-8845
4_	-8846
62	-8847
70	-8848
7;	-8849
RY	-8850
ww	-8851
(0)	-8852
(7,	-8853
64.	-8854
@0/	-8855
DED	-8856
Dot	-8857
INS	-8858
www	-8859
▁30	-8860
▁IO	-8861
2)",	-8862
Sequ	-8863
Skew	-8864
[]{1	-8865
extr	-8866
orig	-8867
▁"<@	-8868
▁3),	-8869
▁Sat	-8870
▁ids	-8871
▁yet	-8872
BRARY	-8873
Exact	-8874
Grace	-8875
\"");	-8876
istor	-8877
usive	-8878
▁Root	-8879
▁high	-8880
▁rand	-8881
ByFile	-8882
Direct	-8883
Logout	-8884
atures	-8885
▁EPOCH	-8886
▁getAs	-8887
▁stack	-8888
▁users	-8889
Closing	-8890
ENABLED	-8891
ToIndex	-8892
located	-8893
logFile	-8894
▁Kibosh	-8895
▁during	-8896
▁testId	-8897
▁tmpDir	-8898
OPERATOR	-8899
throttle	-8900
▁writeTo	-8901
batchSize	-8902
istorical	-8903
localName	-8904
mediately	-8905
▁JUDDIApi	-8906
▁RESOURCE	-8907
▁Selector	-8908
▁produced	-8909
CONTROLLER	-8910
OffsetsFor	-8911
RestServer	-8912
getRuntime	-8913
mxReporter	-8914
requencies	-8915
setVisible	-8916
▁anyObject	-8917
▁configMap	-8918
WriteBuffer	-8919
peekNextKey	-8920
▁BatchExecu	-8921
▁floatStats	-8922
▁sourceTask	-8923
▁testConfig	-8924
▁valuesList	-8925
MetricByName	-8926
SelectionKey	-8927
TsFileWriter	-8928
isMoreOrSame	-8929
▁doubleStats	-8930
▁modelTModel	-8931
▁pageContext	-8932
▁topicConfig	-8933
DriverManager	-8934
GroupsRequest	-8935
NullPointerOn	-8936
QuerierByFile	-8937
addStateStore	-8938
createNewFile	-8939
▁NullArgument	-8940
▁remainRanges	-8941
SeriesMetadata	-8942
▁ExpectedTasks	-8943
▁RequestHeader	-8944
▁saslMechanism	-8945
ClusterResource	-8946
SupportedVersion	-8947
▁aggregateResult	-8948
3(	-8949
dk	-8950
pa	-8951
(".	-8952
1")	-8953
21,	-8954
22.	-8955
5);	-8956
656	-8957
>";	-8958
You	-8959
job	-8960
MASK	-8961
Side	-8962
enge	-8963
sers	-8964
uage	-8965
▁12,	-8966
▁500	-8967
▁bug	-8968
Decod	-8969
There	-8970
going	-8971
lipse	-8972
undle	-8973
▁NULL	-8974
Footer	-8975
Identi	-8976
ToNext	-8977
noSuch	-8978
reater	-8979
▁macro	-8980
allenge	-8981
custody	-8982
deleted	-8983
setUser	-8984
stances	-8985
viewURL	-8986
========	-8987
Allocate	-8988
Ignoring	-8989
Stopping	-8990
captured	-8991
getToken	-8992
interval	-8993
raryEnum	-8994
toMillis	-8995
▁advance	-8996
▁closing	-8997
▁regular	-8998
▁resolve	-8999
AndOffset	-9000
Converted	-9001
Estimator	-9002
ableError	-9003
generator	-9004
getValues	-9005
retention	-9006
▁location	-9007
▁nullable	-9008
▁reporter	-9009
Converters	-9010
Transition	-9011
UnseqFiles	-9012
▁forwarded	-9013
▁lastValue	-9014
AddressLine	-9015
Replication	-9016
setIfExists	-9017
transformer	-9018
▁PluginDesc	-9019
▁SslConfigs	-9020
▁firstBatch	-9021
▁processors	-9022
ChangeRecord	-9023
Descriptions	-9024
createConfig	-9025
standbyTasks	-9026
▁UnSupported	-9027
▁initializer	-9028
KafkaProducer	-9029
▁OutputFormat	-9030
▁successfully	-9031
ConfigsRequest	-9032
ServiceBinding	-9033
withValueSerde	-9034
▁configEntries	-9035
▁groupedStream	-9036
GroupSizeInByte	-9037
RecordsReceived	-9038
BinaryExpression	-9039
toStoreKeyBinary	-9040
▁ScramCredential	-9041
▁TsFileProcessor	-9042
▁assertFormatted	-9043
1[	-9044
69	-9045
KR	-9046
kg	-9047
909	-9048
CFG	-9049
Net	-9050
Try	-9051
bin	-9052
jor	-9053
tle	-9054
▁"0	-9055
▁'}	-9056
▁AC	-9057
▁pt	-9058
-2",	-9059
AllP	-9060
Pack	-9061
bool	-9062
ceed	-9063
prox	-9064
uite	-9065
▁200	-9066
▁dfs	-9067
▁ign	-9068
▁rle	-9069
▁tnf	-9070
(4));	-9071
AndIs	-9072
ByKey	-9073
Comma	-9074
Given	-9075
Phone	-9076
QName	-9077
three	-9078
▁HDFS	-9079
PerKey	-9080
noNode	-9081
unwrap	-9082
▁Named	-9083
▁Tuple	-9084
Brokers	-9085
RETRIES	-9086
Relogin	-9087
TestEnv	-9088
dataDir	-9089
eclipse	-9090
pending	-9091
secured	-9092
▁logDir	-9093
▁remote	-9094
▁taglib	-9095
LISTENER	-9096
Negative	-9097
amelCase	-9098
fullPath	-9099
resolved	-9100
▁Fetcher	-9101
▁clients	-9102
▁compute	-9103
▁instead	-9104
▁members	-9105
▁putBack	-9106
EntryPath	-9107
Including	-9108
OnInvalid	-9109
onentType	-9110
originals	-9111
removeAll	-9112
tModelKey	-9113
▁Register	-9114
▁TaskSpec	-9115
▁Whitebox	-9116
▁assertNo	-9117
▁blocking	-9118
▁finished	-9119
▁memtable	-9120
▁newState	-9121
▁writeLog	-9122
DurationMs	-9123
Iterations	-9124
Standalone	-9125
WithPrefix	-9126
▁NodeModel	-9127
LetterQueue	-9128
ServiceInfo	-9129
UnitTestEnv	-9130
▁Punctuator	-9131
AndArguments	-9132
BusinessInfo	-9133
ByParamCount	-9134
CreateSchema	-9135
KeyGenerator	-9136
TopicsResult	-9137
WithPrevious	-9138
createTopics	-9139
getLastValue	-9140
▁Distributed	-9141
▁constructor	-9142
▁printlnBoth	-9143
CONFIGURATION	-9144
DataException	-9145
KafkaConsumer	-9146
SchemaBuilder	-9147
TRANSACTIONAL	-9148
templatesuite	-9149
▁FindBusiness	-9150
DateTimeFormat	-9151
▁cacheFunction	-9152
connectorConfig	-9153
▁MockAggregator	-9154
▁addToDataModel	-9155
AclBindingFilter	-9156
42	-9157
82	-9158
IF	-9159
Ic	-9160
df	-9161
)";	-9162
0()	-9163
0,1	-9164
8",	-9165
:",	-9166
_01	-9167
ply	-9168
pol	-9169
▁2:	-9170
5)",	-9171
DIRS	-9172
Tlds	-9173
none	-9174
ross	-9175
uced	-9176
ycle	-9177
}));	-9178
▁"),	-9179
▁Red	-9180
▁isr	-9181
▁pub	-9182
0)));	-9183
CLOSE	-9184
Cause	-9185
Every	-9186
Fully	-9187
Label	-9188
Mixed	-9189
OTHER	-9190
REPOR	-9191
erved	-9192
getID	-9193
imate	-9194
▁seek	-9195
(200);	-9196
NoAuto	-9197
Strong	-9198
ignore	-9199
▁Flush	-9200
▁given	-9201
Futures	-9202
LIMITER	-9203
Partial	-9204
Removed	-9205
TreeMap	-9206
handler	-9207
respond	-9208
▁Jython	-9209
▁Tmodel	-9210
▁called	-9211
Failures	-9212
REPLICAS	-9213
REPORTER	-9214
Reconfig	-9215
addChild	-9216
dingMode	-9217
▁flushed	-9218
▁fooSpec	-9219
▁readInt	-9220
LatencyMs	-9221
Protected	-9222
ToCharset	-9223
ecognized	-9224
mapValues	-9225
proximate	-9226
upperCase	-9227
▁deletion	-9228
▁lifetime	-9229
▁roleName	-9230
FileStream	-9231
Initialize	-9232
PersonName	-9233
TopicsInfo	-9234
checkpoint	-9235
overloaded	-9236
prefixPath	-9237
▁InitParam	-9238
▁valueSize	-9239
GlobalTable	-9240
InetAddress	-9241
StringArray	-9242
distributed	-9243
leaderEpoch	-9244
outputTopic	-9245
stringSerde	-9246
toCharArray	-9247
▁allSensors	-9248
▁operations	-9249
Constructors	-9250
LevelSensors	-9251
PerPartition	-9252
ToCharsetMap	-9253
disconnected	-9254
forException	-9255
getOrDefault	-9256
hasRemaining	-9257
maxTimestamp	-9258
▁prepareData	-9259
▁workerState	-9260
ReadWriteLock	-9261
authenticator	-9262
getBindingKey	-9263
▁IPointReader	-9264
▁Modification	-9265
ParameterNames	-9266
retryBackoffMs	-9267
▁ConnectorType	-9268
▁ForeachAction	-9269
▁consumerProps	-9270
▁objectWrapper	-9271
▁pathPrivilege	-9272
ConsumerRecords	-9273
RepartitionNode	-9274
getCommonSupert	-9275
▁authorizedName	-9276
▁fatalException	-9277
SimpleMapWrapper	-9278
▁isTransactional	-9279
-9	-9280
5;	-9281
FD	-9282
Ip	-9283
RC	-9284
CLA	-9285
DER	-9286
Dfs	-9287
IOD	-9288
jax	-9289
}";	-9290
▁14	-9291
▁LE	-9292
▁rb	-9293
("0.	-9294
AGIC	-9295
CALL	-9296
LOOK	-9297
Must	-9298
avig	-9299
erMs	-9300
lict	-9301
▁201	-9302
▁Mar	-9303
▁Pre	-9304
▁SAM	-9305
▁rho	-9306
Quota	-9307
SHAKE	-9308
TTING	-9309
Timed	-9310
ToOne	-9311
aless	-9312
getTS	-9313
izing	-9314
rease	-9315
verti	-9316
▁PATH	-9317
AndIsr	-9318
Bundle	-9319
Descrs	-9320
ERICAL	-9321
LOOKUP	-9322
OPTIMI	-9323
PERIOD	-9324
Taglib	-9325
getSub	-9326
nested	-9327
parser	-9328
serted	-9329
timeEq	-9330
▁Label	-9331
▁MAGIC	-9332
Columns	-9333
DoesNot	-9334
Numbers	-9335
mkEntry	-9336
ruCache	-9337
▁KeyBag	-9338
▁Leader	-9339
▁SINGLE	-9340
▁ZoneId	-9341
▁define	-9342
10:30:05	-9343
EARLIEST	-9344
LEGATION	-9345
USERNAME	-9346
anyTimes	-9347
segments	-9348
suppress	-9349
toStruct	-9350
▁Decoder	-9351
▁Reducer	-9352
▁SETTING	-9353
▁sending	-9354
▁servlet	-9355
AVAILABLE	-9356
FaultSpec	-9357
ListModel	-9358
Locations	-9359
NAMESPACE	-9360
Statistic	-9361
ToConnect	-9362
binaryKey	-9363
chemaless	-9364
queryable	-9365
▁CONSUMER	-9366
▁flushing	-9367
▁kerberos	-9368
▁maintain	-9369
▁maxValue	-9370
▁restorer	-9371
▁tempuser	-9372
ByEscaping	-9373
NodeGroups	-9374
lastOffset	-9375
setSuccess	-9376
▁character	-9377
▁hasResult	-9378
▁reference	-9379
▁tmodelKey	-9380
TaskRequest	-9381
isCompleted	-9382
oepublisher	-9383
▁sinkRecord	-9384
AllPotential	-9385
MetadataSize	-9386
booleanValue	-9387
transitionTo	-9388
▁sourceNodes	-9389
EntityCreator	-9390
▁OperatorType	-9391
▁generationId	-9392
▁validateOnly	-9393
InitProducerId	-9394
▁NetworkClient	-9395
transactionalId	-9396
▁assertDateTime	-9397
▁templateLoader	-9398
ToChangelogTopic	-9399
ValidationResult	-9400
singletonCluster	-9401
▁partitionStates	-9402
(!	-9403
6.	-9404
91	-9405
Li	-9406
MD	-9407
{\	-9408
(8,	-9409
1,\	-9410
3),	-9411
='"	-9412
Lif	-9413
Ord	-9414
PSH	-9415
iet	-9416
▁ce	-9417
▁di	-9418
100,	-9419
ARER	-9420
Leaf	-9421
MOUS	-9422
Math	-9423
▁"")	-9424
▁"1.	-9425
▁0))	-9426
▁1..	-9427
▁CUR	-9428
(1)).	-9429
..");	-9430
ATURE	-9431
AUSED	-9432
PSHOT	-9433
Pause	-9434
Stage	-9435
[]{1,	-9436
etion	-9437
▁comb	-9438
APPEND	-9439
AUTHBE	-9440
Expose	-9441
Forget	-9442
LATION	-9443
Proced	-9444
maller	-9445
ulated	-9446
▁lines	-9447
▁stand	-9448
Formats	-9449
Merging	-9450
ONYMOUS	-9451
OnClose	-9452
VARCHAR	-9453
destroy	-9454
getHost	-9455
getUDDI	-9456
newLine	-9457
updated	-9458
▁SCHEMA	-9459
▁SOURCE	-9460
▁Tablet	-9461
▁period	-9462
▁unwrap	-9463
CloseAll	-9464
Failover	-9465
Priority	-9466
Returned	-9467
allNames	-9468
hardware	-9469
▁CURRENT	-9470
▁Context	-9471
▁Payload	-9472
▁baseDir	-9473
▁parents	-9474
▁removed	-9475
▁toClerk	-9476
Histogram	-9477
LocalFile	-9478
Numerical	-9479
Queryable	-9480
clusterId	-9481
interpret	-9482
▁BIMethod	-9483
▁renewers	-9484
AUTHBEARER	-9485
Operations	-9486
attributes	-9487
ecommended	-9488
setEndTime	-9489
▁AppConfig	-9490
▁byteArray	-9491
▁predicate	-9492
▁signature	-9493
▁taskState	-9494
▁unwrapped	-9495
▁validated	-9496
CommandLine	-9497
ExceptionIf	-9498
KafkaMetric	-9499
updateStats	-9500
▁maxRecords	-9501
▁tmodelKeys	-9502
ServiceAsync	-9503
ensureActive	-9504
onPartitions	-9505
parseRequest	-9506
setStartTime	-9507
▁endpointURL	-9508
▁valueBuffer	-9509
GroupedStream	-9510
StringLiteral	-9511
TimeGenerator	-9512
appendGrouped	-9513
▁getAuthToken	-9514
▁uncompressed	-9515
SaslExtensions	-9516
▁tckFindEntity	-9517
MethodException	-9518
▁SessionWindows	-9519
▁cachedTemplate	-9520
▁verifyOptional	-9521
HandshakeRequest	-9522
OAuthBearerToken	-9523
TsFileProcessors	-9524
authorizedTopics	-9525
newProcessorName	-9526
partitionRecords	-9527
▁consumerConfigs	-9528
90	-9529
{1	-9530
1))	-9531
39;	-9532
ANG	-9533
DNS	-9534
Pid	-9535
Tmp	-9536
▁PR	-9537
▁\\	-9538
▁ss	-9539
Adap	-9540
CUST	-9541
DETE	-9542
Heap	-9543
Lazy	-9544
Like	-9545
SETS	-9546
View	-9547
[1];	-9548
onym	-9549
ways	-9550
zone	-9551
▁ACL	-9552
▁Per	-9553
▁gen	-9554
▁tip	-9555
(1024	-9556
BEROS	-9557
Boxed	-9558
CLAIM	-9559
ators	-9560
ither	-9561
▁"2".	-9562
Stored	-9563
groups	-9564
parsed	-9565
rowser	-9566
▁".");	-9567
▁Entry	-9568
▁ratio	-9569
(1024);	-9570
Changes	-9571
putLong	-9572
rowSize	-9573
samples	-9574
sistent	-9575
▁ERRORS	-9576
▁exists	-9577
▁module	-9578
DeviceId	-9579
Handlers	-9580
KERBEROS	-9581
arrayIdx	-9582
▁Windows	-9583
▁Wrapped	-9584
▁ccNames	-9585
▁extract	-9586
▁ignored	-9587
▁lcNames	-9588
DELIMITER	-9589
Generated	-9590
dataPoint	-9591
getOrElse	-9592
unsecured	-9593
▁FileName	-9594
▁fileName	-9595
▁platform	-9596
▁valSerde	-9597
Expiration	-9598
TestConfig	-9599
Underlying	-9600
WithSchema	-9601
▁Closeable	-9602
▁onFailure	-9603
-0000000001	-9604
Connections	-9605
categoryBag	-9606
managerName	-9607
▁FileLoader	-9608
▁iterations	-9609
AndTimestamp	-9610
lineReplicas	-9611
▁ThreadLocal	-9612
▁accessPoint	-9613
▁predecessor	-9614
▁queryFilter	-9615
connectorMock	-9616
getExpression	-9617
▁KafkaChannel	-9618
▁DeleteRecords	-9619
▁MergeResource	-9620
InitialResponse	-9621
deserializeFrom	-9622
setIncompatible	-9623
▁KeyedReference	-9624
▁ReadOnlyTsFile	-9625
▁parameterIndex	-9626
RawDataQueryPlan	-9627
ReadOnlyMemChunk	-9628
▁getBeansWrapper	-9629
41	-9630
6;	-9631
EE	-9632
MQ	-9633
WA	-9634
by	-9635
BIN	-9636
ILT	-9637
Own	-9638
UTE	-9639
gen	-9640
▁bd	-9641
▁md	-9642
1)",	-9643
5");	-9644
ivot	-9645
lash	-9646
rock	-9647
▁top	-9648
Lines	-9649
STATI	-9650
ached	-9651
arger	-9652
cover	-9653
ecomp	-9654
▁'\''	-9655
▁'}';	-9656
▁ling	-9657
▁post	-9658
Expiry	-9659
Joined	-9660
MARKER	-9661
WORKER	-9662
Widget	-9663
XMLEnc	-9664
aching	-9665
graded	-9666
orrupt	-9667
policy	-9668
uncate	-9669
▁Retry	-9670
▁Timer	-9671
▁XPath	-9672
▁bound	-9673
FORMATS	-9674
SAMPLES	-9675
contact	-9676
refresh	-9677
▁argIdx	-9678
▁claims	-9679
▁escape	-9680
▁notify	-9681
▁retain	-9682
▁tagMap	-9683
CALLBACK	-9684
Iterable	-9685
NewTopic	-9686
Produced	-9687
ValueSet	-9688
lessTask	-9689
messages	-9690
modified	-9691
▁addTask	-9692
▁defined	-9693
▁getLong	-9694
▁network	-9695
▁project	-9696
▁testSet	-9697
RefreshMs	-9698
ofSeconds	-9699
paramType	-9700
reference	-9701
▁Operator	-9702
▁deadline	-9703
▁fullPath	-9704
▁maxTries	-9705
▁reconfig	-9706
▁setValue	-9707
▁timeFrom	-9708
RecordType	-9709
WebService	-9710
apiVersion	-9711
recognized	-9712
▁UDDIClerk	-9713
▁composite	-9714
▁findQuery	-9715
▁following	-9716
Certificate	-9717
isDirectory	-9718
▁TException	-9719
▁durationMs	-9720
▁entityList	-9721
▁expectStop	-9722
▁lastOffset	-9723
▁registered	-9724
CharSequence	-9725
ChildrenList	-9726
UNCOMPRESSED	-9727
responseData	-9728
▁CategoryBag	-9729
▁JAXBContext	-9730
▁getAsString	-9731
▁getAuthInfo	-9732
▁globalState	-9733
▁setAuthInfo	-9734
MLOutputModel	-9735
compareAndSet	-9736
hasProducerId	-9737
▁userEndPoint	-9738
AbortableError	-9739
maybePunctuate	-9740
responseFuture	-9741
▁shouldThrowOn	-9742
getClientConfig	-9743
inFlightBatches	-9744
metricsRegistry	-9745
▁metricGrpPrefix	-9746
){	-9747
57	-9748
BF	-9749
FR	-9750
HH	-9751
gy	-9752
(30	-9753
(9,	-9754
90,	-9755
:{}	-9756
_1.	-9757
txt	-9758
▁*/	-9759
▁ON	-9760
▁OW	-9761
▁SO	-9762
(123	-9763
(2).	-9764
2000	-9765
BRAC	-9766
FAIL	-9767
Site	-9768
eded	-9769
etcd	-9770
▁1))	-9771
▁FOO	-9772
▁dig	-9773
▁ttl	-9774
CHECK	-9775
Combo	-9776
Fails	-9777
[]>>>	-9778
\":{\	-9779
mains	-9780
▁Disk	-9781
▁vals	-9782
Called	-9783
TICATE	-9784
WinCnt	-9785
anaged	-9786
▁equal	-9787
▁escap	-9788
▁issue	-9789
▁sleep	-9790
BRACKET	-9791
ForEach	-9792
Include	-9793
OFFSETS	-9794
Updated	-9795
ianType	-9796
itional	-9797
parated	-9798
Analyzer	-9799
SitePath	-9800
argument	-9801
▁REQUEST	-9802
▁dataDir	-9803
▁drained	-9804
▁restart	-9805
▁testAdd	-9806
Beginning	-9807
EXTENSION	-9808
duplicate	-9809
nextBatch	-9810
▁minValue	-9811
ChunkToken	-9812
InfoParser	-9813
ModelCache	-9814
ParamTypes	-9815
Persistent	-9816
Reflection	-9817
ShortNamer	-9818
TimePeriod	-9819
truststore	-9820
▁TckTModel	-9821
▁getParent	-9822
▁logStream	-9823
▁queryTime	-9824
▁reporters	-9825
▁sslConfig	-9826
▁verifyAll	-9827
BusinessKey	-9828
FilterOptim	-9829
PageContext	-9830
StringValue	-9831
withLogging	-9832
▁BufferPool	-9833
▁SourceNode	-9834
▁Suppressed	-9835
▁namespaces	-9836
getTransport	-9837
tokenIntType	-9838
▁JAXBElement	-9839
▁MessageUtil	-9840
▁TsFileDecod	-9841
▁columnIndex	-9842
▁managerName	-9843
▁repeatCount	-9844
KafkaBasedLog	-9845
WindowedSerde	-9846
getColumnName	-9847
getFirstValue	-9848
AllowedVersion	-9849
▁ConnectRecord	-9850
▁ConsumerGroup	-9851
▁storeIterator	-9852
ListenerService	-9853
MetadataVersion	-9854
PowerMockRunner	-9855
TaskPoolManager	-9856
▁InitProducerId	-9857
▁authorOperator	-9858
▁consumerRecord	-9859
▁createSelector	-9860
▁isolationLevel	-9861
BeginningOffsets	-9862
PublicationQuery	-9863
appendGroupedAnd	-9864
produceKeyValues	-9865
▁DelegationToken	-9866
Fe	-9867
Na	-9868
WT	-9869
+02	-9870
10.	-9871
11.	-9872
1};	-9873
TTP	-9874
lim	-9875
rtf	-9876
tld	-9877
▁*=	-9878
▁LI	-9879
▁bs	-9880
()!=	-9881
(4);	-9882
10",	-9883
FIND	-9884
JAVA	-9885
ONCE	-9886
Repe	-9887
SHOW	-9888
Warn	-9889
echo	-9890
getH	-9891
velo	-9892
when	-9893
▁EPS	-9894
▁cmp	-9895
READY	-9896
Satis	-9897
TIONS	-9898
delay	-9899
marsh	-9900
orary	-9901
▁20);	-9902
▁Mode	-9903
▁READ	-9904
ByHost	-9905
SIGNED	-9906
ceeded	-9907
isNull	-9908
solute	-9909
tester	-9910
▁Total	-9911
99,199,	-9912
BROKERS	-9913
Flushed	-9914
Mutable	-9915
Retries	-9916
Revoked	-9917
TENTION	-9918
counter	-9919
limiter	-9920
restart	-9921
▁10000;	-9922
▁LEADER	-9923
▁Regexp	-9924
MemberId	-9925
addField	-9926
stateDir	-9927
▁Control	-9928
▁Handler	-9929
▁Managed	-9930
▁TestSsl	-9931
▁addName	-9932
▁harness	-9933
▁samples	-9934
▁threads	-9935
GroupName	-9936
Satisfied	-9937
Sequences	-9938
SslConfig	-9939
TableJoin	-9940
atibility	-9941
getSeries	-9942
opologies	-9943
▁Checksum	-9944
▁Stateful	-9945
▁isNested	-9946
JoinColumn	-9947
SchemaType	-9948
credential	-9949
insertPlan	-9950
rightTable	-9951
▁Directory	-9952
▁requested	-9953
-0000000003	-9954
ControlFlag	-9955
Termination	-9956
ThreadCache	-9957
numReceived	-9958
▁FileWriter	-9959
▁SimpleHash	-9960
▁aggregator	-9961
▁bindingKey	-9962
▁insertData	-9963
ColumnNumber	-9964
StringWriter	-9965
TraceEnabled	-9966
VarlongSerde	-9967
listenerName	-9968
veragePeriod	-9969
▁MapWritable	-9970
▁UDDIService	-9971
▁aggregation	-9972
▁chunkLoader	-9973
▁configValue	-9974
▁valueCounts	-9975
ClassNotFound	-9976
ForEachDevice	-9977
QueryOperator	-9978
fromPlainText	-9979
keyValueStore	-9980
requestSchema	-9981
▁BugException	-9982
▁RegexpHelper	-9983
▁insertTablet	-9984
▁sortedValues	-9985
BufferedWriter	-9986
LogNodeManager	-9987
MonitorFactory	-9988
PageSizeInByte	-9989
▁ClientRequest	-9990
▁chunkMetadata	-9991
▁metadataIndex	-9992
ConversionStats	-9993
FailedException	-9994
ProduceResponse	-9995
restoreConsumer	-9996
▁consumerConfig	-9997
▁requestHandler	-9998
CommittedOffsets	-9999
JoinGroupRequest	-10000
MethodAppearance	-10001
SendingOldValues	-10002
▁retentionPeriod	-10003
3:	-10004
51	-10005
93	-10006
BD	-10007
VI	-10008
ZY	-10009
4()	-10010
BBO	-10011
FUN	-10012
MIS	-10013
NoX	-10014
OST	-10015
UTO	-10016
cal	-10017
ven	-10018
▁AT	-10019
3._2	-10020
Attr	-10021
CALE	-10022
FKey	-10023
IDLE	-10024
LAST	-10025
LEsc	-10026
LOGY	-10027
_09.	-10028
atic	-10029
four	-10030
resp	-10031
urge	-10032
(2000	-10033
Aggre	-10034
Descs	-10035
INITY	-10036
NoXSS	-10037
Parms	-10038
locks	-10039
▁AUTO	-10040
▁Host	-10041
▁getM	-10042
▁view	-10043
(1)));	-10044
Border	-10045
Jython	-10046
PAUSED	-10047
POLOGY	-10048
THREAD	-10049
errMsg	-10050
getUrl	-10051
toSend	-10052
▁CACHE	-10053
▁COUNT	-10054
▁Macro	-10055
▁Store	-10056
▁mtree	-10057
Browser	-10058
Subject	-10059
sqlDate	-10060
subList	-10061
▁Taglib	-10062
▁WINDOW	-10063
000._09.	-10064
BeSynced	-10065
Contacts	-10066
Defaults	-10067
INFINITY	-10068
NonAlign	-10069
OldValue	-10070
Repeater	-10071
endpoint	-10072
hasField	-10073
▁Encoder	-10074
▁Mapping	-10075
▁PRODUCE	-10076
▁Planner	-10077
▁Process	-10078
▁devices	-10079
▁matched	-10080
▁maxSize	-10081
▁schemas	-10082
▁seconds	-10083
▁stopped	-10084
AggreWith	-10085
ConfigKey	-10086
Configure	-10087
DeltaBase	-10088
FileUtils	-10089
FromCache	-10090
HANDSHAKE	-10091
NUMERICAL	-10092
Protocols	-10093
criptable	-10094
fetchSize	-10095
▁MemTable	-10096
▁Standard	-10097
▁buffered	-10098
▁keyBytes	-10099
▁oldState	-10100
AutoCommit	-10101
Containers	-10102
TaskConfig	-10103
Unresolved	-10104
▁AuthToken	-10105
▁Unlimited	-10106
▁joinOther	-10107
▁nodeState	-10108
Annotations	-10109
ConfigEntry	-10110
FindService	-10111
Interrupted	-10112
LatestFlush	-10113
SOAPBinding	-10114
▁ObjectName	-10115
▁ObjectNode	-10116
▁SourceTask	-10117
▁setCurrent	-10118
▁testStream	-10119
3._2000._09.	-10120
getPlainText	-10121
hasCompleted	-10122
▁authInfoSam	-10123
▁commandLine	-10124
BlockRepeater	-10125
Modifications	-10126
SignatureType	-10127
aryExpression	-10128
isInfoEnabled	-10129
timeValuePair	-10130
▁ObjectMapper	-10131
▁configValues	-10132
▁orderInGroup	-10133
CombinedMarkup	-10134
TemplateMarkup	-10135
▁cacheIterator	-10136
▁serializedKey	-10137
DocumentBuilder	-10138
SecurityService	-10139
TxnOffsetCommit	-10140
UDDIPublication	-10141
setOutputFormat	-10142
unmodifiableSet	-10143
▁ChannelBuilder	-10144
▁ConnectorState	-10145
▁dataInThisPage	-10146
FollowerResponse	-10147
initTransactions	-10148
sslClientConfigs	-10149
▁ExecutorService	-10150
▁transformations	-10151
43	-10152
GU	-10153
Ln	-10154
MY	-10155
jm	-10156
("&	-10157
-16	-10158
FER	-10159
LED	-10160
att	-10161
div	-10162
jmh	-10163
{\"	-10164
▁/*	-10165
▁Py	-10166
▁ap	-10167
ATTR	-10168
LINE	-10169
MANA	-10170
OUND	-10171
SERV	-10172
TEMP	-10173
_8);	-10174
ough	-10175
rief	-10176
▁1];	-10177
▁?>)	-10178
▁dup	-10179
▁ind	-10180
▁mid	-10181
(-1);	-10182
01");	-10183
<>())	-10184
Catch	-10185
Leave	-10186
RENEW	-10187
claim	-10188
files	-10189
ittle	-10190
yntax	-10191
▁'{}'	-10192
▁2");	-10193
▁CONN	-10194
▁REST	-10195
+01:00	-10196
...");	-10197
ACTION	-10198
AMETER	-10199
CURACY	-10200
VarInt	-10201
esList	-10202
isOpen	-10203
paused	-10204
return	-10205
▁INPUT	-10206
▁INTER	-10207
▁MBean	-10208
▁Range	-10209
▁built	-10210
CoreAPI	-10211
Extract	-10212
FromOld	-10213
Profile	-10214
XmlEnum	-10215
another	-10216
drained	-10217
gmented	-10218
imeType	-10219
release	-10220
sqlTime	-10221
ATERMARK	-10222
JoinSide	-10223
NoWakeup	-10224
pathList	-10225
▁latency	-10226
▁satisfy	-10227
▁strings	-10228
ANONYMOUS	-10229
Callbacks	-10230
Functions	-10231
RECORDING	-10232
Stripping	-10233
TimeNanos	-10234
Unwrapped	-10235
trospData	-10236
▁Instance	-10237
▁execResp	-10238
▁isClosed	-10239
▁maxError	-10240
▁preValue	-10241
DELEGATION	-10242
LowerBound	-10243
Measurable	-10244
MemoryPool	-10245
TaskStatus	-10246
seriesPath	-10247
serviceKey	-10248
▁LeafMNode	-10249
▁primitive	-10250
▁replayAll	-10251
▁00:00:00:0	-10252
▁importance	-10253
▁testCreate	-10254
▁tsDataType	-10255
▁unexpected	-10256
ControlBatch	-10257
DefaultValue	-10258
InsertTablet	-10259
NotAvailable	-10260
TaskAssignor	-10261
▁SaslConfigs	-10262
▁classLoader	-10263
▁publisherId	-10264
DirectiveBody	-10265
LegacyNonList	-10266
StorageGroups	-10267
requestUpdate	-10268
▁onCompletion	-10269
▁resourceType	-10270
ProduceRequest	-10271
SerDeException	-10272
modelPublisher	-10273
▁TemplateValue	-10274
▁Transactional	-10275
▁authenticator	-10276
CaseInsensitive	-10277
ExistsException	-10278
WakeupException	-10279
▁LoginException	-10280
▁inquiryService	-10281
▁keyedReference	-10282
----------------	-10283
TransactionState	-10284
▁ClusterResource	-10285
▁DescribeLogDirs	-10286
▁controllerEpoch	-10287
▁securityService	-10288
▁tckSubscription	-10289
98	-10290
AW	-10291
Db	-10292
KV	-10293
ks	-10294
}<	-10295
').	-10296
*",	-10297
--)	-10298
16,	-10299
500	-10300
;",	-10301
DIF	-10302
Rec	-10303
_1)	-10304
aba	-10305
aem	-10306
big	-10307
len	-10308
pub	-10309
▁-=	-10310
▁FA	-10311
32);	-10312
5555	-10313
Demo	-10314
SEND	-10315
XMLG	-10316
_000	-10317
alib	-10318
anch	-10319
ered	-10320
ever	-10321
hive	-10322
pres	-10323
vide	-10324
▁');	-10325
▁Agg	-10326
(",")	-10327
FIXED	-10328
INITI	-10329
Invok	-10330
KEYED	-10331
added	-10332
aemon	-10333
label	-10334
owner	-10335
▁"0",	-10336
▁mNum	-10337
▁uuid	-10338
0,0.0,	-10339
AndMay	-10340
Merger	-10341
OrLong	-10342
Stable	-10343
Unsafe	-10344
cancel	-10345
ryptor	-10346
▁dirty	-10347
▁round	-10348
Display	-10349
HTMLEnc	-10350
Loading	-10351
MANAGER	-10352
alibaba	-10353
bytesTo	-10354
enqueue	-10355
forCode	-10356
isClass	-10357
loopVar	-10358
spector	-10359
▁Result	-10360
▁Topics	-10361
▁concat	-10362
▁reduce	-10363
▁tvList	-10364
AsStream	-10365
DATETIME	-10366
Fallback	-10367
ForQuery	-10368
TestInfo	-10369
filename	-10370
taskName	-10371
vertised	-10372
▁ACCEPTS	-10373
▁Instant	-10374
▁Replace	-10375
▁getFile	-10376
▁readers	-10377
▁skipped	-10378
▁specify	-10379
970-01-01	-10380
ClassRule	-10381
Expecting	-10382
attribute	-10383
dataTypes	-10384
deviceIds	-10385
getSensor	-10386
getSystem	-10387
normalize	-10388
signature	-10389
▁NotFound	-10390
▁joinThis	-10391
▁mockTask	-10392
▁provided	-10393
▁variable	-10394
ClientConf	-10395
DataBefore	-10396
Privileged	-10397
References	-10398
compressor	-10399
storeNames	-10400
▁Histogram	-10401
▁callbacks	-10402
▁paramList	-10403
▁prevTasks	-10404
-0000000004	-10405
LogAnalyzer	-10406
UnsignedInt	-10407
columnIndex	-10408
ledShutdown	-10409
▁Arithmetic	-10410
▁Measurable	-10411
▁dataSource	-10412
▁processing	-10413
▁trustStore	-10414
▁uddiEntity	-10415
ListenerName	-10416
MaxTimestamp	-10417
QueryCounter	-10418
ToNextUpdate	-10419
URLException	-10420
pollNoWakeup	-10421
▁Constructor	-10422
▁Initializer	-10423
▁TckSecurity	-10424
▁childBuffer	-10425
▁taskStartup	-10426
OffsetsResult	-10427
PathPrivilege	-10428
UserException	-10429
▁assertParsed	-10430
▁refreshEvery	-10431
▁shouldCreate	-10432
BatchStatement	-10433
ConfigProvider	-10434
NetworkReceive	-10435
▁LinkedHashSet	-10436
▁currentOffset	-10437
▁topicMetadata	-10438
MockInitializer	-10439
SubscriptionKey	-10440
▁handleResponse	-10441
▁recordingLevel	-10442
getInternalState	-10443
setRecordContext	-10444
▁AddOffsetsToTxn	-10445
▁InitParamParser	-10446
▁expectRebalance	-10447
▁serializedValue	-10448
TW	-10449
ci	-10450
pu	-10451
vm	-10452
('.	-10453
/*/	-10454
ASH	-10455
Adj	-10456
GHT	-10457
HIS	-10458
ISR	-10459
JMX	-10460
Lat	-10461
ODU	-10462
OTE	-10463
VID	-10464
ely	-10465
▁fr	-10466
(5);	-10467
:");	-10468
Capt	-10469
aign	-10470
baos	-10471
dget	-10472
ited	-10473
pire	-10474
trip	-10475
▁20;	-10476
▁Ali	-10477
▁Exp	-10478
▁sec	-10479
▁{}:	-10480
(500,	-10481
-8");	-10482
IfNot	-10483
QUOTE	-10484
Wrong	-10485
eness	-10486
klass	-10487
multi	-10488
▁"3".	-10489
▁free	-10490
▁safe	-10491
Bitmap	-10492
INTHIS	-10493
Kibosh	-10494
OrNull	-10495
Resume	-10496
adding	-10497
amSize	-10498
detail	-10499
getDec	-10500
resume	-10501
serdes	-10502
taglib	-10503
velope	-10504
viders	-10505
▁Dummy	-10506
▁drain	-10507
▁sends	-10508
Grouper	-10509
Markers	-10510
ModelTo	-10511
Ordinal	-10512
ampaign	-10513
anyLong	-10514
options	-10515
setName	-10516
straint	-10517
▁Expire	-10518
▁Visual	-10519
▁getInt	-10520
▁signal	-10521
▁states	-10522
▁webApp	-10523
Decision	-10524
Overflow	-10525
PROPERTY	-10526
SNAPSHOT	-10527
Serializ	-10528
TSStatus	-10529
oldValue	-10530
received	-10531
▁between	-10532
▁counter	-10533
▁reading	-10534
Overrides	-10535
Processed	-10536
TaskState	-10537
Truncated	-10538
WebResult	-10539
privilege	-10540
▁lingerMs	-10541
▁runnable	-10542
FBWarnings	-10543
MockMapper	-10544
Schemaless	-10545
floatValue	-10546
punctuated	-10547
▁NonString	-10548
▁Reference	-10549
▁clusterId	-10550
▁flexTable	-10551
▁segmentId	-10552
▁selectSQL	-10553
▁setupWith	-10554
▁testWrite	-10555
ASSIGNMENTS	-10556
BloomFilter	-10557
ByteChannel	-10558
JaasContext	-10559
Millisecond	-10560
NoAutoReset	-10561
PatternType	-10562
PublisherId	-10563
StatsByType	-10564
Unavailable	-10565
overloadedC	-10566
withRecords	-10567
▁Serialized	-10568
▁assertTime	-10569
▁threadName	-10570
AUTHENTICATE	-10571
ByDevicePlan	-10572
GlobalKTable	-10573
RootOperator	-10574
ScramMessage	-10575
joepublisher	-10576
setAttribute	-10577
▁MetricGroup	-10578
▁ServiceType	-10579
▁firstOffset	-10580
▁getResponse	-10581
▁secondBatch	-10582
▁shouldClose	-10583
▁transformer	-10584
AcceptanceNon	-10585
CastException	-10586
RequestHeader	-10587
TimePartition	-10588
separatorChar	-10589
validateValue	-10590
wrappingHints	-10591
▁RootOperator	-10592
▁TimeWindowed	-10593
▁seqResources	-10594
▁sourceRecord	-10595
CurrentOffsets	-10596
LogInputStream	-10597
isTraceEnabled	-10598
outputEncoding	-10599
▁Authenticator	-10600
▁InvalidFormat	-10601
▁PriorityQueue	-10602
HTMLOutputModel	-10603
isTransactional	-10604
▁fetchedRecords	-10605
BusinessServices	-10606
GeneratorForTest	-10607
PayloadGenerator	-10608
awaitTermination	-10609
streamsGraphNode	-10610
▁NodeApiVersions	-10611
▁credentialCache	-10612
▁expiryTimestamp	-10613
▁queryDataSource	-10614
1-	-10615
LQ	-10616
dt	-10617
(-1	-10618
2,"	-10619
67,	-10620
ABC	-10621
Bar	-10622
PAY	-10623
\"?	-10624
ble	-10625
eep	-10626
ell	-10627
sdl	-10628
tcf	-10629
▁(1	-10630
▁66	-10631
▁FL	-10632
▁PL	-10633
▁We	-10634
4"),	-10635
BYTE	-10636
DESC	-10637
GtEq	-10638
HINT	-10639
ITHM	-10640
MEAS	-10641
Prot	-10642
Safe	-10643
TIES	-10644
elem	-10645
fans	-10646
hdfs	-10647
only	-10648
quot	-10649
▁"12	-10650
▁"15	-10651
▁'\\	-10652
▁1.0	-10653
▁DLQ	-10654
▁PRE	-10655
▁Tld	-10656
▁fix	-10657
▁tup	-10658
0000;	-10659
@0/10	-10660
ALGOR	-10661
ALTER	-10662
Await	-10663
IMPRO	-10664
Quiet	-10665
SLASH	-10666
Tried	-10667
UGINS	-10668
[1]);	-10669
])");	-10670
extra	-10671
mkMap	-10672
▁COMP	-10673
▁Html	-10674
▁SINK	-10675
▁bean	-10676
▁each	-10677
▁mark	-10678
▁such	-10679
▁wsdl	-10680
ByTime	-10681
RESULT	-10682
Unlock	-10683
getSam	-10684
python	-10685
retKey	-10686
static	-10687
tNames	-10688
▁FIRST	-10689
▁RETRY	-10690
▁Renew	-10691
▁TOKEN	-10692
▁fixed	-10693
▁mbean	-10694
▁upper	-10695
Invokes	-10696
KeyInfo	-10697
MEASURE	-10698
PAYLOAD	-10699
Peeking	-10700
RECEIVE	-10701
SEGMENT	-10702
TaskIds	-10703
Working	-10704
inquiry	-10705
isArray	-10706
schemas	-10707
sensors	-10708
▁loaded	-10709
▁paused	-10710
Callable	-10711
DURATION	-10712
Exposure	-10713
Instanti	-10714
TOPOLOGY	-10715
Validity	-10716
ingClass	-10717
nowledge	-10718
▁runTest	-10719
▁toMagic	-10720
▁workers	-10721
@0/10]:0+	-10722
ALGORITHM	-10723
ClockSkew	-10724
Movements	-10725
assertNot	-10726
constants	-10727
queryPlan	-10728
reconnect	-10729
ureRandom	-10730
xceptance	-10731
▁intValue	-10732
▁priority	-10733
▁shouldBe	-10734
▁waitTime	-10735
FolderPath	-10736
GENERATION	-10737
Incomplete	-10738
LineNumber	-10739
OpenOption	-10740
OutOfRange	-10741
PrefixPath	-10742
Subscribed	-10743
TxnMarkers	-10744
completion	-10745
generation	-10746
getSetting	-10747
numRecords	-10748
setMessage	-10749
▁plainText	-10750
▁shouldGet	-10751
AdaptersFor	-10752
BodyInBytes	-10753
IsDifferent	-10754
OAUTHBEARER	-10755
TestMessage	-10756
UNSUPPORTED	-10757
getKeyValue	-10758
jQuoteNoXSS	-10759
transformed	-10760
▁Comparator	-10761
▁UDDIClient	-10762
▁assertDate	-10763
▁expectPoll	-10764
▁jsonSchema	-10765
LongWritable	-10766
MissingPoint	-10767
SeriesNumber	-10768
SimpleScalar	-10769
queryDataSet	-10770
withKeySerde	-10771
▁ClientUtils	-10772
▁ListDataSet	-10773
▁jaasContext	-10774
ApplicationId	-10775
ClauseContext	-10776
CustomFormats	-10777
EngineDataSet	-10778
ExposureLevel	-10779
StorageReader	-10780
ThreadFactory	-10781
WithTimestamp	-10782
XmlSchemaType	-10783
▁DeleteTopics	-10784
▁KeyGenerator	-10785
▁SelectionKey	-10786
▁StringReader	-10787
▁controllerId	-10788
▁minDeltaBase	-10789
▁shouldFailIf	-10790
FlagDescriptor	-10791
KEYEDREFERENCE	-10792
MetadataUpdate	-10793
WindowedStream	-10794
consumerConfig	-10795
expectedResult	-10796
kafkaPartition	-10797
▁storageGroups	-10798
AutoOffsetReset	-10799
CoordinatorType	-10800
ResourcePattern	-10801
▁AbstractConfig	-10802
▁ExpressionType	-10803
MetaInfTldSource	-10804
actSerialization	-10805
getChunkMetadata	-10806
▁MetadataRequest	-10807
▁SchemaException	-10808
58	-10809
MB	-10810
My	-10811
_3	-10812
"},	-10813
010	-10814
048	-10815
16_	-10816
7",	-10817
CTS	-10818
Gap	-10819
Man	-10820
Mod	-10821
NOW	-10822
aaa	-10823
cmd	-10824
dAt	-10825
jdk	-10826
=[0]	-10827
ASIC	-10828
ATED	-10829
Choo	-10830
Drop	-10831
Expr	-10832
InMs	-10833
Live	-10834
NICE	-10835
SPEC	-10836
Star	-10837
atas	-10838
free	-10839
must	-10840
▁12)	-10841
▁ALL	-10842
▁JMX	-10843
▁ded	-10844
BUILT	-10845
Lists	-10846
Pages	-10847
Scale	-10848
VIDER	-10849
centi	-10850
setup	-10851
▁"3",	-10852
▁FIND	-10853
▁Open	-10854
▁then	-10855
Captor	-10856
curacy	-10857
ortion	-10858
tokens	-10859
▁Table	-10860
▁deque	-10861
▁strip	-10862
<>("1",	-10863
Chooser	-10864
FromDoc	-10865
LECTION	-10866
Section	-10867
TsFiles	-10868
VarName	-10869
amUsage	-10870
centile	-10871
getSize	-10872
openjdk	-10873
pointed	-10874
rottler	-10875
▁Holder	-10876
▁Member	-10877
▁Socket	-10878
▁Static	-10879
▁expire	-10880
▁nested	-10881
Attempts	-10882
Blocking	-10883
COMPLETE	-10884
Conflict	-10885
Datetime	-10886
Existing	-10887
HtmlPage	-10888
JOINTHIS	-10889
RpcUtils	-10890
TRANSFER	-10891
checksum	-10892
estimate	-10893
getCount	-10894
legation	-10895
memTable	-10896
▁METRICS	-10897
▁PATTERN	-10898
▁tsFiles	-10899
Instances	-10900
JOINOTHER	-10901
Providers	-10902
Segmented	-10903
ThreadNum	-10904
TimeLimit	-10905
ToBoolean	-10906
hasCached	-10907
isRunning	-10908
nextToken	-10909
tmodelKey	-10910
vocations	-10911
▁adminCon	-10912
▁argTypes	-10913
▁brokerId	-10914
▁roTsFile	-10915
Accessible	-10916
Calculated	-10917
Processors	-10918
collection	-10919
consistent	-10920
suppressed	-10921
validation	-10922
▁startedMs	-10923
FileManager	-10924
ServiceImpl	-10925
StatisticsV	-10926
modelTModel	-10927
predecessor	-10928
withCaching	-10929
▁FindEntity	-10930
▁filterType	-10931
▁methodName	-10932
▁punctuator	-10933
▁unseqFiles	-10934
NotSupported	-10935
SingleThread	-10936
changeRecord	-10937
querycontext	-10938
sqlTimestamp	-10939
▁"1998-10-30	-10940
LocalFilesMap	-10941
ableClockSkew	-10942
streamsConfig	-10943
timegenerator	-10944
verifySuccess	-10945
▁"127.0.0.1",	-10946
▁ChangeRecord	-10947
▁LeaderAndIsr	-10948
▁ModelFactory	-10949
▁findBusiness	-10950
▁metricsGroup	-10951
▁stubProvider	-10952
UpdateListener	-10953
keyedReference	-10954
servletContext	-10955
▁privilegeList	-10956
KafkaFutureImpl	-10957
UDDIErrorHelper	-10958
timePartitionId	-10959
topicPartitions	-10960
▁EndTransaction	-10961
▁TsFileMetadata	-10962
▁expiredBatches	-10963
▁getterSupplier	-10964
▁sessionDataSet	-10965
BindingTemplates	-10966
CompletionStatus	-10967
amUsageEstimator	-10968
mockLoginContext	-10969
updateEndOffsets	-10970
▁CollectionUtils	-10971
(?	-10972
.@	-10973
1\	-10974
61	-10975
]]	-10976
DES	-10977
MON	-10978
NaN	-10979
mut	-10980
rec	-10981
▁64	-10982
▁fw	-10983
'");	-10984
(11,	-10985
-02-	-10986
1").	-10987
32",	-10988
8)",	-10989
DAYS	-10990
DUCE	-10991
Move	-10992
URIS	-10993
[1],	-10994
_3",	-10995
ajor	-10996
mall	-10997
sole	-10998
▁"3,	-10999
▁1).	-11000
▁Bad	-11001
▁CLO	-11002
(0)),	-11003
(2)).	-11004
-1");	-11005
DUBBO	-11006
Juddi	-11007
ODULE	-11008
REBAL	-11009
Realm	-11010
▁NAME	-11011
▁SOAP	-11012
▁loop	-11013
(10));	-11014
Combin	-11015
DETECT	-11016
OVERRI	-11017
ileges	-11018
rawKey	-11019
▁Leave	-11020
▁MERGE	-11021
▁MTree	-11022
▁Round	-11023
▁point	-11024
▁seqno	-11025
BinaryV	-11026
Cleanup	-11027
ERATURE	-11028
Getting	-11029
IReader	-11030
Ongoing	-11031
TModels	-11032
clusive	-11033
motable	-11034
revoked	-11035
setLang	-11036
taskIds	-11037
▁EndTxn	-11038
▁reason	-11039
▁search	-11040
TestName	-11041
andThrow	-11042
keyedRef	-11043
langCode	-11044
receiver	-11045
requency	-11046
toBinary	-11047
▁LIBRARY	-11048
▁Upgrade	-11049
▁Wrapper	-11050
▁tFilter	-11051
Discovery	-11052
Increment	-11053
Specified	-11054
Suspended	-11055
URISyntax	-11056
WATERMARK	-11057
andidates	-11058
nodeNames	-11059
setWidget	-11060
typeFlags	-11061
uplicates	-11062
▁Deletion	-11063
▁Identity	-11064
▁SinkTask	-11065
▁addChild	-11066
▁appender	-11067
▁bitWidth	-11068
▁earliest	-11069
▁getFirst	-11070
▁uncaught	-11071
Constraint	-11072
InProgress	-11073
PROCESSING	-11074
ternalSort	-11075
unregister	-11076
▁getClient	-11077
▁processId	-11078
▁recordKey	-11079
▁resultStr	-11080
-0000000002	-11081
-0000000006	-11082
FlushPolicy	-11083
KafkaConfig	-11084
PrintWriter	-11085
agentClient	-11086
globalStore	-11087
▁ChunkGroup	-11088
▁SyncSender	-11089
▁columnType	-11090
▁emptyTasks	-11091
▁startIndex	-11092
▁taskConfig	-11093
ContextStack	-11094
ExpiresAfter	-11095
NumberToType	-11096
TemplatePath	-11097
agedReceives	-11098
buildFromDoc	-11099
nowledgement	-11100
▁EpochMillis	-11101
▁HttpSession	-11102
▁KStreamImpl	-11103
▁StandbyTask	-11104
▁TckBusiness	-11105
▁configEntry	-11106
▁topicGroups	-11107
("127.0.0.1",	-11108
AtomicBoolean	-11109
LinkedHashSet	-11110
PerConnection	-11111
WrappedObject	-11112
derlyingStore	-11113
ruptException	-11114
▁MockInternal	-11115
▁RequestUtils	-11116
▁protocolType	-11117
Repartitioning	-11118
SelectedSeries	-11119
containsString	-11120
▁ConnectorInfo	-11121
▁ImmutableList	-11122
▁clientRequest	-11123
▁createRequest	-11124
▁handleFailure	-11125
▁transactional	-11126
CollectionUtils	-11127
CommittedOffset	-11128
ConverterConfig	-11129
PluginsResource	-11130
QueryExpression	-11131
RestoreConsumer	-11132
ableClockSkewMs	-11133
▁BufferSupplier	-11134
▁ConsumerConfig	-11135
▁ResponseHeader	-11136
▁sendIdempotent	-11137
ProducerResponse	-11138
ecommendedValues	-11139
▁TopologyWrapper	-11140
▁UDDIInquiryImpl	-11141
▁clusterResource	-11142
▁executorService	-11143
2[	-11144
49	-11145
Am	-11146
Fs	-11147
Lt	-11148
[8	-11149
03,	-11150
Jws	-11151
MAC	-11152
ODY	-11153
TAL	-11154
TSF	-11155
UNA	-11156
]),	-11157
bie	-11158
▁4)	-11159
▁si	-11160
02);	-11161
Area	-11162
Disc	-11163
LISH	-11164
Wall	-11165
[0-9	-11166
aked	-11167
iant	-11168
ocks	-11169
onel	-11170
utom	-11171
▁CLI	-11172
▁NOT	-11173
▁SET	-11174
▁eff	-11175
▁pop	-11176
▁wal	-11177
(0.0,	-11178
0_000	-11179
2)));	-11180
={}]:	-11181
Brief	-11182
NumOf	-11183
Place	-11184
REGEX	-11185
SIBLE	-11186
Tuple	-11187
_1");	-11188
appId	-11189
balan	-11190
igger	-11191
nsURI	-11192
ombie	-11193
▁Fill	-11194
▁OPER	-11195
▁ROLE	-11196
▁SYNC	-11197
▁disc	-11198
▁mute	-11199
▁warn	-11200
CLOSED	-11201
Events	-11202
MILLIS	-11203
Permut	-11204
TESTED	-11205
ampled	-11206
served	-11207
▁Async	-11208
▁exact	-11209
▁under	-11210
Fetcher	-11211
Generic	-11212
IMPROVE	-11213
Invoked	-11214
KeyName	-11215
Perform	-11216
WithAPI	-11217
command	-11218
edValue	-11219
extract	-11220
notNull	-11221
oneless	-11222
regular	-11223
startup	-11224
▁CLIENT	-11225
▁Markup	-11226
▁Remote	-11227
InBuffer	-11228
ToNumber	-11229
UntilMin	-11230
Username	-11231
dateType	-11232
getWrite	-11233
hasError	-11234
utomatic	-11235
▁dataTTL	-11236
▁example	-11237
▁getType	-11238
▁invoker	-11239
▁varargs	-11240
ManyToOne	-11241
RESPONSES	-11242
RETENTION	-11243
Refreshes	-11244
StorageFs	-11245
TaskCount	-11246
getByType	-11247
▁ApiUtils	-11248
▁InMemory	-11249
▁lruCache	-11250
▁typeName	-11251
▁userName	-11252
AndReceive	-11253
FieldValue	-11254
FolderFile	-11255
ModelToApi	-11256
NumEntries	-11257
SourceSink	-11258
endOffsets	-11259
izedLookup	-11260
joinNeeded	-11261
marshaller	-11262
▁Privilege	-11263
BufferLocal	-11264
INSENSITIVE	-11265
MetadataMap	-11266
MetricGroup	-11267
Suppression	-11268
TsFileInput	-11269
addListener	-11270
connectorId	-11271
createTopic	-11272
endpointURL	-11273
initialized	-11274
shutdownNow	-11275
streamTopic	-11276
windowedKey	-11277
▁Undeclared	-11278
▁punctuated	-11279
▁statusCode	-11280
IMPROVEMENTS	-11281
StableOffset	-11282
TckPublisher	-11283
getLocalHost	-11284
getProcessor	-11285
onelessInput	-11286
▁JmxReporter	-11287
▁WorkerUtils	-11288
▁createTopic	-11289
▁expectStart	-11290
▁overviewDoc	-11291
▁stateStores	-11292
▁tsFileInput	-11293
▁versionInfo	-11294
▁LoginManager	-11295
▁createTopics	-11296
▁singleSeries	-11297
▁tokenIntType	-11298
ClientThrottle	-11299
OutputEncoding	-11300
ScramMechanism	-11301
ValueTimestamp	-11302
WithAPISupport	-11303
▁DefaultRecord	-11304
▁PrivilegeType	-11305
▁assignedTasks	-11306
▁topicResponse	-11307
CalendarFactory	-11308
▁getDescription	-11309
▁logStartOffset	-11310
▁netWriteBuffer	-11311
▁FileInputStream	-11312
▁JsonNodeFactory	-11313
▁LogicalOperator	-11314
▁LogicalOptimize	-11315
):	-11316
("_	-11317
('\	-11318
(2.	-11319
.0,	-11320
2")	-11321
25,	-11322
32[	-11323
><@	-11324
ATT	-11325
Cfg	-11326
DOT	-11327
Exc	-11328
FIC	-11329
IcI	-11330
MSG	-11331
SQU	-11332
Was	-11333
ear	-11334
eer	-11335
iol	-11336
wal	-11337
xFE	-11338
zip	-11339
▁9;	-11340
▁bt	-11341
(50,	-11342
3"),	-11343
4)",	-11344
<?>)	-11345
Flow	-11346
HDFS	-11347
ULTY	-11348
WARD	-11349
mode	-11350
▁ADD	-11351
▁BIG	-11352
())),	-11353
(200,	-11354
ATIVE	-11355
Among	-11356
GERMA	-11357
REQUI	-11358
Slash	-11359
[]{0,	-11360
aised	-11361
drain	-11362
inite	-11363
pring	-11364
ratio	-11365
▁50);	-11366
▁Veri	-11367
▁glob	-11368
▁hard	-11369
▁html	-11370
▁like	-11371
▁mask	-11372
▁salt	-11373
▁some	-11374
DIFFIC	-11375
ENDING	-11376
PerSec	-11377
cepted	-11378
flight	-11379
onJoin	-11380
pClass	-11381
suffix	-11382
▁Maybe	-11383
▁REGEX	-11384
▁getUn	-11385
CLEANUP	-11386
Destroy	-11387
INCLUDE	-11388
MinTime	-11389
NoInput	-11390
PLUGINS	-11391
_2_3_0,	-11392
getPort	-11393
strings	-11394
▁Cached	-11395
▁overri	-11396
▁skipWS	-11397
(1509466	-11398
FUNCTION	-11399
getPaths	-11400
mockTime	-11401
preValue	-11402
sumValue	-11403
▁CLEANUP	-11404
▁Options	-11405
▁collect	-11406
▁filters	-11407
▁greater	-11408
▁inOrder	-11409
▁keySize	-11410
▁loading	-11411
▁perform	-11412
Cancelled	-11413
PARAMETER	-11414
Procedure	-11415
Projected	-11416
punctuate	-11417
restoring	-11418
▁matching	-11419
▁rowCount	-11420
DIFFICULTY	-11421
LogDirInfo	-11422
coveryURLs	-11423
gregations	-11424
iterations	-11425
replaceAll	-11426
singlePath	-11427
timeWindow	-11428
▁DiskSpace	-11429
▁Hashtable	-11430
▁Operation	-11431
▁assertEsc	-11432
▁docString	-11433
▁maxWaitMs	-11434
▁modelDesc	-11435
▁normalize	-11436
▁truncated	-11437
GlobalState	-11438
LogTemplate	-11439
MetadataFor	-11440
PageReaders	-11441
ResetTopics	-11442
TaskCreator	-11443
ableOffsets	-11444
getNodeType	-11445
ingIterator	-11446
ittleEndian	-11447
sWithPrefix	-11448
▁CONVERSION	-11449
▁PageHeader	-11450
▁fileReader	-11451
▁getBoolean	-11452
▁getSession	-11453
▁offsetData	-11454
▁rightValue	-11455
▁saslServer	-11456
DoesNotMatch	-11457
FetchResults	-11458
IgnoringCase	-11459
Interceptors	-11460
MacroContext	-11461
NullWritable	-11462
UnsecuredJws	-11463
WriteLogNode	-11464
addGraphNode	-11465
▁ChunkHeader	-11466
▁WorkerState	-11467
▁displayName	-11468
▁startTimeMs	-11469
IndexNodeType	-11470
Parameterized	-11471
ableStoreType	-11472
parseResponse	-11473
▁deduplicated	-11474
▁keyConverter	-11475
▁lastModified	-11476
▁namespaceUri	-11477
▁pluginLoader	-11478
ClassException	-11479
setCurrentNode	-11480
▁globalStreams	-11481
▁partitionInfo	-11482
ScramCredential	-11483
getValueEncoder	-11484
setDeduplicated	-11485
▁ConnectMetrics	-11486
▁measurementIds	-11487
▁recordsBuilder	-11488
▁startTimestamp	-11489
▁valueConverter	-11490
SyncSubscription	-11491
▁groupByFillPlan	-11492
▁headerConverter	-11493
▁offlineReplicas	-11494
▁stateStoreNames	-11495
'"	-11496
']	-11497
9.	-11498
GN	-11499
Gt	-11500
xf	-11501
0;;	-11502
5()	-11503
999	-11504
BIT	-11505
Ori	-11506
RAN	-11507
sdb	-11508
ulk	-11509
utc	-11510
wri	-11511
▁"+	-11512
▁"7	-11513
▁bp	-11514
2222	-11515
:00,	-11516
Hook	-11517
Mute	-11518
NoOp	-11519
TING	-11520
firm	-11521
ftlh	-11522
moke	-11523
▁"4,	-11524
▁AND	-11525
▁RPC	-11526
(1.0,	-11527
AndUn	-11528
Dummy	-11529
OnGet	-11530
Redir	-11531
break	-11532
slice	-11533
▁HOST	-11534
▁acks	-11535
▁leaf	-11536
CHANGE	-11537
Domain	-11538
LOADER	-11539
LogAnd	-11540
Signal	-11541
manage	-11542
rogdor	-11543
sgName	-11544
▁lower	-11545
Average	-11546
BINDING	-11547
Private	-11548
Samples	-11549
TabSize	-11550
argName	-11551
getSign	-11552
umented	-11553
▁Select	-11554
▁either	-11555
▁explic	-11556
▁millis	-11557
▁raised	-11558
▁resume	-11559
ClientId	-11560
Envelope	-11561
HostInfo	-11562
JsonText	-11563
PROVIDER	-11564
WithName	-11565
datatype	-11566
getToKey	-11567
lemented	-11568
settings	-11569
timeZone	-11570
transfer	-11571
▁logging	-11572
▁startNs	-11573
▁testAll	-11574
AllTopics	-11575
MemTables	-11576
UserTopic	-11577
getTmodel	-11578
jAppender	-11579
resources	-11580
▁HostInfo	-11581
▁absolute	-11582
▁instanti	-11583
▁setState	-11584
▁testRead	-11585
▁toForget	-11586
ConfigName	-11587
ValueBytes	-11588
getKeyName	-11589
identifier	-11590
readOutput	-11591
▁Reentrant	-11592
▁blockSize	-11593
▁punctuate	-11594
▁testParse	-11595
▁unseqFile	-11596
▁watermark	-11597
ActiveCount	-11598
BuiltInsFor	-11599
FileNumUtil	-11600
SecurityUrl	-11601
StateSerdes	-11602
ToPartition	-11603
TotalTimeMs	-11604
ValueBuffer	-11605
assignments	-11606
endTemplate	-11607
getDeviceId	-11608
serializeTo	-11609
serviceName	-11610
▁1998-10-30	-11611
▁FindTModel	-11612
▁JSONObject	-11613
▁NamedCache	-11614
▁Unexpected	-11615
▁Verifiable	-11616
▁getCurrent	-11617
▁maxVersion	-11618
▁shouldHave	-11619
BeforeLogout	-11620
IllegalToken	-11621
ResourcePath	-11622
StringLength	-11623
formanceStat	-11624
ofEpochMilli	-11625
sequenceFile	-11626
e	-11627
▁	-11628
t	-11629
r	-11630
a	-11631
i	-11632
o	-11633
n	-11634
s	-11635
l	-11636
c	-11637
p	-11638
.	-11639
u	-11640
d	-11641
)	-11642
(	-11643
m	-11644
g	-11645
;	-11646
f	-11647
S	-11648
h	-11649
T	-11650
,	-11651
E	-11652
b	-11653
y	-11654
"	-11655
v	-11656
C	-11657
I	-11658
k	-11659
=	-11660
w	-11661
R	-11662
A	-11663
M	-11664
O	-11665
x	-11666
{	-11667
}	-11668
N	-11669
L	-11670
P	-11671
_	-11672
0	-11673
F	-11674
D	-11675
B	-11676
1	-11677
<	-11678
>	-11679
U	-11680
j	-11681
q	-11682
V	-11683
K	-11684
+	-11685
2	-11686
G	-11687
z	-11688
W	-11689
@	-11690
H	-11691
-	-11692
3	-11693
:	-11694
[	-11695
]	-11696
4	-11697
Y	-11698
5	-11699
Q	-11700
X	-11701
6	-11702
/	-11703
\	-11704
!	-11705
J	-11706
8	-11707
9	-11708
'	-11709
&	-11710
7	-11711
?	-11712
|	-11713
Z	-11714
*	-11715
