[PAD]	0
[UNK]	0
<s>	0
</s>	0
[SOS]	0
[EOL]	0
[EOS]	0
er	-0
at	-1
et	-2
or	-3
on	-4
es	-5
in	-6
);	-7
le	-8
ti	-9
st	-10
▁{	-11
▁=	-12
▁i	-13
▁}	-14
al	-15
me	-16
▁p	-17
ic	-18
re	-19
ro	-20
St	-21
()	-22
ile	-23
get	-24
mp	-25
nt	-26
ad	-27
ri	-28
▁t	-29
ch	-30
ce	-31
as	-32
ot	-33
ing	-34
tion	-35
ata	-36
ort	-37
ne	-38
te	-39
an	-40
Ex	-41
ate	-42
ap	-43
▁imp	-44
▁import	-45
▁(	-46
▁c	-47
de	-48
che	-49
ub	-50
db	-51
Str	-52
ur	-53
File	-54
ser	-55
ption	-56
String	-57
ul	-58
ception	-59
▁"	-60
new	-61
▁r	-62
▁f	-63
lic	-64
ue	-65
Exception	-66
int	-67
▁or	-68
ublic	-69
▁public	-70
▁org	-71
();	-72
ache	-73
ist	-74
ar	-75
ge	-76
se	-77
▁th	-78
pe	-79
▁v	-80
▁new	-81
ut	-82
apache	-83
il	-84
Ti	-85
iot	-86
iotdb	-87
Data	-88
sert	-89
ter	-90
List	-91
ath	-92
▁st	-93
ess	-94
is	-95
ion	-96
est	-97
ment	-98
Ty	-99
("	-100
▁+	-101
▁s	-102
un	-103
lo	-104
▁e	-105
",	-106
Re	-107
alue	-108
Con	-109
up	-110
Type	-111
Set	-112
▁ret	-113
row	-114
In	-115
▁b	-116
riv	-117
id	-118
Time	-119
ult	-120
▁T	-121
urn	-122
age	-123
file	-124
co	-125
▁return	-126
▁I	-127
▁throw	-128
qu	-129
iz	-130
ong	-131
esult	-132
root	-133
▁priv	-134
ger	-135
it	-136
Path	-137
▁String	-138
▁vo	-139
▁private	-140
▁void	-141
til	-142
read	-143
ct	-144
um	-145
ize	-146
▁int	-147
▁if	-148
ck	-149
ery	-150
▁j	-151
▁@	-152
ts	-153
ff	-154
Met	-155
ver	-156
ra	-157
ull	-158
ol	-159
());	-160
Fil	-161
av	-162
per	-163
));	-164
adata	-165
Lo	-166
En	-167
assert	-168
▁S	-169
▁throws	-170
().	-171
▁stat	-172
tsfile	-173
ies	-174
ession	-175
ex	-176
▁d	-177
ava	-178
null	-179
rite	-180
Value	-181
By	-182
en	-183
esultSet	-184
Read	-185
ame	-186
▁java	-187
unk	-188
▁l	-189
sFile	-190
▁A	-191
ab	-192
▁m	-193
ir	-194
time	-195
ure	-196
put	-197
00	-198
lan	-199
atement	-200
ER	-201
▁get	-202
vic	-203
uff	-204
");	-205
Ch	-206
ray	-207
ig	-208
▁static	-209
set	-210
als	-211
())	-212
ass	-213
ve	-214
IN	-215
quals	-216
ator	-217
▁0	-218
vice	-219
▁1	-220
ec	-221
cod	-222
uffer	-223
tils	-224
eries	-225
▁TS	-226
Over	-227
ry	-228
roup	-229
tim	-230
rray	-231
LE	-232
atch	-233
Id	-234
pr	-235
ride	-236
Override	-237
Name	-238
ord	-239
am	-240
lass	-241
ction	-242
Stat	-243
oo	-244
DB	-245
our	-246
Map	-247
Equals	-248
Metadata	-249
AT	-250
ME	-251
OException	-252
Filter	-253
assertEquals	-254
▁w	-255
amp	-256
us	-257
▁for	-258
ed	-259
ma	-260
ues	-261
alues	-262
▁this	-263
Po	-264
estamp	-265
Qu	-266
asure	-267
add	-268
▁root	-269
asurement	-270
gger	-271
Test	-272
ode	-273
Plan	-274
[]	-275
lean	-276
▁long	-277
DataType	-278
Query	-279
fig	-280
TS	-281
nd	-282
TDB	-283
Utils	-284
1.	-285
th	-286
▁<	-287
oolean	-288
con	-289
Pro	-290
esour	-291
Reader	-292
let	-293
dex	-294
cord	-295
able	-296
De	-297
QL	-298
▁o	-299
Chunk	-300
Group	-301
ack	-302
ute	-303
▁in	-304
orage	-305
▁time	-306
perator	-307
▁lo	-308
riter	-309
▁null	-310
▁con	-311
ST	-312
ation	-313
em	-314
cess	-315
Size	-316
++	-317
pression	-318
io	-319
nection	-320
xt	-321
Co	-322
ant	-323
Config	-324
ream	-325
rue	-326
▁0;	-327
ctor	-328
oTDB	-329
0,	-330
art	-331
query	-332
stant	-333
ine	-334
esource	-335
for	-336
▁List	-337
timestamp	-338
coding	-339
Buffer	-340
▁IOException	-341
▁try	-342
write	-343
▁resultSet	-344
ase	-345
inal	-346
Int	-347
Tim	-348
Stream	-349
(),	-350
▁de	-351
ana	-352
ecute	-353
ance	-354
ssert	-355
tic	-356
anager	-357
▁data	-358
Array	-359
Point	-360
▁M	-361
Operator	-362
1,	-363
rent	-364
chema	-365
Long	-366
istic	-367
▁statement	-368
▁boolean	-369
unt	-370
ql	-371
has	-372
Record	-373
Num	-374
Constant	-375
TsFile	-376
),	-377
Index	-378
stance	-379
util	-380
▁final	-381
▁assertEquals	-382
hic	-383
Expression	-384
0.	-385
hicle	-386
erge	-387
vehicle	-388
ow	-389
ctory	-390
to	-391
istics	-392
alse	-393
Statement	-394
Writer	-395
putStream	-396
▁values	-397
▁.	-398
Pa	-399
▁SQL	-400
▁n	-401
))	-402
ty	-403
measurement	-404
▁pro	-405
Series	-406
Byte	-407
der	-408
▁File	-409
OR	-410
SER	-411
Fa	-412
▁catch	-413
IO	-414
urrent	-415
▁value	-416
Resource	-417
2,	-418
ted	-419
TE	-420
RE	-421
value	-422
▁file	-423
mat	-424
reate	-425
gth	-426
eseries	-427
Instance	-428
orageGroup	-429
umn	-430
<>	-431
yn	-432
ax	-433
Manager	-434
ie	-435
oub	-436
(1	-437
Write	-438
▁path	-439
▁D	-440
ouble	-441
▁SQLException	-442
Meta	-443
chunk	-444
Node	-445
).	-446
Logger	-447
▁re	-448
To	-449
▁Assert	-450
++)	-451
▁class	-452
▁==	-453
execute	-454
ResultSet	-455
▁set	-456
seq	-457
etadata	-458
getInstance	-459
lose	-460
FI	-461
▁-	-462
▁:	-463
▁pack	-464
Se	-465
Process	-466
mpr	-467
Factory	-468
loat	-469
len	-470
▁case	-471
▁read	-472
▁C	-473
▁!	-474
▁ex	-475
unit	-476
▁IoTDB	-477
tes	-478
IME	-479
▁package	-480
ta	-481
Connection	-482
Un	-483
LO	-484
getString	-485
Encoding	-486
ader	-487
cted	-488
▁co	-489
Pair	-490
▁wh	-491
MetaData	-492
NA	-493
coder	-494
▁is	-495
▁",	-496
junit	-497
▁logger	-498
lse	-499
NT	-500
▁measurement	-501
)",	-502
olumn	-503
For	-504
Th	-505
ln	-506
▁else	-507
▁a	-508
SE	-509
yst	-510
ystem	-511
getM	-512
▁Array	-513
ical	-514
length	-515
▁R	-516
ync	-517
mm	-518
uth	-519
and	-520
ary	-521
Al	-522
bj	-523
▁B	-524
▁TSDataType	-525
pes	-526
text	-527
long	-528
<>();	-529
od	-530
";	-531
data	-532
gine	-533
easurement	-534
metadata	-535
sion	-536
DataSet	-537
Result	-538
Ser	-539
▁TsFile	-540
yte	-541
▁F	-542
user	-543
lete	-544
Statistics	-545
par	-546
Of	-547
size	-548
▁test	-549
esc	-550
ect	-551
gg	-552
insert	-553
Schema	-554
▁!=	-555
reg	-556
ror	-557
ast	-558
inary	-559
ld	-560
▁Path	-561
▁h	-562
next	-563
▁ArrayList	-564
▁Query	-565
bject	-566
RO	-567
Files	-568
▁chunk	-569
TH	-570
ial	-571
fa	-572
create	-573
Par	-574
▁false	-575
TSDataType	-576
ys	-577
2.	-578
utputStream	-579
ext	-580
INT	-581
current	-582
ffset	-583
escri	-584
▁sup	-585
12	-586
essage	-587
Timeseries	-588
CO	-589
ByteBuffer	-590
pt	-591
port	-592
▁query	-593
ield	-594
Log	-595
▁ser	-596
▁{}	-597
▁cnt	-598
ilter	-599
▁tsFile	-600
ntry	-601
ey	-602
path	-603
ES	-604
Count	-605
Object	-606
sql	-607
Mem	-608
▁>	-609
TIME	-610
Page	-611
▁2	-612
lus	-613
Descri	-614
AL	-615
True	-616
fo	-617
mmon	-618
▁while	-619
ReadWrite	-620
assertTrue	-621
ptor	-622
device	-623
IOException	-624
▁true	-625
Dir	-626
ersion	-627
Descriptor	-628
▁","	-629
Bytes	-630
rom	-631
lush	-632
UP	-633
Types	-634
date	-635
ith	-636
NAME	-637
stat	-638
▁%	-639
▁&	-640
Status	-641
common	-642
01.	-643
ValuePair	-644
▁connection	-645
Start	-646
▁ts	-647
ft	-648
StorageGroup	-649
End	-650
01	-651
▁en	-652
4,	-653
wt	-654
nce	-655
▁(!	-656
format	-657
AR	-658
temp	-659
uence	-660
ber	-661
wf	-662
ak	-663
arg	-664
▁into	-665
▁P	-666
▁has	-667
eader	-668
error	-669
▁byte	-670
uil	-671
STR	-672
Seq	-673
Has	-674
reak	-675
▁break	-676
▁device	-677
\"	-678
Device	-679
ans	-680
qp	-681
▁start	-682
SQL	-683
ht	-684
emp	-685
conf	-686
toString	-687
ggreg	-688
ING	-689
pc	-690
▁INT	-691
ablet	-692
Timestamp	-693
Hash	-694
▁max	-695
sg	-696
uilder	-697
ature	-698
eger	-699
▁to	-700
Be	-701
ild	-702
hys	-703
print	-704
hysical	-705
];	-706
appe	-707
0000	-708
group	-709
IOUtils	-710
NO	-711
older	-712
erature	-713
ReadWriteIOUtils	-714
0(	-715
utils	-716
AN	-717
if	-718
▁&&	-719
Cache	-720
MP	-721
au	-722
▁un	-723
mpression	-724
ATE	-725
Exec	-726
min	-727
sele	-728
DataPoint	-729
▁|	-730
▁System	-731
Stats	-732
▁buffer	-733
▁Map	-734
update	-735
ail	-736
tected	-737
▁protected	-738
IoTDB	-739
fore	-740
▁Time	-741
▁Int	-742
With	-743
one	-744
▁user	-745
▁3	-746
Not	-747
Up	-748
▁sql	-749
exception	-750
▁TSEncoding	-751
++;	-752
RLE	-753
old	-754
Column	-755
out	-756
ProcessException	-757
")	-758
ag	-759
getConfig	-760
10	-761
esp	-762
Context	-763
table	-764
Processor	-765
tain	-766
ties	-767
Proper	-768
close	-769
ChunkMetadata	-770
],	-771
fault	-772
Version	-773
ilege	-774
Env	-775
▁arg	-776
▁plan	-777
getMessage	-778
Ran	-779
ialize	-780
ask	-781
▁end	-782
ly	-783
IES	-784
OutputStream	-785
3.	-786
0)	-787
log	-788
Format	-789
▁super	-790
CE	-791
ght	-792
▁Long	-793
Batch	-794
append	-795
▁Class	-796
Next	-797
temperature	-798
▁al	-799
66	-800
fter	-801
uple	-802
SERIES	-803
irst	-804
ingle	-805
pa	-806
iti	-807
▁W	-808
▁((	-809
▁ty	-810
easurementSchema	-811
name	-812
99	-813
FIX	-814
Offset	-815
tition	-816
sor	-817
Lock	-818
parse	-819
TsFileResource	-820
Engine	-821
cessor	-822
values	-823
os	-824
SERT	-825
▁count	-826
OU	-827
res	-828
▁Statement	-829
All	-830
resultSet	-831
lock	-832
tend	-833
getName	-834
uthor	-835
izer	-836
TimeSeries	-837
pro	-838
Storage	-839
3,	-840
und	-841
User	-842
▁Filter	-843
▁reader	-844
Merge	-845
Len	-846
mo	-847
▁10	-848
odif	-849
EN	-850
buffer	-851
▁5	-852
pl	-853
NOT	-854
Paths	-855
INSERT	-856
gr	-857
timeseries	-858
▁/	-859
sen	-860
7.	-861
"));	-862
FILE	-863
▁k	-864
check	-865
▁write	-866
ix	-867
▁+=	-868
Field	-869
▁column	-870
val	-871
Binary	-872
▁timestamp	-873
UM	-874
olle	-875
▁extend	-876
ums	-877
Double	-878
status	-879
▁extends	-880
▁pre	-881
Table	-882
river	-883
1",	-884
DE	-885
iron	-886
▁result	-887
ironment	-888
class	-889
Values	-890
sl	-891
Thread	-892
enums	-893
Le	-894
LOAT	-895
ported	-896
POR	-897
▁1;	-898
▁session	-899
Environment	-900
▁size	-901
▁merge	-902
EndTime	-903
ient	-904
filter	-905
how	-906
ner	-907
str	-908
getFile	-909
Float	-910
1)	-911
Max	-912
ID	-913
RI	-914
col	-915
Number	-916
Code	-917
engine	-918
▁Logger	-919
ill	-920
ire	-921
▁double	-922
Key	-923
sensor	-924
Cl	-925
"),	-926
▁fail	-927
Before	-928
▁insert	-929
TED	-930
Sequence	-931
peration	-932
StorageEngine	-933
▁not	-934
()));	-935
▁INTO	-936
slf	-937
ound	-938
HashMap	-939
▁out	-940
Inter	-941
select	-942
Loc	-943
Assert	-944
Encoder	-945
mpty	-946
Stack	-947
▁schema	-948
delete	-949
GE	-950
VAL	-951
67	-952
>>	-953
Insert	-954
UPPOR	-955
Header	-956
▁storageGroup	-957
EnvironmentUtils	-958
stra	-959
SUPPOR	-960
Service	-961
SUPPORTED	-962
▁assertTrue	-963
▁writer	-964
ler	-965
rim	-966
▁ans	-967
lement	-968
And	-969
Pool	-970
Class	-971
ication	-972
Tra	-973
Input	-974
role	-975
VALU	-976
getValue	-977
After	-978
odification	-979
OD	-980
Sele	-981
main	-982
Folder	-983
Loader	-984
mem	-985
▁par	-986
Ab	-987
move	-988
Trace	-989
StackTrace	-990
(0	-991
Eq	-992
im	-993
Fill	-994
▁series	-995
rivilege	-996
addT	-997
▁log	-998
Bit	-999
max	-1000
ollection	-1001
Pre	-1002
nal	-1003
Resp	-1004
Child	-1005
mpress	-1006
LA	-1007
▁100	-1008
▁update	-1009
getColumn	-1010
ret	-1011
▁<=	-1012
▁||	-1013
0.0.	-1014
▁seq	-1015
Empty	-1016
grad	-1017
riverManager	-1018
printStackTrace	-1019
METH	-1020
METHOD	-1021
Builder	-1022
▁le	-1023
Range	-1024
7.0.0.	-1025
▁timeseries	-1026
▁ByteBuffer	-1027
▁filter	-1028
127.0.0.	-1029
▁Metadata	-1030
Ro	-1031
af	-1032
5,	-1033
ark	-1034
ces	-1035
info	-1036
utor	-1037
merge	-1038
stract	-1039
InputStream	-1040
fs	-1041
6667	-1042
From	-1043
perties	-1044
Property	-1045
ytes	-1046
▁type	-1047
▁dataType	-1048
▁0)	-1049
esources	-1050
▁Exception	-1051
On	-1052
▁G	-1053
pen	-1054
Info	-1055
ggregation	-1056
[]{	-1057
▁check	-1058
contain	-1059
Partition	-1060
mpressionType	-1061
VER	-1062
ause	-1063
▁measurements	-1064
Row	-1065
56	-1066
Task	-1067
▁tsRecord	-1068
valueOf	-1069
ITH	-1070
▁group	-1071
CT	-1072
itive	-1073
ool	-1074
otal	-1075
ritable	-1076
upported	-1077
Last	-1078
ists	-1079
ition	-1080
ink	-1081
Close	-1082
Entry	-1083
SI	-1084
▁temp	-1085
equals	-1086
BLE	-1087
STA	-1088
ource	-1089
RA	-1090
STAMP	-1091
1:	-1092
uc	-1093
ution	-1094
REATE	-1095
▁from	-1096
Op	-1097
ges	-1098
ity	-1099
▁TIME	-1100
Execution	-1101
PRE	-1102
VALUE	-1103
hysicalPlan	-1104
▁8	-1105
▁last	-1106
XT	-1107
lob	-1108
false	-1109
grade	-1110
PE	-1111
UR	-1112
/",	-1113
FLOAT	-1114
ollections	-1115
32	-1116
ON	-1117
Decoder	-1118
mpressor	-1119
rimitive	-1120
▁DriverManager	-1121
createStatement	-1122
Enable	-1123
reader	-1124
▁float	-1125
▁Binary	-1126
▁deviceId	-1127
((	-1128
ree	-1129
array	-1130
▁statistics	-1131
]);	-1132
▁Co	-1133
Integer	-1134
▁TSFile	-1135
▁res	-1136
System	-1137
Tablet	-1138
word	-1139
atchData	-1140
127.0.0.1:	-1141
Idx	-1142
resh	-1143
ory	-1144
start	-1145
PREFIX	-1146
▁index	-1147
6667/",	-1148
▁current	-1149
▁4	-1150
Out	-1151
hasNext	-1152
reshold	-1153
▁Integer	-1154
▁min	-1155
TT	-1156
Flush	-1157
▁StorageEngine	-1158
64	-1159
own	-1160
addTuple	-1161
TimeValuePair	-1162
LOG	-1163
lta	-1164
Length	-1165
▁Object	-1166
Sync	-1167
plit	-1168
MA	-1169
▁encoding	-1170
op	-1171
rg	-1172
1);	-1173
ister	-1174
▁TSRecord	-1175
▁resource	-1176
OLE	-1177
▁Set	-1178
Local	-1179
Privilege	-1180
(1,	-1181
▁>=	-1182
Line	-1183
CREATE	-1184
STRING	-1185
isEmpty	-1186
Date	-1187
▁node	-1188
true	-1189
▁"\	-1190
--	-1191
Ts	-1192
om	-1193
URL	-1194
idth	-1195
MNode	-1196
assword	-1197
contains	-1198
Operation	-1199
TIMESTAMP	-1200
▁J	-1201
OUBLE	-1202
Interval	-1203
ROM	-1204
YPE	-1205
Option	-1206
StatusCode	-1207
▁default	-1208
50	-1209
NUM	-1210
isf	-1211
atisf	-1212
Threshold	-1213
Pos	-1214
Resources	-1215
lear	-1216
terator	-1217
▁processor	-1218
eser	-1219
▁paths	-1220
▁unseq	-1221
Buffered	-1222
Writable	-1223
encoding	-1224
FS	-1225
00,	-1226
pre	-1227
▁conf	-1228
exists	-1229
▁IoTDBDescriptor	-1230
ATH	-1231
Role	-1232
ateg	-1233
False	-1234
count	-1235
right	-1236
ggregate	-1237
irectory	-1238
assertFalse	-1239
IOTDB	-1240
SU	-1241
etch	-1242
PLA	-1243
series	-1244
2)	-1245
▁be	-1246
ByteArray	-1247
▁TIMESERIES	-1248
VI	-1249
▁tag	-1250
record	-1251
AD	-1252
cnt	-1253
deviceId	-1254
MetadataList	-1255
ZE	-1256
of	-1257
32,	-1258
ign	-1259
rol	-1260
▁operator	-1261
LI	-1262
▁list	-1263
▁close	-1264
▁outputStream	-1265
att	-1266
SIZE	-1267
▁cur	-1268
dataType	-1269
end	-1270
Boolean	-1271
▁StringBuilder	-1272
bu	-1273
Uns	-1274
▁ch	-1275
DING	-1276
ROUP	-1277
column	-1278
StartTime	-1279
▁startTime	-1280
▁tsFileResource	-1281
LECT	-1282
uthException	-1283
mpl	-1284
sed	-1285
▁};	-1286
ated	-1287
Found	-1288
2",	-1289
1");	-1290
▁row	-1291
▁record	-1292
NotFound	-1293
ValueFilter	-1294
all	-1295
ard	-1296
▁the	-1297
ategy	-1298
▁cache	-1299
Arg	-1300
▁mem	-1301
Only	-1302
SELECT	-1303
Executor	-1304
CH	-1305
USER	-1306
)));	-1307
Execute	-1308
Ad	-1309
oop	-1310
adoop	-1311
▁FROM	-1312
BytesUtils	-1313
▁"1	-1314
ATAT	-1315
ATATYPE	-1316
SET	-1317
ric	-1318
byte	-1319
index	-1320
▁{}",	-1321
▁input	-1322
▁create	-1323
are	-1324
OOLE	-1325
Parser	-1326
TTL	-1327
Source	-1328
currentTime	-1329
DBC	-1330
▁cl	-1331
maining	-1332
ames	-1333
PLAIN	-1334
SequenceReader	-1335
[0	-1336
lobal	-1337
▁context	-1338
ChunkGroup	-1339
getResultSet	-1340
==	-1341
bug	-1342
ENCO	-1343
▁num	-1344
ENCODING	-1345
dbc	-1346
JDBC	-1347
OOLEAN	-1348
{}	-1349
ual	-1350
▁entry	-1351
ener	-1352
physical	-1353
64,	-1354
getProperty	-1355
test	-1356
0000,	-1357
expression	-1358
bine	-1359
rint	-1360
orted	-1361
atisfy	-1362
(2	-1363
ken	-1364
rap	-1365
Ret	-1366
map	-1367
ren	-1368
PATH	-1369
imit	-1370
Delete	-1371
Memory	-1372
DI	-1373
Agg	-1374
statistics	-1375
AGE	-1376
ob	-1377
0);	-1378
ctx	-1379
ias	-1380
rpc	-1381
Zone	-1382
ized	-1383
▁offset	-1384
ArrayList	-1385
ingleSeries	-1386
89	-1387
].	-1388
parator	-1389
ggregateResult	-1390
"))	-1391
rib	-1392
flush	-1393
sync	-1394
leted	-1395
▁page	-1396
94	-1397
fix	-1398
▁config	-1399
QueryPlan	-1400
Measurement	-1401
FF	-1402
ud	-1403
tag	-1404
Text	-1405
TSFile	-1406
▁metadata	-1407
Req	-1408
onit	-1409
rift	-1410
▁load	-1411
forName	-1412
▁length	-1413
▁instance	-1414
02	-1415
TEXT	-1416
▁delete	-1417
▁IExpression	-1418
sol	-1419
jdbc	-1420
double	-1421
onitor	-1422
TimeFilter	-1423
▁Collections	-1424
not	-1425
tur	-1426
pace	-1427
turbine	-1428
▁Statistics	-1429
▁str	-1430
▁Sync	-1431
ERR	-1432
▁Th	-1433
▁endTime	-1434
mt	-1435
ere	-1436
FileNum	-1437
getConnection	-1438
▁TimeValuePair	-1439
PP	-1440
ore	-1441
▁WITH	-1442
▁role	-1443
solute	-1444
getPath	-1445
▁HashMap	-1446
Or	-1447
▁inter	-1448
session	-1449
Absolute	-1450
MemTable	-1451
▁DATATYPE	-1452
▁ClassNotFound	-1453
Gener	-1454
Mill	-1455
node	-1456
aught	-1457
Er	-1458
loc	-1459
vel	-1460
▁->	-1461
code	-1462
Error	-1463
Names	-1464
ullPath	-1465
irstValue	-1466
ION	-1467
GroupBy	-1468
getAbsolute	-1469
OperatorType	-1470
DRI	-1471
PAR	-1472
lap	-1473
trol	-1474
DRIVER	-1475
,1	-1476
ac	-1477
cc	-1478
TestConstant	-1479
LT	-1480
0",	-1481
Rpc	-1482
getS	-1483
ument	-1484
▁Float	-1485
Generator	-1486
tEq	-1487
ater	-1488
Unsupported	-1489
▁instanceof	-1490
01(	-1491
▁Row	-1492
Output	-1493
concurrent	-1494
atio	-1495
entry	-1496
register	-1497
▁builder	-1498
▁version	-1499
IndexNode	-1500
0;	-1501
ay	-1502
,",	-1503
▁ab	-1504
▁tmp	-1505
getLogger	-1506
▁"127.0.0.1:	-1507
▁IoTDBConnection	-1508
vio	-1509
ueue	-1510
vious	-1511
hadoop	-1512
println	-1513
Compressor	-1514
▁LoggerFactory	-1515
fl	-1516
Millis	-1517
tsFile	-1518
Primitive	-1519
separator	-1520
eserialize	-1521
PPY	-1522
iled	-1523
NAPPY	-1524
service	-1525
LoggerFactory	-1526
tt	-1527
sing	-1528
uthorizer	-1529
▁hasResultSet	-1530
ps	-1531
CON	-1532
eter	-1533
mark	-1534
▁put	-1535
top	-1536
this	-1537
▁support	-1538
IT	-1539
andler	-1540
remove	-1541
▁total	-1542
lements	-1543
uration	-1544
IOWriter	-1545
▁abstract	-1546
getTimestamp	-1547
hasResultSet	-1548
2);	-1549
wit	-1550
▁id	-1551
ANCE	-1552
pare	-1553
isual	-1554
witch	-1555
▁Merge	-1556
▁error	-1557
▁manager	-1558
py	-1559
Open	-1560
ORAGE	-1561
Width	-1562
createTimeseries	-1563
ERROR	-1564
retArray	-1565
▁IoTDBConstant	-1566
80	-1567
He	-1568
aw	-1569
cis	-1570
load	-1571
cision	-1572
TIMESERIES	-1573
▁measurementId	-1574
ms	-1575
.",	-1576
late	-1577
▁met	-1578
bytes	-1579
STANCE	-1580
OK	-1581
SNAPPY	-1582
SizeIn	-1583
ameter	-1584
laptop	-1585
thrift	-1586
▁header	-1587
6,	-1588
▁ad	-1589
▁LOG	-1590
▁dataSet	-1591
▁ResultSet	-1592
▁implements	-1593
getAbsolutePath	-1594
▁ST	-1595
Load	-1596
Stmt	-1597
Aggr	-1598
Optim	-1599
constant	-1600
Remaining	-1601
.12	-1602
Down	-1603
type	-1604
456	-1605
Reg	-1606
last	-1607
Precision	-1608
cl	-1609
Sql	-1610
ian	-1611
getF	-1612
▁key	-1613
Parent	-1614
Default	-1615
HashSet	-1616
getColumnType	-1617
▁CompressionType	-1618
nio	-1619
oth	-1620
Base	-1621
asic	-1622
schema	-1623
Current	-1624
▁status	-1625
MAX	-1626
plan	-1627
TSEncoding	-1628
SH	-1629
▁lock	-1630
boolean	-1631
▁dPoint	-1632
(0,	-1633
▁switch	-1634
▁dataTypes	-1635
tern	-1636
Properties	-1637
SizeInByte	-1638
duc	-1639
sum	-1640
▁add	-1641
ducer	-1642
▁admin	-1643
afMNode	-1644
logical	-1645
satisfy	-1646
Selected	-1647
troller	-1648
BatchData	-1649
▁AuthException	-1650
alc	-1651
uplic	-1652
dPoint	-1653
7,	-1654
cei	-1655
fer	-1656
rup	-1657
▁1)	-1658
▁sync	-1659
DOUBLE	-1660
AggrResult	-1661
▁properties	-1662
QU	-1663
<>(	-1664
5094	-1665
left	-1666
▁bit	-1667
cover	-1668
▁Ts	-1669
▁field	-1670
properties	-1671
SQLException	-1672
Show	-1673
dfs	-1674
ATOR	-1675
Monitor	-1676
▁tablet	-1677
TimeExpression	-1678
RAY	-1679
list	-1680
odes	-1681
▁all	-1682
▁execute	-1683
▁finally	-1684
SizeThreshold	-1685
(2,	-1686
GER	-1687
zone	-1688
▁Thread	-1689
getParent	-1690
FilterOperator	-1691
Che	-1692
key	-1693
▁of	-1694
comp	-1695
oint	-1696
.123.	-1697
Check	-1698
clear	-1699
▁name	-1700
Server	-1701
PhysicalPlan	-1702
ExecuteStatement	-1703
UN	-1704
RES	-1705
▁up	-1706
Times	-1707
storageGroup	-1708
▁assertFalse	-1709
BY	-1710
▁H	-1711
Unseq	-1712
float	-1713
▁left	-1714
FilePath	-1715
Position	-1716
▁MManager	-1717
▁tsFileWriter	-1718
ip	-1719
nel	-1720
Queue	-1721
debug	-1722
▁print	-1723
65	-1724
9,	-1725
rans	-1726
▁10;	-1727
essed	-1728
Session	-1729
mpressed	-1730
▁BytesUtils	-1731
getMeasurement	-1732
(3	-1733
ork	-1734
(100	-1735
utes	-1736
Ratio	-1737
config	-1738
ributes	-1739
atermark	-1740
SG	-1741
cr	-1742
};	-1743
(10	-1744
cur	-1745
ier	-1746
sIn	-1747
▁TE	-1748
▁right	-1749
Modification	-1750
ERE	-1751
.");	-1752
LETE	-1753
ardw	-1754
▁old	-1755
Cached	-1756
ardware	-1757
HERE	-1758
Null	-1759
rc	-1760
Per	-1761
crud	-1762
ulti	-1763
Space	-1764
gener	-1765
ToBytes	-1766
ization	-1767
InsertPlan	-1768
IoTDBConstant	-1769
,%	-1770
0,1	-1771
\":	-1772
▁//	-1773
▁Ser	-1774
arget	-1775
quest	-1776
uplicated	-1777
▁retArray	-1778
arn	-1779
apac	-1780
nter	-1781
Ranges	-1782
apacity	-1783
▁queryPlan	-1784
▁TsFileResource	-1785
itial	-1786
▁Write	-1787
▁bytes	-1788
PARATOR	-1789
SQLConstant	-1790
(",	-1791
SUF	-1792
mas	-1793
▁1);	-1794
▁att	-1795
Level	-1796
chemas	-1797
ternal	-1798
▁WHERE	-1799
ReadOnly	-1800
▁privilege	-1801
4.	-1802
▁'	-1803
ite	-1804
▁Log	-1805
ceiver	-1806
NG	-1807
vices	-1808
SUFFIX	-1809
rupted	-1810
▁batch	-1811
Upgrade	-1812
form	-1813
attern	-1814
locate	-1815
Directory	-1816
DataSource	-1817
▁ByteArray	-1818
PointReader	-1819
Cur	-1820
Sen	-1821
tin	-1822
▁do	-1823
Sort	-1824
line	-1825
arDown	-1826
getKey	-1827
selected	-1828
▁batchData	-1829
QueryDataSet	-1830
BA	-1831
3",	-1832
sys	-1833
▁sh	-1834
annot	-1835
Client	-1836
▁flush	-1837
.123.456	-1838
getDevice	-1839
One	-1840
ind	-1841
Impl	-1842
Temp	-1843
▁next	-1844
awData	-1845
untime	-1846
IoTDBDescriptor	-1847
OS	-1848
face	-1849
▁Test	-1850
Create	-1851
▁child	-1852
SEPARATOR	-1853
writeLock	-1854
ied	-1855
▁an	-1856
▁te	-1857
Call	-1858
lease	-1859
mmand	-1860
Contain	-1861
getType	-1862
manager	-1863
etchSize	-1864
▁ENCODING	-1865
▁pathList	-1866
▁RowRecord	-1867
PrimitiveType	-1868
getParentFile	-1869
(0).	-1870
apter	-1871
empty	-1872
▁Chunk	-1873
▁setUp	-1874
ianType	-1875
TabletPlan	-1876
ByTimestamp	-1877
Ac	-1878
sh	-1879
ain	-1880
led	-1881
BOOLEAN	-1882
Handler	-1883
Children	-1884
INSTANCE	-1885
▁groupBy	-1886
▁QueryDataSet	-1887
▁Rpc	-1888
▁idx	-1889
▁where	-1890
filePath	-1891
▁prepare	-1892
▁RpcUtils	-1893
▁timestamps	-1894
TSStatusCode	-1895
num	-1896
▁pa	-1897
▁tearDown	-1898
ternalSort	-1899
)).	-1900
MIN	-1901
ron	-1902
BYTE	-1903
anage	-1904
▁pool	-1905
▁resp	-1906
▁with	-1907
▁types	-1908
Argument	-1909
Aggregation	-1910
ox	-1911
storage	-1912
22	-1913
OW	-1914
Cnt	-1915
("{}	-1916
Pack	-1917
atas	-1918
uccess	-1919
▁caught	-1920
").	-1921
▁se	-1922
()))	-1923
Delta	-1924
andom	-1925
MemChunk	-1926
11	-1927
ED	-1928
cat	-1929
oot	-1930
)");	-1931
Tree	-1932
Metric	-1933
▁cached	-1934
1;	-1935
No	-1936
:00	-1937
kenInt	-1938
unction	-1939
▁Double	-1940
34	-1941
8,	-1942
tx	-1943
ock	-1944
▁ctx	-1945
Enabled	-1946
▁Unsupported	-1947
▁chunkMetaData	-1948
If	-1949
▁6	-1950
▁TO	-1951
stru	-1952
point	-1953
▁line	-1954
getTime	-1955
Formatter	-1956
getEndTime	-1957
(%	-1958
(5	-1959
SO	-1960
000	-1961
hod	-1962
▁"10	-1963
GROUP	-1964
flink	-1965
▁zone	-1966
(15094	-1967
getMax	-1968
pected	-1969
TSRecord	-1970
Controller	-1971
ThreadPool	-1972
TsFileIOWriter	-1973
son	-1974
()).	-1975
Port	-1976
other	-1977
tinue	-1978
osition	-1979
▁filePath	-1980
VICE	-1981
getStartTime	-1982
TsFileProcessor	-1983
SON	-1984
▁0,	-1985
▁AR	-1986
ROLE	-1987
Align	-1988
VList	-1989
ByType	-1990
▁ARRAY	-1991
Producer	-1992
▁Session	-1993
PageReader	-1994
ExternalSort	-1995
Back	-1996
uffix	-1997
▁GROUP	-1998
▁server	-1999
▁username	-2000
containsKey	-2001
[1	-2002
ost	-2003
▁<<	-2004
▁ValueFilter	-2005
LIST	-2006
Split	-2007
resource	-2008
OpenFileNum	-2009
inputStream	-2010
26	-2011
LUM	-2012
ive	-2013
LUMN	-2014
Exist	-2015
▁init	-2016
Password	-2017
▁HashSet	-2018
FSFactory	-2019
RpcDataSet	-2020
ke	-2021
Cost	-2022
DATE	-2023
▁{},	-2024
BYTES	-2025
▁sorted	-2026
kenIntType	-2027
StartEndTime	-2028
▁SingleSeries	-2029
▁timeValuePair	-2030
//	-2031
AU	-2032
_2	-2033
ERY	-2034
RIVI	-2035
▁sum	-2036
QUERY	-2037
cache	-2038
RIVILE	-2039
▁adminStmt	-2040
▁expression	-2041
TSFileConfig	-2042
▁TsFileWriter	-2043
789	-2044
ular	-2045
▁dat	-2046
split	-2047
1(	-2048
Val	-2049
dir	-2050
Limit	-2051
LogNode	-2052
Concurrent	-2053
▁PhysicalPlan	-2054
sub	-2055
uto	-2056
▁fs	-2057
nder	-2058
▁TSF	-2059
▁exec	-2060
DELETE	-2061
Strategy	-2062
Serialize	-2063
FileWriter	-2064
ruptedException	-2065
▁"2	-2066
▁when	-2067
context	-2068
Template	-2069
▁Buffered	-2070
ew	-2071
iv	-2072
▁u	-2073
ATU	-2074
nap	-2075
estor	-2076
Closed	-2077
▁LOGGER	-2078
Iterator	-2079
strategy	-2080
Container	-2081
▁QueryExpression	-2082
mb	-2083
DFS	-2084
TOK	-2085
aData	-2086
alcul	-2087
▁fill	-2088
(",");	-2089
Single	-2090
▁first	-2091
▁select	-2092
▁println	-2093
▁continue	-2094
▁7	-2095
Min	-2096
Wal	-2097
isk	-2098
▁DE	-2099
WITH	-2100
auth	-2101
▁and	-2102
▁Pair	-2103
Method	-2104
ep	-2105
},	-2106
▁bw	-2107
1"));	-2108
Update	-2109
unlock	-2110
fixPath	-2111
getText	-2112
▁before	-2113
▁STORAGE	-2114
estorable	-2115
fileSystem	-2116
▁attributes	-2117
▁TSFileConfig	-2118
UT	-2119
Cli	-2120
gal	-2121
ched	-2122
ynch	-2123
▁val	-2124
ynchron	-2125
SequenceFile	-2126
▁compression	-2127
uthorOperator	-2128
▁g	-2129
CES	-2130
avg	-2131
met	-2132
▁Ab	-2133
====	-2134
Clause	-2135
Without	-2136
▁Abstract	-2137
▁sequence	-2138
getFullPath	-2139
(14	-2140
TEST	-2141
loom	-2142
vlet	-2143
ority	-2144
▁parse	-2145
▁Global	-2146
▁upgrade	-2147
startTime	-2148
StatMonitor	-2149
SeriesReader	-2150
awDataQueryPlan	-2151
At	-2152
Sum	-2153
env	-2154
▁args	-2155
ileges	-2156
▁FLOAT	-2157
▁encoder	-2158
▁initial	-2159
▁hardware	-2160
setStorageGroup	-2161
▁FloatDataPoint	-2162
24	-2163
GS	-2164
md	-2165
Box	-2166
les	-2167
Abse	-2168
Char	-2169
Absent	-2170
IfAbsent	-2171
▁sessionId	-2172
req	-2173
(0);	-2174
impl	-2175
wrap	-2176
clean	-2177
▁Date	-2178
▁Field	-2179
▁ioTDB	-2180
riority	-2181
▁DOUBLE	-2182
▁output	-2183
NC	-2184
tmp	-2185
tom	-2186
ype	-2187
▁8;	-2188
8056	-2189
iles	-2190
annel	-2191
legal	-2192
Fields	-2193
Holder	-2194
merged	-2195
Startup	-2196
entrySet	-2197
tsRecord	-2198
vo	-2199
▁0.	-2200
Unit	-2201
tive	-2202
▁task	-2203
emptyMap	-2204
FileFactory	-2205
3)	-2206
5.	-2207
IC	-2208
://	-2209
Alias	-2210
▁Math	-2211
letion	-2212
OfPoint	-2213
readInt	-2214
Supported	-2215
▁selected	-2216
▁timeFilter	-2217
▁TestConstant	-2218
OT	-2219
02.	-2220
1,1	-2221
261	-2222
Sec	-2223
----	-2224
Comp	-2225
Mark	-2226
ight	-2227
▁reg	-2228
perty	-2229
Visual	-2230
Adapter	-2231
Pattern	-2232
parseInt	-2233
▁password	-2234
loomFilter	-2235
deserialize	-2236
▁authorizer	-2237
("%	-2238
[])	-2239
ave	-2240
RANT	-2241
paths	-2242
▁curr	-2243
TSFILE	-2244
llegal	-2245
▁delta	-2246
▁message	-2247
ynchronized	-2248
▁SQLConstant	-2249
OP	-2250
ATA	-2251
New	-2252
UID	-2253
ach	-2254
ARGS	-2255
tomic	-2256
▁does	-2257
▁sqls	-2258
offset	-2259
8056261	-2260
▁GroupBy	-2261
▁byteLen	-2262
DataTypes	-2263
mmandLine	-2264
BaseParser	-2265
▁TimeFilter	-2266
ToPhysicalPlan	-2267
imp	-2268
▁ac	-2269
back	-2270
tent	-2271
▁pair	-2272
▁Inter	-2273
▁props	-2274
▁Schema	-2275
▁string	-2276
▁request	-2277
LeafMNode	-2278
executeQuery	-2279
:"	-2280
PA	-2281
"};	-2282
99,	-2283
Ded	-2284
▁RE	-2285
▁fa	-2286
TEMP	-2287
page	-2288
rant	-2289
atype	-2290
ecause	-2291
getLong	-2292
ChunkNum	-2293
▁batchSize	-2294
▁interface	-2295
Deduplicated	-2296
ait	-2297
Wrap	-2298
tags	-2299
istry	-2300
▁Text	-2301
▁failed	-2302
▁datatype	-2303
PageHeader	-2304
PartitionId	-2305
▁IoTDBConfig	-2306
://127.0.0.1:	-2307
Wh	-2308
CESS	-2309
SION	-2310
play	-2311
▁serial	-2312
FileSele	-2313
▁BOOLEAN	-2314
▁Boolean	-2315
processor	-2316
EndianType	-2317
▁columnName	-2318
SqlBaseParser	-2319
▁StorageGroup	-2320
IG	-2321
yb	-2322
url	-2323
▁ro	-2324
Right	-2325
apped	-2326
COLUMN	-2327
▁10000	-2328
▁client	-2329
▁because	-2330
▁deleted	-2331
▁maxTime	-2332
RowRecord	-2333
getStatus	-2334
▁serialize	-2335
▁deserialize	-2336
ChunkMetaData	-2337
▁QueryContext	-2338
▁FilterOperator	-2339
,2	-2340
Quer	-2341
ange	-2342
exec	-2343
SetUp	-2344
ptions	-2345
Querier	-2346
bytesTo	-2347
cleanEnv	-2348
Constants	-2349
serialize	-2350
compressed	-2351
ChunkLoader	-2352
Measurements	-2353
▁inputStream	-2354
▁synchronized	-2355
getColumnCount	-2356
Ins	-2357
Zer	-2358
▁1,	-2359
▁on	-2360
imple	-2361
tocol	-2362
TVList	-2363
ataset	-2364
Schemas	-2365
▁thread	-2366
BitWidth	-2367
generate	-2368
parseSQL	-2369
datapoint	-2370
▁temperature	-2371
▁getConnection	-2372
StartupException	-2373
0),	-2374
OUT	-2375
rid	-2376
uld	-2377
▁by	-2378
▁sg	-2379
copy	-2380
tool	-2381
Parse	-2382
inked	-2383
envSetUp	-2384
▁memTable	-2385
▁operation	-2386
▁IntDataPoint	-2387
▁queryDataSet	-2388
55	-2389
Get	-2390
Tab	-2391
ish	-2392
Fail	-2393
▁req	-2394
Total	-2395
\":\"	-2396
DataFile	-2397
Function	-2398
measurementId	-2399
tsFileResource	-2400
▁AggregateResult	-2401
be	-2402
gn	-2403
FAU	-2404
ced	-2405
2");	-2406
Left	-2407
FAULT	-2408
ybrid	-2409
TypeInfo	-2410
▁element	-2411
Watermark	-2412
(148056261	-2413
storagegroup	-2414
▁tsFileConfig	-2415
32:	-2416
64:	-2417
first	-2418
ferType	-2419
▁remove	-2420
DateTime	-2421
FilesMap	-2422
▁metaData	-2423
getCompressor	-2424
Run	-2425
ify	-2426
ned	-2427
▁IN	-2428
1"),	-2429
fail	-2430
show	-2431
▁"0,	-2432
▁TEXT	-2433
▁port	-2434
Failed	-2435
Sender	-2436
dataset	-2437
minTime	-2438
▁partition	-2439
Collections	-2440
▁InsertPlan	-2441
gt	-2442
▁L	-2443
aos	-2444
ime	-2445
▁12	-2446
▁MA	-2447
▁sc	-2448
imal	-2449
tablet	-2450
ializer	-2451
version	-2452
▁number	-2453
readLock	-2454
sequence	-2455
LastValue	-2456
▁TSStatus	-2457
▁supported	-2458
measurements	-2459
LL	-2460
(3,	-2461
Non	-2462
qtt	-2463
▁Un	-2464
789)	-2465
kdir	-2466
ould	-2467
ByPath	-2468
ZoneId	-2469
alculate	-2470
Parameter	-2471
▁privilegeId	-2472
MetadataIndex	-2473
▁seriesReader	-2474
(4	-2475
Tag	-2476
Bean	-2477
Multi	-2478
▁100;	-2479
stream	-2480
struct	-2481
▁getMax	-2482
Registry	-2483
▁getTime	-2484
▁BatchData	-2485
modification	-2486
▁operatorType	-2487
TSFileDescriptor	-2488
33	-2489
dd	-2490
5",	-2491
Add	-2492
\",	-2493
den	-2494
ito	-2495
▁FS	-2496
▁tv	-2497
Util	-2498
vert	-2499
child	-2500
inter	-2501
concat	-2502
ingZer	-2503
string	-2504
ordinal	-2505
sInPage	-2506
getClass	-2507
▁Logical	-2508
▁TimeRange	-2509
InputFormat	-2510
Configuration	-2511
NumberOfPoint	-2512
IoTDBConnection	-2513
20	-2514
00.	-2515
Hel	-2516
LOC	-2517
amic	-2518
vent	-2519
wner	-2520
reset	-2521
ynamic	-2522
▁clone	-2523
▁reset	-2524
LogFile	-2525
Receiver	-2526
▁Illegal	-2527
mainRanges	-2528
▁chunkGroup	-2529
Sh	-2530
00;	-2531
COU	-2532
unc	-2533
ATUS	-2534
COMP	-2535
warn	-2536
Bound	-2537
COUNT	-2538
times	-2539
▁Show	-2540
client	-2541
▁after	-2542
▁array	-2543
ByIndex	-2544
Deleted	-2545
▁tsfile	-2546
ransport	-2547
Optimizer	-2548
rivileges	-2549
VersionUID	-2550
aggregation	-2551
EncodingUtils	-2552
TimeSeriesPlan	-2553
▁ioTDBRpcDataSet	-2554
pw	-2555
FIG	-2556
low	-2557
')",	-2558
0.0,	-2559
args	-2560
pool	-2561
voke	-2562
▁USER	-2563
issing	-2564
writer	-2565
▁align	-2566
message	-2567
seqFile	-2568
▁Timeseries	-2569
vid	-2570
mkdir	-2571
vider	-2572
compute	-2573
▁enable	-2574
▁zoneId	-2575
readLong	-2576
AuthException	-2577
▁queryExpression	-2578
yy	-2579
▁[	-2580
02(	-2581
3);	-2582
▁src	-2583
tools	-2584
getAll	-2585
Dynamic	-2586
Message	-2587
STORAGE	-2588
Success	-2589
▁target	-2590
Memtable	-2591
▁queryId	-2592
LocalFile	-2593
getOffset	-2594
CompressionType	-2595
As	-2596
NS	-2597
Dec	-2598
Exp	-2599
PUT	-2600
ale	-2601
▁1.	-2602
DIFF	-2603
attr	-2604
▁job	-2605
FFSET	-2606
logger	-2607
▁MNode	-2608
FileMap	-2609
commons	-2610
previous	-2611
▁hasNext	-2612
▁toString	-2613
FileSelector	-2614
▁chunkWriter	-2615
▁StringContainer	-2616
')	-2617
::	-2618
MX	-2619
BAL	-2620
YNC	-2621
tif	-2622
wer	-2623
▁"-	-2624
000,	-2625
Case	-2626
LOBAL	-2627
Throw	-2628
▁hash	-2629
▁clear	-2630
SeqFiles	-2631
▁options	-2632
▁service	-2633
getStatistics	-2634
BIG	-2635
bit	-2636
lag	-2637
[]{"	-2638
_1",	-2639
Debug	-2640
atest	-2641
enter	-2642
▁1024	-2643
▁Load	-2644
OUTPUT	-2645
STATUS	-2646
encode	-2647
▁cause	-2648
▁enter	-2649
▁javax	-2650
Folders	-2651
▁Atomic	-2652
▁assert	-2653
▁stream	-2654
▁seqFile	-2655
TimeRange	-2656
getDataType	-2657
▁TsPrimitiveType	-2658
08	-2659
Us	-2660
ib	-2661
-01	-2662
arm	-2663
▁Mem	-2664
Alarm	-2665
endTime	-2666
▁should	-2667
(1509465	-2668
FillPlan	-2669
InferType	-2670
▁generate	-2671
▁fileWriter	-2672
▁firstValue	-2673
ReadWriteFor	-2674
▁AbstractCli	-2675
▁initialized	-2676
computeIfAbsent	-2677
▁3;	-2678
Root	-2679
arts	-2680
Owner	-2681
beros	-2682
ynced	-2683
▁stop	-2684
GLOBAL	-2685
caught	-2686
▁tuple	-2687
erberos	-2688
▁binary	-2689
▁hybrid	-2690
ByDevice	-2691
allocate	-2692
getBytes	-2693
IExpression	-2694
▁seriesPath	-2695
IPointReader	-2696
▁groupByPlan	-2697
EX	-2698
lt	-2699
Job	-2700
▁".	-2701
Each	-2702
▁MAX	-2703
CCESS	-2704
GRANT	-2705
leton	-2706
Author	-2707
lapped	-2708
▁Option	-2709
▁encode	-2710
.123.456(	-2711
arraycopy	-2712
▁capacity	-2713
InputSplit	-2714
▁DataPoint	-2715
▁aggregation	-2716
Att	-2717
But	-2718
ton	-2719
▁Re	-2720
▁{"	-2721
LONG	-2722
hash	-2723
ress	-2724
▁JSON	-2725
<>());	-2726
andard	-2727
isplay	-2728
number	-2729
▁width	-2730
COMPRES	-2731
▁sensor	-2732
getFloat	-2733
▁dataDir	-2734
▁process	-2735
Authorizer	-2736
TException	-2737
BatchReader	-2738
])	-2739
▁9	-2740
1,\	-2741
Rle	-2742
src	-2743
99,1	-2744
ccup	-2745
Block	-2746
basic	-2747
▁that	-2748
Button	-2749
Cannot	-2750
OFFSET	-2751
Sorted	-2752
sqlStr	-2753
▁sqlStr	-2754
CurArray	-2755
FileReader	-2756
Privileges	-2757
columnName	-2758
SerializeId	-2759
issingPoint	-2760
▁elementIdx	-2761
nalRemaining	-2762
CurArrayIndex	-2763
▁ChunkMetadata	-2764
TSF	-2765
Args	-2766
BAOS	-2767
LATE	-2768
Mock	-2769
Step	-2770
lect	-2771
99)",	-2772
▁HDFS	-2773
arning	-2774
mkdirs	-2775
Overlapped	-2776
▁Primitive	-2777
▁parameter	-2778
ChunkHeader	-2779
▁compressionType	-2780
ET	-2781
SS	-2782
yz	-2783
▁x	-2784
("\	-2785
The	-2786
BASE	-2787
▁len	-2788
▁mod	-2789
iding	-2790
ready	-2791
▁Types	-2792
PageData	-2793
listFiles	-2794
▁fsFactory	-2795
▁unseqResources	-2796
14	-2797
)))	-2798
pec	-2799
▁2,	-2800
Auto	-2801
CHAR	-2802
base	-2803
curr	-2804
▁dir	-2805
chedu	-2806
nodes	-2807
addAll	-2808
isDebug	-2809
▁Delete	-2810
▁folder	-2811
operator	-2812
▁decoder	-2813
idingStep	-2814
singleton	-2815
▁supports	-2816
dStatement	-2817
▁FSFactory	-2818
▁FileUtils	-2819
▁hasCached	-2820
getMetaData	-2821
izationException	-2822
MET	-2823
OKE	-2824
can	-2825
This	-2826
VOKE	-2827
\",\	-2828
▁files	-2829
Content	-2830
Decimal	-2831
Results	-2832
▁Arrays	-2833
▁bitmap	-2834
▁mmanager	-2835
▁previous	-2836
timestamps	-2837
▁deviceIds	-2838
▁Restorable	-2839
▁updateStats	-2840
▁modification	-2841
ReadOnlyTsFile	-2842
getStorageGroup	-2843
queryExpression	-2844
13	-2845
19	-2846
PC	-2847
og	-2848
Can	-2849
GES	-2850
ust	-2851
Bits	-2852
[0].	-2853
oned	-2854
pack	-2855
trim	-2856
field	-2857
input	-2858
▁show	-2859
getInt	-2860
SERVICE	-2861
VERSION	-2862
dataSet	-2863
queryId	-2864
IService	-2865
username	-2866
RIVILEGES	-2867
batchData	-2868
byteBuffer	-2869
ChunkReader	-2870
seqResources	-2871
processorName	-2872
)[	-2873
OB	-2874
)),	-2875
Sub	-2876
iod	-2877
▁4;	-2878
Conf	-2879
ERGE	-2880
orre	-2881
rics	-2882
▁url	-2883
White	-2884
valid	-2885
▁tags	-2886
Arrays	-2887
Address	-2888
Servlet	-2889
getNode	-2890
Deletion	-2891
WhiteList	-2892
▁position	-2893
hasCurrent	-2894
▁rowRecord	-2895
IoTDBConfig	-2896
84	-2897
(4,	-2898
ISO	-2899
▁2;	-2900
▁>>	-2901
gtEq	-2902
init	-2903
limit	-2904
▁open	-2905
InThis	-2906
ribute	-2907
Callback	-2908
TaskPool	-2909
iterator	-2910
▁logNode	-2911
getDouble	-2912
igDecimal	-2913
parseLong	-2914
▁getValue	-2915
▁iterator	-2916
InThisPage	-2917
▁insertPlan	-2918
(14805626189	-2919
60	-2920
FO	-2921
()[	-2922
1";	-2923
2,2	-2924
ART	-2925
OUR	-2926
rit	-2927
0");	-2928
2));	-2929
]));	-2930
_2",	-2931
ence	-2932
iven	-2933
▁-1;	-2934
▁avg	-2935
uffic	-2936
▁Data	-2937
▁Meta	-2938
header	-2939
Flushed	-2940
ForTest	-2941
Regular	-2942
▁global	-2943
TEMPLATE	-2944
Versions	-2945
position	-2946
ufficient	-2947
escription	-2948
onedDateTime	-2949
4)	-2950
LU	-2951
4",	-2952
erg	-2953
▁hi	-2954
(1);	-2955
3");	-2956
Bool	-2957
peat	-2958
▁com	-2959
▁Plan	-2960
▁hdfs	-2961
Marker	-2962
erging	-2963
orrect	-2964
visual	-2965
▁alias	-2966
Metrics	-2967
TreeSet	-2968
▁Random	-2969
▁userStmt	-2970
MergeReader	-2971
▁PRIVILEGES	-2972
eq	-2973
0))	-2974
50,	-2975
,11,	-2976
LENG	-2977
Sink	-2978
open	-2979
park	-2980
pect	-2981
▁ROW	-2982
,789)	-2983
Lower	-2984
Occup	-2985
inish	-2986
spark	-2987
▁date	-2988
LENGTH	-2989
Period	-2990
VALUES	-2991
arable	-2992
▁Batch	-2993
Warning	-2994
addTail	-2995
ference	-2996
roleName	-2997
writelog	-2998
▁minTime	-2999
▁recover	-3000
ResultFrom	-3001
QueryContext	-3002
AggregateResult	-3003
ReadOnlyMemChunk	-3004
HE	-3005
IL	-3006
ss	-3007
03.	-3008
ole	-3009
()),	-3010
Disk	-3011
ates	-3012
over	-3013
work	-3014
▁per	-3015
("{}:	-3016
(100,	-3017
First	-3018
types	-3019
uture	-3020
▁prev	-3021
setMax	-3022
Objects	-3023
SUCCESS	-3024
encoder	-3025
DeviceId	-3026
FileName	-3027
SpaceIns	-3028
sessionId	-3029
eserializer	-3030
▁compressor	-3031
Aggregations	-3032
InsertRecord	-3033
getFSFactory	-3034
▁SyncConstant	-3035
DeviceMetadata	-3036
isDebugEnabled	-3037
ParserException	-3038
▁selectedSeries	-3039
getMeasurementId	-3040
,\	-3041
BeS	-3042
Sup	-3043
cli	-3044
ded	-3045
kip	-3046
▁2)	-3047
LTER	-3048
LUSH	-3049
Rout	-3050
Work	-3051
sors	-3052
ooter	-3053
verse	-3054
00000,	-3055
Router	-3056
server	-3057
▁Series	-3058
BeSynced	-3059
FileList	-3060
MManager	-3061
isEnable	-3062
maxValue	-3063
ArrayPool	-3064
Positions	-3065
▁longStats	-3066
PointNumber	-3067
BufferedReader	-3068
▁FilterFactory	-3069
StringInferType	-3070
▁inputRemaining	-3071
▁aggregateResult	-3072
SED	-3073
ams	-3074
LOAD	-3075
▁"2,	-3076
▁obj	-3077
LOCAL	-3078
isPath	-3079
Devices	-3080
decoder	-3081
recover	-3082
executor	-3083
minValue	-3084
▁Objects	-3085
MemoryFor	-3086
inglePath	-3087
firstValue	-3088
seriesIndex	-3089
▁InputStream	-3090
chunkMetaData	-3091
▁ReadWriteFor	-3092
DynamicAdapter	-3093
71	-3094
78	-3095
[2	-3096
az	-3097
May	-3098
Old	-3099
inc	-3100
SYNC	-3101
dest	-3102
sgcc	-3103
▁can	-3104
▁sub	-3105
OURCE	-3106
Select	-3107
izable	-3108
dataDir	-3109
Protocol	-3110
expected	-3111
▁storage	-3112
getFields	-3113
hasResult	-3114
▁dataSize	-3115
COMPRESSED	-3116
FilterTest	-3117
▁directory	-3118
compression	-3119
▁Properties	-3120
▁chunkReader	-3121
ReadWriteLock	-3122
ExecutorService	-3123
ResourceManager	-3124
TsPrimitiveType	-3125
▁AuthorOperator	-3126
(7	-3127
Ms	-3128
cy	-3129
uf	-3130
{\	-3131
PRO	-3132
▁20	-3133
▁ps	-3134
Head	-3135
MENT	-3136
Mode	-3137
(0));	-3138
alias	-3139
etime	-3140
getUn	-3141
quire	-3142
tuple	-3143
▁Comp	-3144
FILTER	-3145
Global	-3146
▁alter	-3147
▁clean	-3148
▁times	-3149
Sensors	-3150
TimeFor	-3151
default	-3152
factory	-3153
▁VALUES	-3154
Optimize	-3155
cheduled	-3156
QueryLock	-3157
logvisual	-3158
▁DateTime	-3159
▁accessor	-3160
FileLoader	-3161
lidingStep	-3162
▁Expression	-3163
UNCOMPRESSED	-3164
TimeGenerator	-3165
▁TSStatusCode	-3166
untimeException	-3167
closeStatMonitor	-3168
FOR	-3169
Uid	-3170
Use	-3171
Auth	-3172
inte	-3173
oNum	-3174
yzer	-3175
▁0);	-3176
▁CON	-3177
▁ISO	-3178
Print	-3179
Driver	-3180
Packed	-3181
Tsfile	-3182
perate	-3183
▁space	-3184
CurList	-3185
metrics	-3186
odified	-3187
▁Server	-3188
▁sender	-3189
▁suffix	-3190
▁system	-3191
Provider	-3192
▁intStats	-3193
▁mManager	-3194
▁register	-3195
▁unmerged	-3196
ingZeroNum	-3197
▁resources	-3198
ChunkWriter	-3199
CurListIndex	-3200
ZonedDateTime	-3201
Ha	-3202
jo	-3203
we	-3204
idx	-3205
JSON	-3206
READ	-3207
ltEq	-3208
▁"1,	-3209
▁now	-3210
SerDe	-3211
igned	-3212
sumer	-3213
▁main	-3214
anaged	-3215
getMin	-3216
PRIVILE	-3217
RangeId	-3218
setTime	-3219
FetchSize	-3220
PRIVILEGE	-3221
ializable	-3222
lastValue	-3223
Timestamps	-3224
connection	-3225
readDouble	-3226
▁leafMNode	-3227
isPathExist	-3228
▁FilterType	-3229
▁schemaList	-3230
getStatusCode	-3231
▁tsFileProcessor	-3232
-1	-3233
81	-3234
96	-3235
MM	-3236
Sy	-3237
22,	-3238
Var	-3239
ove	-3240
que	-3241
(10,	-3242
64);	-3243
DIAN	-3244
delta	-3245
istor	-3246
▁enum	-3247
ByFile	-3248
DEVICE	-3249
ENDIAN	-3250
Return	-3251
ToIndex	-3252
▁please	-3253
▁columns	-3254
istorical	-3255
▁construct	-3256
getChildren	-3257
▁Concurrent	-3258
▁FileReader	-3259
▁floatStats	-3260
MissingPoint	-3261
TsFileWriter	-3262
seriesReader	-3263
▁doubleStats	-3264
QuerierByFile	-3265
▁remainRanges	-3266
tiveTimeSeries	-3267
▁BatchExecution	-3268
1),	-3269
ent	-3270
mis	-3271
▁op	-3272
000;	-3273
NSOR	-3274
[0];	-3275
cond	-3276
nect	-3277
shot	-3278
tity	-3279
▁MIN	-3280
SENSOR	-3281
dentif	-3282
result	-3283
▁block	-3284
▁valid	-3285
getData	-3286
napshot	-3287
========	-3288
Decoding	-3289
Location	-3290
PathList	-3291
property	-3292
dentifier	-3293
▁taskName	-3294
▁lastValue	-3295
etchResults	-3296
▁UnSupported	-3297
DriverManager	-3298
singletonList	-3299
GroupSizeInByte	-3300
BinaryExpression	-3301
▁TsFileProcessor	-3302
sw	-3303
(((	-3304
CHE	-3305
Cmd	-3306
ORD	-3307
[0]	-3308
api	-3309
▁io	-3310
▁pt	-3311
Anal	-3312
Both	-3313
Pane	-3314
Rate	-3315
agic	-3316
mock	-3317
▁rle	-3318
Alter	-3319
Latch	-3320
swing	-3321
lename	-3322
manage	-3323
output	-3324
sender	-3325
▁Basic	-3326
()))));	-3327
Channel	-3328
groupBy	-3329
▁CONFIG	-3330
RESOURCE	-3331
Warnings	-3332
ollector	-3333
password	-3334
▁another	-3335
▁putBack	-3336
▁Priority	-3337
UnseqFiles	-3338
▁Comparable	-3339
CreateSchema	-3340
getLastValue	-3341
▁printlnBoth	-3342
SeriesMetadata	-3343
28	-3344
TER	-3345
red	-3346
▁5;	-3347
▁\"	-3348
▁he	-3349
▁ip	-3350
5)",	-3351
Writ	-3352
full	-3353
nown	-3354
ATION	-3355
Short	-3356
igest	-3357
optim	-3358
▁baos	-3359
▁dest	-3360
▁host	-3361
Footer	-3362
Simple	-3363
integr	-3364
starts	-3365
verify	-3366
compare	-3367
logFile	-3368
▁parser	-3369
CallBack	-3370
isClosed	-3371
▁logFile	-3372
LogReader	-3373
partition	-3374
▁memtable	-3375
▁roleName	-3376
prefixPath	-3377
startsWith	-3378
integration	-3379
▁allSensors	-3380
▁valuesList	-3381
outputStream	-3382
▁IPointReader	-3383
▁Modification	-3384
▁pathPrivilege	-3385
locateMemoryFor	-3386
('	-3387
2=	-3388
CI	-3389
ml	-3390
>>>	-3391
AND	-3392
Dfs	-3393
NOW	-3394
gen	-3395
net	-3396
ten	-3397
▁In	-3398
()];	-3399
1));	-3400
from	-3401
ible	-3402
▁"\'	-3403
▁NUM	-3404
nappy	-3405
▁find	-3406
asList	-3407
timeEq	-3408
▁1000;	-3409
▁nodes	-3410
▁numOf	-3411
Columns	-3412
upgrade	-3413
▁ZoneId	-3414
getChild	-3415
▁Decoder	-3416
Statistic	-3417
▁Constant	-3418
▁property	-3419
▁tempuser	-3420
▁hasResult	-3421
toByteArray	-3422
MetadataSize	-3423
37	-3424
6.	-3425
bb	-3426
1")	-3427
80,	-3428
VAR	-3429
azz	-3430
▁14	-3431
Leaf	-3432
▁use	-3433
Deque	-3434
Nodes	-3435
ocket	-3436
order	-3437
▁LIST	-3438
▁mark	-3439
Latest	-3440
cached	-3441
verter	-3442
VARCHAR	-3443
▁Tablet	-3444
Failover	-3445
hardware	-3446
generator	-3447
setEndTime	-3448
updateStats	-3449
▁compressed	-3450
setStartTime	-3451
▁OperatorType	-3452
1=	-3453
='	-3454
PO	-3455
(5,	-3456
pow	-3457
▁"|	-3458
▁ON	-3459
▁rb	-3460
2"),	-3461
runc	-3462
▁map	-3463
ADATA	-3464
MBean	-3465
gnore	-3466
Future	-3467
Linked	-3468
enable	-3469
quired	-3470
Element	-3471
rowSize	-3472
▁repeat	-3473
Kerberos	-3474
METADATA	-3475
NonAlign	-3476
arrayIdx	-3477
ingQueue	-3478
▁readInt	-3479
dataPoint	-3480
getValues	-3481
▁INSTANCE	-3482
▁maxValue	-3483
▁readOnly	-3484
▁FileLoader	-3485
Deserializer	-3486
▁queryFilter	-3487
▁MergeResource	-3488
▁ReadOnlyTsFile	-3489
▁parameterIndex	-3490
RawDataQueryPlan	-3491
TsFileProcessors	-3492
Av	-3493
MQ	-3494
Sc	-3495
2()	-3496
2,1	-3497
ace	-3498
ari	-3499
▁CO	-3500
0));	-3501
ffff	-3502
flip	-3503
ivot	-3504
tree	-3505
Valid	-3506
andle	-3507
nable	-3508
press	-3509
yload	-3510
▁User	-3511
())));	-3512
Helper	-3513
graded	-3514
▁exist	-3515
Perform	-3516
▁format	-3517
▁merged	-3518
▁object	-3519
▁tmpDir	-3520
--------	-3521
▁DEFAULT	-3522
▁children	-3523
▁valueList	-3524
▁TException	-3525
▁byteBuffer	-3526
ChildrenList	-3527
OutputFormat	-3528
getExpression	-3529
paredStatement	-3530
deserializeFrom	-3531
▁BufferedReader	-3532
(6	-3533
0_	-3534
CA	-3535
Es	-3536
OF	-3537
1()	-3538
ECT	-3539
UNK	-3540
[]>	-3541
▁"4	-3542
▁3,	-3543
OPER	-3544
Site	-3545
aled	-3546
fill	-3547
rame	-3548
sort	-3549
task	-3550
(1));	-3551
FLUSH	-3552
Props	-3553
\":{\	-3554
▁Disk	-3555
▁TEST	-3556
▁calc	-3557
▁flag	-3558
Tables	-3559
ToLong	-3560
▁Flush	-3561
▁stats	-3562
Capacity	-3563
SitePath	-3564
Suppress	-3565
compress	-3566
▁correct	-3567
Collector	-3568
▁minValue	-3569
▁calculate	-3570
▁fetchSize	-3571
FilterOptim	-3572
tokenIntType	-3573
▁columnIndex	-3574
▁getInstance	-3575
getColumnName	-3576
getFirstValue	-3577
▁singleSeries	-3578
ExternalSortJob	-3579
TaskPoolManager	-3580
▁TsFileDecoding	-3581
▁authorOperator	-3582
DataOutputStream	-3583
SuppressWarnings	-3584
Ip	-3585
KW	-3586
su	-3587
DEX	-3588
LEN	-3589
URI	-3590
apt	-3591
job	-3592
uch	-3593
xFF	-3594
▁IO	-3595
Heap	-3596
WORD	-3597
licy	-3598
▁Pre	-3599
round	-3600
Chunks	-3601
Prefix	-3602
▁other	-3603
Recover	-3604
atetime	-3605
▁Single	-3606
▁fields	-3607
▁getAll	-3608
Analyzer	-3609
addField	-3610
structor	-3611
getSeries	-3612
viousFill	-3613
insertPlan	-3614
▁insertData	-3615
NullWritable	-3616
▁MapWritable	-3617
▁chunkLoader	-3618
QueryOperator	-3619
▁insertTablet	-3620
▁sortedValues	-3621
LogNodeManager	-3622
PageSizeInByte	-3623
▁chunkMetadata	-3624
Fs	-3625
RY	-3626
ha	-3627
xy	-3628
:{}	-3629
BER	-3630
tab	-3631
▁15	-3632
▁24	-3633
▁BY	-3634
HDFS	-3635
iter	-3636
just	-3637
▁pos	-3638
▁{}.	-3639
Aggre	-3640
▁json	-3641
Border	-3642
NUMBER	-3643
Policy	-3644
Suffix	-3645
▁mtree	-3646
▁short	-3647
DEFAULT	-3648
fullPath	-3649
▁Planner	-3650
▁devices	-3651
▁success	-3652
AggreWith	-3653
Attribute	-3654
DeltaBase	-3655
▁MemTable	-3656
▁expected	-3657
EachDevice	-3658
controller	-3659
▁dataPoint	-3660
▁logStream	-3661
▁queryTime	-3662
127.0.0.1",	-3663
ContentType	-3664
▁AtomicLong	-3665
▁commandLine	-3666
aryExpression	-3667
timeValuePair	-3668
MetricRegistry	-3669
▁metadataIndex	-3670
,'	-3671
CK	-3672
IP	-3673
UE	-3674
el	-3675
no	-3676
024	-3677
:13	-3678
DIR	-3679
Hit	-3680
MAT	-3681
iff	-3682
utd	-3683
▁no	-3684
4)",	-3685
DATA	-3686
Json	-3687
▁dfs	-3688
▁run	-3689
Basic	-3690
Given	-3691
Panel	-3692
Usage	-3693
ancel	-3694
dSize	-3695
getTS	-3696
Satisf	-3697
VarInt	-3698
utdown	-3699
▁limit	-3700
Counter	-3701
DirPath	-3702
mockito	-3703
▁equals	-3704
Abstract	-3705
CloseAll	-3706
RowCount	-3707
pathList	-3708
▁Service	-3709
▁already	-3710
OrDefault	-3711
Satisfied	-3712
getResult	-3713
▁buffered	-3714
▁execResp	-3715
▁maxError	-3716
▁nodeName	-3717
▁preValue	-3718
seriesPath	-3719
▁LeafMNode	-3720
▁Connection	-3721
▁tsDataType	-3722
InsertTablet	-3723
SingleSeries	-3724
StorageGroups	-3725
SerDeException	-3726
77	-3727
EM	-3728
ND	-3729
VE	-3730
[3	-3731
11,	-3732
CLI	-3733
GIC	-3734
UTE	-3735
afe	-3736
2)",	-3737
SHOW	-3738
gend	-3739
hive	-3740
lain	-3741
stop	-3742
▁Max	-3743
▁col	-3744
▁gen	-3745
ctual	-3746
mains	-3747
▁sort	-3748
0,0.0,	-3749
AndGet	-3750
AndMay	-3751
SSWORD	-3752
atcher	-3753
▁Cache	-3754
▁Local	-3755
▁split	-3756
NewFile	-3757
Options	-3758
▁prefix	-3759
▁tvList	-3760
readLine	-3761
▁contain	-3762
▁handler	-3763
▁readers	-3764
deviceIds	-3765
formation	-3766
AfterClass	-3767
compressor	-3768
BeforeClass	-3769
Compression	-3770
LogAnalyzer	-3771
columnIndex	-3772
▁dataSource	-3773
▁Aggregation	-3774
▁repeatCount	-3775
▁valueBuffer	-3776
PathPrivilege	-3777
BatchStatement	-3778
▁dataInThisPage	-3779
ExceptionHandler	-3780
":	-3781
TY	-3782
pu	-3783
NAL	-3784
▁Ac	-3785
ToBe	-3786
Used	-3787
getH	-3788
ixed	-3789
▁3);	-3790
▁ded	-3791
▁mid	-3792
Estim	-3793
Pages	-3794
[]{1,	-3795
▁PATH	-3796
▁Root	-3797
Bitmap	-3798
Change	-3799
Digest	-3800
REVOKE	-3801
CONTEXT	-3802
FromOld	-3803
deleted	-3804
tilLast	-3805
▁Visual	-3806
▁author	-3807
TSStatus	-3808
Username	-3809
▁Encoder	-3810
▁convert	-3811
FileUtils	-3812
dataTypes	-3813
privilege	-3814
BloomFilter	-3815
StatsByType	-3816
ByDevicePlan	-3817
RootOperator	-3818
▁ServiceType	-3819
TimePartition	-3820
createNewFile	-3821
currentThread	-3822
▁RootOperator	-3823
▁seqResources	-3824
▁BufferedWriter	-3825
GeneratorForTest	-3826
▁IllegalArgument	-3827
▁queryDataSource	-3828
(-	-3829
DS	-3830
Fe	-3831
[5	-3832
mx	-3833
wh	-3834
ond	-3835
▁TT	-3836
CODE	-3837
Full	-3838
GtEq	-3839
HEAD	-3840
fans	-3841
hdfs	-3842
java	-3843
then	-3844
yyyy	-3845
ARRAY	-3846
Force	-3847
INDEX	-3848
INTER	-3849
MAGIC	-3850
])");	-3851
source	-3852
▁Count	-3853
▁inner	-3854
▁trans	-3855
Merging	-3856
builder	-3857
newLine	-3858
▁cannot	-3859
Accessor	-3860
▁getFile	-3861
▁satisfy	-3862
substring	-3863
▁Operator	-3864
▁executor	-3865
▁template	-3866
FolderPath	-3867
thenReturn	-3868
ignedVarInt	-3869
LongWritable	-3870
SeriesNumber	-3871
TokenIntType	-3872
queryDataSet	-3873
▁description	-3874
ClauseContext	-3875
EngineDataSet	-3876
▁minDeltaBase	-3877
ationException	-3878
▁storageGroups	-3879
QueryDataSource	-3880
▁ExpressionType	-3881
InsertTabletPlan	-3882
getChunkMetadata	-3883
30	-3884
35	-3885
88	-3886
HO	-3887
ka	-3888
wo	-3889
ENT	-3890
ULL	-3891
});	-3892
▁|=	-3893
InMs	-3894
Loop	-3895
afka	-3896
meet	-3897
▁ver	-3898
(1024	-3899
batch	-3900
queue	-3901
total	-3902
▁comp	-3903
Locale	-3904
ZoneID	-3905
before	-3906
pector	-3907
thread	-3908
▁level	-3909
MinTime	-3910
Payload	-3911
TsFiles	-3912
adapter	-3913
amUsage	-3914
entrant	-3915
runtime	-3916
TimeZone	-3917
memTable	-3918
▁getLong	-3919
ClassName	-3920
Estimator	-3921
ThreadNum	-3922
hasCached	-3923
▁adminCon	-3924
▁hashCode	-3925
▁roTsFile	-3926
▁validate	-3927
PrefixPath	-3928
FileManager	-3929
StatisticsV	-3930
ricRegistry	-3931
▁filterType	-3932
▁unseqFiles	-3933
querycontext	-3934
LocalFilesMap	-3935
timegenerator	-3936
verifySuccess	-3937
▁privilegeList	-3938
▁TsFileMetadata	-3939
▁sessionDataSet	-3940
amUsageEstimator	-3941
2;	-3942
>,	-3943
EC	-3944
Is	-3945
aa	-3946
ui	-3947
2,"	-3948
ASU	-3949
PER	-3950
▁fw	-3951
8)",	-3952
Dirs	-3953
TSer	-3954
_3",	-3955
▁"3,	-3956
ASURE	-3957
LOGIN	-3958
SECON	-3959
START	-3960
files	-3961
udget	-3962
uples	-3963
Unlock	-3964
entity	-3965
mapred	-3966
▁MTree	-3967
BinaryV	-3968
IReader	-3969
MEASURE	-3970
Profile	-3971
Working	-3972
▁marker	-3973
Modified	-3974
receiver	-3975
▁Upgrade	-3976
▁Version	-3977
▁tFilter	-3978
Executors	-3979
queryPlan	-3980
▁Deletion	-3981
▁bitWidth	-3982
▁flushing	-3983
LowerBound	-3984
DeltaBinary	-3985
FlushPolicy	-3986
▁ChunkGroup	-3987
▁FileWriter	-3988
▁SyncSender	-3989
▁columnType	-3990
getOrDefault	-3991
▁ListDataSet	-3992
separatorChar	-3993
SelectedSeries	-3994
▁configuration	-3995
QueryExpression	-3996
(8	-3997
70	-3998
IS	-3999
][	-4000
▁y	-4001
por	-4002
▁os	-4003
!");	-4004
(1).	-4005
Choo	-4006
baos	-4007
lang	-4008
pair	-4009
▁Arg	-4010
▁});	-4011
2"));	-4012
Stamp	-4013
fully	-4014
place	-4015
props	-4016
▁ROLE	-4017
▁Type	-4018
▁call	-4019
(10000	-4020
:00:00	-4021
Access	-4022
TESTED	-4023
closed	-4024
▁Throw	-4025
Chooser	-4026
QueryId	-4027
collect	-4028
portion	-4029
RpcUtils	-4030
▁dataTTL	-4031
▁regular	-4032
▁reverse	-4033
▁tsFiles	-4034
StorageFs	-4035
getByType	-4036
▁fullPath	-4037
FolderFile	-4038
▁Privilege	-4039
▁TIMESTAMP	-4040
BufferLocal	-4041
RecordReader	-4042
insertRecord	-4043
▁ThreadLocal	-4044
▁prepareData	-4045
▁tsFileInput	-4046
▁tokenIntType	-4047
BufferedWriter	-4048
▁PrivilegeType	-4049
timePartitionId	-4050
▁LogicalOperator	-4051
▁LogicalOptimize	-4052
72	-4053
Am	-4054
Lt	-4055
1))	-4056
2")	-4057
2),	-4058
32[	-4059
Det	-4060
Tmp	-4061
Two	-4062
eys	-4063
oll	-4064
▁"3	-4065
▁(1	-4066
▁Fa	-4067
▁No	-4068
5555	-4069
Help	-4070
OPEN	-4071
Spec	-4072
▁"",	-4073
▁wal	-4074
"))).	-4075
Among	-4076
_1");	-4077
▁FILE	-4078
▁Fill	-4079
▁work	-4080
Adjust	-4081
ByName	-4082
HEADER	-4083
Second	-4084
Target	-4085
amSize	-4086
rement	-4087
▁users	-4088
Invalid	-4089
Written	-4090
▁DELETE	-4091
▁Linked	-4092
▁closed	-4093
▁finish	-4094
(1509466	-4095
getPaths	-4096
preValue	-4097
sumValue	-4098
remaining	-4099
▁rowCount	-4100
▁standard	-4101
BigDecimal	-4102
SyncSender	-4103
singlePath	-4104
MEASUREMENT	-4105
PageReaders	-4106
TsFileInput	-4107
getDeviceId	-4108
▁PageHeader	-4109
▁fileReader	-4110
WriteLogNode	-4111
etchMetadata	-4112
▁ChunkHeader	-4113
▁DiskSpaceIns	-4114
▁deduplicated	-4115
setDeduplicated	-4116
▁measurementIds	-4117
▁groupByFillPlan	-4118
75	-4119
Gt	-4120
[4	-4121
\\	-4122
}\	-4123
(6,	-4124
100	-4125
2))	-4126
pos	-4127
tem	-4128
▁"[	-4129
▁[%	-4130
▁bp	-4131
0)",	-4132
2222	-4133
Enum	-4134
NODE	-4135
ccur	-4136
char	-4137
join	-4138
uild	-4139
▁"4,	-4140
▁loc	-4141
Liter	-4142
Water	-4143
added	-4144
andid	-4145
roles	-4146
token	-4147
▁10);	-4148
▁20);	-4149
▁save	-4150
▁tail	-4151
(1000,	-4152
FORMAT	-4153
Random	-4154
sgName	-4155
target	-4156
▁Plain	-4157
Literal	-4158
Managed	-4159
Mockito	-4160
▁verify	-4161
OffsetOf	-4162
PASSWORD	-4163
anceStat	-4164
nalMNode	-4165
ramework	-4166
▁Metrics	-4167
MemTables	-4168
Throwable	-4169
WaterMark	-4170
andidates	-4171
Collectors	-4172
▁unseqFile	-4173
serializeTo	-4174
▁JSONObject	-4175
StringLength	-4176
▁successfully	-4177
ParseException	-4178
UnsignedVarInt	-4179
getStatsByType	-4180
▁LongDataPoint	-4181
WithValueFilter	-4182
DirectoryManager	-4183
SequenceFileList	-4184
insertTabletPlan	-4185
▁measurementList	-4186
){	-4187
.%	-4188
LD	-4189
Pl	-4190
TA	-4191
sv	-4192
90,	-4193
ENG	-4194
LEA	-4195
ONE	-4196
Ord	-4197
TRY	-4198
ked	-4199
mit	-4200
tle	-4201
wal	-4202
▁16	-4203
▁4,	-4204
1)",	-4205
101,	-4206
izes	-4207
poll	-4208
sReq	-4209
▁(!(	-4210
▁\"%	-4211
▁cmd	-4212
("%20	-4213
ATURE	-4214
CHUNK	-4215
Fixed	-4216
MERGE	-4217
Proxy	-4218
async	-4219
avail	-4220
sions	-4221
▁"201	-4222
▁Role	-4223
▁Tree	-4224
▁leaf	-4225
▁wait	-4226
0000,2	-4227
Packer	-4228
binary	-4229
extend	-4230
folder	-4231
▁getID	-4232
▁mNode	-4233
▁point	-4234
▁ptNum	-4235
▁queue	-4236
▁ratio	-4237
Display	-4238
ERATURE	-4239
Operate	-4240
ctories	-4241
getRole	-4242
replace	-4243
straint	-4244
▁Config	-4245
▁Reader	-4246
▁TVList	-4247
▁getMin	-4248
▁parent	-4249
FillType	-4250
capacity	-4251
moveFile	-4252
rowCount	-4253
▁queryOp	-4254
Scheduled	-4255
available	-4256
compareTo	-4257
dataArray	-4258
framework	-4259
▁IoTDBPre	-4260
▁isClosed	-4261
chunkGroup	-4262
getVersion	-4263
irectories	-4264
▁Directory	-4265
erException	-4266
longToBytes	-4267
▁toBeSynced	-4268
▁ChunkReader	-4269
▁allFileList	-4270
▁finalFilter	-4271
▁listDataSet	-4272
▁stringStats	-4273
▁valueFilter	-4274
▁versionInfo	-4275
Modifications	-4276
dataPointList	-4277
▁uncompressed	-4278
extendTemplate	-4279
ExternalSortFile	-4280
storageGroupName	-4281
▁QueryDataSource	-4282
1[	-4283
(0)	-4284
3),	-4285
IST	-4286
JOB	-4287
OBJ	-4288
ROW	-4289
]",	-4290
ttp	-4291
▁it	-4292
INFO	-4293
NULL	-4294
Stop	-4295
TYPE	-4296
abel	-4297
find	-4298
igit	-4299
ping	-4300
▁Not	-4301
▁TTL	-4302
Event	-4303
OutOf	-4304
Sizes	-4305
Tuple	-4306
gends	-4307
mnode	-4308
serde	-4309
Usable	-4310
system	-4311
Wrapper	-4312
control	-4313
▁Simple	-4314
▁source	-4315
▁tuples	-4316
DATATYPE	-4317
FilePlan	-4318
Physical	-4319
essionId	-4320
hashCode	-4321
EndOffset	-4322
fetchSize	-4323
mmonUtils	-4324
readFloat	-4325
ublicBAOS	-4326
▁seqFiles	-4327
LocalFiles	-4328
readString	-4329
▁nodeNames	-4330
FileFolders	-4331
MetadataMap	-4332
UsableSpace	-4333
▁DeletePlan	-4334
UnCompressor	-4335
getSessionId	-4336
▁slidingStep	-4337
NameWhiteList	-4338
appendLiteral	-4339
▁globalConfig	-4340
SerializedSize	-4341
OperateFilePlan	-4342
ParameterAdapter	-4343
▁cachedBatchData	-4344
3;	-4345
92	-4346
Ur	-4347
_8	-4348
ru	-4349
1,"	-4350
Mod	-4351
Url	-4352
rle	-4353
sle	-4354
00);	-4355
32);	-4356
9999	-4357
EXEC	-4358
FROM	-4359
ROOT	-4360
Tags	-4361
ends	-4362
prev	-4363
▁"|\	-4364
▁-1)	-4365
▁RPC	-4366
▁SET	-4367
▁rpc	-4368
<>())	-4369
Iface	-4370
TEGER	-4371
force	-4372
getID	-4373
gress	-4374
known	-4375
locks	-4376
lowed	-4377
sleep	-4378
▁50);	-4379
▁attr	-4380
▁cost	-4381
▁full	-4382
▁getF	-4383
Action	-4384
ByTime	-4385
canner	-4386
sorted	-4387
▁MERGE	-4388
▁Value	-4389
▁doesn	-4390
Readers	-4391
Request	-4392
SECONDS	-4393
ageSize	-4394
ruCache	-4395
Runnable	-4396
endsWith	-4397
memtable	-4398
▁isEmpty	-4399
Inspector	-4400
TimeStamp	-4401
edFileMap	-4402
getSchema	-4403
statement	-4404
▁interval	-4405
▁pageData	-4406
Constraint	-4407
DateFormat	-4408
StartTimes	-4409
TimeFormat	-4410
arrayIndex	-4411
getDefault	-4412
tsfilePath	-4413
▁Throwable	-4414
▁primitive	-4415
▁statistic	-4416
▁watermark	-4417
BlockBuffer	-4418
DataTypeMap	-4419
Information	-4420
UnSupported	-4421
bytesToLong	-4422
SelectedPath	-4423
adingZeroNum	-4424
▁BloomFilter	-4425
▁GroupByPlan	-4426
▁Measurement	-4427
InstanceHolder	-4428
▁modifications	-4429
StringContainer	-4430
UnaryExpression	-4431
etchResultsResp	-4432
getSequenceFile	-4433
mergeStatistics	-4434
▁metricRegistry	-4435
FileSeriesReader	-4436
▁timePartitionId	-4437
(9	-4438
,"	-4439
15	-4440
Ap	-4441
MS	-4442
RPC	-4443
[1]	-4444
goo	-4445
mbo	-4446
med	-4447
msg	-4448
▁1]	-4449
▁2.	-4450
▁Al	-4451
AUTH	-4452
Flag	-4453
Host	-4454
PORT	-4455
Star	-4456
host	-4457
mbol	-4458
▁Min	-4459
▁STR	-4460
▁are	-4461
Expan	-4462
Magic	-4463
Model	-4464
Token	-4465
clone	-4466
ignal	-4467
pring	-4468
▁6667	-4469
Endian	-4470
isInfo	-4471
retKey	-4472
▁Faked	-4473
▁Multi	-4474
▁empty	-4475
▁occur	-4476
▁pivot	-4477
Instant	-4478
element	-4479
nextInt	-4480
subList	-4481
▁params	-4482
Occupied	-4483
numberOf	-4484
setValue	-4485
▁release	-4486
▁results	-4487
▁schemas	-4488
Converter	-4489
Expansion	-4490
directory	-4491
parameter	-4492
▁userName	-4493
▁writable	-4494
AuthorType	-4495
Occupation	-4496
ttpServlet	-4497
ChunkGroups	-4498
GroupByPlan	-4499
PrivilegeTo	-4500
izationPlan	-4501
setMemtable	-4502
▁pageHeader	-4503
▁pageWriter	-4504
▁unsequence	-4505
FileMetadata	-4506
ReadDeviceId	-4507
elementIndex	-4508
getDataPoint	-4509
IndexNodeType	-4510
OfChunkHeader	-4511
isInfoEnabled	-4512
▁SeriesReader	-4513
MemtableNumber	-4514
▁AtomicInteger	-4515
addSelectedPath	-4516
getMeasurements	-4517
getTokenIntType	-4518
rantPrivilegeTo	-4519
▁checkExpansion	-4520
2(	-4521
9.	-4522
0.0	-4523
10,	-4524
3,"	-4525
5,1	-4526
LTA	-4527
MAP	-4528
MEM	-4529
Sys	-4530
Uri	-4531
ZIP	-4532
dic	-4533
▁br	-4534
>();	-4535
ENCE	-4536
OUNT	-4537
Sqls	-4538
ason	-4539
json	-4540
lish	-4541
mbed	-4542
mqtt	-4543
▁201	-4544
▁AND	-4545
▁buf	-4546
▁msg	-4547
(2));	-4548
acter	-4549
ioTDB	-4550
ittle	-4551
power	-4552
▁Auth	-4553
▁Page	-4554
▁mode	-4555
▁rand	-4556
▁skip	-4557
BIGINT	-4558
Budget	-4559
CONFIG	-4560
Symbol	-4561
adatas	-4562
estore	-4563
getLog	-4564
keySet	-4565
▁COUNT	-4566
▁RETRY	-4567
▁clazz	-4568
0000)",	-4569
EXECUTE	-4570
Mapping	-4571
▁getInt	-4572
Services	-4573
children	-4574
izeStats	-4575
template	-4576
▁channel	-4577
MXService	-4578
SeriesNum	-4579
setEnable	-4580
▁upgraded	-4581
Collection	-4582
Parameters	-4583
RleDecoder	-4584
▁getDouble	-4585
StringBytes	-4586
TEMPERATURE	-4587
isDirectory	-4588
▁TimeSeries	-4589
▁curEndTime	-4590
getProcessor	-4591
remainRanges	-4592
▁queryRouter	-4593
LatestFlushed	-4594
▁PreviousFill	-4595
▁tsFileReader	-4596
ClassException	-4597
ExistException	-4598
getStringValue	-4599
OperationResult	-4600
deleteDirectory	-4601
getOperatorType	-4602
getValueEncoder	-4603
▁SessionDataSet	-4604
▁TSFInputFormat	-4605
..	-4606
86	-4607
US	-4608
)";	-4609
ARK	-4610
SPA	-4611
Ter	-4612
uce	-4613
web	-4614
FILL	-4615
LISH	-4616
Part	-4617
aten	-4618
qual	-4619
▁"";	-4620
▁");	-4621
▁Bit	-4622
▁Con	-4623
01)",	-4624
32"),	-4625
Label	-4626
SPACE	-4627
build	-4628
matic	-4629
▁TSFH	-4630
▁head	-4631
▁info	-4632
▁than	-4633
Thrift	-4634
alsort	-4635
extern	-4636
linear	-4637
▁force	-4638
▁token	-4639
NotNull	-4640
ReadAnd	-4641
getUser	-4642
initial	-4643
runcate	-4644
▁CREATE	-4645
▁expect	-4646
▁random	-4647
Database	-4648
Standard	-4649
ingZeros	-4650
▁folders	-4651
▁timeRet	-4652
BatchSize	-4653
BitPacked	-4654
Character	-4655
UntilLast	-4656
▁readData	-4657
▁receiver	-4658
.123.456",	-4659
Attributes	-4660
PointValue	-4661
annotation	-4662
verageSize	-4663
▁LocalFile	-4664
▁MergeTask	-4665
▁deletedAt	-4666
DeviceOwner	-4667
ServiceImpl	-4668
directories	-4669
getReceiver	-4670
▁BigDecimal	-4671
▁executeSQL	-4672
▁getSession	-4673
ReadAndWrite	-4674
SetException	-4675
externalsort	-4676
▁SessionPool	-4677
▁IChunkWriter	-4678
▁WriteLogNode	-4679
OverlappedPage	-4680
TsFileConstant	-4681
▁ZonedDateTime	-4682
ioTDBRpcDataSet	-4683
tsFileProcessor	-4684
StorageGroupPlan	-4685
--)	-4686
0.2	-4687
123	-4688
50.	-4689
DIS	-4690
WAL	-4691
ker	-4692
use	-4693
LtEq	-4694
Math	-4695
STAT	-4696
desc	-4697
▁1),	-4698
after	-4699
irect	-4700
▁copy	-4701
▁have	-4702
▁more	-4703
▁used	-4704
▁wrap	-4705
0,99,1	-4706
509465	-4707
Active	-4708
Cancel	-4709
HaName	-4710
Ignore	-4711
OBJECT	-4712
SysDir	-4713
getSum	-4714
isable	-4715
object	-4716
▁GRANT	-4717
▁IOTDB	-4718
▁Tuple	-4719
ENGLISH	-4720
INTEGER	-4721
TTLPlan	-4722
toArray	-4723
▁COLUMN	-4724
▁getSum	-4725
▁packer	-4726
▁unpack	-4727
▁visual	-4728
Datetime	-4729
FromUser	-4730
RatioSum	-4731
▁Monitor	-4732
▁getPath	-4733
▁getType	-4734
▁maxSize	-4735
.123.456.	-4736
Reference	-4737
TextField	-4738
transport	-4739
▁Iterator	-4740
▁getPaths	-4741
▁rolename	-4742
▁sumValue	-4743
IndexEntry	-4744
columnType	-4745
findColumn	-4746
setBinaryV	-4747
▁MetaUtils	-4748
▁dataArray	-4749
▁fillTypes	-4750
▁getString	-4751
▁lineCount	-4752
▁mergePlan	-4753
▁resultStr	-4754
HaNamenodes	-4755
RegularData	-4756
getMaxValue	-4757
getMinValue	-4758
getSeqFiles	-4759
putIfAbsent	-4760
setProperty	-4761
▁TSIService	-4762
▁endianType	-4763
▁timeBuffer	-4764
▁visualizer	-4765
▁DeltaBinary	-4766
▁chunkHeader	-4767
▁inputFormat	-4768
("127.0.0.1",	-4769
PrivilegeList	-4770
▁OutputStream	-4771
▁Serializable	-4772
CloseAllWorking	-4773
FileInputStream	-4774
▁InstanceHolder	-4775
▁leadingZeroNum	-4776
▁readOnlyTsFile	-4777
getAllTimeseries	-4778
▁deserializeFrom	-4779
▁newChildrenList	-4780
29	-4781
Da	-4782
_3	-4783
(9,	-4784
++,	-4785
0";	-4786
33.	-4787
Buf	-4788
aim	-4789
▁"7	-4790
▁3.	-4791
▁8)	-4792
▁hf	-4793
1234	-4794
ATED	-4795
Capt	-4796
Hdfs	-4797
MARK	-4798
More	-4799
Move	-4800
REPE	-4801
[1];	-4802
call	-4803
getR	-4804
ipal	-4805
rono	-4806
skip	-4807
▁>>>	-4808
▁Rle	-4809
▁top	-4810
(3));	-4811
(4));	-4812
(5));	-4813
01");	-4814
SGDir	-4815
ating	-4816
cause	-4817
event	-4818
unseq	-4819
▁0.00	-4820
▁1));	-4821
▁desc	-4822
▁diff	-4823
▁unit	-4824
Calcul	-4825
Captor	-4826
Chrono	-4827
ialCmd	-4828
marker	-4829
spring	-4830
▁IFill	-4831
Charset	-4832
Command	-4833
Remains	-4834
incipal	-4835
setText	-4836
▁REVOKE	-4837
▁Record	-4838
▁single	-4839
0,10000,	-4840
ChunkSub	-4841
ForQuery	-4842
REPEATED	-4843
▁Process	-4844
▁display	-4845
ListEntry	-4846
addOption	-4847
mergeTest	-4848
pecialCmd	-4849
▁TimeUnit	-4850
▁dataDirs	-4851
▁getFloat	-4852
▁tagIndex	-4853
Candidates	-4854
GroupCount	-4855
WriterImpl	-4856
timeFilter	-4857
▁byteCache	-4858
DirStrategy	-4859
FromOldFile	-4860
IntervalSec	-4861
TTLOperator	-4862
InputFactory	-4863
Serializable	-4864
setFetchSize	-4865
▁serializeTo	-4866
AlignByDevice	-4867
FilterFactory	-4868
OutputFactory	-4869
PathException	-4870
QueryExecutor	-4871
QueryNonAlign	-4872
WriteQueryLock	-4873
▁oldstatistics	-4874
OpenFileNumUtil	-4875
utoCreateSchema	-4876
▁deviceMetadata	-4877
▁tsFileMetaData	-4878
PackedGroupCount	-4879
SingleFilterTest	-4880
getTimePartition	-4881
▁FileInputStream	-4882
>)	-4883
An	-4884
Pr	-4885
YW	-4886
__	-4887
ek	-4888
iI	-4889
ia	-4890
tl	-4891
▁V	-4892
("-	-4893
4.4	-4894
ARD	-4895
DOT	-4896
EMP	-4897
SLA	-4898
_1,	-4899
any	-4900
mod	-4901
▁"%	-4902
▁"5	-4903
▁([	-4904
▁-1	-4905
1").	-4906
HOST	-4907
[0],	-4908
aims	-4909
orry	-4910
▁uns	-4911
Chart	-4912
EMPTY	-4913
SLASH	-4914
Tasks	-4915
[0]);	-4916
[1]);	-4917
block	-4918
▁"\'"	-4919
▁0));	-4920
▁Node	-4921
arator	-4922
bitmap	-4923
getSub	-4924
submit	-4925
▁6667,	-4926
▁bound	-4927
(1000);	-4928
buffers	-4929
convert	-4930
forEach	-4931
logTest	-4932
pathIdx	-4933
▁10000;	-4934
Complete	-4935
FileSize	-4936
writeInt	-4937
▁IReader	-4938
▁testGet	-4939
ChunkMeta	-4940
DownLatch	-4941
LogWriter	-4942
Selection	-4943
Separator	-4944
getFilter	-4945
getZoneID	-4946
▁Argument	-4947
▁argument	-4948
▁filename	-4949
Calculated	-4950
Restorable	-4951
▁AuthUtils	-4952
▁MultiFile	-4953
AbstractCli	-4954
AndMayThrow	-4955
ittleEndian	-4956
▁JTextField	-4957
▁jsonObject	-4958
▁prevRanges	-4959
▁privileges	-4960
FillInterval	-4961
insertTablet	-4962
orryWritable	-4963
parseBoolean	-4964
rementAndGet	-4965
▁mergeLogger	-4966
▁seqSelected	-4967
OutputStreams	-4968
getPrivileges	-4969
logTestDevice	-4970
vokePrivilege	-4971
▁cleanSession	-4972
ContextHandler	-4973
getDeduplicated	-4974
▁ArgumentCaptor	-4975
▁SyncConnection	-4976
FormatterBuilder	-4977
PrecisionDecoder	-4978
updateResultFrom	-4979
=%	-4980
KB	-4981
_1	-4982
vm	-4983
+08	-4984
3()	-4985
571	-4986
6",	-4987
656	-4988
7.7	-4989
848	-4990
Avg	-4991
ROP	-4992
eth	-4993
ule	-4994
▁25	-4995
▁MQ	-4996
▁UP	-4997
(50,	-4998
3)",	-4999
3));	-5000
:13:	-5001
ATER	-5002
GZIP	-5003
Item	-5004
PLAY	-5005
SIST	-5006
Such	-5007
[][]	-5008
igin	-5009
peed	-5010
rity	-5011
tial	-5012
▁"7,	-5013
(789)	-5014
99,",	-5015
CACHE	-5016
Clear	-5017
NumOf	-5018
allow	-5019
ample	-5020
estim	-5021
gName	-5022
indow	-5023
▁mqtt	-5024
▁star	-5025
22222,	-5026
AUTHOR	-5027
CRight	-5028
HaAuto	-5029
QUENCE	-5030
expect	-5031
invoke	-5032
ublish	-5033
▁4)));	-5034
▁found	-5035
Already	-5036
CONSIST	-5037
CRightO	-5038
MemSize	-5039
Ordinal	-5040
RawData	-5041
Timeout	-5042
getLeft	-5043
▁Author	-5044
▁Snappy	-5045
▁actual	-5046
HitRatio	-5047
NodeName	-5048
ReadTime	-5049
Uncaught	-5050
getRight	-5051
metaData	-5052
shutdown	-5053
▁newFile	-5054
BitString	-5055
nodeNames	-5056
watermark	-5057
▁deviceTo	-5058
▁function	-5059
▁priority	-5060
CONSISTENT	-5061
JSONObject	-5062
NextFolder	-5063
OrdinalMap	-5064
PlanButton	-5065
filterType	-5066
setDefault	-5067
writeIndex	-5068
▁Reentrant	-5069
▁getSeries	-5070
CommandLine	-5071
HaAutomatic	-5072
MetadataPos	-5073
chunkReader	-5074
getEncoding	-5075
getIOWriter	-5076
toFormatter	-5077
▁MetaMarker	-5078
▁concurrent	-5079
▁fileLoader	-5080
▁getBoolean	-5081
▁numOfPages	-5082
▁tagLogFile	-5083
DiskSpaceIns	-5084
FunctionSize	-5085
▁columnTypes	-5086
▁seriesIndex	-5087
FirstStrategy	-5088
MeasurementId	-5089
getAggrResult	-5090
queryOperator	-5091
PhysicalMemory	-5092
▁previousValue	-5093
FailoverEnabled	-5094
▁TsFileEncoding	-5095
AutoCreateSchema	-5096
FunctionOperator	-5097
WritableMemChunk	-5098
▁ExternalSortJob	-5099
▁aggregationPlan	-5100
▁chunkReaderWrap	-5101
="	-5102
MD	-5103
[8	-5104
iO	-5105
(1.	-5106
428	-5107
675	-5108
Cpu	-5109
END	-5110
GRE	-5111
ILD	-5112
ToC	-5113
_1.	-5114
arr	-5115
xff	-5116
▁"<	-5117
▁(%	-5118
▁++	-5119
▁11	-5120
▁30	-5121
▁SE	-5122
▁sb	-5123
")).	-5124
,22,	-5125
1111	-5126
3396	-5127
9466	-5128
INUE	-5129
TION	-5130
alog	-5131
arch	-5132
atom	-5133
bool	-5134
free	-5135
ific	-5136
lict	-5137
onse	-5138
ored	-5139
rupt	-5140
sole	-5141
tify	-5142
▁WAL	-5143
▁env	-5144
("");	-5145
0,100	-5146
5714,	-5147
:13:2	-5148
Laten	-5149
Using	-5150
entic	-5151
▁TEMP	-5152
▁been	-5153
▁getS	-5154
▁move	-5155
-01-01	-5156
0.2456	-5157
Atomic	-5158
Keytab	-5159
MXBean	-5160
NTINUE	-5161
SizeOf	-5162
atalog	-5163
atomic	-5164
getMem	-5165
mboBox	-5166
memory	-5167
option	-5168
rescon	-5169
sealed	-5170
▁"100,	-5171
▁"\'",	-5172
▁START	-5173
▁latch	-5174
9466848	-5175
DISPLAY	-5176
Partial	-5177
RamSize	-5178
TypeMap	-5179
Unknown	-5180
channel	-5181
connect	-5182
release	-5183
▁"1000,	-5184
▁memory	-5185
▁timeEq	-5186
4285714,	-5187
Charsets	-5188
ChunkCnt	-5189
Required	-5190
missions	-5191
optimize	-5192
▁newTime	-5193
▁rWriter	-5194
▁sgLevel	-5195
LowerCase	-5196
StrToLong	-5197
▁producer	-5198
▁tsStatus	-5199
33960.2456	-5200
ChunkPoint	-5201
intToBytes	-5202
▁cloneList	-5203
▁getDevice	-5204
▁ioTDBSink	-5205
▁oldTsFile	-5206
▁readersOf	-5207
▁timeRange	-5208
FileTreeSet	-5209
SimpleTuple	-5210
ToCalculate	-5211
description	-5212
getSumValue	-5213
timeRangeId	-5214
tsFileInput	-5215
▁PublicBAOS	-5216
▁readTsFile	-5217
SyncReceiver	-5218
▁beforeRange	-5219
▁columnNames	-5220
▁hybridCount	-5221
▁innerWriter	-5222
▁parseDriver	-5223
FailoverProxy	-5224
groupByFilter	-5225
getTimeByIndex	-5226
▁PriorityQueue	-5227
▁blockingQueue	-5228
▁tsFilesReader	-5229
PerformanceStat	-5230
getPropertyName	-5231
springframework	-5232
▁tailingZeroNum	-5233
▁tsQueryDataSet	-5234
================	-5235
PayloadFormatter	-5236
StandardCharsets	-5237
▁DoubleDataPoint	-5238
▁IoTDBThreadPool	-5239
7-	-5240
FW	-5241
NE	-5242
Nj	-5243
Wr	-5244
XM	-5245
hi	-5246
lc	-5247
oT	-5248
tv	-5249
(8,	-5250
2";	-5251
40,	-5252
64;	-5253
GRA	-5254
bbb	-5255
org	-5256
the	-5257
▁HH	-5258
▁tb	-5259
("\\	-5260
(0),	-5261
(1,1	-5262
-01-	-5263
6)",	-5264
ATCH	-5265
ATIO	-5266
LEAF	-5267
[8];	-5268
flag	-5269
▁"")	-5270
▁"15	-5271
▁2);	-5272
▁20;	-5273
")));	-5274
(-1);	-5275
0"));	-5276
Equal	-5277
Lists	-5278
POINT	-5279
Users	-5280
ceive	-5281
match	-5282
users	-5283
▁Enum	-5284
▁meta	-5285
000");	-5286
Bounds	-5287
Static	-5288
hasArg	-5289
indows	-5290
prefix	-5291
▁event	-5292
▁isSeq	-5293
▁range	-5294
BitPack	-5295
Logical	-5296
PROCESS	-5297
monitor	-5298
▁1000);	-5299
▁STRING	-5300
▁concat	-5301
▁latest	-5302
▁occurs	-5303
▁sgName	-5304
INTERNAL	-5305
PageSize	-5306
Priority	-5307
SEQUENCE	-5308
getAlias	-5309
protocol	-5310
syncFile	-5311
▁0.001);	-5312
▁Default	-5313
▁bytesTo	-5314
▁userCon	-5315
FlushTask	-5316
Principal	-5317
argetFile	-5318
getLength	-5319
getServer	-5320
interrupt	-5321
mapreduce	-5322
operation	-5323
ChildPaths	-5324
RleEncoder	-5325
TSIService	-5326
fileReader	-5327
getBoolean	-5328
unsequence	-5329
▁Executors	-5330
▁TSExecute	-5331
CommonUtils	-5332
FileVersion	-5333
MaxBitWidth	-5334
SeriesMerge	-5335
UNSUPPORTED	-5336
getFillType	-5337
oreSitePath	-5338
▁Collection	-5339
▁JMXService	-5340
▁getCurrent	-5341
▁timeSeries	-5342
NameServices	-5343
SyncConstant	-5344
UseWaterMark	-5345
▁Compression	-5346
▁groupWriter	-5347
ServiceThread	-5348
▁insertRecord	-5349
▁unseqFileNum	-5350
ErrorException	-5351
KeytabFilePath	-5352
TimeValuePairs	-5353
dataInThisPage	-5354
▁assertNotNull	-5355
▁worryWritable	-5356
ChunkReaderWrap	-5357
NotSetException	-5358
TargetException	-5359
incrementAndGet	-5360
▁insertTemplate	-5361
▁spacePartition	-5362
CreateTimeseries	-5363
FileOutputStream	-5364
RuntimeException	-5365
grantPrivilegeTo	-5366
▁ExecutorService	-5367
▁alterTimeSeries	-5368
▁firstPageReader	-5369
▁singleSeriesExp	-5370
25	-5371
3=	-5372
68	-5373
>"	-5374
Im	-5375
LP	-5376
NF	-5377
bs	-5378
dG	-5379
("[	-5380
1.1	-5381
33,	-5382
ALL	-5383
Exc	-5384
VED	-5385
Vis	-5386
_1)	-5387
air	-5388
bed	-5389
gin	-5390
ote	-5391
voc	-5392
▁my	-5393
()){	-5394
(2);	-5395
))).	-5396
4));	-5397
Plot	-5398
Same	-5399
Wait	-5400
ZONE	-5401
[5],	-5402
\"",	-5403
resp	-5404
▁1.2	-5405
2,20,	-5406
50)",	-5407
:00",	-5408
Avail	-5409
GRADE	-5410
InOne	-5411
Inser	-5412
NClob	-5413
\")",	-5414
roker	-5415
short	-5416
tempt	-5417
40000,	-5418
Exclus	-5419
SERVED	-5420
SERVER	-5421
Termin	-5422
gnored	-5423
handle	-5424
parent	-5425
proted	-5426
wrapAs	-5427
▁1024;	-5428
▁digit	-5429
▁optim	-5430
▁plans	-5431
URATION	-5432
Visible	-5433
argName	-5434
getLast	-5435
request	-5436
▁Create	-5437
▁TSFILE	-5438
▁slimit	-5439
CONTINUE	-5440
Duration	-5441
PoolSize	-5442
Specific	-5443
getMerge	-5444
optional	-5445
rolename	-5446
vocation	-5447
▁DataSet	-5448
▁memSize	-5449
▁operate	-5450
▁setLong	-5451
Addresses	-5452
AlterType	-5453
Available	-5454
Exclusive	-5455
MergeTask	-5456
RowNumber	-5457
SystemDir	-5458
TotalSize	-5459
aryFilter	-5460
countable	-5461
fsFactory	-5462
leafMNode	-5463
▁FilePath	-5464
▁contains	-5465
▁deletion	-5466
▁isEnable	-5467
▁setValue	-5468
▁syncFile	-5469
▁unclosed	-5470
Historical	-5471
IndexOutOf	-5472
MergePoint	-5473
OptionPane	-5474
ThreadName	-5475
Visualizer	-5476
authorizer	-5477
▁IMemTable	-5478
▁endOffset	-5479
▁exception	-5480
▁mergeLock	-5481
▁mergeTask	-5482
▁supproted	-5483
▁tempSGDir	-5484
▁testQuery	-5485
ChronoField	-5486
toLowerCase	-5487
▁LinkedList	-5488
▁deleteData	-5489
▁getVersion	-5490
▁prefixPath	-5491
▁readerList	-5492
▁zoneOffset	-5493
TsFileOutput	-5494
▁RecordUtils	-5495
▁RegularData	-5496
▁clearSorted	-5497
▁getDataType	-5498
MetaDataCache	-5499
OccupiedSpace	-5500
appedRunnable	-5501
getByteBuffer	-5502
getNodeByPath	-5503
▁IBatchReader	-5504
▁aggregations	-5505
▁booleanStats	-5506
▁sequenceList	-5507
▁valueDecoder	-5508
▁valueEncoder	-5509
AllChunkGroups	-5510
SpecificFields	-5511
isStorageGroup	-5512
outputDataFile	-5513
▁stringBuilder	-5514
▁totalChunkNum	-5515
BoundsException	-5516
DiskUsableSpace	-5517
FilterOptimizer	-5518
ObjectInspector	-5519
getAbsoluteFile	-5520
▁TsFileIOWriter	-5521
▁compressedSize	-5522
DeduplicatedList	-5523
QueryFilterOptim	-5524
TimeseriesOption	-5525
▁setStorageGroup	-5526
(!	-5527
18	-5528
\'	-5529
aW	-5530
iw	-5531
ls	-5532
td	-5533
▁E	-5534
(12	-5535
(50	-5536
(7,	-5537
++]	-5538
3,1	-5539
7);	-5540
Cor	-5541
ORT	-5542
UTF	-5543
Vud	-5544
]";	-5545
]),	-5546
aaa	-5547
ddd	-5548
sec	-5549
}",	-5550
▁"6	-5551
▁&=	-5552
▁("	-5553
▁me	-5554
'");	-5555
();)	-5556
++],	-5557
Appe	-5558
Keys	-5559
Nums	-5560
bean	-5561
cept	-5562
cogn	-5563
etty	-5564
sect	-5565
wait	-5566
▁"6,	-5567
▁"9,	-5568
▁10,	-5569
▁8);	-5570
Login	-5571
NABLE	-5572
await	-5573
gment	-5574
trans	-5575
▁1400	-5576
▁30);	-5577
▁Last	-5578
▁base	-5579
▁bool	-5580
▁func	-5581
▁real	-5582
Append	-5583
Params	-5584
PathIn	-5585
Points	-5586
Splits	-5587
losing	-5588
mxName	-5589
suffix	-5590
tmpDir	-5591
▁100);	-5592
▁Parse	-5593
▁magic	-5594
ByQuery	-5595
Checker	-5596
indexOf	-5597
logNode	-5598
servlet	-5599
setLong	-5600
wrapper	-5601
▁Cached	-5602
▁Hadoop	-5603
▁INSERT	-5604
▁module	-5605
▁tvPair	-5606
ATERMARK	-5607
Conflict	-5608
Consumer	-5609
Contains	-5610
Listener	-5611
MaxValue	-5612
OrDelete	-5613
ReadTest	-5614
addChild	-5615
execResp	-5616
readBool	-5617
setFloat	-5618
typeinfo	-5619
userName	-5620
▁Servlet	-5621
▁content	-5622
▁getName	-5623
▁ignored	-5624
▁perform	-5625
▁receive	-5626
DataQuery	-5627
DeletedAt	-5628
WithGiven	-5629
batchSize	-5630
getFloatV	-5631
nextBatch	-5632
structure	-5633
timeRange	-5634
▁addChild	-5635
▁alterMap	-5636
▁colCount	-5637
▁finished	-5638
▁poolName	-5639
▁typeList	-5640
Comparator	-5641
DeletePlan	-5642
FWOperator	-5643
FilterType	-5644
MetaMarker	-5645
ValueBytes	-5646
getTSBatch	-5647
statusList	-5648
▁aggregate	-5649
▁errorCode	-5650
▁getBinary	-5651
▁logWriter	-5652
▁remaining	-5653
▁writeData	-5654
BitPosition	-5655
InTimestamp	-5656
ValueBuffer	-5657
appendValue	-5658
getPassword	-5659
privilegeId	-5660
▁PageWriter	-5661
▁SyncStatus	-5662
▁arrayIndex	-5663
▁cloneArray	-5664
▁identifier	-5665
▁timeOffset	-5666
.123.456.789	-5667
getLogFilter	-5668
getNodeNames	-5669
getStatement	-5670
setPartition	-5671
▁newPassword	-5672
▁newTimeData	-5673
▁reverseList	-5674
▁tmpSelected	-5675
FileException	-5676
LoadedFileMap	-5677
NextFolderFor	-5678
datastructure	-5679
pathPrivilege	-5680
setExpression	-5681
▁FloatDecoder	-5682
▁IChunkLoader	-5683
▁IoTDBOptions	-5684
▁chunkWriters	-5685
▁getLastValue	-5686
▁mergeContext	-5687
ByQueryManager	-5688
SelectOperator	-5689
setTimeEncoder	-5690
▁TSFInputSplit	-5691
▁getFirstValue	-5692
ChunkLoaderImpl	-5693
ChunkStartTimes	-5694
DataInputStream	-5695
FixedThreadPool	-5696
setOperatorType	-5697
▁filterOperator	-5698
▁maxPointNumber	-5699
readCurListIndex	-5700
▁valueOccupation	-5701
"+	-5702
+"	-5703
0"	-5704
04	-5705
42	-5706
53	-5707
97	-5708
RU	-5709
po	-5710
ux	-5711
ze	-5712
▁,	-5713
--;	-5714
2.5	-5715
99.	-5716
gic	-5717
nex	-5718
obj	-5719
ome	-5720
ref	-5721
▁"/	-5722
▁7;	-5723
▁KW	-5724
▁us	-5725
▁},	-5726
,20.	-5727
000)	-5728
7-11	-5729
80,1	-5730
Freq	-5731
LOCK	-5732
RESP	-5733
Tool	-5734
aven	-5735
cent	-5736
etwe	-5737
gree	-5738
imed	-5739
need	-5740
ntax	-5741
peek	-5742
ross	-5743
sume	-5744
ures	-5745
▁"8,	-5746
▁102	-5747
▁11;	-5748
▁Job	-5749
▁any	-5750
▁arr	-5751
▁cmp	-5752
(",")	-5753
10)",	-5754
:{}",	-5755
RATIO	-5756
State	-5757
magic	-5758
▁0.01	-5759
▁FILL	-5760
▁READ	-5761
▁SYNC	-5762
▁such	-5763
▁your	-5764
<>()).	-5765
Direct	-5766
EndPos	-5767
Mapper	-5768
Remove	-5769
ateMax	-5770
etween	-5771
▁"102,	-5772
▁"104,	-5773
▁"105,	-5774
▁chart	-5775
▁getUn	-5776
DataTTL	-5777
Feature	-5778
Restore	-5779
listAll	-5780
▁100));	-5781
▁Manage	-5782
▁Please	-5783
▁ignore	-5784
MaxError	-5785
NonQuery	-5786
NumberIn	-5787
Optional	-5788
Progress	-5789
RESERVED	-5790
TestOnly	-5791
channels	-5792
intValue	-5793
ixLength	-5794
valueIdx	-5795
▁endDate	-5796
▁loading	-5797
▁modFile	-5798
BlockSize	-5799
Performer	-5800
ReadIndex	-5801
WalPeriod	-5802
enticator	-5803
nexpected	-5804
▁consumer	-5805
▁fileList	-5806
▁getClass	-5807
▁hdfsPath	-5808
▁lruCache	-5809
ChunkCache	-5810
getRuntime	-5811
ialization	-5812
pageHeader	-5813
▁getSchema	-5814
▁listFiles	-5815
▁reference	-5816
▁targetDir	-5817
▁typesList	-5818
▁valFilter	-5819
▁writeLock	-5820
CheckStatus	-5821
SourceCount	-5822
estimateMax	-5823
parseDouble	-5824
▁deletePlan	-5825
▁timeFormat	-5826
FileNotFound	-5827
MemTableSize	-5828
MergingPaths	-5829
RecordWriter	-5830
SeqResources	-5831
WalThreshold	-5832
hasNextBatch	-5833
uncompressed	-5834
▁deltaObject	-5835
▁deviceOwner	-5836
▁hybridStart	-5837
▁maxSizeList	-5838
▁processShow	-5839
▁statMonitor	-5840
▁timeEncoder	-5841
MergeResource	-5842
OperationType	-5843
imedTimestamp	-5844
OutputDataFile	-5845
PropertiesFile	-5846
TSInsertRecord	-5847
▁PathPrivilege	-5848
▁measurementID	-5849
▁TSInsertRecord	-5850
▁columnNameList	-5851
▁deletePathList	-5852
▁pageSizeInByte	-5853
PrecisionEncoder	-5854
StatementContext	-5855
getConfiguration	-5856
parseSimpleTuple	-5857
▁chunkStatistics	-5858
▁groupSizeInByte	-5859
09	-5860
45	-5861
=1	-5862
GU	-5863
eb	-5864
ou	-5865
175	-5866
2.3	-5867
3))	-5868
7",	-5869
Ext	-5870
INE	-5871
Imp	-5872
Rol	-5873
pth	-5874
▁-=	-5875
▁5,	-5876
▁SH	-5877
▁md	-5878
1280	-5879
2.0,	-5880
6.65	-5881
603,	-5882
CKET	-5883
Dial	-5884
FOLD	-5885
INTS	-5886
ITOR	-5887
Lead	-5888
Logs	-5889
math	-5890
roll	-5891
tled	-5892
very	-5893
▁5))	-5894
▁RLE	-5895
▁det	-5896
▁exp	-5897
▁one	-5898
(6));	-5899
101,1	-5900
3.33,	-5901
7.74,	-5902
FILES	-5903
Kafka	-5904
NotEq	-5905
PATHS	-5906
Roles	-5907
TTSer	-5908
Where	-5909
arize	-5910
conds	-5911
ddddd	-5912
fffff	-5913
▁1000	-5914
▁LOAD	-5915
▁logs	-5916
,11,",	-5917
175675	-5918
198)",	-5919
50000,	-5920
Concat	-5921
Dialog	-5922
ENABLE	-5923
Exists	-5924
FOLDER	-5925
ONITOR	-5926
Predic	-5927
Socket	-5928
Syntax	-5929
formed	-5930
isLeaf	-5931
putInt	-5932
reason	-5933
sitive	-5934
sizeOf	-5935
zoneId	-5936
▁"101,	-5937
▁"103,	-5938
▁Error	-5939
▁fetch	-5940
▁multi	-5941
787.74,	-5942
SeqFile	-5943
isQuery	-5944
matches	-5945
ularize	-5946
▁Update	-5947
▁append	-5948
InBuffer	-5949
LogEntry	-5950
USERNAME	-5951
interval	-5952
nodeName	-5953
required	-5954
runcated	-5955
selector	-5956
vokeRole	-5957
▁compare	-5958
▁disable	-5959
▁getUser	-5960
▁legends	-5961
▁memUsed	-5962
▁wrapper	-5963
(15094656	-5964
TTService	-5965
queryTime	-5966
▁"9466848	-5967
▁FileSize	-5968
▁IService	-5969
▁MinValue	-5970
▁endTimes	-5971
▁fileName	-5972
▁readLong	-5973
▁snapshot	-5974
▁timeHeap	-5975
▁writeBit	-5976
1756751280	-5977
Unexpected	-5978
UpgradeLog	-5979
ZoneOffset	-5980
bytesToInt	-5981
identifier	-5982
tsDataType	-5983
▁Timestamp	-5984
▁available	-5985
▁byteArray	-5986
ExecuteResp	-5987
FileChooser	-5988
UserManager	-5989
getMemtable	-5990
newInstance	-5991
ularizePath	-5992
▁dataReader	-5993
▁fileFolder	-5994
▁tsEncoding	-5995
IChunkLoader	-5996
LeadingZeros	-5997
PropertyFile	-5998
currentValue	-5999
hasRemaining	-6000
setTimestamp	-6001
structorWith	-6002
▁StatisticsV	-6003
▁datePattern	-6004
▁doubleValue	-6005
▁timeRangeId	-6006
InternalMNode	-6007
SeqTimeSeries	-6008
▁HDFSTSRecord	-6009
▁elementIndex	-6010
▁isCalculated	-6011
6.651756751280	-6012
AggreWithMulti	-6013
ChangeCallback	-6014
MaxPointNumber	-6015
PageStatistics	-6016
TsFileMetadata	-6017
selectedSeries	-6018
▁TimeGenerator	-6019
▁processorName	-6020
▁timeGenerator	-6021
CharacterStream	-6022
SetStorageGroup	-6023
getSeqResources	-6024
▁CountDownLatch	-6025
▁IoTDBStatement	-6026
▁ProcessBuilder	-6027
▁TSQueryDataSet	-6028
▁columnTypeList	-6029
▁floatPrecision	-6030
▁serverArgument	-6031
----------------	-6032
etchMetadataResp	-6033
getNextFolderFor	-6034
runcatedPosition	-6035
▁executorService	-6036
03	-6037
1_	-6038
2\	-6039
4"	-6040
95	-6041
AV	-6042
TO	-6043
WA	-6044
WF	-6045
bw	-6046
by	-6047
lf	-6048
rs	-6049
xx	-6050
▁z	-6051
','	-6052
2,3	-6053
200	-6054
5,\	-6055
BED	-6056
Ijo	-6057
ccc	-6058
cle	-6059
cmd	-6060
ped	-6061
raw	-6062
▁48	-6063
▁50	-6064
▁at	-6065
")),	-6066
2)";	-6067
4"),	-6068
90,1	-6069
999,	-6070
:00,	-6071
Free	-6072
aved	-6073
exit	-6074
good	-6075
iver	-6076
save	-6077
sump	-6078
when	-6079
▁)",	-6080
▁123	-6081
▁1];	-6082
▁20,	-6083
▁And	-6084
▁IoT	-6085
▁MEM	-6086
▁but	-6087
▁pay	-6088
▁sec	-6089
▁tab	-6090
▁ttl	-6091
(",",	-6092
(7));	-6093
4.44,	-6094
Categ	-6095
EMBED	-6096
Grant	-6097
Insen	-6098
Overf	-6099
Resps	-6100
Timer	-6101
Trans	-6102
names	-6103
speed	-6104
urity	-6105
▁100.	-6106
▁Loop	-6107
▁code	-6108
Degree	-6109
OpenId	-6110
action	-6111
covery	-6112
finish	-6113
getRow	-6114
toList	-6115
▁Files	-6116
Attempt	-6117
ByteNum	-6118
Connect	-6119
putLong	-6120
reflect	-6121
▁Bitmap	-6122
▁Static	-6123
▁change	-6124
▁splits	-6125
08:00:00	-6126
BAOSList	-6127
BySuffix	-6128
DegreeOf	-6129
InputCmd	-6130
OffsetId	-6131
Response	-6132
TimeUnit	-6133
hasChild	-6134
sumption	-6135
▁JButton	-6136
▁Scanner	-6137
▁payload	-6138
▁reading	-6139
Aggregate	-6140
CaseInsen	-6141
EMBEDDING	-6142
FileNames	-6143
FullMerge	-6144
IMemTable	-6145
MultiFile	-6146
URISyntax	-6147
ValueData	-6148
WithAlias	-6149
asureType	-6150
emptyList	-6151
optimizer	-6152
startDate	-6153
statistic	-6154
▁"1509465	-6155
▁anObject	-6156
▁roleList	-6157
▁rowLimit	-6158
▁valueOut	-6159
ReaderList	-6160
Serializer	-6161
TimeLength	-6162
attributes	-6163
endianType	-6164
valueBytes	-6165
▁JSONArray	-6166
▁LoopWrite	-6167
▁Scheduled	-6168
▁fullMerge	-6169
▁mergeFile	-6170
▁metadatas	-6171
▁startDate	-6172
▁testWrite	-6173
08:00:00+08	-6174
FileNumUtil	-6175
HttpServlet	-6176
NameByIndex	-6177
RoleManager	-6178
SyncDeleted	-6179
UserContext	-6180
commandLine	-6181
currentFile	-6182
getPosition	-6183
partitionId	-6184
▁ArrayDeque	-6185
▁RPCService	-6186
▁pivotValue	-6187
▁tsfilePath	-6188
▁writeIndex	-6189
CurrentChunk	-6190
IChunkWriter	-6191
SingleThread	-6192
TimeInterval	-6193
addedByteNum	-6194
▁QueryRouter	-6195
▁StaticResps	-6196
▁fileChooser	-6197
▁statementId	-6198
▁suffixPaths	-6199
▁threadCount	-6200
BeSyncedFiles	-6201
FileSelection	-6202
LastPositions	-6203
PartialInsert	-6204
WalPeriodInMs	-6205
▁PlainEncoder	-6206
▁getTimestamp	-6207
▁missingPoint	-6208
▁newValueData	-6209
▁updateResult	-6210
▁workMemTable	-6211
BufferedValues	-6212
FormatConstant	-6213
MetadataIndexV	-6214
ShowTimeSeries	-6215
appendOffsetId	-6216
appendOptional	-6217
izedExpression	-6218
parseCaseInsen	-6219
regularizePath	-6220
unseqResources	-6221
▁Configuration	-6222
▁FilePathUtils	-6223
▁IllegalAccess	-6224
▁SeriesRawData	-6225
▁executeUpdate	-6226
▁prevPartition	-6227
▁unseqSelected	-6228
AggregationPlan	-6229
ProtocolVersion	-6230
cachedBatchData	-6231
getEncodingType	-6232
revokePrivilege	-6233
▁timeLowerBound	-6234
ModificationFile	-6235
deleteTimeseries	-6236
▁getStorageGroup	-6237
▁initializeStats	-6238
▁metadataQuerier	-6239
▁registerManager	-6240
".	-6241
.2	-6242
2[	-6243
93	-6244
CJ	-6245
EY	-6246
IM	-6247
LS	-6248
MO	-6249
Na	-6250
do	-6251
eg	-6252
lr	-6253
mq	-6254
my	-6255
▁O	-6256
109	-6257
134	-6258
20,	-6259
5);	-6260
500	-6261
522	-6262
CEI	-6263
Epo	-6264
FET	-6265
ITY	-6266
JMX	-6267
_2,	-6268
abc	-6269
ais	-6270
gra	-6271
now	-6272
ody	-6273
ous	-6274
squ	-6275
tml	-6276
uid	-6277
▁">	-6278
▁Cl	-6279
▁Or	-6280
(11,	-6281
7)",	-6282
Blob	-6283
CONF	-6284
Copy	-6285
GGRE	-6286
HELP	-6287
LAST	-6288
Mqtt	-6289
RITE	-6290
SING	-6291
cket	-6292
emon	-6293
fana	-6294
hort	-6295
sist	-6296
tems	-6297
vInt	-6298
▁"5,	-6299
▁5);	-6300
▁PLA	-6301
▁cal	-6302
(10);	-6303
(101,	-6304
Admin	-6305
BATCH	-6306
Epoch	-6307
FETCH	-6308
GGREG	-6309
ISTIC	-6310
Plans	-6311
Quote	-6312
TsNum	-6313
antlr	-6314
squid	-6315
toUri	-6316
▁anal	-6317
▁html	-6318
▁must	-6319
▁only	-6320
▁rows	-6321
▁stmt	-6322
▁vBox	-6323
(100);	-6324
CEIVER	-6325
Detect	-6326
FSType	-6327
Retain	-6328
Signal	-6329
Unsafe	-6330
second	-6331
▁DELTA	-6332
▁embed	-6333
▁table	-6334
▁union	-6335
900000,	-6336
FreqSec	-6337
IndexOf	-6338
MaxTime	-6339
Satisfy	-6340
correct	-6341
grafana	-6342
options	-6343
reverse	-6344
▁0.01);	-6345
▁active	-6346
▁bitLen	-6347
AuthPlan	-6348
InfoList	-6349
TimeCost	-6350
Timeroot	-6351
getTotal	-6352
getUnseq	-6353
rollPane	-6354
▁Runtime	-6355
▁closing	-6356
▁oldFile	-6357
▁pattern	-6358
▁syncLog	-6359
▁timeOut	-6360
FilePaths	-6361
LeftValue	-6362
NextLevel	-6363
STATISTIC	-6364
andFilter	-6365
byteCache	-6366
calculate	-6367
getMethod	-6368
getSgName	-6369
getTsFile	-6370
writeLong	-6371
▁Datetime	-6372
▁LoadType	-6373
▁planList	-6374
▁strategy	-6375
Compressed	-6376
FileSystem	-6377
NodePathIn	-6378
RightValue	-6379
ToIndexMap	-6380
Unsequence	-6381
checkLogin	-6382
management	-6383
timeBuffer	-6384
▁Execution	-6385
▁logReader	-6386
▁readShort	-6387
▁resultMap	-6388
▁secretKey	-6389
▁transient	-6390
▁unpackAll	-6391
AlignByTime	-6392
QueryFilter	-6393
RequiredArg	-6394
getTimeZone	-6395
mentFactory	-6396
valueBuffer	-6397
▁beforePair	-6398
▁fileFilter	-6399
▁maxVersion	-6400
▁rightChild	-6401
ConfigAdjust	-6402
PlanExecutor	-6403
▁JOptionPane	-6404
▁bloomFilter	-6405
▁filterPaths	-6406
▁getMetadata	-6407
▁partitionId	-6408
▁rowTypeInfo	-6409
▁testRegular	-6410
▁tmpFilePath	-6411
DetectFreqSec	-6412
FillQueryPlan	-6413
JDBCResultSet	-6414
ManagerHelper	-6415
PrintRowCount	-6416
configuration	-6417
deviceToIndex	-6418
getConcurrent	-6419
getHistorical	-6420
modifications	-6421
▁PlainDecoder	-6422
▁SyncReceiver	-6423
▁physicalPlan	-6424
(1480562618970	-6425
AggregateReader	-6426
ChunkMergePoint	-6427
groupSizeInByte	-6428
▁"946684800000,	-6429
▁IoTDBException	-6430
▁flushQueryLock	-6431
▁startTimestamp	-6432
▁OpenFileNumUtil	-6433
▁concurrentMerge	-6434
▁mergeFileWriter	-6435
▁upgradeResource	-6436
07	-6437
1>	-6438
48	-6439
FA	-6440
Hi	-6441
PR	-6442
YX	-6443
_7	-6444
(()	-6445
1')	-6446
347	-6447
44.	-6448
999	-6449
:",	-6450
>()	-6451
LCJ	-6452
Nan	-6453
Now	-6454
XML	-6455
\"\	-6456
\\/	-6457
fin	-6458
ift	-6459
pha	-6460
rop	-6461
run	-6462
▁4)	-6463
▁AD	-6464
▁OS	-6465
▁Se	-6466
▁pw	-6467
++);	-6468
01",	-6469
AMET	-6470
Body	-6471
Clob	-6472
EXCE	-6473
ILLA	-6474
Into	-6475
OpIn	-6476
PACK	-6477
Tail	-6478
core	-6479
estr	-6480
fast	-6481
getJ	-6482
loor	-6483
ummy	-6484
▁"12	-6485
▁1))	-6486
▁LRU	-6487
▁box	-6488
(1.34	-6489
(2000	-6490
,100,	-6491
0,99,	-6492
2.22,	-6493
71522	-6494
80)",	-6495
ALTER	-6496
Clazz	-6497
ITION	-6498
Pivot	-6499
Saved	-6500
dency	-6501
given	-6502
level	-6503
teger	-6504
urned	-6505
width	-6506
xffff	-6507
▁-1);	-6508
...");	-6509
10000,	-6510
1\")",	-6511
AMETER	-6512
NoTime	-6513
ORILLA	-6514
OneRow	-6515
Padded	-6516
Runner	-6517
Sevice	-6518
Snappy	-6519
charAt	-6520
ignore	-6521
setDfs	-6522
toPath	-6523
▁"0,10	-6524
▁depen	-6525
0000,\"	-6526
Cancell	-6527
PROFILE	-6528
Percent	-6529
Threads	-6530
setUser	-6531
timestr	-6532
▁1.0));	-6533
▁Select	-6534
▁engine	-6535
▁exists	-6536
▁method	-6537
▁putInt	-6538
▁unsafe	-6539
01:00:00	-6540
71522347	-6541
AndChild	-6542
Category	-6543
LeafNode	-6544
ListRole	-6545
OfPoints	-6546
PaddedOn	-6547
RECEIVER	-6548
endTimes	-6549
▁100000;	-6550
▁2017-11	-6551
▁IOUtils	-6552
▁Message	-6553
▁Options	-6554
▁integer	-6555
▁keyword	-6556
▁loadLog	-6557
▁merging	-6558
▁putLong	-6559
▁setTime	-6560
▁started	-6561
▁tsfiles	-6562
(1,101)",	-6563
FileMerge	-6564
FilesName	-6565
FilterMap	-6566
FlushTime	-6567
FreeChart	-6568
Operators	-6569
PARAMETER	-6570
SessionId	-6571
TestUtils	-6572
Transport	-6573
WATERMARK	-6574
WalFolder	-6575
valFilter	-6576
▁ShowPlan	-6577
▁checkSum	-6578
▁getTotal	-6579
▁kerberos	-6580
▁putFloat	-6581
▁rleCount	-6582
DeleteData	-6583
OffsetList	-6584
SessionReq	-6585
TTransport	-6586
TimeValues	-6587
fileFolder	-6588
specialCmd	-6589
▁FixLength	-6590
▁IoTDBSink	-6591
▁getNoTime	-6592
▁transport	-6593
(2000-01-01	-6594
DoubleValue	-6595
FolderIndex	-6596
columnNames	-6597
dataDirList	-6598
▁LongTVList	-6599
▁dependency	-6600
▁putBoolean	-6601
▁senderName	-6602
▁setDefault	-6603
▁singlePath	-6604
▁startTimes	-6605
▁statusList	-6606
BitPackedNum	-6607
FilePathsMap	-6608
LittleEndian	-6609
NotSupported	-6610
ReferenceMap	-6611
ValueByIndex	-6612
getPartition	-6613
singleSeries	-6614
▁StatMonitor	-6615
▁currentFile	-6616
▁dataDirList	-6617
▁mapWritable	-6618
▁nextWithout	-6619
▁writeUnlock	-6620
BorderFactory	-6621
MetadataCache	-6622
PathOptimizer	-6623
ThreadFactory	-6624
WriteTimeCost	-6625
chunkMetadata	-6626
storageGroups	-6627
timeRangeList	-6628
▁"127.0.0.1",	-6629
▁LongWritable	-6630
▁addChildOpIn	-6631
▁fileMetaData	-6632
▁getStartTime	-6633
▁processorMap	-6634
▁senderLogger	-6635
MeasurementsIn	-6636
TSInsertTablet	-6637
UpgradeFileNum	-6638
▁DatetimeUtils	-6639
▁InternalMNode	-6640
(1509465600000,	-6641
08:00:00+08:00,	-6642
AggregationType	-6643
DeviceMetadataV	-6644
MultiTimeseries	-6645
iveRecordReader	-6646
ChunkGroupFooter	-6647
PaddedOnBitWidth	-6648
RecoverPerformer	-6649
TextModification	-6650
ThreadPoolServer	-6651
executeStatement	-6652
▁AggregationType	-6653
▁FileLoaderUtils	-6654
▁StringDataPoint	-6655
AS	-6656
Ij	-6657
Nz	-6658
OL	-6659
VM	-6660
,'%	-6661
0,'	-6662
1.4	-6663
2')	-6664
3')	-6665
Are	-6666
Csv	-6667
IGN	-6668
LSB	-6669
MIT	-6670
Njb	-6671
PAC	-6672
SSS	-6673
YST	-6674
_2.	-6675
act	-6676
buf	-6677
dog	-6678
lat	-6679
ply	-6680
tiv	-6681
▁as	-6682
▁ms	-6683
(101	-6684
(5);	-6685
0"))	-6686
1"))	-6687
1,1,	-6688
2"};	-6689
3"),	-6690
CONN	-6691
MQTT	-6692
OrId	-6693
PART	-6694
TERN	-6695
[3],	-6696
[4],	-6697
anti	-6698
boot	-6699
ding	-6700
inds	-6701
meta	-6702
sqlS	-6703
uler	-6704
▁1).	-6705
▁200	-6706
▁DNF	-6707
▁Run	-6708
▁Wal	-6709
▁tbl	-6710
(100.	-6711
(104,	-6712
ALIGN	-6713
BoolV	-6714
EXIST	-6715
Moved	-6716
Templ	-6717
YSTEM	-6718
aaaaa	-6719
bbbbb	-6720
ccccc	-6721
ender	-6722
ether	-6723
fTest	-6724
sects	-6725
stamp	-6726
where	-6727
▁"50,	-6728
▁"70,	-6729
▁0:13	-6730
▁100,	-6731
▁Line	-6732
▁SHOW	-6733
▁heap	-6734
▁keys	-6735
▁sqlS	-6736
55555,	-6737
ATTERN	-6738
Daemon	-6739
ECTION	-6740
InJson	-6741
PACITY	-6742
Slimit	-6743
Switch	-6744
actual	-6745
atched	-6746
cketmq	-6747
dNames	-6748
getTag	-6749
isNull	-6750
omeDir	-6751
setInt	-6752
stanti	-6753
temppw	-6754
verted	-6755
▁"106,	-6756
▁"1514	-6757
▁"2019	-6758
▁20000	-6759
▁Alter	-6760
▁Print	-6761
▁basic	-6762
▁items	-6763
▁lists	-6764
▁mbean	-6765
Convert	-6766
Initial	-6767
MONITOR	-6768
SeqRead	-6769
WithOne	-6770
Writing	-6771
addHead	-6772
dentity	-6773
nodeReg	-6774
pattern	-6775
rWriter	-6776
▁100");	-6777
▁Result	-6778
▁clause	-6779
▁getOne	-6780
(1000000	-6781
ByteSize	-6782
DURATION	-6783
Inserted	-6784
Nullable	-6785
Selector	-6786
Unmerged	-6787
bitWidth	-6788
cheduler	-6789
getLongV	-6790
rocketmq	-6791
snapshot	-6792
▁9000");	-6793
▁EnumMap	-6794
▁getLast	-6795
▁getNode	-6796
▁soffset	-6797
▁strings	-6798
▁tagsMap	-6799
▁whether	-6800
▁writeTo	-6801
(2,198)",	-6802
AndSorted	-6803
OneSeries	-6804
PointsNum	-6805
Templates	-6806
ToBeMoved	-6807
getSender	-6808
putRecord	-6809
setClosed	-6810
unseqFile	-6811
▁HDFSFile	-6812
▁Runnable	-6813
▁deviceID	-6814
▁getError	-6815
▁intValue	-6816
▁pageSize	-6817
▁valueIdx	-6818
CONNECTION	-6819
CachedLast	-6820
LinkedList	-6821
MemoryCost	-6822
ObjectSize	-6823
TestHelper	-6824
asyncClose	-6825
senderName	-6826
setBoolean	-6827
sourceName	-6828
startTimes	-6829
▁2017-11-1	-6830
▁MergeFile	-6831
▁cacheLock	-6832
▁configure	-6833
▁converter	-6834
▁getColumn	-6835
▁longValue	-6836
▁ptWritten	-6837
▁sensorNum	-6838
▁totalSize	-6839
(1480562618	-6840
ArrayLength	-6841
ForceAppend	-6842
SeqReadCost	-6843
SessionPool	-6844
Termination	-6845
ToBytesWith	-6846
WithoutStar	-6847
allowSizeOf	-6848
▁EndianType	-6849
▁RleDecoder	-6850
▁WalChecker	-6851
▁floatValue	-6852
▁getEndTime	-6853
▁poolServer	-6854
▁proportion	-6855
▁targetFile	-6856
▁testLength	-6857
LeftInBuffer	-6858
NumWhiteList	-6859
PreviousFill	-6860
TextEncoding	-6861
URLException	-6862
getLeftClose	-6863
getSystemDir	-6864
wrapAsStream	-6865
▁memTableMap	-6866
▁sqlArgument	-6867
▁userManager	-6868
MaxPointValue	-6869
SatisfiedPage	-6870
getRightClose	-6871
inputDataFile	-6872
logNodePrefix	-6873
▁bitmapBuffer	-6874
▁memTableSize	-6875
FloatDataPoint	-6876
SignalMemTable	-6877
filterOperator	-6878
getColumnLabel	-6879
handleInputCmd	-6880
measurementIds	-6881
▁IUnCompressor	-6882
▁assertFileMap	-6883
▁fillQueryPlan	-6884
▁updateMinTime	-6885
FailedException	-6886
MetadataQuerier	-6887
ShowContentType	-6888
TSFileStorageFs	-6889
▁MaxSeriesMerge	-6890
▁MergeException	-6891
▁getSeriesTypes	-6892
▁seriesNumberIn	-6893
ActiveTimeSeries	-6894
MissingPointData	-6895
getChunkMetaData	-6896
getMetadataIndex	-6897
magicStringBytes	-6898
vokeRoleFromUser	-6899
▁GroupByFillPlan	-6900
▁deletedFilesMap	-6901
▁toBeSyncedFiles	-6902
';	-6903
36	-6904
73	-6905
98	-6906
DA	-6907
ZX	-6908
ah	-6909
ee	-6910
hY	-6911
!",	-6912
,10	-6913
0,\	-6914
21,	-6915
25.	-6916
6,\	-6917
7,2	-6918
760	-6919
BIT	-6920
DER	-6921
FLO	-6922
GET	-6923
Gui	-6924
ITE	-6925
MIL	-6926
ORY	-6927
OWN	-6928
REF	-6929
Rad	-6930
WID	-6931
car	-6932
gui	-6933
ide	-6934
igh	-6935
ioX	-6936
ram	-6937
try	-6938
▁SU	-6939
▁ix	-6940
)").	-6941
0.1,	-6942
1();	-6943
50);	-6944
DELE	-6945
Diff	-6946
GEST	-6947
Save	-6948
_2);	-6949
cies	-6950
hing	-6951
iLCJ	-6952
link	-6953
ving	-6954
▁"."	-6955
▁101	-6956
▁1].	-6957
▁Sql	-6958
▁URL	-6959
▁gre	-6960
▁non	-6961
,000)	-6962
11)",	-6963
MILLI	-6964
SetSG	-6965
VICES	-6966
WIDTH	-6967
WRITE	-6968
ahale	-6969
alter	-6970
aries	-6971
aring	-6972
jfree	-6973
multi	-6974
notEq	-6975
▁"0,1	-6976
▁"]";	-6977
▁seed	-6978
(102,1	-6979
(105,1	-6980
104)",	-6981
105)",	-6982
Encode	-6983
FLODER	-6984
Locate	-6985
NoSuch	-6986
RadioX	-6987
RoleTo	-6988
Search	-6989
Titled	-6990
UPDATE	-6991
arFill	-6992
getPos	-6993
getRpc	-6994
itions	-6995
lation	-6996
notify	-6997
ollect	-6998
oubles	-6999
▁1000_	-7000
▁1024,	-7001
▁FLUSH	-7002
▁VALUE	-7003
▁alpha	-7004
▁dates	-7005
▁depth	-7006
▁kafka	-7007
0,1000.	-7008
1.2,20,	-7009
Catalog	-7010
Checked	-7011
CostMap	-7012
Matcher	-7013
PATTERN	-7014
Publish	-7015
Segment	-7016
columns	-7017
inaries	-7018
moveNot	-7019
regular	-7020
schemas	-7021
valueEq	-7022
▁FSType	-7023
▁bpList	-7024
▁charts	-7025
▁isLast	-7026
▁maxVal	-7027
▁setMax	-7028
▁testOn	-7029
55555)",	-7030
DataList	-7031
DataSize	-7032
FileInfo	-7033
FullPath	-7034
HeadInfo	-7035
ListUser	-7036
Register	-7037
StartPos	-7038
addBatch	-7039
codahale	-7040
mManager	-7041
security	-7042
▁Pattern	-7043
▁allowed	-7044
▁collect	-7045
▁hashMap	-7046
▁newArgs	-7047
▁sensors	-7048
ArraysMap	-7049
Authority	-7050
CacheSize	-7051
ClientNum	-7052
Latencies	-7053
MetaDataV	-7054
NewTsFile	-7055
PARTITION	-7056
PageCheck	-7057
QueryTime	-7058
Reentrant	-7059
StopLatch	-7060
TailMagic	-7061
getBinary	-7062
getOption	-7063
insertSQL	-7064
longValue	-7065
oldTsFile	-7066
timeValue	-7067
transform	-7068
▁14001234	-7069
▁Writable	-7070
▁allocate	-7071
▁fileSize	-7072
▁provider	-7073
▁selectOp	-7074
(150946566	-7075
(150946572	-7076
BufferSize	-7077
ClientInfo	-7078
RequestNum	-7079
StartFlush	-7080
TimeRanges	-7081
ValidFiles	-7082
getRemains	-7083
intersects	-7084
parameters	-7085
setFolders	-7086
suffixPath	-7087
tinueMerge	-7088
▁QueryPlan	-7089
▁RemoveNot	-7090
▁TSFHadoop	-7091
▁ipAddress	-7092
▁lastPoint	-7093
▁leftChild	-7094
▁mbeanName	-7095
▁nodeStack	-7096
▁reconnect	-7097
▁rowOffset	-7098
▁standards	-7099
▁testParse	-7100
ArrayEquals	-7101
ClearPeriod	-7102
Constructor	-7103
Description	-7104
FieldOffset	-7105
RowTypeInfo	-7106
ServiceType	-7107
StringQuote	-7108
addOrDelete	-7109
chunkLoader	-7110
containsAll	-7111
deviceOwner	-7112
getUnmerged	-7113
showMessage	-7114
▁Invocation	-7115
▁afterRange	-7116
▁checkSetSG	-7117
▁getDefault	-7118
▁longValues	-7119
▁parameters	-7120
▁readHeader	-7121
▁readString	-7122
▁restorable	-7123
FileInfoPath	-7124
FlushManager	-7125
LocateStatus	-7126
MergeManager	-7127
NumberFormat	-7128
ResourceFile	-7129
TitledBorder	-7130
ToBeInserted	-7131
aggregations	-7132
bytesToFloat	-7133
deduplicated	-7134
rawDataQuery	-7135
timeInterval	-7136
▁CommandLine	-7137
▁IAuthorizer	-7138
▁IoTDBResult	-7139
▁classLoader	-7140
▁currVersion	-7141
▁currentSize	-7142
▁floatValues	-7143
▁getBuffered	-7144
▁newCapacity	-7145
▁regularData	-7146
▁tsDataTypes	-7147
▁writeHeader	-7148
FileReaderMap	-7149
FloatEncoding	-7150
HelpFormatter	-7151
MissingPoints	-7152
PayloadFormat	-7153
QueryConstant	-7154
TSFInputSplit	-7155
doubleToBytes	-7156
getUnseqFiles	-7157
insertRecords	-7158
sInChunkGroup	-7159
validChunkNum	-7160
▁JFileChooser	-7161
▁binaryValues	-7162
▁currentCount	-7163
▁deviceIdList	-7164
▁doubleValues	-7165
▁encodingType	-7166
(1000,55555)",	-7167
AttemptContext	-7168
ChunkMetadataV	-7169
DataListByType	-7170
DoubleEncoding	-7171
UnSequenceFile	-7172
awQueryDataSet	-7173
closeOperation	-7174
getOptionValue	-7175
parameterIndex	-7176
roundWithGiven	-7177
▁BitmapDecoder	-7178
▁IntRleDecoder	-7179
▁PathException	-7180
▁ServerService	-7181
▁attributesMap	-7182
▁lastLocalFile	-7183
▁maxPointValue	-7184
▁mergeResource	-7185
BooleanEncoding	-7186
DisplayInterval	-7187
GroupByFillPlan	-7188
setMeasurements	-7189
▁SelectOperator	-7190
▁getErrorResult	-7191
▁getSerializeId	-7192
▁primitiveSizes	-7193
▁selectOperator	-7194
▁testQueryFloat	-7195
▁timeValuePairs	-7196
OpenIdAuthorizer	-7197
WatermarkEncoder	-7198
addChildOperator	-7199
getPrivilegeList	-7200
ializationSchema	-7201
▁AggregationPlan	-7202
▁BasicAuthorizer	-7203
▁ChunkWriterImpl	-7204
▁OperationResult	-7205
▁firstTimeSeries	-7206
▁maxStringLength	-7207
▁openFileNumUtil	-7208
76	-7209
:%	-7210
GB	-7211
HH	-7212
MB	-7213
PU	-7214
SA	-7215
UI	-7216
ZW	-7217
ZZ	-7218
_9	-7219
bp	-7220
df	-7221
lv	-7222
nf	-7223
sZ	-7224
sc	-7225
').	-7226
0.5	-7227
2,\	-7228
2.7	-7229
201	-7230
3";	-7231
4);	-7232
689	-7233
ADD	-7234
ALI	-7235
Gau	-7236
KEY	-7237
Lay	-7238
NaN	-7239
Nlc	-7240
Put	-7241
Web	-7242
_2)	-7243
aba	-7244
ang	-7245
csv	-7246
ful	-7247
ged	-7248
gle	-7249
htt	-7250
ike	-7251
irm	-7252
lsb	-7253
▁"(	-7254
▁")	-7255
▁(8	-7256
▁);	-7257
▁17	-7258
▁19	-7259
▁7)	-7260
▁CH	-7261
▁NO	-7262
▁PO	-7263
▁Wr	-7264
"});	-7265
("-"	-7266
(3);	-7267
0100	-7268
1,",	-7269
ANew	-7270
Extr	-7271
HOME	-7272
Self	-7273
UUID	-7274
]");	-7275
alib	-7276
arge	-7277
capt	-7278
mmit	-7279
osen	-7280
ript	-7281
setS	-7282
ting	-7283
vals	-7284
▁"19	-7285
▁":"	-7286
▁(((	-7287
▁500	-7288
▁ALL	-7289
▁ONE	-7290
▁]",	-7291
▁iot	-7292
(10,1	-7293
(102,	-7294
5,33.	-7295
99,10	-7296
DELTA	-7297
Datas	-7298
Defin	-7299
Embed	-7300
Floor	-7301
MMAND	-7302
Power	-7303
Retry	-7304
TABLE	-7305
addTo	-7306
cycle	-7307
final	-7308
ility	-7309
illse	-7310
oTSer	-7311
pened	-7312
rease	-7313
vLong	-7314
▁"");	-7315
▁"42,	-7316
▁21);	-7317
▁24);	-7318
▁31);	-7319
▁40);	-7320
▁500;	-7321
▁DROP	-7322
▁Hash	-7323
▁LEAF	-7324
▁exit	-7325
▁free	-7326
▁same	-7327
▁writ	-7328
(0)));	-7329
6667",	-7330
DIGEST	-7331
Groups	-7332
Handle	-7333
HitNum	-7334
Layout	-7335
Merged	-7336
Sealed	-7337
Worker	-7338
failed	-7339
getMod	-7340
google	-7341
hybrid	-7342
isFile	-7343
porter	-7344
tvPair	-7345
uTimes	-7346
▁Utils	-7347
▁login	-7348
▁roles	-7349
,11,22,	-7350
AndRead	-7351
Between	-7352
CHARSET	-7353
Indexes	-7354
ItemMax	-7355
TreeMap	-7356
UPGRADE	-7357
alibaba	-7358
bedPane	-7359
capture	-7360
getHdfs	-7361
groupby	-7362
locator	-7363
matched	-7364
timeRet	-7365
▁Method	-7366
▁chunks	-7367
▁claims	-7368
▁digits	-7369
▁export	-7370
▁noMore	-7371
▁origin	-7372
▁pathSc	-7373
▁runMay	-7374
▁synced	-7375
▁zoneID	-7376
ANewPage	-7377
CAPACITY	-7378
ExtrNode	-7379
FromRole	-7380
Instanti	-7381
RoleName	-7382
SyncFile	-7383
WithSelf	-7384
argument	-7385
endQuery	-7386
fastjson	-7387
fileName	-7388
forClass	-7389
isSingle	-7390
perating	-7391
poolName	-7392
producer	-7393
▁PathNot	-7394
▁SUCCESS	-7395
▁TreeMap	-7396
▁command	-7397
▁pathIdx	-7398
▁readLen	-7399
▁remains	-7400
ALIGNMENT	-7401
Embedding	-7402
ErrorRate	-7403
HeadMagic	-7404
LengthAnd	-7405
LogParser	-7406
MathUtils	-7407
NotFilter	-7408
ShowQuery	-7409
comparing	-7410
printHelp	-7411
setBorder	-7412
setValues	-7413
systemDir	-7414
vmFeature	-7415
▁TsDevice	-7416
▁TypeInfo	-7417
▁modified	-7418
▁optimize	-7419
▁protocol	-7420
▁queryDir	-7421
▁showPlan	-7422
▁tagsList	-7423
▁userList	-7424
AndMayOpen	-7425
AuthorPlan	-7426
BitPackRun	-7427
FileStatus	-7428
Identifier	-7429
LoopPeriod	-7430
STATISTICS	-7431
ServerPort	-7432
Successful	-7433
TimeMillis	-7434
deletePlan	-7435
deleteRole	-7436
deleteUser	-7437
fileWriter	-7438
getModFile	-7439
getSchemas	-7440
▁HDFSInput	-7441
▁className	-7442
▁closeFile	-7443
▁getObject	-7444
▁maxMemory	-7445
▁pivotTime	-7446
▁systemDir	-7447
▁threshold	-7448
ActionEvent	-7449
AverageSize	-7450
BetweenDate	-7451
Consumption	-7452
CurrentFile	-7453
FlushThread	-7454
GroupByFill	-7455
IPageReader	-7456
ItemMaxSize	-7457
ListsByType	-7458
MemTableNum	-7459
Watermarked	-7460
bloomFilter	-7461
getRoleList	-7462
isEnableWal	-7463
newCapacity	-7464
shutdownNow	-7465
▁LongPacker	-7466
▁MergeUtils	-7467
▁PageReader	-7468
▁authorType	-7469
▁calcuTimes	-7470
▁deleteTime	-7471
▁getRemains	-7472
▁headerList	-7473
▁insertTime	-7474
▁pageReader	-7475
▁testDelete	-7476
▁threadName	-7477
AndAttribute	-7478
CoreSitePath	-7479
DeltaEncoder	-7480
IndexMapping	-7481
MILLISECONDS	-7482
OperationReq	-7483
SystemMXBean	-7484
booleanStats	-7485
curStartTime	-7486
edTimeseries	-7487
floatToBytes	-7488
getDeletedAt	-7489
getPrimitive	-7490
getWatermark	-7491
▁ICompressor	-7492
▁PrintWriter	-7493
▁RowTypeInfo	-7494
▁SFWOperator	-7495
▁TsFileWrite	-7496
▁cacheHitNum	-7497
▁roleManager	-7498
▁runMayThrow	-7499
▁tempRestore	-7500
▁unseqReader	-7501
▁valueOffset	-7502
LongDataPoint	-7503
NumOfSyncFile	-7504
propertyValue	-7505
setHistorical	-7506
▁curStartTime	-7507
▁executeQuery	-7508
▁outputFormat	-7509
▁statisticMap	-7510
FloorThreshold	-7511
TimeAggrResult	-7512
registerDevice	-7513
▁ReadWriteLock	-7514
▁checkPageSize	-7515
▁deltaObjectId	-7516
▁deviceToIndex	-7517
▁latestTimeFor	-7518
▁mergeChunkSub	-7519
▁resTimeRanges	-7520
▁serviceClient	-7521
ForIPointReader	-7522
LatestFlushTime	-7523
StatisticsValue	-7524
StreamExecution	-7525
UsingTimestamps	-7526
aggregateResult	-7527
▁LongStatistics	-7528
▁ShowTimeSeries	-7529
▁aimedTimestamp	-7530
▁dfsHaNamenodes	-7531
▁hasNextWithout	-7532
▁mergedChunkNum	-7533
▁statisticArray	-7534
▁strBufferLocal	-7535
OpenFileNumAfter	-7536
TimeseriesExists	-7537
columnOrdinalMap	-7538
imalSeriesNumber	-7539
▁ArrayIndexOutOf	-7540
▁alignObjectSize	-7541
▁checkConnection	-7542
▁columnNameIndex	-7543
▁constructorWith	-7544
▁ignoreTimeStamp	-7545
▁maxSeriesNumber	-7546
▁unSeqTimeSeries	-7547
.0	-7548
06	-7549
1<	-7550
5)	-7551
91	-7552
>(	-7553
Ar	-7554
My	-7555
Mz	-7556
UX	-7557
Vh	-7558
_4	-7559
_5	-7560
_6	-7561
aj	-7562
ao	-7563
ds	-7564
he	-7565
kw	-7566
ns	-7567
pb	-7568
vc	-7569
{"	-7570
▁\	-7571
('.	-7572
3,\	-7573
4,\	-7574
7,\	-7575
===	-7576
Arr	-7577
DES	-7578
GUL	-7579
HIC	-7580
MIC	-7581
RAM	-7582
ash	-7583
bWF	-7584
cCI	-7585
err	-7586
mal	-7587
saW	-7588
tsF	-7589
txt	-7590
uct	-7591
xxx	-7592
▁"+	-7593
▁3)	-7594
▁60	-7595
▁7.	-7596
▁CA	-7597
▁PA	-7598
(4);	-7599
99",	-7600
:00:	-7601
CENT	-7602
CTOR	-7603
Calc	-7604
DROP	-7605
ForV	-7606
Func	-7607
INUX	-7608
MANA	-7609
Poss	-7610
Unix	-7611
WARE	-7612
[2];	-7613
])";	-7614
card	-7615
ines	-7616
ipse	-7617
newV	-7618
ning	-7619
ores	-7620
prec	-7621
that	-7622
▁11.	-7623
▁Box	-7624
▁cre	-7625
▁fos	-7626
▁hiT	-7627
▁hiV	-7628
▁loT	-7629
▁loV	-7630
())).	-7631
(200,	-7632
1.11,	-7633
123);	-7634
4"));	-7635
6"));	-7636
7.689	-7637
99.9,	-7638
Annot	-7639
CHILD	-7640
CONST	-7641
ERNAL	-7642
FIXED	-7643
GULAR	-7644
HICLE	-7645
LIMIT	-7646
Order	-7647
PRECI	-7648
Param	-7649
There	-7650
ToInt	-7651
UCKET	-7652
Wrong	-7653
YWNjb	-7654
[][])	-7655
[]{"-	-7656
_1"),	-7657
local	-7658
maven	-7659
nding	-7660
rency	-7661
▁""),	-7662
▁"80,	-7663
▁Byte	-7664
▁MQTT	-7665
▁Read	-7666
▁back	-7667
▁ints	-7668
▁jdbc	-7669
▁like	-7670
▁meet	-7671
▁part	-7672
▁srcT	-7673
▁srcV	-7674
106)",	-7675
AsPoss	-7676
BitsTo	-7677
DataIn	-7678
Deprec	-7679
Detail	-7680
Manage	-7681
PROPER	-7682
READER	-7683
Reboot	-7684
RowNum	-7685
atible	-7686
ations	-7687
author	-7688
estart	-7689
etwork	-7690
latile	-7691
origin	-7692
parser	-7693
player	-7694
recogn	-7695
rename	-7696
schedu	-7697
▁2000;	-7698
▁50000	-7699
▁Block	-7700
▁ERROR	-7701
▁Kafka	-7702
▁PLAIN	-7703
▁canbe	-7704
▁detec	-7705
▁getTS	-7706
▁local	-7707
▁reuse	-7708
▁stack	-7709
▁state	-7710
▁tryTo	-7711
▁{}.",	-7712
15:13:2	-7713
780000,	-7714
960000,	-7715
ARDWARE	-7716
BaseDir	-7717
DELETED	-7718
InGiven	-7719
PlotTab	-7720
VEHICLE	-7721
Windows	-7722
actions	-7723
charset	-7724
counter	-7725
dataTTL	-7726
getSync	-7727
getTags	-7728
perTest	-7729
setHdfs	-7730
▁groups	-7731
▁handle	-7732
0000,20.	-7733
5,0,0.0,	-7734
5,33.5",	-7735
InSecond	-7736
NodeWith	-7737
NumberOf	-7738
ShowPlan	-7739
WithTime	-7740
canWrite	-7741
getCount	-7742
instance	-7743
lruCache	-7744
nextLong	-7745
readOnly	-7746
schedule	-7747
tagIndex	-7748
unmerged	-7749
▁15:13:2	-7750
▁baseDir	-7751
▁listAll	-7752
▁matcher	-7753
▁timestr	-7754
0,99,199,	-7755
99,199,",	-7756
Allocator	-7757
AuthUtils	-7758
Corrupted	-7759
Implement	-7760
LoadFiles	-7761
PRECISION	-7762
Scheduler	-7763
SyncUtils	-7764
UnseqFile	-7765
generated	-7766
getHeader	-7767
lineCount	-7768
longStats	-7769
setDouble	-7770
setStatus	-7771
timeBytes	-7772
valueList	-7773
valuesStr	-7774
▁123123);	-7775
▁Database	-7776
▁FlushSub	-7777
▁INTERNAL	-7778
▁Internal	-7779
▁LogLevel	-7780
▁arrayIdx	-7781
▁binaryOp	-7782
▁openResp	-7783
▁pathname	-7784
▁volatile	-7785
▁waitTime	-7786
(150946584	-7787
(150946602	-7788
(150946608	-7789
(150946614	-7790
0,99,199,1	-7791
AsPossible	-7792
AtomicLong	-7793
ChunkIndex	-7794
Deprecated	-7795
EndOffsets	-7796
Proportion	-7797
RoleToUser	-7798
SchemaList	-7799
SuffixPath	-7800
TaskRunner	-7801
TotalCount	-7802
TsFilePath	-7803
createUser	-7804
getCurrent	-7805
parseFloat	-7806
prevRanges	-7807
soleReader	-7808
▁Constants	-7809
▁Exclusive	-7810
▁LogWriter	-7811
▁Watermark	-7812
▁ansString	-7813
▁chunkMeta	-7814
▁compareTo	-7815
▁deviceSet	-7816
▁getResult	-7817
▁hybridNum	-7818
▁putString	-7819
▁readFloat	-7820
▁rowsIndex	-7821
▁setEnable	-7822
▁testMerge	-7823
▁timeCount	-7824
ActiveRatio	-7825
AfterReboot	-7826
Annotations	-7827
CurrentPage	-7828
DetailPanel	-7829
MQTTService	-7830
MetricsPort	-7831
NumOfPoints	-7832
TasksNumber	-7833
ToBeDeleted	-7834
UseKerberos	-7835
boolToBytes	-7836
bytesToBool	-7837
edException	-7838
getDataDirs	-7839
getSelected	-7840
rowTypeInfo	-7841
setUserName	-7842
slidingStep	-7843
tokenSymbol	-7844
writeUnlock	-7845
▁AuthorPlan	-7846
▁ChunkCache	-7847
▁FileSystem	-7848
▁RleEncoder	-7849
▁ThreadName	-7850
▁canbeSplit	-7851
▁hybridList	-7852
▁keywordSet	-7853
▁markerRead	-7854
▁pageBuffer	-7855
▁readDouble	-7856
▁resultPair	-7857
▁seqFileNum	-7858
▁testFolder	-7859
▁versionNum	-7860
DataOperator	-7861
DeltaObjects	-7862
FileVersions	-7863
IBatchReader	-7864
InChunkGroup	-7865
InGivenLevel	-7866
IntDataPoint	-7867
MetaDataList	-7868
NodeWithAuto	-7869
PlanCallback	-7870
RoleAccessor	-7871
StartupCheck	-7872
UserAccessor	-7873
generateFile	-7874
getDataTypes	-7875
getSubString	-7876
listAllUsers	-7877
sortedValues	-7878
syncCloseAll	-7879
▁Accountable	-7880
▁MergeLogger	-7881
▁TsFileInput	-7882
▁UnaryFilter	-7883
▁bytesToRead	-7884
▁checkRecord	-7885
▁dataSetList	-7886
▁maxChunkNum	-7887
▁mergeReader	-7888
▁permissions	-7889
▁roleDirPath	-7890
▁testConvert	-7891
▁userDirPath	-7892
FilePathUtils	-7893
FromOldTsFile	-7894
LastQueryPlan	-7895
MetricService	-7896
PrivilegeType	-7897
bytesToDouble	-7898
maxTimeLength	-7899
measurementID	-7900
metadataIndex	-7901
nextReadIndex	-7902
registerMBean	-7903
seqTimeSeries	-7904
▁ConfigAdjust	-7905
▁MaxFileMerge	-7906
▁ShowOperator	-7907
▁TsFileOutput	-7908
▁currentIndex	-7909
▁currentValue	-7910
▁getProcessor	-7911
▁privilegeNum	-7912
▁propertyName	-7913
▁seriesOffset	-7914
▁setLongValue	-7915
▁setTimestamp	-7916
CheckException	-7917
FieldException	-7918
MeasurementIds	-7919
PeriodInSecond	-7920
TSFInputFormat	-7921
columnTypeList	-7922
timestampBytes	-7923
▁GroupByFilter	-7924
▁NoMeasurement	-7925
▁QueryOperator	-7926
▁SingleDataSet	-7927
▁paddedByteNum	-7928
▁producerGroup	-7929
▁queryOperator	-7930
▁regularFilter	-7931
(1509465900000,	-7932
FilterOperators	-7933
IoTDBThreadPool	-7934
RowRecordParser	-7935
getUncompressed	-7936
initializeStats	-7937
parsePrefixPath	-7938
setValueEncoder	-7939
▁MetricRegistry	-7940
▁TSInsertTablet	-7941
▁checkAuthority	-7942
▁columnInfoList	-7943
▁fileWriterList	-7944
▁getMaxByteSize	-7945
▁getRemainsTest	-7946
▁getStringValue	-7947
▁outputTemplate	-7948
▁receiverLogger	-7949
▁sequenceReader	-7950
MonitorConstants	-7951
UserUseWaterMark	-7952
getDoubleByIndex	-7953
isSignalMemTable	-7954
measurementIndex	-7955
▁MeasurementType	-7956
▁OperateFilePlan	-7957
▁SyncFileManager	-7958
▁TypeInformation	-7959
▁WrappedRunnable	-7960
▁cacheRequestNum	-7961
▁fileMetadataPos	-7962
▁serverAddresses	-7963
▁unionCandidates	-7964
1\	-7965
3"	-7966
43	-7967
74	-7968
8.	-7969
8;	-7970
CS	-7971
IF	-7972
JW	-7973
LY	-7974
SK	-7975
Sm	-7976
Ut	-7977
Vz	-7978
ci	-7979
dt	-7980
iA	-7981
iu	-7982
(11	-7983
.";	-7984
.1.	-7985
125	-7986
32;	-7987
4()	-7988
7,'	-7989
>("	-7990
AVA	-7991
Dao	-7992
FIR	-7993
FUN	-7994
ImF	-7995
MSG	-7996
Msg	-7997
OLD	-7998
OST	-7999
RUE	-8000
SEI	-8001
SGs	-8002
Ver	-8003
YNA	-8004
[10	-8005
ape	-8006
cii	-8007
ecl	-8008
ggr	-8009
oin	-8010
sal	-8011
ush	-8012
},\	-8013
▁(;	-8014
▁44	-8015
▁6,	-8016
▁6;	-8017
▁IP	-8018
▁ap	-8019
(12,	-8020
(200	-8021
21",	-8022
40",	-8023
500.	-8024
8601	-8025
:{},	-8026
Drop	-8027
Feat	-8028
Ijoi	-8029
Larg	-8030
Nano	-8031
POOL	-8032
RESH	-8033
Strs	-8034
[0])	-8035
[1],	-8036
airl	-8037
ased	-8038
cost	-8039
illa	-8040
mode	-8041
sink	-8042
site	-8043
used	-8044
▁"\"	-8045
▁"{}	-8046
▁220	-8047
▁25.	-8048
▁4);	-8049
▁del	-8050
▁you	-8051
(300,	-8052
))));	-8053
02");	-8054
8')",	-8055
ADMIN	-8056
ARGET	-8057
Ascii	-8058
CHEMA	-8059
FIRST	-8060
Frame	-8061
LITER	-8062
Milli	-8063
Reach	-8064
Store	-8065
[10];	-8066
[2]);	-8067
chart	-8068
dereg	-8069
ector	-8070
jetty	-8071
login	-8072
odify	-8073
▁100)	-8074
▁1]);	-8075
▁48),	-8076
▁5]);	-8077
▁Args	-8078
▁NULL	-8079
▁Null	-8080
▁char	-8081
▁over	-8082
▁will	-8083
000000	-8084
OrNode	-8085
SEIRES	-8086
THRESH	-8087
YNAMIC	-8088
assign	-8089
crease	-8090
getDfs	-8091
orilla	-8092
repeat	-8093
splits	-8094
univer	-8095
▁Align	-8096
▁begin	-8097
▁mFile	-8098
▁round	-8099
▁setTo	-8100
▁using	-8101
(1024);	-8102
CpuTime	-8103
DEVICES	-8104
Doubles	-8105
ForNext	-8106
LITERAL	-8107
Largest	-8108
MANAGER	-8109
Scanner	-8110
Updated	-8111
Waiting	-8112
airlift	-8113
airline	-8114
content	-8115
display	-8116
eclipse	-8117
edPaths	-8118
endDate	-8119
handler	-8120
matcher	-8121
setLeft	-8122
success	-8123
tsFiles	-8124
walFile	-8125
▁550)",	-8126
▁BitSet	-8127
▁NoSuch	-8128
▁SNAPPY	-8129
▁UPDATE	-8130
▁cancel	-8131
▁minVal	-8132
▁reason	-8133
0,0,0.0,	-8134
AndUnseq	-8135
Binaries	-8136
CostMaps	-8137
Features	-8138
HARDWARE	-8139
INTERVAL	-8140
IndexMap	-8141
LastPair	-8142
MetaSize	-8143
MoveFile	-8144
ToBinary	-8145
ToString	-8146
Unsealed	-8147
buffered	-8148
consumer	-8149
currency	-8150
getStart	-8151
irection	-8152
kerberos	-8153
provider	-8154
setQuery	-8155
tempRoot	-8156
tsStatus	-8157
uplicate	-8158
▁TreeSet	-8159
▁created	-8160
▁curNode	-8161
▁getNext	-8162
▁getSize	-8163
▁removed	-8164
▁setPath	-8165
▁tvPairs	-8166
Alignment	-8167
ChunkTask	-8168
JSONArray	-8169
PROCESSOR	-8170
SecretKey	-8171
THRESHOLD	-8172
TimeArray	-8173
attribute	-8174
construct	-8175
errorFile	-8176
hasOption	-8177
selectSql	-8178
streaming	-8179
typeutils	-8180
universal	-8181
▁RESOURCE	-8182
▁analyzer	-8183
▁callback	-8184
▁dateTime	-8185
▁handlers	-8186
▁headInfo	-8187
▁isSingle	-8188
▁memChunk	-8189
▁planName	-8190
▁progress	-8191
▁setFloat	-8192
▁truncate	-8193
AccessFile	-8194
ActiveTime	-8195
BitmapList	-8196
DataBuffer	-8197
TsfilePath	-8198
deregister	-8199
getDataTTL	-8200
needEncode	-8201
privileges	-8202
setDataTTL	-8203
setManaged	-8204
setVersion	-8205
typeClause	-8206
uncompress	-8207
▁IntPacker	-8208
▁NotFilter	-8209
▁Operation	-8210
▁RowTsFile	-8211
▁anotherTs	-8212
▁calcTimes	-8213
▁deviceMap	-8214
▁errorFile	-8215
▁funcToken	-8216
▁intValues	-8217
▁ipSegment	-8218
▁offsetVar	-8219
▁queryWith	-8220
▁selectAll	-8221
▁testFloat	-8222
▁timeLimit	-8223
▁usernames	-8224
AsciiStream	-8225
FileChannel	-8226
HeaderUtils	-8227
MapWritable	-8228
NumberBytes	-8229
PrintWriter	-8230
QueryRouter	-8231
SeqFileCost	-8232
ShowDevices	-8233
ShowForTest	-8234
TSQueryPlan	-8235
TimeVersion	-8236
VersionFile	-8237
doubleValue	-8238
getFileSize	-8239
getINSTANCE	-8240
lastIndexOf	-8241
reverseList	-8242
userProfile	-8243
valueFilter	-8244
▁HDFSOutput	-8245
▁JFreeChart	-8246
▁TestThread	-8247
▁UpdatePlan	-8248
▁boolValues	-8249
▁dataPoints	-8250
▁innerEntry	-8251
▁readBinary	-8252
▁specialCmd	-8253
▁uncompress	-8254
▁valueCount	-8255
AuthOperator	-8256
DataIterator	-8257
DeltaDecoder	-8258
ForShowQuery	-8259
MemoryBudget	-8260
UserPassword	-8261
executeBatch	-8262
nextPageData	-8263
sequenceList	-8264
setSessionId	-8265
▁HttpServlet	-8266
▁encodeValue	-8267
▁getNumberOf	-8268
▁objectValue	-8269
▁pointReader	-8270
▁prepareFile	-8271
▁respColumns	-8272
▁seriesLimit	-8273
▁setToSorted	-8274
▁tvListCache	-8275
AtomicInteger	-8276
Authenticator	-8277
BitWidthSaved	-8278
FileLogReader	-8279
InsertRecords	-8280
LinkedHashMap	-8281
PartitionInfo	-8282
StatConstants	-8283
assignQueryId	-8284
getValidFiles	-8285
privilegeList	-8286
updateEndTime	-8287
▁MemTablePool	-8288
▁MergeManager	-8289
▁addRowRecord	-8290
▁deserializer	-8291
▁expectedTime	-8292
▁unseqReaders	-8293
BinaryProtocol	-8294
ShowChildPaths	-8295
columnNameList	-8296
getPointReader	-8297
getTimeRangeId	-8298
measurementUid	-8299
▁FillQueryPlan	-8300
▁MetaListEntry	-8301
▁insertRecords	-8302
▁queryExecutor	-8303
LogicalOperator	-8304
SyncFileManager	-8305
firstPageReader	-8306
getAggregations	-8307
getTagAttribute	-8308
groupByFillPlan	-8309
ignoreTimeStamp	-8310
updateStartTime	-8311
▁CacheException	-8312
▁TsFileConstant	-8313
▁createOperator	-8314
▁getMeasurement	-8315
▁isMissingPoint	-8316
▁measurementNum	-8317
▁measurementUid	-8318
▁timeExpression	-8319
▁totalPointsNum	-8320
DatabaseMetadata	-8321
GlobalTimeFilter	-8322
MergeVersionFile	-8323
SyncSenderLogger	-8324
awaitTermination	-8325
compressionRatio	-8326
readOnlyMemChunk	-8327
▁FloatStatistics	-8328
▁TsFileMetadataV	-8329
▁testRegularWith	-8330
▁timestampRadioX	-8331
▁tsFileResources	-8332
-8	-8333
21	-8334
44	-8335
58	-8336
87	-8337
=\	-8338
>:	-8339
HJ	-8340
MT	-8341
NW	-8342
PI	-8343
SC	-8344
[(	-8345
_,	-8346
jE	-8347
lL	-8348
ll	-8349
▁)	-8350
▁;	-8351
(".	-8352
("=	-8353
("{	-8354
(2.	-8355
(20	-8356
,12	-8357
3,3	-8358
6);	-8359
6.5	-8360
722	-8361
8-1	-8362
=9,	-8363
Opt	-8364
Sty	-8365
TAL	-8366
TEQ	-8367
VEL	-8368
]))	-8369
_3,	-8370
bat	-8371
bus	-8372
gex	-8373
gor	-8374
icm	-8375
mer	-8376
nam	-8377
ump	-8378
xml	-8379
yze	-8380
▁64	-8381
▁66	-8382
▁7,	-8383
▁bb	-8384
▁bs	-8385
▁mr	-8386
▁rs	-8387
▁wr	-8388
("19	-8389
(1),	-8390
/");	-8391
02",	-8392
2.1,	-8393
3.1,	-8394
=44.	-8395
Decl	-8396
Exit	-8397
IMUM	-8398
InKB	-8399
Mask	-8400
ONLY	-8401
PPER	-8402
SUCH	-8403
TASK	-8404
TIES	-8405
[1].	-8406
_000	-8407
auge	-8408
demo	-8409
ette	-8410
ffer	-8411
foot	-8412
http	-8413
ithm	-8414
miss	-8415
moqu	-8416
ndar	-8417
ndux	-8418
rash	-8419
real	-8420
ries	-8421
tinu	-8422
uage	-8423
yper	-8424
▁"</	-8425
▁"{\	-8426
▁++;	-8427
▁10)	-8428
▁16;	-8429
▁30,	-8430
▁32;	-8431
▁330	-8432
▁64;	-8433
▁ADD	-8434
▁NOW	-8435
▁SUM	-8436
▁Sys	-8437
▁che	-8438
▁cpu	-8439
▁nan	-8440
▁tsF	-8441
('.')	-8442
(3,10	-8443
(8,10	-8444
00");	-8445
00.4,	-8446
1.0",	-8447
13453	-8448
8-1-1	-8449
=100,	-8450
=5)",	-8451
Cross	-8452
LEVEL	-8453
PARSE	-8454
PRINT	-8455
Style	-8456
Trail	-8457
erent	-8458
erver	-8459
exist	-8460
isSeq	-8461
items	-8462
mNode	-8463
oldab	-8464
ometh	-8465
regex	-8466
▁"===	-8467
▁0");	-8468
▁6000	-8469
▁===\	-8470
▁DATA	-8471
▁LONG	-8472
▁bais	-8473
▁ends	-8474
▁high	-8475
▁item	-8476
▁scan	-8477
▁tlog	-8478
(19999	-8479
-01-02	-8480
1,2.0,	-8481
102)",	-8482
107)",	-8483
109)",	-8484
12:00:	-8485
509466	-8486
=50)",	-8487
=99.9,	-8488
Broker	-8489
Commit	-8490
Export	-8491
Gauges	-8492
LogLog	-8493
RAPPER	-8494
Revoke	-8495
SQLXML	-8496
Sample	-8497
ToByte	-8498
TsLong	-8499
dMerge	-8500
fields	-8501
footer	-8502
global	-8503
lapsed	-8504
leting	-8505
nduxiu	-8506
opTime	-8507
rashed	-8508
setHas	-8509
setTTL	-8510
single	-8511
▁"0");	-8512
▁"17,2	-8513
▁150);	-8514
▁Gauge	-8515
▁QUERY	-8516
▁TOTAL	-8517
▁names	-8518
▁occup	-8519
▁wrong	-8520
90,190,	-8521
COMMAND	-8522
DigestV	-8523
GORILLA	-8524
Headers	-8525
Latency	-8526
Matched	-8527
PARSING	-8528
SQLList	-8529
TIMEOUT	-8530
ToFlush	-8531
alendar	-8532
another	-8533
bitpack	-8534
endFile	-8535
getDecl	-8536
gorithm	-8537
longOpt	-8538
oldFile	-8539
packNum	-8540
setSize	-8541
tinuous	-8542
▁220)",	-8543
▁440)",	-8544
▁AGGREG	-8545
▁BUCKET	-8546
▁IMerge	-8547
▁expand	-8548
▁getRow	-8549
▁pathTo	-8550
▁replay	-8551
▁saveAs	-8552
▁setMin	-8553
▁sumVal	-8554
(1000100	-8555
(1999999	-8556
=44.4)",	-8557
CacheLog	-8558
ComboBox	-8559
DBConfig	-8560
DataDirs	-8561
IntValue	-8562
NonExist	-8563
Overflow	-8564
Pathname	-8565
Previous	-8566
Replayer	-8567
Returned	-8568
Shutdown	-8569
TsDevice	-8570
deletion	-8571
deviceID	-8572
filename	-8573
getField	-8574
hdfsPath	-8575
ignStyle	-8576
intStats	-8577
logEntry	-8578
moquette	-8579
omething	-8580
truncate	-8581
validate	-8582
writable	-8583
▁"6667",	-8584
▁10000);	-8585
▁JobConf	-8586
▁TSClose	-8587
▁TServer	-8588
▁catalog	-8589
▁checker	-8590
▁colInfo	-8591
▁connect	-8592
▁isQuery	-8593
▁leftBit	-8594
▁metrics	-8595
▁packNum	-8596
▁ramSize	-8597
▁running	-8598
▁testAdd	-8599
▁testAnd	-8600
▁testSet	-8601
▁updated	-8602
AndRemove	-8603
ArraySize	-8604
DataArray	-8605
Encounter	-8606
Predicate	-8607
Savepoint	-8608
UriString	-8609
aMaxError	-8610
byteArray	-8611
ftSatisfy	-8612
getGauges	-8613
leftClose	-8614
misssions	-8615
readShort	-8616
rowRecord	-8617
startWith	-8618
▁1000000;	-8619
▁LeafNode	-8620
▁comboBox	-8621
▁inverted	-8622
▁leftSize	-8623
▁perfTest	-8624
▁poolArgs	-8625
▁recovery	-8626
▁testData	-8627
▁testRead	-8628
▁unsealed	-8629
(100.13453	-8630
BitPacking	-8631
BufferPool	-8632
Comparable	-8633
EpochMilli	-8634
FromBuffer	-8635
JvmFeature	-8636
MemoryInKB	-8637
OutputData	-8638
RemoveFile	-8639
ScrollPane	-8640
SinglePath	-8641
SyncTsfile	-8642
TimeBudget	-8643
UsedMemory	-8644
bitpacking	-8645
createRole	-8646
dtMaxError	-8647
exceptions	-8648
floatValue	-8649
getChannel	-8650
getDoubleV	-8651
getJmxName	-8652
isModified	-8653
oldability	-8654
proportion	-8655
recognized	-8656
yperLogLog	-8657
▁"2018-1-1	-8658
▁148056261	-8659
▁URISyntax	-8660
▁afterPair	-8661
▁blockSize	-8662
▁chenduxiu	-8663
▁enableWal	-8664
▁floatList	-8665
▁getStatus	-8666
▁logBuffer	-8667
▁readValue	-8668
▁removeNot	-8669
▁seriesNum	-8670
▁totalBits	-8671
▁walFolder	-8672
▁writeBits	-8673
Accountable	-8674
AndChildren	-8675
BeforeRange	-8676
CacheSizeIn	-8677
Initialized	-8678
NotComplete	-8679
RoleContext	-8680
SampleInput	-8681
StringArray	-8682
SyncTsFiles	-8683
TSStatement	-8684
UnaryFilter	-8685
VisualUtils	-8686
beforeValue	-8687
getKerberos	-8688
getUsername	-8689
logFileTest	-8690
newPassword	-8691
stringValue	-8692
▁AuthorType	-8693
▁FixLengthI	-8694
▁ZoneOffset	-8695
▁dateFormat	-8696
▁defaultInt	-8697
▁doubleList	-8698
▁filedNames	-8699
▁isReadTime	-8700
▁rightValue	-8701
▁serialized	-8702
▁testDouble	-8703
▁testOutput	-8704
▁testString	-8705
22222,55555,	-8706
Informations	-8707
ParseCancell	-8708
PasswordArgs	-8709
PathsManager	-8710
PointWritten	-8711
PropertyKeys	-8712
UpgradeUtils	-8713
booleanValue	-8714
bwInsertPlan	-8715
expectedTime	-8716
getFetchSize	-8717
getWalFolder	-8718
hasPrivilege	-8719
odifications	-8720
partitionNum	-8721
physicalPlan	-8722
propertyName	-8723
workMemTable	-8724
writeVersion	-8725
▁CommonUtils	-8726
▁DNFOptimize	-8727
▁FileChannel	-8728
▁RowTSRecord	-8729
▁activeRatio	-8730
▁averageSize	-8731
▁bitmapIndex	-8732
▁defaultTime	-8733
▁deviceIdMap	-8734
▁information	-8735
▁readBoolean	-8736
▁rleBitWidth	-8737
▁serviceImpl	-8738
▁setTimeZone	-8739
▁tokenSymbol	-8740
▁totalLength	-8741
AllSuccessful	-8742
FlushMemTable	-8743
LogVisualizer	-8744
LoopPeriodSec	-8745
MaxConcurrent	-8746
TrailingZeros	-8747
andExpression	-8748
ftSatisfyRate	-8749
getSeriesPath	-8750
shallowSizeOf	-8751
▁FloatEncoder	-8752
▁FlushManager	-8753
▁LocateStatus	-8754
▁TsFileFilter	-8755
▁UNCOMPRESSED	-8756
▁booleanValue	-8757
▁codeLocation	-8758
▁generateTest	-8759
▁groupWriters	-8760
▁littleEndian	-8761
▁logFilePaths	-8762
▁markerBuffer	-8763
▁updateRecord	-8764
▁useWaterMark	-8765
(1480562618981	-8766
CompressedSize	-8767
ExpressionType	-8768
IntToBytesWith	-8769
RegularEncoder	-8770
SessionDataSet	-8771
etchResultsReq	-8772
getNumOfPoints	-8773
getSlidingStep	-8774
propertiesFile	-8775
rantRoleToUser	-8776
setSlidingStep	-8777
startTimeArray	-8778
▁BasicOperator	-8779
▁HelpFormatter	-8780
▁ManageDynamic	-8781
▁UpgradeSevice	-8782
▁flushInterval	-8783
▁getNodeByPath	-8784
▁getStatistics	-8785
▁getTimeFilter	-8786
▁groupByEngine	-8787
▁inputDataFile	-8788
▁insertTablets	-8789
▁printCacheLog	-8790
▁startOffsetOf	-8791
ByTimestampList	-8792
HitRatioMonitor	-8793
PrintStatistics	-8794
WrappedRunnable	-8795
newSingleThread	-8796
nextFolderIndex	-8797
▁DoubleWritable	-8798
▁MetricsService	-8799
▁ParseException	-8800
▁SysTimeVersion	-8801
▁deviceToColumn	-8802
▁getValueFilter	-8803
▁isReadDeviceId	-8804
▁leftExpression	-8805
▁maxMemTableNum	-8806
▁resourceLogger	-8807
▁startTimeArray	-8808
▁tsFileIOWriter	-8809
CachedThreadPool	-8810
OperationLatency	-8811
currentIndexNode	-8812
getModifications	-8813
maxNumberOfPoint	-8814
readFileMetadata	-8815
uncompressedSize	-8816
▁SyncDeviceOwner	-8817
▁addChildOpInAnd	-8818
▁deviceOwnerFile	-8819
▁fileFlushPolicy	-8820
▁measurementNode	-8821
▁rightExpression	-8822
▁seqFileResource	-8823
▁timeArrayLength	-8824
▁timeConsumption	-8825
▁totalTimeseries	-8826
▁tsQueryNonAlign	-8827
▁tsfileProcessor	-8828
([	-8829
3(	-8830
54	-8831
Jl	-8832
Sp	-8833
WH	-8834
]:	-8835
_|	-8836
tZ	-8837
▁X	-8838
(){	-8839
...	-8840
/01	-8841
0.6	-8842
02,	-8843
102	-8844
132	-8845
2)"	-8846
32.	-8847
359	-8848
435	-8849
782	-8850
80)	-8851
888	-8852
937	-8853
>[]	-8854
AIT	-8855
ARN	-8856
Der	-8857
FAL	-8858
Hll	-8859
ImN	-8860
Iml	-8861
Ref	-8862
Too	-8863
Zml	-8864
[2]	-8865
agn	-8866
ake	-8867
cmp	-8868
com	-8869
ean	-8870
eyJ	-8871
haz	-8872
los	-8873
mxb	-8874
ple	-8875
rou	-8876
sTo	-8877
sun	-8878
xer	-8879
▁SG	-8880
▁bf	-8881
("\"	-8882
(14,	-8883
(16,	-8884
(19,	-8885
.123	-8886
/01/	-8887
0.2,	-8888
1,2,	-8889
10",	-8890
26",	-8891
4"},	-8892
5.5,	-8893
8000	-8894
888,	-8895
ARCH	-8896
CARD	-8897
CONS	-8898
Curr	-8899
JAVA	-8900
MESS	-8901
MOVE	-8902
PAGE	-8903
QUAL	-8904
RATE	-8905
Spot	-8906
TENT	-8907
TRUE	-8908
VudE	-8909
WILD	-8910
When	-8911
Zero	-8912
[]{1	-8913
\":[	-8914
_8);	-8915
____	-8916
ages	-8917
ared	-8918
auto	-8919
ceed	-8920
edBy	-8921
getT	-8922
hich	-8923
inux	-8924
leaf	-8925
misc	-8926
plic	-8927
▁"["	-8928
▁').	-8929
▁11,	-8930
▁30;	-8931
▁<<=	-8932
▁CLO	-8933
▁fol	-8934
▁hit	-8935
▁{}/	-8936
())))	-8937
(1400	-8938
(150,	-8939
0,11,	-8940
0.530	-8941
101,\	-8942
2)));	-8943
9.01.	-8944
:00";	-8945
<>(),	-8946
Await	-8947
ByteN	-8948
Fetch	-8949
LINUX	-8950
Ordin	-8951
ROLES	-8952
Scale	-8953
Small	-8954
Tight	-8955
TsInt	-8956
USERS	-8957
WHITE	-8958
WebUI	-8959
\",\"	-8960
dates	-8961
embed	-8962
hazha	-8963
istog	-8964
netty	-8965
numOf	-8966
setUp	-8967
tical	-8968
▁"10,	-8969
▁"32,	-8970
▁"37,	-8971
▁"47,	-8972
▁"{}:	-8973
▁1");	-8974
▁11);	-8975
▁200.	-8976
▁200;	-8977
▁2]);	-8978
▁3");	-8979
▁4));	-8980
▁From	-8981
▁WAIT	-8982
▁addH	-8983
▁dump	-8984
▁getD	-8985
▁kong	-8986
▁mask	-8987
("1");	-8988
2,200.	-8989
AllDir	-8990
ImNsaW	-8991
SYSTEM	-8992
SerDer	-8993
Unable	-8994
[4]));	-8995
canUse	-8996
dicate	-8997
edPath	-8998
lowing	-8999
nderer	-9000
otSpot	-9001
pedLSB	-9002
please	-9003
random	-9004
should	-9005
{}\",\	-9006
▁"22,2	-9007
▁0.0);	-9008
▁123);	-9009
▁Group	-9010
▁Short	-9011
▁anInt	-9012
▁isTwo	-9013
▁owner	-9014
▁retry	-9015
▁uvInt	-9016
▁which	-9017
Compact	-9018
FilesIn	-9019
Illegal	-9020
JobConf	-9021
MESSAGE	-9022
Strings	-9023
TsFloat	-9024
alInter	-9025
crement	-9026
destDir	-9027
devices	-9028
endSync	-9029
folders	-9030
getHost	-9031
istance	-9032
mission	-9033
setName	-9034
▁110)",	-9035
▁POINTS	-9036
▁TSOpen	-9037
▁TsLong	-9038
▁execut	-9039
▁hdfsIp	-9040
▁ioTask	-9041
▁isLeaf	-9042
▁isNull	-9043
▁loaded	-9044
▁option	-9045
▁osName	-9046
▁sizeOf	-9047
▁starts	-9048
▁testOr	-9049
▁thrown	-9050
▁unwrap	-9051
11111111	-9052
Allocate	-9053
Callable	-9054
Expected	-9055
ListSize	-9056
Matchers	-9057
Ordinals	-9058
ReachEnd	-9059
SearchIn	-9060
Starting	-9061
TestBase	-9062
TsBinary	-9063
TsDouble	-9064
Vertical	-9065
WILDCARD	-9066
currLine	-9067
istogram	-9068
pathname	-9069
removeIf	-9070
seqFiles	-9071
taskName	-9072
tempuser	-9073
upgraded	-9074
▁EXECUTE	-9075
▁Element	-9076
▁Gorilla	-9077
▁Managed	-9078
▁UPGRADE	-9079
▁byteNum	-9080
▁cleanUp	-9081
▁combine	-9082
▁curTime	-9083
▁execReq	-9084
▁getHdfs	-9085
▁hdfsDir	-9086
▁illegal	-9087
▁lineNum	-9088
▁managed	-9089
▁network	-9090
▁nodeMap	-9091
▁putInts	-9092
▁rowSize	-9093
▁seconds	-9094
▁setFrom	-9095
▁tablets	-9096
▁topNext	-9097
▁walFile	-9098
▁warning	-9099
101,1101,	-9100
Algorithm	-9101
LongValue	-9102
Operating	-9103
SchemaMap	-9104
StarPaths	-9105
TSExecute	-9106
ToIntBits	-9107
TsBoolean	-9108
WithoutMs	-9109
ZoneIdMap	-9110
addAction	-9111
beFlushed	-9112
childPath	-9113
igInteger	-9114
lyFlushed	-9115
newTsFile	-9116
ofInstant	-9117
roupedLSB	-9118
rowOffset	-9119
▁Calendar	-9120
▁Identity	-9121
▁LRUCache	-9122
▁chunkIdx	-9123
▁compress	-9124
▁database	-9125
▁datetime	-9126
▁getMerge	-9127
▁logLevel	-9128
▁maxTsNum	-9129
▁minLevel	-9130
▁putLongs	-9131
▁queryFor	-9132
▁registry	-9133
▁rootPath	-9134
ChangeLock	-9135
ColumnType	-9136
DeleteFile	-9137
FilterList	-9138
FloatValue	-9139
ImNsaWVudE	-9140
MaxMessage	-9141
MemorySize	-9142
MergeUtils	-9143
PublicBAOS	-9144
QueueArray	-9145
SyncEnable	-9146
TIMESEIRES	-9147
ToLongBits	-9148
deleteTime	-9149
floatStats	-9150
getQueryId	-9151
pageBuffer	-9152
rightClose	-9153
sumeFuture	-9154
testString	-9155
uplication	-9156
▁"2019.01.	-9157
▁"2019/01/	-9158
▁SignStyle	-9159
▁TProtocol	-9160
▁TsDigestV	-9161
▁andFilter	-9162
▁chunkNums	-9163
▁columnNum	-9164
▁currentSG	-9165
▁following	-9166
▁formatter	-9167
▁getClient	-9168
▁getServer	-9169
▁overwrite	-9170
▁packWidth	-9171
▁putFloats	-9172
▁schemaDir	-9173
▁spaceList	-9174
▁stopLatch	-9175
▁totalCost	-9176
▁transform	-9177
▁untilLast	-9178
AggrIndexes	-9179
AndReadLock	-9180
Concurrency	-9181
GetTimeZone	-9182
Holdability	-9183
LinkedDeque	-9184
NewPassword	-9185
ProviderUrl	-9186
ServerAwait	-9187
StatementId	-9188
StopService	-9189
UsernameMap	-9190
\":\"{}\",\	-9191
alInterface	-9192
allFileList	-9193
chunkHeader	-9194
chunkWriter	-9195
doubleStats	-9196
getDeclared	-9197
getRowLimit	-9198
sFileLoader	-9199
setDeviceId	-9200
setReadOnly	-9201
setRoleName	-9202
setTimeZone	-9203
tmpFilePath	-9204
uageVersion	-9205
▁ILogReader	-9206
▁IndexOutOf	-9207
▁SyncClient	-9208
▁addHomeDir	-9209
▁bpBitWidth	-9210
▁fileStatus	-9211
▁historical	-9212
▁isContains	-9213
▁putDoubles	-9214
▁setBoolean	-9215
▁tabbedPane	-9216
▁timeRanges	-9217
BinaryStream	-9218
BitPackedRun	-9219
ClosedTsFile	-9220
InstanceSize	-9221
IntervalInMs	-9222
OutputBuffer	-9223
PowerMockito	-9224
StatisticTab	-9225
TsFileFilter	-9226
encodingType	-9227
getBatchSize	-9228
getRowOffset	-9229
inkedHashMap	-9230
senderFolder	-9231
setEnableWal	-9232
▁ClassLoader	-9233
▁DataSetType	-9234
▁OpenFileNum	-9235
▁leftCRightO	-9236
▁maxRowCount	-9237
▁putBinaries	-9238
▁putBooleans	-9239
▁recordCount	-9240
▁statsByType	-9241
▁stopService	-9242
▁transformed	-9243
▁unsafeClass	-9244
▁writeTsFile	-9245
AndExpression	-9246
AvailableSize	-9247
BasicOperator	-9248
BlockingQueue	-9249
ClassNotFound	-9250
InChunkGroups	-9251
LastValuePair	-9252
SchemaLogFile	-9253
getAttributes	-9254
joinSeparator	-9255
prevPartition	-9256
readTailMagic	-9257
transformUnit	-9258
▁DataIterator	-9259
▁FileNotFound	-9260
▁FromOperator	-9261
▁NullWritable	-9262
▁externalSort	-9263
▁getLongValue	-9264
▁getWatermark	-9265
▁isBitPackRun	-9266
▁isEnableStat	-9267
▁maxTimestamp	-9268
▁partitionDir	-9269
▁snapshotFile	-9270
▁unCompressor	-9271
AggrResultTest	-9272
ByFlushManager	-9273
ChunkGroupSize	-9274
ConnectService	-9275
DeletePathList	-9276
IndexNodeQueue	-9277
MaxMessageSize	-9278
ReturnedRowNum	-9279
createVertical	-9280
edByTimeFilter	-9281
getSerializeId	-9282
getTimeEncoder	-9283
insertTemplate	-9284
pageSizeInByte	-9285
readAsPossible	-9286
serdeConstants	-9287
▁1480562618000	-9288
▁BlockingQueue	-9289
▁IntRleEncoder	-9290
▁PageException	-9291
▁blockLocation	-9292
▁dataPointList	-9293
▁getCompressor	-9294
▁logNodePrefix	-9295
▁parseDuration	-9296
▁proportionSum	-9297
▁schemaPattern	-9298
▁seqTimeSeries	-9299
▁singleDataSet	-9300
▁unmergedFiles	-9301
BasicAuthorizer	-9302
ChunkStatistics	-9303
CompactProtocol	-9304
DiskChunkLoader	-9305
FilterException	-9306
GetTimeZoneResp	-9307
HandlerPoolSize	-9308
ToBeSyncedFiles	-9309
ValueFilterList	-9310
deregisterMBean	-9311
etchMetadataReq	-9312
getMaxRowNumber	-9313
singleSeriesExp	-9314
toBeSyncedFiles	-9315
▁TsFileExecutor	-9316
▁childOperators	-9317
▁closeQueryLock	-9318
▁dfsHaAutomatic	-9319
▁fileStatistics	-9320
▁resultDataType	-9321
▁seriesMetadata	-9322
▁syncFolderPath	-9323
ChunkGroupWriter	-9324
DataInQueueArray	-9325
HiveRecordReader	-9326
IUnaryExpression	-9327
SimpleDateFormat	-9328
autoCreateSchema	-9329
dMergeThreadPool	-9330
▁ObjectInspector	-9331
▁TSQueryNonAlign	-9332
▁getUncompressed	-9333
▁invalidChunkNum	-9334
▁isBitWidthSaved	-9335
▁minExternalSort	-9336
▁showContentType	-9337
▁startEndOffsets	-9338
▁stateChangeLock	-9339
▁tagAndAttribute	-9340
▁threadStopLatch	-9341
▁tsRecordHashMap	-9342
."	-9343
2"	-9344
2:	-9345
2_	-9346
31	-9347
3\	-9348
4=	-9349
5;	-9350
85	-9351
:\	-9352
EA	-9353
GY	-9354
LW	-9355
Mj	-9356
Ne	-9357
Vi	-9358
ZG	-9359
[7	-9360
_"	-9361
bG	-9362
iJ	-9363
mF	-9364
mR	-9365
("'	-9366
(("	-9367
+"2	-9368
,';	-9369
.0,	-9370
00"	-9371
01,	-9372
31,	-9373
4,"	-9374
655	-9375
737	-9376
9",	-9377
DAY	-9378
Del	-9379
EUE	-9380
MAC	-9381
NOR	-9382
Ons	-9383
Rev	-9384
SEQ	-9385
ULT	-9386
YXV	-9387
[];	-9388
abs	-9389
dGg	-9390
exp	-9391
iIs	-9392
lvb	-9393
tsf	-9394
▁"}	-9395
▁13	-9396
▁33	-9397
▁:"	-9398
▁ds	-9399
▁lb	-9400
▁ti	-9401
▁tn	-9402
()",	-9403
(2).	-9404
(2,1	-9405
(300	-9406
([8,	-9407
..",	-9408
.2.3	-9409
1,14	-9410
1.4,	-9411
10,\	-9412
102,	-9413
105,	-9414
1293	-9415
2").	-9416
2),"	-9417
20",	-9418
3"};	-9419
5,1,	-9420
500,	-9421
8186	-9422
CHER	-9423
FOOT	-9424
FUNC	-9425
Init	-9426
LINE	-9427
NORM	-9428
][];	-9429
iOns	-9430
ires	-9431
ited	-9432
iwia	-9433
only	-9434
sInR	-9435
slot	-9436
ssZZ	-9437
uper	-9438
with	-9439
|");	-9440
▁"%"	-9441
▁1.4	-9442
▁12;	-9443
▁24)	-9444
▁2},	-9445
▁4",	-9446
▁5},	-9447
▁60_	-9448
▁BIT	-9449
▁JRE	-9450
▁The	-9451
▁bos	-9452
▁cor	-9453
▁fis	-9454
▁pid	-9455
▁sbd	-9456
▁uri	-9457
())),	-9458
(103,	-9459
(105,	-9460
(106,	-9461
(2.32	-9462
(50,1	-9463
(500,	-9464
,1)",	-9465
,20.7	-9466
1,11,	-9467
1.2.3	-9468
2)");	-9469
2001,	-9470
737),	-9471
90)",	-9472
Alive	-9473
ByKey	-9474
ByStr	-9475
CHECK	-9476
Chain	-9477
EXCEP	-9478
Fully	-9479
IFill	-9480
Inner	-9481
KType	-9482
NODES	-9483
OWNER	-9484
QUEUE	-9485
READY	-9486
Reten	-9487
STATE	-9488
Upper	-9489
_2");	-9490
ative	-9491
digit	-9492
getAl	-9493
kinds	-9494
mbean	-9495
onent	-9496
reach	-9497
rigin	-9498
runHi	-9499
uvInt	-9500
▁",";	-9501
▁"100	-9502
▁"11,	-9503
▁"14,	-9504
▁"16,	-9505
▁"60,	-9506
▁',';	-9507
▁([2,	-9508
▁1)),	-9509
▁1.1,	-9510
▁10";	-9511
▁123.	-9512
▁17);	-9513
▁30),	-9514
▁COMP	-9515
▁Clos	-9516
▁Code	-9517
▁HOST	-9518
▁Mqtt	-9519
▁PORT	-9520
▁auto	-9521
▁bits	-9522
▁down	-9523
▁join	-9524
▁resu	-9525
▁retn	-9526
▁snap	-9527
▁uuid	-9528
("1980	-9529
(20000	-9530
,3.33,	-9531
,4.44,	-9532
-01-28	-9533
0.5306	-9534
00.1,1	-9535
00000;	-9536
1,999,	-9537
32\",\	-9538
33.0",	-9539
99"));	-9540
ARNING	-9541
EXCEED	-9542
Expect	-9543
FACTOR	-9544
FOOTER	-9545
Finish	-9546
HllMap	-9547
IOTask	-9548
IoTSer	-9549
NumMap	-9550
Online	-9551
PACKED	-9552
PageIn	-9553
Panels	-9554
Proced	-9555
Repair	-9556
Script	-9557
cClass	-9558
digitS	-9559
getBuf	-9560
isLast	-9561
maxVal	-9562
oldKey	-9563
timeLt	-9564
tinues	-9565
▁"1,1,	-9566
▁"15",	-9567
▁"1980	-9568
▁"400,	-9569
▁3000;	-9570
▁CACHE	-9571
▁CHUNK	-9572
▁Deque	-9573
▁Dummy	-9574
▁Queue	-9575
▁TsInt	-9576
▁hosts	-9577
▁iface	-9578
▁iotdb	-9579
▁junit	-9580
▁known	-9581
▁myRev	-9582
▁mySeq	-9583
▁osmxb	-9584
▁param	-9585
▁readT	-9586
▁sgNum	-9587
▁tsRow	-9588
(","));	-9589
ALREADY	-9590
BytesTo	-9591
Disable	-9592
Example	-9593
Failure	-9594
ListAll	-9595
MATCHER	-9596
Missing	-9597
OfGiven	-9598
Overlap	-9599
PACKAGE	-9600
Package	-9601
PivotTo	-9602
Reducer	-9603
Serving	-9604
TSClose	-9605
cending	-9606
getIntV	-9607
isAdmin	-9608
memSize	-9609
modFile	-9610
nelName	-9611
newFile	-9612
ocketMQ	-9613
payload	-9614
process	-9615
tabName	-9616
valueLt	-9617
writeTo	-9618
▁Client	-9619
▁DEVICE	-9620
▁JLabel	-9621
▁MEMORY	-9622
▁Tsfile	-9623
▁adjust	-9624
▁allSGs	-9625
▁budget	-9626
▁digitS	-9627
▁loader	-9628
▁rleNum	-9629
▁rowNum	-9630
▁sealed	-9631
▁setDfs	-9632
▁setInt	-9633
▁simple	-9634
0000,21.	-9635
22222)",	-9636
81861293	-9637
ByPrefix	-9638
DirIndex	-9639
EndTimes	-9640
FileLock	-9641
HDFSFile	-9642
IntBatch	-9643
LoadTask	-9644
MergeNum	-9645
OPERATOR	-9646
OfSender	-9647
Renderer	-9648
TSFILEDB	-9649
TestCase	-9650
alformed	-9651
dataSize	-9652
dbConfig	-9653
emptySet	-9654
ettyUtil	-9655
flushing	-9656
getBoolV	-9657
getError	-9658
getFirst	-9659
getNodes	-9660
getNumOf	-9661
getProps	-9662
getShort	-9663
getTimes	-9664
hasSpace	-9665
orFilter	-9666
pageData	-9667
putFloat	-9668
renameTo	-9669
rleStart	-9670
rowLimit	-9671
saveUser	-9672
standard	-9673
tearDown	-9674
▁"0,10,\	-9675
▁1509465	-9676
▁TSFHive	-9677
▁TsFloat	-9678
▁doQuery	-9679
▁filters	-9680
▁getRole	-9681
▁greater	-9682
▁isDebug	-9683
▁outFile	-9684
▁planner	-9685
▁readBit	-9686
▁readOld	-9687
▁rleList	-9688
▁userDir	-9689
▁writing	-9690
([8,737),	-9691
40,33.0",	-9692
BoxLayout	-9693
Cancelled	-9694
CountPlan	-9695
EXCEPTION	-9696
Increment	-9697
Inference	-9698
LastPoint	-9699
Retention	-9700
STATEMENT	-9701
Something	-9702
StatsSize	-9703
TabButton	-9704
UnseqCost	-9705
UpperCase	-9706
[]{"1.0",	-9707
addReader	-9708
ationSqls	-9709
columnNum	-9710
configure	-9711
deletedAt	-9712
enterShow	-9713
eservices	-9714
fillTypes	-9715
localhost	-9716
orVersion	-9717
predicate	-9718
resources	-9719
setTsFile	-9720
supported	-9721
theUnsafe	-9722
threshold	-9723
vLongList	-9724
valueGtEq	-9725
writeByte	-9726
xffffffff	-9727
▁"1509466	-9728
▁"1514782	-9729
▁Closable	-9730
▁NodeType	-9731
▁Physical	-9732
▁Property	-9733
▁ReadTask	-9734
▁RocketMQ	-9735
▁TsBinary	-9736
▁TsDouble	-9737
▁USERNAME	-9738
▁calcFrom	-9739
▁canWrite	-9740
▁cpuRatio	-9741
▁currFile	-9742
▁currMeta	-9743
▁deleting	-9744
▁fillType	-9745
▁getNodes	-9746
▁getQuery	-9747
▁groupNum	-9748
▁initFrom	-9749
▁leftBits	-9750
▁logCache	-9751
▁logEntry	-9752
▁occurred	-9753
▁preRange	-9754
▁readPack	-9755
▁relation	-9756
▁rleStart	-9757
▁shutdown	-9758
▁tempRoot	-9759
▁testPath	-9760
▁typeInfo	-9761
(100,99)",	-9762
(101,99)",	-9763
(102,80)",	-9764
(103,99)",	-9765
(104,90)",	-9766
(105,99)",	-9767
(106,99)",	-9768
01:00:00",	-9769
ClearCache	-9770
Compatible	-9771
DeviceMeta	-9772
FromStream	-9773
Invocation	-9774
Operations	-9775
OptionList	-9776
Overflowed	-9777
RPCService	-9778
RecoverMap	-9779
Recovering	-9780
ToTSRecord	-9781
UpdatePlan	-9782
WrapperFor	-9783
conditions	-9784
getColumns	-9785
illseconds	-9786
insertTime	-9787
readBinary	-9788
readMarker	-9789
readUnlock	-9790
serializer	-9791
setColumns	-9792
setSchemas	-9793
testFolder	-9794
unseqFiles	-9795
▁"2,10000,	-9796
▁0:13:00";	-9797
▁AndFilter	-9798
▁LogFilter	-9799
▁MathUtils	-9800
▁SEPARATOR	-9801
▁TsBoolean	-9802
▁alterType	-9803
▁cacheData	-9804
▁cacheSize	-9805
▁checkPath	-9806
▁dfsClient	-9807
▁enterShow	-9808
▁errorFlag	-9809
▁fileSizes	-9810
▁generated	-9811
▁generator	-9812
▁getConfig	-9813
▁getSgName	-9814
▁insertSQL	-9815
▁isMerging	-9816
▁isUpdated	-9817
▁lastQuery	-9818
▁leftValue	-9819
▁logGroups	-9820
▁memSeries	-9821
▁myRevList	-9822
▁mySeqList	-9823
▁performer	-9824
▁selectSql	-9825
▁setDouble	-9826
▁setFilter	-9827
▁strLength	-9828
(2,10000)",	-9829
71522347000	-9830
BatchInsert	-9831
COMPRESSION	-9832
CallContext	-9833
DirIndexSet	-9834
Identifiers	-9835
IpWhiteList	-9836
LinkedQueue	-9837
OFFSETValue	-9838
ObjectByKey	-9839
Permissions	-9840
SFWOperator	-9841
SetTimeZone	-9842
UpgradeTool	-9843
avenWrapper	-9844
blockOffset	-9845
datePattern	-9846
deletedTime	-9847
deltaObject	-9848
deviceIdMap	-9849
getInterval	-9850
groupByPlan	-9851
hasNextPage	-9852
hybridStart	-9853
initialized	-9854
napshotPath	-9855
roleProfile	-9856
setKerberos	-9857
setLocation	-9858
setPassword	-9859
sqlArgument	-9860
stopTimeout	-9861
threadCount	-9862
▁"50,10000,	-9863
▁ClassCache	-9864
▁LinearFill	-9865
▁SyncServer	-9866
▁candidates	-9867
▁clearValue	-9868
▁dataBitmap	-9869
▁getSuccess	-9870
▁isLastFile	-9871
▁serializer	-9872
▁serverPort	-9873
▁setPivotTo	-9874
▁statusCode	-9875
▁suffixList	-9876
▁testInsert	-9877
▁updateLast	-9878
▁valueBytes	-9879
("1980-01-01	-9880
(50,10000)",	-9881
1,1471522347	-9882
AndUnseqDirs	-9883
HDFSTSRecord	-9884
PathSelector	-9885
binaryValues	-9886
codeLocation	-9887
currentCount	-9888
getErrorCode	-9889
getExecution	-9890
listAllRoles	-9891
maxRowNumber	-9892
newArrayList	-9893
newScheduled	-9894
operatorType	-9895
readMemChunk	-9896
tempFileName	-9897
tsStatusCode	-9898
▁"1581861293	-9899
▁"1980-01-28	-9900
▁"2019.01.02	-9901
▁"2019/01/02	-9902
▁ForceAppend	-9903
▁HeaderUtils	-9904
▁HyperLogLog	-9905
▁IFileLoader	-9906
▁VisualUtils	-9907
▁binaryValue	-9908
▁checkSummer	-9909
▁clearBuffer	-9910
▁columnCount	-9911
▁deSerialize	-9912
▁inputSplits	-9913
▁measureType	-9914
▁saveAsPivot	-9915
▁seriesTypes	-9916
▁timeDecoder	-9917
▁tsEncodings	-9918
▁useKerberos	-9919
Authorization	-9920
ChunkPointNum	-9921
DisplayNumber	-9922
FileNamesTest	-9923
FileStorageFs	-9924
ImplClassName	-9925
Visualization	-9926
WithAliasTest	-9927
WithOneSecond	-9928
WorkerThreads	-9929
comparingLong	-9930
continueMerge	-9931
getFileReader	-9932
getSeriesType	-9933
startOffsetOf	-9934
tsFilesReader	-9935
upgradeFolder	-9936
▁CodeLocation	-9937
▁PowerMockito	-9938
▁StartupCheck	-9939
▁UpgradeUtils	-9940
▁bwInsertPlan	-9941
▁coreSitePath	-9942
▁creationSqls	-9943
▁expandValues	-9944
▁fileMetaSize	-9945
▁getPrimitive	-9946
▁getStatsSize	-9947
▁hdfsSitePath	-9948
▁isWrapperFor	-9949
▁loadIntBatch	-9950
▁newBlockSize	-9951
▁operationCnt	-9952
▁outputstream	-9953
▁partitionNum	-9954
▁regularRight	-9955
▁reverseRange	-9956
▁seriesWriter	-9957
▁startService	-9958
▁tagPositions	-9959
▁timeCostMaps	-9960
▁tsFileSerDer	-9961
▁tsStatusCode	-9962
▁warningChain	-9963
(1000,22222)",	-9964
0,99,99,199,",	-9965
AuthorOperator	-9966
ChunkMetaDatas	-9967
DoubleWritable	-9968
InferenceUtils	-9969
InsertOperator	-9970
LastValueArray	-9971
ListPrivileges	-9972
MaxSeriesMerge	-9973
MemTableNumber	-9974
MergeException	-9975
PrintStatistic	-9976
ProcessorStore	-9977
RegularDecoder	-9978
SetTimeZoneReq	-9979
TSQueryDataSet	-9980
TaskRunnerPool	-9981
TsFileEncoding	-9982
UpgradeLogPath	-9983
anguageVersion	-9984
dateExpression	-9985
floatToIntBits	-9986
getSeriesLimit	-9987
isMissingPoint	-9988
loadTimeSeries	-9989
seriesDataType	-9990
timeLowerBound	-9991
▁1471522347000	-9992
▁DefaultIoTSer	-9993
▁FileGenerator	-9994
▁LinkedHashMap	-9995
▁LocalDateTime	-9996
▁LogVisualizer	-9997
▁MergeFileTask	-9998
▁MessageDigest	-9999
▁continueMerge	-10000
▁currentBuffer	-10001
▁fileCorrupted	-10002
▁getFilterType	-10003
▁getTimeSeries	-10004
▁inputFilePath	-10005
▁isWatermarked	-10006
▁lastQueryPlan	-10007
▁linkedHashMap	-10008
▁loadedFileMap	-10009
▁nextReadIndex	-10010
▁oldFileWriter	-10011
▁oldTsfilePath	-10012
▁prepareSeries	-10013
▁setFromSorted	-10014
▁valueBAOSList	-10015
▁zonedDateTime	-10016
DeletedFileName	-10017
DoubleDataPoint	-10018
FileLoaderUtils	-10019
GuiPropertyKeys	-10020
MeasurementsMap	-10021
SyncDeviceOwner	-10022
TimeAggregation	-10023
TsFileException	-10024
convertDatetime	-10025
getAllSatisfied	-10026
getSeriesOffset	-10027
metadataQuerier	-10028
setChildrenList	-10029
setReadDeviceId	-10030
▁LongRleDecoder	-10031
▁SetTTLOperator	-10032
▁bufferedReader	-10033
▁bufferedValues	-10034
▁contentPattern	-10035
▁contextHandler	-10036
▁getValueByName	-10037
▁pathTSDataType	-10038
▁readBigDecimal	-10039
▁serializeStats	-10040
▁serializedSize	-10041
▁seriesDataType	-10042
▁unmergedSeries	-10043
1,1471522347000,	-10044
BeSyncedFilesMap	-10045
BufferPoolEnable	-10046
ChunkMetadataMap	-10047
ClassSerializeId	-10048
ControllerByTime	-10049
ElementException	-10050
MaxNumberOfPoint	-10051
MultiDirStrategy	-10052
NCharacterStream	-10053
RestorableReader	-10054
currMergingPaths	-10055
doubleToLongBits	-10056
maxPrintRowCount	-10057
▁RawQueryDataSet	-10058
▁RowRecordParser	-10059
▁ShowContentType	-10060
▁StreamExecution	-10061
▁TVListAllocator	-10062
▁aggregationType	-10063
▁clearSortedTime	-10064
▁constructOneRow	-10065
▁correctSequence	-10066
▁dfsNameServices	-10067
▁loadObjectByKey	-10068
▁parsePrefixPath	-10069
▁performanceStat	-10070
▁revokePrivilege	-10071
▁serverTransport	-10072
▁setMeasurements	-10073
▁setOperatorType	-10074
-"	-10075
16	-10076
1]	-10077
7"	-10078
=3	-10079
AX	-10080
DK	-10081
Do	-10082
HA	-10083
Iu	-10084
Me	-10085
OG	-10086
PT	-10087
Sk	-10088
TV	-10089
VG	-10090
Wm	-10091
Yz	-10092
ZO	-10093
Zm	-10094
Zp	-10095
[6	-10096
]\	-10097
aG	-10098
dk	-10099
fA	-10100
fw	-10101
gh	-10102
hd	-10103
jc	-10104
lk	-10105
lp	-10106
nQ	-10107
pd	-10108
wc	-10109
(":	-10110
(0.	-10111
,2.	-10112
,},	-10113
214	-10114
266	-10115
4)"	-10116
5";	-10117
5()	-10118
508	-10119
51,	-10120
64(	-10121
794	-10122
9);	-10123
=\"	-10124
JWK	-10125
LTg	-10126
MMA	-10127
OTA	-10128
OfO	-10129
Pid	-10130
REC	-10131
REQ	-10132
RSA	-10133
]];	-10134
_64	-10135
awt	-10136
cpu	-10137
cry	-10138
ins	-10139
ism	-10140
lel	-10141
mid	-10142
nan	-10143
nim	-10144
ont	-10145
pla	-10146
qos	-10147
{},	-10148
}';	-10149
▁'\	-10150
▁--	-10151
▁0:	-10152
▁1:	-10153
▁2:	-10154
▁36	-10155
▁4.	-10156
▁99	-10157
▁Eq	-10158
▁Gt	-10159
▁Lt	-10160
▁eg	-10161
▁sl	-10162
▁ub	-10163
(2,4	-10164
(20,	-10165
(80,	-10166
++];	-10167
,20,	-10168
0,",	-10169
0.00	-10170
0.3,	-10171
00),	-10172
1.\"	-10173
104,	-10174
123.	-10175
2.22	-10176
22.7	-10177
3.3,	-10178
3.33	-10179
3748	-10180
4");	-10181
4,",	-10182
5"),	-10183
500;	-10184
64),	-10185
8100	-10186
AllO	-10187
COST	-10188
EACH	-10189
INIT	-10190
LEAR	-10191
LICT	-10192
NONE	-10193
POSI	-10194
Prod	-10195
Send	-10196
Term	-10197
Viol	-10198
Word	-10199
XMiO	-10200
alao	-10201
bais	-10202
bind	-10203
ceil	-10204
ench	-10205
lsib	-10206
make	-10207
rime	-10208
sAre	-10209
ters	-10210
▁"("	-10211
▁"-"	-10212
▁'\'	-10213
▁([1	-10214
▁-3;	-10215
▁16)	-10216
▁17,	-10217
▁2).	-10218
▁21,	-10219
▁21;	-10220
▁3),	-10221
▁300	-10222
▁6.2	-10223
▁7.2	-10224
▁9.2	-10225
▁AVG	-10226
▁DIS	-10227
▁JVM	-10228
▁NOT	-10229
▁URI	-10230
▁cap	-10231
▁dst	-10232
▁err	-10233
▁ran	-10234
▁sfw	-10235
()]);	-10236
(0)).	-10237
(1,11	-10238
(50,5	-10239
(9722	-10240
,199,	-10241
..");	-10242
0)");	-10243
0,31,	-10244
0.092	-10245
0.1";	-10246
0.11,	-10247
00.3,	-10248
00.5,	-10249
1.22,	-10250
2")).	-10251
25.4,	-10252
3"));	-10253
50.5,	-10254
7.2,1	-10255
7250.	-10256
9.2,3	-10257
99");	-10258
ALIAS	-10259
AndSh	-10260
FALSE	-10261
Ijoia	-10262
Large	-10263
NEVER	-10264
Paral	-10265
Plain	-10266
Strut	-10267
UNSET	-10268
[0]),	-10269
addTs	-10270
busds	-10271
crypt	-10272
inese	-10273
inner	-10274
isSet	-10275
range	-10276
setAl	-10277
space	-10278
stage	-10279
tryTo	-10280
white	-10281
}\",\	-10282
▁"/",	-10283
▁"22,	-10284
▁"}",	-10285
▁'}';	-10286
▁0.0;	-10287
▁101;	-10288
▁16);	-10289
▁3.33	-10290
▁GtEq	-10291
▁LAST	-10292
▁LtEq	-10293
▁Unit	-10294
▁aggr	-10295
▁help	-10296
▁mock	-10297
▁need	-10298
▁rotl	-10299
▁sink	-10300
▁smal	-10301
▁step	-10302
(100,1	-10303
(101,1	-10304
(103,1	-10305
(4,4.4	-10306
,2.3,1	-10307
0,80,1	-10308
125937	-10309
190)",	-10310
AGGREG	-10311
CENTER	-10312
Claims	-10313
LOGGER	-10314
NameBy	-10315
OnComp	-10316
Readed	-10317
THREAD	-10318
\":\"{	-10319
_1"));	-10320
_2"));	-10321
arison	-10322
broker	-10323
chosen	-10324
dition	-10325
getAnd	-10326
getCnt	-10327
iIsInR	-10328
lelism	-10329
letime	-10330
noMore	-10331
osName	-10332
params	-10333
pathSc	-10334
retain	-10335
sZXMiO	-10336
setRow	-10337
unpack	-10338
▁""));	-10339
▁"5,5,	-10340
▁11)",	-10341
▁1500;	-10342
▁5)");	-10343
▁Empty	-10344
▁Event	-10345
▁Flink	-10346
▁NotEq	-10347
▁async	-10348
▁getOr	-10349
▁inPut	-10350
▁kinds	-10351
▁meets	-10352
▁prime	-10353
▁speed	-10354
▁stage	-10355
▁under	-10356
▁upper	-10357
(1,1)",	-10358
(10000,	-10359
(2,2.22	-10360
(3,3.33	-10361
,20,50,	-10362
0.00)",	-10363
0000000	-10364
1.11)",	-10365
1.4,21,	-10366
10,21",	-10367
6.2,20,	-10368
AtFixed	-10369
ByteBuf	-10370
CONTENT	-10371
Chinese	-10372
CliPath	-10373
Compare	-10374
InChunk	-10375
Legends	-10376
MINIMUM	-10377
MaxFrom	-10378
Nothing	-10379
PerFile	-10380
Planner	-10381
Runtime	-10382
SOFFSET	-10383
SQLTest	-10384
Soffset	-10385
ToQueue	-10386
UtYWNjb	-10387
WRAPPER	-10388
baseDir	-10389
byteNum	-10390
getMqtt	-10391
iOnsicm	-10392
inality	-10393
ingMode	-10394
isAlive	-10395
legends	-10396
merging	-10397
queries	-10398
readLen	-10399
readers	-10400
reqType	-10401
segment	-10402
setIntV	-10403
sistent	-10404
tablets	-10405
tagsMap	-10406
tryLock	-10407
▁100.1,	-10408
▁1024);	-10409
▁200.2,	-10410
▁500.5,	-10411
▁Concat	-10412
▁Signal	-10413
▁accept	-10414
▁footer	-10415
▁future	-10416
▁isFile	-10417
▁rename	-10418
▁resume	-10419
▁setRow	-10420
▁tagMap	-10421
▁timeGt	-10422
▁tmpIdx	-10423
▁zhazha	-10424
(10000);	-10425
.123\",\	-10426
0.092794	-10427
00000000	-10428
AndShape	-10429
BitValue	-10430
ByString	-10431
COMPRESS	-10432
CaseTest	-10433
Channels	-10434
DataPlan	-10435
EndIndex	-10436
FileNode	-10437
ModFiles	-10438
POSITION	-10439
PageBody	-10440
Readable	-10441
TestUtil	-10442
ToCached	-10443
TooSmall	-10444
Unclosed	-10445
alterMap	-10446
function	-10447
intArray	-10448
isTermin	-10449
nimbusds	-10450
parseUrl	-10451
priority	-10452
setParal	-10453
setRight	-10454
transfer	-10455
▁"1,101,	-10456
▁1000000	-10457
▁COMPRES	-10458
▁EnumSet	-10459
▁Publish	-10460
▁VERSION	-10461
▁cloneAs	-10462
▁elapsed	-10463
▁endSync	-10464
▁getData	-10465
▁getDate	-10466
▁getting	-10467
▁hasData	-10468
▁pathMap	-10469
▁smaller	-10470
▁stopped	-10471
▁tempMax	-10472
▁valueEq	-10473
▁{}...",	-10474
(1,110)",	-10475
,2.3,11,1	-10476
7250.3748	-10477
AliasList	-10478
AllOpened	-10479
BoundTime	-10480
CloseFlag	-10481
DataFiles	-10482
Direction	-10483
Insertion	-10484
Intercept	-10485
Malformed	-10486
Metadatas	-10487
OPERATION	-10488
OneRecord	-10489
Queryable	-10490
TProtocol	-10491
TargetDir	-10492
UsedFiles	-10493
ZeroInter	-10494
addAndGet	-10495
addTsfile	-10496
countDown	-10497
fullMerge	-10498
getClient	-10499
inspector	-10500
loadChunk	-10501
maxMemory	-10502
mbeanName	-10503
plication	-10504
readBytes	-10505
setOutput	-10506
typeClass	-10507
▁0.000000	-10508
▁1000_000	-10509
▁OrFilter	-10510
▁PASSWORD	-10511
▁TEMPLATE	-10512
▁cleanDir	-10513
▁detected	-10514
▁duration	-10515
▁existing	-10516
▁getAlias	-10517
▁getChild	-10518
▁getFirst	-10519
▁hdfsPort	-10520
▁idletime	-10521
▁inputSQL	-10522
▁insertOp	-10523
▁loopTime	-10524
▁maxBytes	-10525
▁minBytes	-10526
▁nodeType	-10527
▁occupied	-10528
▁serverIp	-10529
▁testOnly	-10530
▁timeZone	-10531
(1,1101)",	-10532
(2,2.22)",	-10533
(3,3.33)",	-10534
(4,4.44)",	-10535
1.2,20,51,	-10536
6.2,20,21,	-10537
7.2,10,11,	-10538
9.2,30,31,	-10539
AlignmentX	-10540
CachedData	-10541
Continuous	-10542
CountNodes	-10543
DeleteTime	-10544
EndTimeMap	-10545
JMXService	-10546
NameLength	-10547
PROPERTIES	-10548
SetTTLPlan	-10549
SingleFile	-10550
StartIndex	-10551
SyncClient	-10552
clearBatch	-10553
filterPath	-10554
getBinaryV	-10555
getDevices	-10556
innerEntry	-10557
pageWriter	-10558
sZXMiOlsib	-10559
timeFormat	-10560
ynchronous	-10561
zoneOffset	-10562
▁"127.0.0.	-10563
▁0:13:00",	-10564
▁IntTVList	-10565
▁MergeTest	-10566
▁attribute	-10567
▁binaryRet	-10568
▁checkFile	-10569
▁childPath	-10570
▁deviceNum	-10571
▁executing	-10572
▁fileNames	-10573
▁initTimes	-10574
▁leftClose	-10575
▁mainFrame	-10576
▁putBinary	-10577
▁putDouble	-10578
▁putValues	-10579
▁setClient	-10580
▁strBuffer	-10581
▁threadCnt	-10582
▁unpackOne	-10583
▁valueBAOS	-10584
▁valueGtEq	-10585
(100,199)",	-10586
(1000,1000.	-10587
(101,199)",	-10588
(102,180)",	-10589
(103,199)",	-10590
(104,190)",	-10591
(105,199)",	-10592
(2,40000)",	-10593
01:00:00"),	-10594
AtFixedRate	-10595
EpochSecond	-10596
FlushedTime	-10597
InputBuffer	-10598
Interrupted	-10599
IoTDBDriver	-10600
LeftCRightO	-10601
NamePattern	-10602
SeqFileList	-10603
SessionResp	-10604
ShowTTLPlan	-10605
ToFilterMap	-10606
beforeRange	-10607
currVersion	-10608
executePlan	-10609
getDeviceID	-10610
izationList	-10611
nextVersion	-10612
oundingMode	-10613
readVersion	-10614
setInterval	-10615
strHeadInfo	-10616
stringStats	-10617
totalLength	-10618
userManager	-10619
versionInfo	-10620
▁"151478280	-10621
▁DateFormat	-10622
▁GroupedLSB	-10623
▁InOperator	-10624
▁InputSplit	-10625
▁QueryUtils	-10626
▁TTransport	-10627
▁TimeValues	-10628
▁UpgradeLog	-10629
▁addCurrent	-10630
▁asyncClose	-10631
▁booleanRet	-10632
▁cachedInfo	-10633
▁chartPanel	-10634
▁currDevice	-10635
▁deleteUser	-10636
▁emptyPaths	-10637
▁getCliPath	-10638
▁insertLock	-10639
▁isModified	-10640
▁loadTsFile	-10641
▁mNodeCache	-10642
▁outputPath	-10643
▁ptWrittens	-10644
▁queryPlans	-10645
▁readOneRow	-10646
▁setVersion	-10647
▁testOnUnix	-10648
▁testUpdate	-10649
▁updatePlan	-10650
▁upgradeLog	-10651
▁writeWidth	-10652
(50,50000)",	-10653
,20,50,25.4,	-10654
ChunkWritten	-10655
DisableAlign	-10656
FromOperator	-10657
LineAndShape	-10658
MaxFromBytes	-10659
NodeNameList	-10660
OfChunkGroup	-10661
ResourceFrom	-10662
ResultButton	-10663
ToTimeSeries	-10664
UpgradeFiles	-10665
currentIndex	-10666
getSupported	-10667
isCalculated	-10668
isTerminated	-10669
linearClause	-10670
partitionDir	-10671
snapshotFile	-10672
▁FloatTVList	-10673
▁JScrollPane	-10674
▁LogReplayer	-10675
▁MQTTService	-10676
▁SchemaUtils	-10677
▁ShowDevices	-10678
▁addOrDelete	-10679
▁arrayNumber	-10680
▁bytesBuffer	-10681
▁cachedValue	-10682
▁columnsName	-10683
▁elapsedTime	-10684
▁endPosition	-10685
▁getEncoding	-10686
▁getMaxValue	-10687
▁getMetaData	-10688
▁getMinValue	-10689
▁getOrCreate	-10690
▁getPassword	-10691
▁getSumValue	-10692
▁hybridWidth	-10693
▁millseconds	-10694
▁nextVersion	-10695
▁prefixPaths	-10696
▁prevVersion	-10697
▁querySeries	-10698
▁readNothing	-10699
▁sfwOperator	-10700
▁strHeadInfo	-10701
(102,10.00)",	-10702
(105,11.11)",	-10703
CONFIGURATION	-10704
CloseCallBack	-10705
CountOperator	-10706
DecoderByType	-10707
InsertTablets	-10708
PartitionViol	-10709
PriorityQueue	-10710
QueryResource	-10711
SeriesReaders	-10712
ServerContext	-10713
SocketAddress	-10714
TypeQueryable	-10715
endChunkGroup	-10716
gedTimeSeries	-10717
getAuthorType	-10718
getSinglePath	-10719
isAlignByTime	-10720
setAlignmentX	-10721
setCompressor	-10722
systemDefault	-10723
▁BinaryFilter	-10724
▁BinaryTVList	-10725
▁DoubleTVList	-10726
▁HashFunction	-10727
▁NotImplement	-10728
▁PlanExecutor	-10729
▁encodingTask	-10730
▁generateFile	-10731
▁getResultSet	-10732
▁hasNextBatch	-10733
▁hasRemaining	-10734
▁inPutMinTime	-10735
▁indexMapping	-10736
▁mavenWrapper	-10737
▁planFilePath	-10738
▁prepareFiles	-10739
▁printFilesIn	-10740
▁reconnecting	-10741
▁setFetchSize	-10742
▁startTimeIdx	-10743
▁strategyName	-10744
▁tempExtrNode	-10745
0,10000,40000,	-10746
BitWidthReaded	-10747
ByteBufferPair	-10748
CountDownLatch	-10749
DataFilesInOne	-10750
DateExpression	-10751
ElementContext	-10752
ForceFullMerge	-10753
IoTDBException	-10754
LargestEndTime	-10755
MultiChunkTask	-10756
PageReaderList	-10757
PublishMessage	-10758
ServerArgument	-10759
ServletHandler	-10760
TsFileDecoding	-10761
aimedTimestamp	-10762
childOperators	-10763
getBeforeRange	-10764
getBetweenDate	-10765
getBloomFilter	-10766
getColumnNames	-10767
getInputStream	-10768
initStatistics	-10769
matchedContent	-10770
metricRegistry	-10771
readByteBuffer	-10772
resultDataType	-10773
setParallelism	-10774
▁BooleanTVList	-10775
▁ISyncReceiver	-10776
▁QueryConstant	-10777
▁avgAggrResult	-10778
▁batchDataList	-10779
▁chunkMetaHeap	-10780
▁createOptions	-10781
▁currentSealed	-10782
▁fileLoaderMap	-10783
▁getBigDecimal	-10784
▁hasCachedNext	-10785
▁metaDataIndex	-10786
▁newFileWriter	-10787
▁planListModel	-10788
▁statisticsMap	-10789
▁testOnWindows	-10790
▁testReadWrite	-10791
▁unmergedPaths	-10792
(1509465660000,	-10793
(1509465720000,	-10794
7250.3748125937	-10795
ClientException	-10796
DeleteDataFiles	-10797
MetadataVisible	-10798
MinExternalSort	-10799
NoSuchAlgorithm	-10800
NodeNameContext	-10801
PropertyContext	-10802
StringDataPoint	-10803
TypeInformation	-10804
UpgradeFileLock	-10805
dataInputStream	-10806
executeNonQuery	-10807
getAndIncrement	-10808
objectinspector	-10809
setHasRemaining	-10810
startChunkGroup	-10811
▁ChunkMetadataV	-10812
▁GroupByWithout	-10813
▁LongRleEncoder	-10814
▁PublishHandler	-10815
▁ShowChildPaths	-10816
▁attributesList	-10817
▁chunkGroupSize	-10818
▁currentDataSet	-10819
▁outputDataFile	-10820
▁showTimeSeries	-10821
▁timestampArray	-10822
▁workUnsequence	-10823
(1000,1000.11)",	-10824
AllOpenedReaders	-10825
ClientThreadPool	-10826
CompressionRatio	-10827
FailureException	-10828
IMetadataQuerier	-10829
IndexNodeToQueue	-10830
PatternLogParser	-10831
SearchInChildren	-10832
StringArrayEqual	-10833
SyncSenderConfig	-10834
ZeroInteractions	-10835
creaseFileReader	-10836
currentLocalFile	-10837
propertyFilePath	-10838
sortedTimestamps	-10839
▁AlterTimeSeries	-10840
▁LastPointReader	-10841
▁SignalBatchData	-10842
▁chunkHeaderSize	-10843
▁fileInputStream	-10844
▁fileReaderCache	-10845
▁insertOneRecord	-10846
▁isAlignByDevice	-10847
▁isAllSuccessful	-10848
▁isFromOldTsFile	-10849
▁partitionDirect	-10850
▁planDetailPanel	-10851
▁recoverMemTable	-10852
▁testGroupByFill	-10853
▁updatedModFiles	-10854
%-	-10855
3_	-10856
40	-10857
52	-10858
62	-10859
7;	-10860
7>	-10861
9-	-10862
9;	-10863
</	-10864
BE	-10865
BU	-10866
CY	-10867
DT	-10868
Jp	-10869
Ny	-10870
Pw	-10871
RC	-10872
Rm	-10873
WD	-10874
YE	-10875
YS	-10876
Yx	-10877
br	-10878
hZ	-10879
jY	-10880
mr	-10881
sb	-10882
'12	-10883
("(	-10884
("+	-10885
("/	-10886
(':	-10887
(1)	-10888
)")	-10889
)];	-10890
+07	-10891
-";	-10892
--,	-10893
-1-	-10894
.5,	-10895
00)	-10896
1("	-10897
101	-10898
1],	-10899
2,,	-10900
2.4	-10901
20.	-10902
291	-10903
3")	-10904
30,	-10905
550	-10906
8,1	-10907
8,\	-10908
9,\	-10909
={}	-10910
ATI	-10911
AVG	-10912
Aut	-10913
Cha	-10914
Cir	-10915
Des	-10916
ERO	-10917
Ent	-10918
HJv	-10919
Hoo	-10920
IDC	-10921
IFY	-10922
IMP	-10923
Ips	-10924
IuM	-10925
JDK	-10926
JRE	-10927
LEG	-10928
LWE	-10929
LjE	-10930
MEN	-10931
MOD	-10932
NTH	-10933
Obj	-10934
PID	-10935
Pwd	-10936
RIB	-10937
Raw	-10938
SIs	-10939
SOR	-10940
UTH	-10941
VEN	-10942
[1,	-10943
]).	-10944
big	-10945
bnQ	-10946
bos	-10947
det	-10948
elp	-10949
exe	-10950
fos	-10951
iIx	-10952
mot	-10953
nth	-10954
pop	-10955
ttl	-10956
uri	-10957
utf	-10958
▁"8	-10959
▁%=	-10960
▁()	-10961
▁3"	-10962
▁3:	-10963
▁4:	-10964
▁5)	-10965
▁5:	-10966
▁70	-10967
▁8,	-10968
▁EX	-10969
▁GB	-10970
▁HE	-10971
▁OR	-10972
▁SC	-10973
▁TA	-10974
▁UN	-10975
▁mo	-10976
▁ns	-10977
▁pb	-10978
▁rt	-10979
▁wa	-10980
▁xx	-10981
▁xy	-10982
%-25	-10983
(15,	-10984
(5.0	-10985
."};	-10986
0"),	-10987
0.0)	-10988
0.4,	-10989
0.5,	-10990
1++;	-10991
1.2\	-10992
2,1,	-10993
2.34	-10994
25",	-10995
3.0,	-10996
323.	-10997
4)";	-10998
5.34	-10999
500:	-11000
6"),	-11001
6668	-11002
8177	-11003
9.9,	-11004
ANGE	-11005
Circ	-11006
DAEM	-11007
DOWN	-11008
HOUR	-11009
Hook	-11010
IALI	-11011
ICAL	-11012
LEAD	-11013
LITT	-11014
Plat	-11015
ULTI	-11016
UTES	-11017
VudC	-11018
YEAR	-11019
ZERO	-11020
])",	-11021
ails	-11022
cHJv	-11023
duce	-11024
getA	-11025
getC	-11026
head	-11027
heap	-11028
help	-11029
ired	-11030
istr	-11031
item	-11032
keys	-11033
mtId	-11034
ough	-11035
ours	-11036
ower	-11037
push	-11038
rand	-11039
send	-11040
senv	-11041
snap	-11042
sqls	-11043
uput	-11044
uter	-11045
▁").	-11046
▁"0"	-11047
▁"||	-11048
▁(5,	-11049
▁14,	-11050
▁15;	-11051
▁2))	-11052
▁24;	-11053
▁31,	-11054
▁40;	-11055
▁5",	-11056
▁6))	-11057
▁JMX	-11058
▁POS	-11059
▁PRE	-11060
▁Seq	-11061
▁dis	-11062
▁fut	-11063
▁mbs	-11064
▁off	-11065
▁tsf	-11066
▁}).	-11067
(""))	-11068
(200.	-11069
(70,'	-11070
(8));	-11071
,21.1	-11072
,21.4	-11073
,22.5	-11074
,22.7	-11075
-----	-11076
00,75	-11077
1,100	-11078
10");	-11079
35950	-11080
3999,	-11081
60760	-11082
80,",	-11083
8601_	-11084
95760	-11085
99"),	-11086
ATEGY	-11087
Activ	-11088
Autow	-11089
BLOCK	-11090
BOOLE	-11091
Conne	-11092
Cores	-11093
Exact	-11094
IuMTY	-11095
Known	-11096
LEASE	-11097
Linux	-11098
MONTH	-11099
Mocks	-11100
OpCnt	-11101
SEPER	-11102
VudCI	-11103
Wraps	-11104
ZmlsZ	-11105
[1]),	-11106
[3]),	-11107
\"");	-11108
_8));	-11109
activ	-11110
apply	-11111
colle	-11112
eires	-11113
erger	-11114
getTo	-11115
iIxOT	-11116
illis	-11117
isTwo	-11118
kafka	-11119
orary	-11120
plier	-11121
ratio	-11122
reads	-11123
store	-11124
super	-11125
uffTo	-11126
xFFFF	-11127
▁")";	-11128
▁"15,	-11129
▁([1,	-11130
▁1)).	-11131
▁1.34	-11132
▁123;	-11133
▁2));	-11134
▁2.2,	-11135
▁3.3,	-11136
▁4.4,	-11137
▁5));	-11138
▁5.5,	-11139
▁5000	-11140
▁77);	-11141
▁8));	-11142
▁AUTH	-11143
▁Auto	-11144
▁Blob	-11145
▁Clob	-11146
▁DISK	-11147
▁Mock	-11148
▁NODE	-11149
▁STAT	-11150
▁Task	-11151
▁disk	-11152
▁grep	-11153
▁here	-11154
▁hint	-11155
▁make	-11156
▁mean	-11157
▁orig	-11158
▁safe	-11159
▁senv	-11160
▁slot	-11161
▁yyyy	-11162
("500:	-11163
(10));	-11164
(200);	-11165
1,100,	-11166
1,888,	-11167
1.4508	-11168
3,0.1,	-11169
6.5");	-11170
6668",	-11171
7.689"	-11172
:00");	-11173
ATIBLE	-11174
BOOLEN	-11175
Belong	-11176
CLIENT	-11177
DAEMON	-11178
ENGINE	-11179
Factor	-11180
Intend	-11181
LITTLE	-11182
LOCKED	-11183
LogBox	-11184
MEMORY	-11185
MINUTE	-11186
NORMAL	-11187
OPTION	-11188
OnExit	-11189
OnRead	-11190
RECORD	-11191
RleRun	-11192
SCHEMA	-11193
SECOND	-11194
SOURCE	-11195
SumAvg	-11196
TARGET	-11197
ToRead	-11198
WithUn	-11199
ZATION	-11200
[3]));	-11201
bigint	-11202
imiter	-11203
isOpen	-11204
minVal	-11205
moting	-11206
mxPort	-11207
ofDate	-11208
ortCsv	-11209
ources	-11210
signal	-11211
stmtId	-11212
▁",");	-11213
▁"12,2	-11214
▁"3");	-11215
▁"4,4,	-11216
▁"500,	-11217
▁"7,10	-11218
▁"700,	-11219
▁22)",	-11220
▁2500;	-11221
▁44)",	-11222
▁ADMIN	-11223
▁Async	-11224
▁BATCH	-11225
▁Clear	-11226
▁Index	-11227
▁LIMIT	-11228
▁Lists	-11229
▁NClob	-11230
▁RowId	-11231
▁SerDe	-11232
▁Tests	-11233
▁build	-11234
▁dalao	-11235
▁deter	-11236
▁dummy	-11237
▁equal	-11238
▁legal	-11239
▁parts	-11240
▁power	-11241
▁reach	-11242
▁setup	-11243
▁unset	-11244
(10000)	-11245
(122.34	-11246
(125.34	-11247
,21.13,	-11248
,21.45,	-11249
,22.72,	-11250
4,0.1";	-11251
4.35950	-11252
7.689",	-11253
AndCalc	-11254
AndData	-11255
CONSOLE	-11256
Confirm	-11257
Consume	-11258
DYNAMIC	-11259
Entries	-11260
EnumMap	-11261
ForSync	-11262
GROUPBY	-11263
LEADING	-11264
LinePos	-11265
NotNULL	-11266
OrUnseq	-11267
REGULAR	-11268
RELEASE	-11269
RIBUTES	-11270
Shallow	-11271
StarsIn	-11272
Support	-11273
TServer	-11274
TaskNum	-11275
TmpFile	-11276
Utility	-11277
WARNING	-11278
allowed	-11279
ariable	-11280
compile	-11281
curNode	-11282
currDir	-11283
doCheck	-11284
essages	-11285
execReq	-11286
getDate	-11287
getPort	-11288
getSize	-11289
iOiIxOT	-11290
maxSize	-11291
perform	-11292
setFile	-11293
setPath	-11294
setTags	-11295
userDir	-11296
▁"105,1	-11297
▁"8,1,\	-11298
▁"9,1,\	-11299
▁100)",	-11300
▁100.0;	-11301
▁300.3,	-11302
▁400.4,	-11303
▁Driver	-11304
▁Loader	-11305
▁PREFIX	-11306
▁SELECT	-11307
▁SQLXML	-11308
▁STATUS	-11309
▁SYSTEM	-11310
▁action	-11311
▁canUse	-11312
▁chosen	-11313
▁getCpu	-11314
▁getDfs	-11315
▁hadoop	-11316
▁intRet	-11317
▁legend	-11318
▁lenTmp	-11319
▁openId	-11320
▁points	-11321
▁report	-11322
▁router	-11323
▁rtlist	-11324
▁socket	-11325
▁stmtId	-11326
▁stores	-11327
▁subDir	-11328
▁submit	-11329
▁trying	-11330
▁urlSet	-11331
▁waited	-11332
▁wrapAs	-11333
(200.435	-11334
80,10.0,	-11335
99999999	-11336
AlterMap	-11337
AnObject	-11338
BackLoop	-11339
BatchSQL	-11340
Circular	-11341
Elements	-11342
LogLevel	-11343
MinValue	-11344
OfChunks	-11345
OutOfTTL	-11346
PartType	-11347
Platform	-11348
Recovery	-11349
STRATEGY	-11350
StatList	-11351
TagValue	-11352
TypeName	-11353
Upgraded	-11354
UsingTTL	-11355
Validity	-11356
WaitTime	-11357
anObject	-11358
assigned	-11359
backFile	-11360
currTime	-11361
dataDirs	-11362
distance	-11363
edSeries	-11364
failover	-11365
getArity	-11366
getFlush	-11367
getForce	-11368
getMulti	-11369
getRatio	-11370
inputSQL	-11371
leftSize	-11372
maxIndex	-11373
memChunk	-11374
multiply	-11375
nextLine	-11376
nextPage	-11377
nthreads	-11378
pageSize	-11379
planList	-11380
rightRet	-11381
selectOp	-11382
setLongV	-11383
timeSize	-11384
tokenInt	-11385
▁"10,1,\	-11386
▁"6668",	-11387
▁201000;	-11388
▁3.33");	-11389
▁GORILLA	-11390
▁Mockito	-11391
▁REGULAR	-11392
▁Recover	-11393
▁Unknown	-11394
▁VEHICLE	-11395
▁Windows	-11396
▁applier	-11397
▁bpCount	-11398
▁bpStart	-11399
▁calling	-11400
▁confirm	-11401
▁crashed	-11402
▁curType	-11403
▁fillRpc	-11404
▁futures	-11405
▁fwriter	-11406
▁getFill	-11407
▁getSync	-11408
▁instant	-11409
▁jmxName	-11410
▁longRet	-11411
▁maxCost	-11412
▁nothing	-11413
▁openReq	-11414
▁queryBy	-11415
▁rawData	-11416
▁retList	-11417
▁roleMap	-11418
▁rpcPort	-11419
▁runtime	-11420
▁scanner	-11421
▁setConf	-11422
▁setHdfs	-11423
▁setName	-11424
▁srcFile	-11425
▁testMax	-11426
▁testNew	-11427
▁timeout	-11428
▁userMap	-11429
▁waiting	-11430
(2,109)",	-11431
(2000000,	-11432
(3,108)",	-11433
(4,107)",	-11434
(5,106)",	-11435
(6,105)",	-11436
(7,104)",	-11437
(8,103)",	-11438
(9,102)",	-11439
1.\"1.2.3	-11440
Autowired	-11441
BelongsTo	-11442
ChunkData	-11443
Closeable	-11444
Condition	-11445
Connector	-11446
Functions	-11447
HDFSInput	-11448
Histogram	-11449
InOnePage	-11450
MaxMemory	-11451
NotEquals	-11452
POSITIONS	-11453
ProcessID	-11454
RpcThrift	-11455
SEPERATOR	-11456
aggregate	-11457
blockSize	-11458
cHJvZmlsZ	-11459
cacheSize	-11460
cloneList	-11461
cognition	-11462
duplicate	-11463
formatter	-11464
getSuffix	-11465
initMocks	-11466
intBitsTo	-11467
isServing	-11468
leftChild	-11469
putDouble	-11470
reference	-11471
removeAll	-11472
schemaDir	-11473
setFilter	-11474
setOffset	-11475
setString	-11476
syncFlush	-11477
timeCount	-11478
uffToSend	-11479
▁"1,101,\	-11480
▁"36.5");	-11481
▁FileNode	-11482
▁Function	-11483
▁HashLock	-11484
▁LogEntry	-11485
▁actually	-11486
▁complete	-11487
▁currList	-11488
▁destFile	-11489
▁external	-11490
▁floatRet	-11491
▁floating	-11492
▁getChunk	-11493
▁getCount	-11494
▁getProps	-11495
▁hasLimit	-11496
▁internal	-11497
▁leafNode	-11498
▁loadType	-11499
▁lockFile	-11500
▁lockSize	-11501
▁logFiles	-11502
▁maxIndex	-11503
▁modFiles	-11504
▁nextFlag	-11505
▁oldValue	-11506
▁orFilter	-11507
▁original	-11508
▁readCopy	-11509
▁readable	-11510
▁reporter	-11511
▁response	-11512
▁returned	-11513
▁rightRet	-11514
▁rootOrId	-11515
▁safeRead	-11516
▁setMerge	-11517
▁tempPath	-11518
▁testLong	-11519
▁throwExp	-11520
▁timeList	-11521
▁timeSize	-11522
▁updateOp	-11523
▁writeInt	-11524
(10,101)",	-11525
(150946578	-11526
(150946596	-11527
----------	-11528
AliasChild	-11529
ArrayDeque	-11530
ByTSRecord	-11531
COMPATIBLE	-11532
CharStream	-11533
DesStrings	-11534
Duplicated	-11535
FileButton	-11536
IgnoreCase	-11537
InOperator	-11538
LatestTime	-11539
LinearFill	-11540
LoadLogger	-11541
MetaOffset	-11542
OrUnseqDir	-11543
ReadHeader	-11544
ReturnData	-11545
SelectPath	-11546
SeriesCost	-11547
Statements	-11548
SyncSchema	-11549
authorType	-11550
cloneValue	-11551
defaultInt	-11552
deleteData	-11553
formatTime	-11554
getBaseDir	-11555
headerList	-11556
historical	-11557
longBitsTo	-11558
markerRead	-11559
otSpotBean	-11560
readerList	-11561
replaceAll	-11562
targetFile	-11563
valueArray	-11564
▁CountPlan	-11565
▁JettyUtil	-11566
▁avgSeries	-11567
▁bitString	-11568
▁createDir	-11569
▁curOffset	-11570
▁deleteAll	-11571
▁doubleRet	-11572
▁enableSup	-11573
▁encodings	-11574
▁flushPool	-11575
▁getValues	-11576
▁iServices	-11577
▁inferType	-11578
▁insertCnt	-11579
▁intersect	-11580
▁loadProps	-11581
▁logFilter	-11582
▁logParser	-11583
▁maxLength	-11584
▁minFolder	-11585
▁newTsFile	-11586
▁nextBatch	-11587
▁nextValue	-11588
▁numInsert	-11589
▁pageCheck	-11590
▁panelName	-11591
▁preValues	-11592
▁readBytes	-11593
▁separator	-11594
▁timeBytes	-11595
▁typeClass	-11596
AndCalcFrom	-11597
Application	-11598
BATCHINSERT	-11599
ByteChannel	-11600
CheckThread	-11601
ColumnIndex	-11602
Definitions	-11603
Duplication	-11604
FileLinePos	-11605
GroupIOTask	-11606
IAuthorizer	-11607
IFileLoader	-11608
ListEntries	-11609
LoadDeleted	-11610
NameByLevel	-11611
PageEndTime	-11612
SqlArgument	-11613
SqlTemplate	-11614
Transaction	-11615
TsFileWrite	-11616
TsFilesPair	-11617
UpgradeTask	-11618
arrayNumber	-11619
averageSize	-11620
dataSetType	-11621
forceThread	-11622
getFilePath	-11623
getNodeType	-11624
getUserName	-11625
hasNextFile	-11626
inputString	-11627
e	-11628
▁	-11629
t	-11630
r	-11631
i	-11632
a	-11633
o	-11634
s	-11635
n	-11636
l	-11637
.	-11638
c	-11639
p	-11640
u	-11641
)	-11642
(	-11643
d	-11644
g	-11645
m	-11646
;	-11647
S	-11648
h	-11649
T	-11650
f	-11651
,	-11652
E	-11653
b	-11654
y	-11655
v	-11656
"	-11657
I	-11658
=	-11659
w	-11660
R	-11661
x	-11662
F	-11663
L	-11664
{	-11665
}	-11666
O	-11667
P	-11668
D	-11669
0	-11670
C	-11671
M	-11672
A	-11673
N	-11674
1	-11675
B	-11676
_	-11677
k	-11678
+	-11679
q	-11680
U	-11681
2	-11682
<	-11683
j	-11684
V	-11685
>	-11686
G	-11687
W	-11688
z	-11689
[	-11690
]	-11691
Q	-11692
:	-11693
3	-11694
H	-11695
@	-11696
4	-11697
6	-11698
5	-11699
\	-11700
-	-11701
9	-11702
7	-11703
8	-11704
!	-11705
Y	-11706
X	-11707
/	-11708
%	-11709
&	-11710
K	-11711
J	-11712
|	-11713
Z	-11714
'	-11715
