[PAD]	0
[UNK]	0
<s>	0
</s>	0
[SOS]	0
[EOL]	0
[EOS]	0
er	-0
on	-1
or	-2
in	-3
ti	-4
al	-5
st	-6
);	-7
re	-8
te	-9
et	-10
ic	-11
St	-12
▁p	-13
tion	-14
as	-15
ec	-16
()	-17
ch	-18
▁=	-19
ro	-20
▁{	-21
me	-22
mp	-23
▁i	-24
▁n	-25
ka	-26
es	-27
ing	-28
▁t	-29
▁}	-30
ate	-31
ap	-32
▁f	-33
at	-34
ue	-35
en	-36
bl	-37
▁c	-38
ri	-39
ar	-40
Str	-41
ort	-42
ew	-43
an	-44
inal	-45
ce	-46
Con	-47
che	-48
▁re	-49
ll	-50
▁imp	-51
String	-52
ass	-53
▁import	-54
ig	-55
op	-56
de	-57
ur	-58
ubl	-59
ublic	-60
▁public	-61
▁final	-62
▁"	-63
▁new	-64
ut	-65
ad	-66
se	-67
▁or	-68
ord	-69
fka	-70
▁s	-71
▁org	-72
▁v	-73
ert	-74
fig	-75
opic	-76
le	-77
alue	-78
ache	-79
▁st	-80
ey	-81
nt	-82
("	-83
ac	-84
();	-85
▁b	-86
ect	-87
▁th	-88
am	-89
ld	-90
id	-91
▁(	-92
kafka	-93
ption	-94
is	-95
apache	-96
arti	-97
artition	-98
it	-99
Ex	-100
get	-101
ream	-102
ff	-103
riv	-104
iz	-105
lo	-106
up	-107
ed	-108
assert	-109
",	-110
co	-111
yte	-112
ex	-113
ull	-114
urn	-115
ist	-116
ame	-117
▁@	-118
ore	-119
ception	-120
▁ret	-121
rivate	-122
▁String	-123
▁private	-124
▁assert	-125
));	-126
▁return	-127
su	-128
▁S	-129
Pro	-130
ent	-131
Config	-132
Exception	-133
ess	-134
ON	-135
Re	-136
Rec	-137
Co	-138
());	-139
ma	-140
Map	-141
li	-142
ask	-143
▁0	-144
In	-145
ter	-146
▁con	-147
oid	-148
mm	-149
ver	-150
Record	-151
ow	-152
▁T	-153
Key	-154
set	-155
tic	-156
qu	-157
List	-158
▁void	-159
con	-160
Value	-161
til	-162
▁+	-163
uc	-164
als	-165
oc	-166
ted	-167
▁in	-168
ime	-169
est	-170
ild	-171
un	-172
atic	-173
Partition	-174
reams	-175
▁static	-176
Name	-177
av	-178
▁null	-179
nect	-180
etr	-181
que	-182
ock	-183
mer	-184
uild	-185
▁j	-186
ation	-187
etric	-188
eri	-189
Res	-190
ER	-191
),	-192
put	-193
cess	-194
quals	-195
lass	-196
lient	-197
abl	-198
aliz	-199
ion	-200
mmon	-201
ag	-202
ong	-203
ava	-204
rr	-205
Test	-206
ffset	-207
time	-208
ata	-209
ss	-210
Time	-211
atch	-212
Byte	-213
▁this	-214
▁if	-215
Id	-216
(),	-217
▁m	-218
Topic	-219
▁java	-220
ode	-221
quest	-222
ers	-223
key	-224
common	-225
sumer	-226
uilder	-227
able	-228
chema	-229
yp	-230
Equals	-231
ind	-232
log	-233
erializ	-234
State	-235
row	-236
00	-237
util	-238
pon	-239
");	-240
ator	-241
exp	-242
ry	-243
CON	-244
Store	-245
Over	-246
ot	-247
ay	-248
ponse	-249
Overri	-250
ype	-251
▁assertEquals	-252
▁pro	-253
Override	-254
Mock	-255
cessor	-256
cord	-257
TI	-258
ure	-259
▁A	-260
ME	-261
all	-262
end	-263
RE	-264
<>	-265
▁w	-266
indow	-267
ST	-268
IN	-269
ffer	-270
▁1	-271
ment	-272
ran	-273
uffer	-274
nd	-275
to	-276
▁e	-277
new	-278
▁l	-279
lt	-280
FI	-281
().	-282
▁throw	-283
Task	-284
topic	-285
pro	-286
[]	-287
▁o	-288
rans	-289
).	-290
roup	-291
our	-292
▁K	-293
▁d	-294
Offset	-295
final	-296
ection	-297
ger	-298
oo	-299
ize	-300
ack	-301
and	-302
Request	-303
ucer	-304
nector	-305
Response	-306
lu	-307
bj	-308
test	-309
ource	-310
Lo	-311
ducer	-312
ho	-313
To	-314
rue	-315
Bytes	-316
ker	-317
ty	-318
act	-319
etrics	-320
err	-321
ected	-322
▁value	-323
xt	-324
text	-325
amp	-326
Fi	-327
▁for	-328
bject	-329
uct	-330
Th	-331
FIG	-332
CONFIG	-333
reate	-334
streams	-335
Type	-336
rray	-337
Builder	-338
ge	-339
▁time	-340
Coll	-341
ign	-342
1,	-343
Ms	-344
Ser	-345
▁int	-346
ead	-347
error	-348
Window	-349
ith	-350
▁V	-351
▁byte	-352
etad	-353
KeyValue	-354
etadata	-355
Object	-356
Log	-357
AL	-358
stamp	-359
TO	-360
Node	-361
Client	-362
ai	-363
upp	-364
add	-365
▁long	-366
Collection	-367
▁config	-368
ory	-369
IC	-370
ash	-371
▁Map	-372
▁topic	-373
Consumer	-374
Int	-375
▁to	-376
ve	-377
▁M	-378
oin	-379
alse	-380
expected	-381
De	-382
app	-383
▁h	-384
Streams	-385
▁partition	-386
Records	-387
▁E	-388
Inte	-389
Processor	-390
▁record	-391
uld	-392
art	-393
rror	-394
lean	-395
for	-396
▁key	-397
ult	-398
())	-399
▁C	-400
back	-401
hould	-402
ersion	-403
allback	-404
erializer	-405
Buffer	-406
Hash	-407
ance	-408
tern	-409
Stream	-410
0,	-411
MA	-412
po	-413
orker	-414
cri	-415
Integer	-416
oolean	-417
▁co	-418
value	-419
um	-420
▁test	-421
action	-422
Set	-423
And	-424
eld	-425
read	-426
▁L	-427
NA	-428
des	-429
Ass	-430
uture	-431
sh	-432
class	-433
▁==	-434
afka	-435
▁List	-436
store	-437
fi	-438
th	-439
DE	-440
▁task	-441
▁:	-442
TE	-443
Collections	-444
ext	-445
ill	-446
▁class	-447
age	-448
▁log	-449
RO	-450
Util	-451
ransaction	-452
Group	-453
alid	-454
>>	-455
▁should	-456
fo	-457
Prop	-458
Struct	-459
▁ex	-460
us	-461
▁P	-462
NAME	-463
uth	-464
Utils	-465
rent	-466
▁.	-467
Schema	-468
";	-469
▁I	-470
Context	-471
ener	-472
SE	-473
unt	-474
▁Schema	-475
LE	-476
TION	-477
TopicPartition	-478
▁Object	-479
▁throws	-480
partition	-481
))	-482
str	-483
<>(	-484
Connector	-485
▁boolean	-486
record	-487
Batch	-488
<>();	-489
han	-490
pi	-491
out	-492
etch	-493
opo	-494
opolog	-495
PIC	-496
Inter	-497
AS	-498
lose	-499
2,	-500
▁!	-501
opology	-502
UE	-503
Null	-504
Supp	-505
ster	-506
Array	-507
eg	-508
HashMap	-509
▁a	-510
bs	-511
fa	-512
mpty	-513
mmit	-514
Data	-515
▁builder	-516
asy	-517
Des	-518
el	-519
mple	-520
Metadata	-521
eader	-522
unit	-523
name	-524
CH	-525
ress	-526
(1	-527
int	-528
config	-529
junit	-530
connect	-531
True	-532
son	-533
col	-534
tocol	-535
KE	-536
Un	-537
Ent	-538
group	-539
em	-540
du	-541
Error	-542
Producer	-543
ID	-544
urrent	-545
luster	-546
▁-	-547
For	-548
▁is	-549
size	-550
be	-551
acka	-552
ackage	-553
ecu	-554
▁package	-555
cription	-556
terator	-557
▁!=	-558
▁client	-559
ink	-560
Version	-561
anag	-562
illis	-563
Configs	-564
With	-565
ly	-566
expect	-567
TOPIC	-568
Serde	-569
asyMock	-570
VAL	-571
Info	-572
▁KeyValue	-573
ByteBuffer	-574
0000	-575
▁expected	-576
Manag	-577
eck	-578
date	-579
"));	-580
Fact	-581
▁<	-582
sing	-583
Manager	-584
KEY	-585
▁assertTrue	-586
client	-587
bal	-588
poch	-589
pl	-590
let	-591
alu	-592
Entry	-593
red	-594
AR	-595
ast	-596
Callback	-597
ps	-598
▁ma	-599
lier	-600
alues	-601
ens	-602
Size	-603
assign	-604
ain	-605
All	-606
ordin	-607
ordinator	-608
UT	-609
▁Kafka	-610
Field	-611
▁consumer	-612
ail	-613
ber	-614
▁store	-615
erialized	-616
sult	-617
leton	-618
stream	-619
append	-620
ase	-621
Factory	-622
tp	-623
▁?	-624
ond	-625
vert	-626
ession	-627
econd	-628
byte	-629
Future	-630
▁false	-631
rity	-632
Table	-633
ecurity	-634
ir	-635
")	-636
own	-637
▁Array	-638
▁create	-639
▁the	-640
asl	-641
▁error	-642
▁ch	-643
river	-644
On	-645
lse	-646
▁res	-647
ransfor	-648
bscription	-649
▁try	-650
ensor	-651
Ac	-652
Assign	-653
rom	-654
nel	-655
Json	-656
TIME	-657
▁Long	-658
▁Mock	-659
Partitions	-660
▁else	-661
▁get	-662
OR	-663
of	-664
▁Time	-665
ING	-666
REA	-667
task	-668
create	-669
Count	-670
singleton	-671
ition	-672
Intern	-673
Internal	-674
Hand	-675
CL	-676
per	-677
entry	-678
sion	-679
ler	-680
▁true	-681
▁{}	-682
▁de	-683
Result	-684
▁str	-685
ments	-686
▁Collections	-687
▁exte	-688
FF	-689
▁state	-690
ader	-691
Iterator	-692
processor	-693
▁offset	-694
valid	-695
bstr	-696
null	-697
▁HashMap	-698
▁be	-699
(0	-700
VALUE	-701
metrics	-702
fault	-703
Supplier	-704
▁node	-705
uper	-706
Not	-707
atus	-708
loc	-709
sed	-710
med	-711
res	-712
▁EasyMock	-713
Timestamp	-714
bstract	-715
ct	-716
▁super	-717
▁buffer	-718
Topics	-719
intern	-720
▁me	-721
Listener	-722
▁Integer	-723
Class	-724
Metrics	-725
Join	-726
▁Topic	-727
INT	-728
sl	-729
Windowed	-730
state	-731
▁result	-732
Auth	-733
▁name	-734
yn	-735
▁2	-736
▁props	-737
consumer	-738
Be	-739
iti	-740
Epoch	-741
AD	-742
▁extend	-743
gin	-744
▁extends	-745
pa	-746
uration	-747
getBytes	-748
Chan	-749
"),	-750
▁of	-751
LO	-752
Metric	-753
ubscription	-754
eaders	-755
ties	-756
econds	-757
CE	-758
Offsets	-759
▁Exception	-760
▁Streams	-761
run	-762
▁Config	-763
AN	-764
▁0,	-765
▁producer	-766
Serializer	-767
io	-768
File	-769
current	-770
▁&	-771
SER	-772
CHE	-773
Keys	-774
internals	-775
FA	-776
mo	-777
▁catch	-778
ip	-779
Ad	-780
Long	-781
STR	-782
attern	-783
ken	-784
\"	-785
min	-786
verter	-787
tro	-788
mpl	-789
()));	-790
Tasks	-791
Assert	-792
Connect	-793
lter	-794
node	-795
Mess	-796
".	-797
False	-798
tive	-799
stance	-800
No	-801
Fetch	-802
▁se	-803
▁not	-804
CO	-805
ire	-806
lugin	-807
Worker	-808
mat	-809
Logger	-810
▁worker	-811
▁TopicPartition	-812
▁R	-813
LT	-814
ait	-815
empty	-816
▁Error	-817
Cache	-818
Commit	-819
clients	-820
CHEMA	-821
der	-822
orted	-823
▁ByteBuffer	-824
ded	-825
duce	-826
▁Ser	-827
(0,	-828
has	-829
Transaction	-830
fy	-831
▁Th	-832
kstream	-833
request	-834
update	-835
▁group	-836
▁records	-837
Of	-838
▁batch	-839
▁connector	-840
ector	-841
▁&&	-842
▁Record	-843
SCHEMA	-844
▁Processor	-845
MS	-846
ARTI	-847
Deserializer	-848
ser	-849
▁O	-850
▁version	-851
lobal	-852
egal	-853
▁Errors	-854
(1,	-855
ARTITION	-856
ower	-857
▁request	-858
llegal	-859
▁Set	-860
os	-861
protocol	-862
ten	-863
TR	-864
Header	-865
▁context	-866
▁window	-867
Kafka	-868
emory	-869
That	-870
one	-871
start	-872
ning	-873
By	-874
NO	-875
Topology	-876
bu	-877
▁max	-878
▁assertFalse	-879
Proper	-880
▁struct	-881
1",	-882
gr	-883
▁metrics	-884
Properties	-885
.<	-886
VER	-887
illiseconds	-888
▁driver	-889
SI	-890
entic	-891
▁fi	-892
ak	-893
Server	-894
reg	-895
▁0;	-896
▁timestamp	-897
MAX	-898
Source	-899
asList	-900
Up	-901
Values	-902
Ret	-903
milliseconds	-904
▁(!	-905
ONE	-906
rite	-907
ConsumerRecord	-908
enti	-909
errors	-910
offset	-911
UP	-912
ath	-913
Next	-914
led	-915
IT	-916
tain	-917
producer	-918
security	-919
OException	-920
Read	-921
▁/	-922
with	-923
NE	-924
Handler	-925
SET	-926
ssage	-927
1.	-928
Def	-929
aterialized	-930
If	-931
utils	-932
ht	-933
▁3	-934
TimeMs	-935
connector	-936
Dele	-937
inc	-938
pre	-939
DO	-940
stor	-941
▁num	-942
▁partitions	-943
sumed	-944
MP	-945
NONE	-946
close	-947
erialization	-948
plic	-949
Thread	-950
▁metadata	-951
Par	-952
lush	-953
pec	-954
▁Illegal	-955
Input	-956
▁Test	-957
Protocol	-958
TOR	-959
ression	-960
Api	-961
▁assertThat	-962
▁Struct	-963
tt	-964
otal	-965
▁set	-966
itializ	-967
port	-968
Converter	-969
her	-970
Resource	-971
▁response	-972
rg	-973
▁assign	-974
▁processor	-975
ASS	-976
ul	-977
▁Task	-978
Millis	-979
tains	-980
source	-981
Invalid	-982
ULT	-983
apt	-984
▁100	-985
rap	-986
Comp	-987
Stor	-988
En	-989
cribe	-990
StateStore	-991
UR	-992
ument	-993
eng	-994
metric	-995
ength	-996
FFSET	-997
utput	-998
Return	-999
)));	-1000
apture	-1001
Empty	-1002
Ch	-1003
▁wh	-1004
next	-1005
Message	-1006
Get	-1007
Arg	-1008
▁entry	-1009
erty	-1010
Impl	-1011
Coordinator	-1012
▁ac	-1013
pare	-1014
DEFA	-1015
Login	-1016
DEFAULT	-1017
StreamsConfig	-1018
[]>	-1019
<?	-1020
PARTITION	-1021
rinc	-1022
Restore	-1023
AT	-1024
rincip	-1025
fore	-1026
ized	-1027
rincipal	-1028
REAM	-1029
▁streams	-1030
((	-1031
build	-1032
STRING	-1033
RES	-1034
hort	-1035
▁ArrayList	-1036
Dir	-1037
owerMock	-1038
EN	-1039
▁KTable	-1040
quen	-1041
▁ser	-1042
Throw	-1043
STREAM	-1044
Add	-1045
▁source	-1046
▁transaction	-1047
ra	-1048
lements	-1049
fix	-1050
▁g	-1051
equals	-1052
Timeout	-1053
qual	-1054
PL	-1055
war	-1056
▁send	-1057
use	-1058
yst	-1059
ystem	-1060
▁instance	-1061
▁id	-1062
ner	-1063
From	-1064
Channel	-1065
Call	-1066
▁start	-1067
ms	-1068
contains	-1069
▁expect	-1070
▁pre	-1071
▁future	-1072
▁schema	-1073
00000000	-1074
mock	-1075
TaskId	-1076
nection	-1077
Pre	-1078
ypes	-1079
Status	-1080
host	-1081
▁un	-1082
redenti	-1083
Le	-1084
Last	-1085
▁now	-1086
rott	-1087
iter	-1088
)),	-1089
ine	-1090
move	-1091
CLASS	-1092
Property	-1093
(2	-1094
▁op	-1095
comp	-1096
HashSet	-1097
▁close	-1098
ol	-1099
ron	-1100
unct	-1101
ved	-1102
▁cache	-1103
oubl	-1104
unctu	-1105
-00000000	-1106
NEC	-1107
▁0);	-1108
chron	-1109
CONNEC	-1110
ouble	-1111
Errors	-1112
▁check	-1113
Send	-1114
ynchron	-1115
3,	-1116
SS	-1117
pe	-1118
▁en	-1119
field	-1120
Argument	-1121
long	-1122
tec	-1123
Comple	-1124
▁Field	-1125
tected	-1126
ags	-1127
▁protected	-1128
any	-1129
om	-1130
The	-1131
Back	-1132
Props	-1133
und	-1134
Sensor	-1135
auth	-1136
schema	-1137
QUE	-1138
Update	-1139
this	-1140
▁metric	-1141
▁subscription	-1142
[],	-1143
air	-1144
other	-1145
▁Serdes	-1146
ork	-1147
▁case	-1148
Versions	-1149
Sasl	-1150
▁add	-1151
▁implements	-1152
ries	-1153
Fail	-1154
▁PowerMock	-1155
4,	-1156
()).	-1157
buffer	-1158
rottle	-1159
ated	-1160
▁D	-1161
Code	-1162
abled	-1163
▁Node	-1164
▁mock	-1165
Per	-1166
balance	-1167
Fl	-1168
UN	-1169
)).	-1170
ust	-1171
▁>	-1172
annel	-1173
od	-1174
not	-1175
▁//	-1176
arget	-1177
check	-1178
0);	-1179
OUT	-1180
▁callback	-1181
Assignment	-1182
version	-1183
ATION	-1184
.");	-1185
Session	-1186
▁Offset	-1187
▁);	-1188
serialization	-1189
32	-1190
Se	-1191
vid	-1192
OFFSET	-1193
length	-1194
quence	-1195
▁instanceof	-1196
▁H	-1197
ATE	-1198
▁on	-1199
ailed	-1200
imple	-1201
ange	-1202
supp	-1203
echan	-1204
echanis	-1205
true	-1206
erify	-1207
Cluster	-1208
TY	-1209
Token	-1210
emoryRecords	-1211
▁IOException	-1212
++	-1213
type	-1214
Option	-1215
arer	-1216
Default	-1217
.",	-1218
▁B	-1219
Run	-1220
roker	-1221
▁size	-1222
erialize	-1223
amet	-1224
Serdes	-1225
▁Arrays	-1226
window	-1227
ity	-1228
▁bytes	-1229
="	-1230
isEmpty	-1231
Pattern	-1232
▁configs	-1233
Start	-1234
PO	-1235
AC	-1236
▁Abstract	-1237
ile	-1238
arse	-1239
2.	-1240
End	-1241
minClient	-1242
▁1,	-1243
Sink	-1244
toString	-1245
PE	-1246
mber	-1247
▁verify	-1248
▁with	-1249
worker	-1250
getValue	-1251
▁Objects	-1252
ei	-1253
Recei	-1254
Stores	-1255
foo	-1256
fter	-1257
Filter	-1258
AP	-1259
ight	-1260
qualTo	-1261
ound	-1262
Names	-1263
▁fetch	-1264
poll	-1265
vider	-1266
ynchronized	-1267
ake	-1268
()),	-1269
ADER	-1270
pp	-1271
▁",	-1272
▁data	-1273
PRO	-1274
▁Properties	-1275
▁comp	-1276
▁Metric	-1277
2",	-1278
requests	-1279
timestamp	-1280
etw	-1281
▁update	-1282
▁message	-1283
Num	-1284
LastCall	-1285
GRO	-1286
lock	-1287
GROUP	-1288
Transfor	-1289
ASK	-1290
Match	-1291
Valid	-1292
▁subscriptions	-1293
IZ	-1294
ROR	-1295
ERROR	-1296
Poin	-1297
leader	-1298
LI	-1299
▁all	-1300
QUEST	-1301
REQUEST	-1302
api	-1303
ingStore	-1304
andReturn	-1305
<>("	-1306
greg	-1307
▁synchronized	-1308
data	-1309
wait	-1310
▁Topology	-1311
▁System	-1312
▁coordinator	-1313
aas	-1314
Produce	-1315
Non	-1316
vel	-1317
▁short	-1318
▁Connector	-1319
fre	-1320
ressionType	-1321
ave	-1322
Or	-1323
Authentic	-1324
▁Windowed	-1325
▁5	-1326
Acl	-1327
oll	-1328
▁State	-1329
Windows	-1330
Close	-1331
▁join	-1332
Common	-1333
Oper	-1334
annot	-1335
▁File	-1336
▁that	-1337
ek	-1338
ORD	-1339
cop	-1340
▁Partition	-1341
down	-1342
max	-1343
sions	-1344
▁ConfigDef	-1345
mk	-1346
fresh	-1347
quire	-1348
▁des	-1349
▁fail	-1350
TestUtils	-1351
0]	-1352
▁app	-1353
▁KStream	-1354
DOC	-1355
ause	-1356
runtime	-1357
Bearer	-1358
Before	-1359
Mapper	-1360
ationException	-1361
etwork	-1362
echanism	-1363
concurrent	-1364
▁list	-1365
singletonMap	-1366
Prefix	-1367
ApiKeys	-1368
▁stream	-1369
▁MemoryRecords	-1370
Path	-1371
ameters	-1372
Suppress	-1373
redential	-1374
xn	-1375
▁Type	-1376
code	-1377
irect	-1378
▁server	-1379
[]>>	-1380
▁1);	-1381
▁type	-1382
ach	-1383
partitions	-1384
Is	-1385
cum	-1386
transaction	-1387
cr	-1388
AuthBearer	-1389
▁\"	-1390
lear	-1391
erder	-1392
▁equalTo	-1393
tom	-1394
▁KSTREAM	-1395
CONNECTOR	-1396
▁inter	-1397
▁exception	-1398
rint	-1399
commit	-1400
▁headers	-1401
ages	-1402
by	-1403
ired	-1404
Groups	-1405
tomic	-1406
lugins	-1407
64	-1408
rest	-1409
▁Api	-1410
▁Connect	-1411
Provider	-1412
War	-1413
fetch	-1414
Getter	-1415
kn	-1416
bug	-1417
ationId	-1418
▁cluster	-1419
▁F	-1420
Arrays	-1421
▁transfor	-1422
▁IllegalArgument	-1423
pipe	-1424
Reset	-1425
utdown	-1426
App	-1427
WindowStore	-1428
▁current	-1429
02	-1430
short	-1431
types	-1432
Failure	-1433
▁thread	-1434
StateException	-1435
UM	-1436
▁Con	-1437
pipeInput	-1438
ub	-1439
▁Ex	-1440
dule	-1441
▁from	-1442
ED	-1443
wo	-1444
Warning	-1445
▁default	-1446
Assignor	-1447
Warnings	-1448
getClass	-1449
▁Timestamp	-1450
expectLastCall	-1451
(2,	-1452
AMP	-1453
load	-1454
count	-1455
Loader	-1456
SuppressWarnings	-1457
pt	-1458
Flight	-1459
are	-1460
lector	-1461
▁ConsumerRecord	-1462
▁4	-1463
Spec	-1464
Level	-1465
▁RecordBatch	-1466
RecordBatch	-1467
def	-1468
known	-1469
▁commit	-1470
▁next	-1471
▁Bytes	-1472
im	-1473
Driver	-1474
gic	-1475
ConsumerConfig	-1476
{}	-1477
rowable	-1478
JsonProperty	-1479
BLE	-1480
▁TO	-1481
0));	-1482
ASL	-1483
ract	-1484
andby	-1485
cram	-1486
getName	-1487
user	-1488
▁supp	-1489
▁table	-1490
builder	-1491
MIT	-1492
rst	-1493
join	-1494
▁Un	-1495
false	-1496
getKey	-1497
▁HashSet	-1498
ep	-1499
GE	-1500
Unit	-1501
send	-1502
5,	-1503
lic	-1504
ofMillis	-1505
▁has	-1506
inked	-1507
TED	-1508
word	-1509
▁Utils	-1510
remove	-1511
▁k	-1512
pos	-1513
▁{}",	-1514
recordFactory	-1515
▁x	-1516
face	-1517
▁read	-1518
irectory	-1519
▁StreamsBuilder	-1520
1);	-1521
val	-1522
ONSE	-1523
batch	-1524
▁status	-1525
wrap	-1526
Describe	-1527
nio	-1528
Create	-1529
dition	-1530
▁while	-1531
RESP	-1532
RESPONSE	-1533
ProcessorContext	-1534
▁seg	-1535
▁Session	-1536
ecurityProtocol	-1537
▁valid	-1538
Parameters	-1539
▁Ac	-1540
itialize	-1541
IAL	-1542
cope	-1543
Output	-1544
Op	-1545
[0]	-1546
▁al	-1547
▁Worker	-1548
▁Producer	-1549
LOG	-1550
temp	-1551
format	-1552
records	-1553
play	-1554
▁Thread	-1555
Sequence	-1556
position	-1557
eart	-1558
info	-1559
supported	-1560
▁->	-1561
timer	-1562
values	-1563
iterator	-1564
rottleTimeMs	-1565
assword	-1566
▁N	-1567
▁"1	-1568
Process	-1569
OO	-1570
ces	-1571
num	-1572
beat	-1573
eartbeat	-1574
REATE	-1575
EasyMock	-1576
>,	-1577
used	-1578
bytes	-1579
IALIZ	-1580
table	-1581
Wh	-1582
il	-1583
bo	-1584
").	-1585
▁at	-1586
SERIALIZ	-1587
main	-1588
assertEquals	-1589
KeyValueStore	-1590
PUT	-1591
TIMEOUT	-1592
plica	-1593
Abstract	-1594
cept	-1595
form	-1596
illi	-1597
▁exp	-1598
context	-1599
01	-1600
ync	-1601
▁Fetch	-1602
arg	-1603
▁hand	-1604
▁topics	-1605
DU	-1606
leep	-1607
Ag	-1608
TH	-1609
ecut	-1610
ribu	-1611
cluster	-1612
gd	-1613
Txn	-1614
gdor	-1615
Milli	-1616
prepare	-1617
▁Consumer	-1618
NonNull	-1619
EpochMilli	-1620
debug	-1621
▁0)	-1622
▁Logger	-1623
▁Throwable	-1624
ocket	-1625
SION	-1626
▁end	-1627
▁no	-1628
cy	-1629
MMIT	-1630
Only	-1631
Fields	-1632
Enabled	-1633
Principal	-1634
off	-1635
Global	-1636
(3	-1637
[]{	-1638
ool	-1639
taskId	-1640
▁member	-1641
singletonList	-1642
require	-1643
▁tp	-1644
Exten	-1645
process	-1646
▁offsets	-1647
AndMetadata	-1648
▁'	-1649
Tags	-1650
mport	-1651
active	-1652
OUR	-1653
mation	-1654
mportance	-1655
▁topology	-1656
▁do	-1657
race	-1658
ward	-1659
ating	-1660
KTable	-1661
ClientConfigs	-1662
Delete	-1663
comple	-1664
maining	-1665
ok	-1666
TER	-1667
▁};	-1668
HE	-1669
BE	-1670
▁Sasl	-1671
NullPoin	-1672
▁Run	-1673
ecutor	-1674
pected	-1675
NullPointer	-1676
ax	-1677
SSL	-1678
▁ssl	-1679
transfor	-1680
egin	-1681
pair	-1682
slf	-1683
Change	-1684
Interr	-1685
troll	-1686
▁Atomic	-1687
Interrup	-1688
ab	-1689
▁taskId	-1690
6,	-1691
TYPE	-1692
aten	-1693
▁Ass	-1694
▁KafkaFuture	-1695
Check	-1696
parse	-1697
requireNonNull	-1698
OURCE	-1699
porter	-1700
▁TOPIC	-1701
▁field	-1702
entrySet	-1703
Mo	-1704
trol	-1705
trogdor	-1706
After	-1707
lay	-1708
prepareResponse	-1709
irst	-1710
▁first	-1711
▁TaskId	-1712
no	-1713
ence	-1714
Deleg	-1715
▁Sensor	-1716
▁OAuthBearer	-1717
les	-1718
TASK	-1719
response	-1720
TimeoutMs	-1721
CREATE	-1722
SERVER	-1723
hasNext	-1724
hutdown	-1725
ProducerConfig	-1726
write	-1727
++)	-1728
▁});	-1729
flush	-1730
Address	-1731
Capture	-1732
▁timeout	-1733
IS	-1734
ati	-1735
tract	-1736
BOO	-1737
print	-1738
ations	-1739
>()	-1740
sleep	-1741
▁ofEpochMilli	-1742
▁Comp	-1743
struct	-1744
▁assignment	-1745
topicPartition	-1746
2);	-1747
ister	-1748
ify	-1749
gration	-1750
Condition	-1751
reak	-1752
>)	-1753
Down	-1754
▁javax	-1755
▁channel	-1756
▁option	-1757
Duration	-1758
TestDriver	-1759
▁materialized	-1760
ybe	-1761
topics	-1762
▁string	-1763
▁Cluster	-1764
34	-1765
▁W	-1766
▁((	-1767
▁break	-1768
▁TimestampType	-1769
ZE	-1770
Done	-1771
SIZE	-1772
▁other	-1773
▁storeName	-1774
Transformer	-1775
Ssl	-1776
▁par	-1777
STAMP	-1778
GIC	-1779
ses	-1780
▁and	-1781
▁Chan	-1782
▁global	-1783
Configuration	-1784
▁Materialized	-1785
▁shouldThrow	-1786
▁have	-1787
\":	-1788
cei	-1789
low	-1790
▁ad	-1791
match	-1792
▁accum	-1793
▁In	-1794
(0);	-1795
arent	-1796
local	-1797
emptySet	-1798
DS	-1799
define	-1800
ary	-1801
▁Log	-1802
apper	-1803
▁epoch	-1804
Options	-1805
troller	-1806
Directory	-1807
7,	-1808
▁VR	-1809
▁Simple	-1810
Max	-1811
SASL	-1812
▁Acl	-1813
▁put	-1814
future	-1815
NT	-1816
Append	-1817
Number	-1818
UST	-1819
▁Source	-1820
Messages	-1821
▁consumed	-1822
Interrupted	-1823
alloc	-1824
Leader	-1825
ByteArray	-1826
▁TestUtils	-1827
▁MetricName	-1828
Void	-1829
PLIC	-1830
▁SchemaBuilder	-1831
▁ag	-1832
▁an	-1833
ug	-1834
POCH	-1835
▁conn	-1836
callback	-1837
8,	-1838
VE	-1839
WN	-1840
ice	-1841
atency	-1842
▁toString	-1843
▁configure	-1844
ConnectorConfig	-1845
INTER	-1846
▁abstract	-1847
▁total	-1848
▁KeyValueStore	-1849
ace	-1850
COMMIT	-1851
iginal	-1852
ressed	-1853
verify	-1854
MetricName	-1855
▁expectedKey	-1856
▁Json	-1857
▁wait	-1858
▁Internal	-1859
timeException	-1860
ody	-1861
ched	-1862
▁build	-1863
▁Collection	-1864
--	-1865
DB	-1866
▁broker	-1867
▁Request	-1868
▁Describe	-1869
Credential	-1870
▁run	-1871
▁Client	-1872
▁Produce	-1873
▁assertNull	-1874
ost	-1875
Nodes	-1876
▁Class	-1877
Connection	-1878
▁iter	-1879
▁updated	-1880
ite	-1881
ree	-1882
message	-1883
vok	-1884
Reg	-1885
ponses	-1886
▁leader	-1887
aasConfig	-1888
000	-1889
sum	-1890
ready	-1891
header	-1892
quired	-1893
Backoff	-1894
ashCode	-1895
result	-1896
▁append	-1897
TopologyBuilder	-1898
▁1;	-1899
▁base	-1900
States	-1901
metricName	-1902
▁bl	-1903
mplate	-1904
allocate	-1905
uthentic	-1906
Repartition	-1907
(5	-1908
When	-1909
Latch	-1910
Te	-1911
KER	-1912
sure	-1913
Refresh	-1914
Su	-1915
▁?>	-1916
emptyList	-1917
▁selector	-1918
OP	-1919
arr	-1920
▁Serde	-1921
▁header	-1922
IL	-1923
ArrayList	-1924
storeName	-1925
arker	-1926
itial	-1927
▁topicPartition	-1928
ery	-1929
▁kafka	-1930
Extract	-1931
As	-1932
Failed	-1933
gregate	-1934
\\	-1935
ifi	-1936
map	-1937
Acls	-1938
array	-1939
osition	-1940
BackingStore	-1941
ute	-1942
Cre	-1943
last	-1944
Extensions	-1945
▁throttleTimeMs	-1946
▁+=	-1947
▁api	-1948
ceptor	-1949
▁comple	-1950
▁windowSize	-1951
ml	-1952
UID	-1953
▁},	-1954
Headers	-1955
InBytes	-1956
AndValue	-1957
▁Invalid	-1958
Subscription	-1959
Qu	-1960
YY	-1961
kip	-1962
from	-1963
▁Linked	-1964
DI	-1965
TT	-1966
lai	-1967
poin	-1968
Reporter	-1969
TES	-1970
▁session	-1971
BU	-1972
Memory	-1973
▁Metrics	-1974
initialize	-1975
coordinator	-1976
TIMESTAMP	-1977
icate	-1978
ternal	-1979
startTime	-1980
ationToken	-1981
FlightRequest	-1982
=[	-1983
configure	-1984
subscription	-1985
RestoreListener	-1986
conn	-1987
MAGIC	-1988
▁prepare	-1989
shake	-1990
9,	-1991
RU	-1992
ORE	-1993
▁out	-1994
Active	-1995
Joiner	-1996
▁shouldNot	-1997
MetricValue	-1998
ayload	-1999
ending	-2000
▁Create	-2001
Grap	-2002
Graph	-2003
▁input	-2004
OffsetCommit	-2005
REC	-2006
verted	-2007
▁count	-2008
ual	-2009
▁can	-2010
First	-2011
▁spec	-2012
Punctu	-2013
inding	-2014
channel	-2015
▁assertNot	-2016
▁rebalance	-2017
ABLE	-2018
▁sink	-2019
ulator	-2020
DelegationToken	-2021
ft	-2022
ns	-2023
rc	-2024
One	-2025
▁MA	-2026
Boolean	-2027
▁Future	-2028
▁DEFAULT	-2029
uto	-2030
dest	-2031
RecordMetadata	-2032
0+	-2033
lement	-2034
metadata	-2035
Extractor	-2036
Dis	-2037
Counts	-2038
RECORD	-2039
▁number	-2040
ATA	-2041
ssl	-2042
EPOCH	-2043
Template	-2044
▁Pattern	-2045
IOException	-2046
▁J	-2047
Completion	-2048
Expi	-2049
SERIALIZER	-2050
init	-2051
SECON	-2052
props	-2053
▁recei	-2054
GraphNode	-2055
CallbackHandler	-2056
ging	-2057
▁com	-2058
Module	-2059
.0	-2060
CK	-2061
Ready	-2062
Batches	-2063
▁apply	-2064
Control	-2065
tionException	-2066
Allow	-2067
fer	-2068
eded	-2069
▁arg	-2070
STORE	-2071
▁sasl	-2072
global	-2073
▁change	-2074
Rebalance	-2075
RI	-2076
▁10	-2077
Replica	-2078
▁StreamsConfig	-2079
Flush	-2080
eriod	-2081
dex	-2082
▁-1	-2083
▁ms	-2084
dele	-2085
▁internal	-2086
Integration	-2087
MET	-2088
User	-2089
Binding	-2090
containsKey	-2091
CommonFields	-2092
Stop	-2093
cache	-2094
▁login	-2095
headers	-2096
▁process	-2097
▁Subscription	-2098
ark	-2099
total	-2100
replay	-2101
emptyMap	-2102
Transactions	-2103
ENT	-2104
orre	-2105
sink	-2106
▁old	-2107
▁parent	-2108
▁options	-2109
};	-2110
Received	-2111
▁Importance	-2112
list	-2113
Clear	-2114
▁write	-2115
localhost	-2116
argetState	-2117
10	-2118
Seg	-2119
Sche	-2120
loat	-2121
isDone	-2122
plicas	-2123
complete	-2124
▁StringBuilder	-2125
xB	-2126
xC	-2127
Write	-2128
login	-2129
▁token	-2130
▁NullPointer	-2131
PartitionData	-2132
Out	-2133
org	-2134
▁Value	-2135
USTER	-2136
▁file	-2137
SECONDS	-2138
RestoreCallback	-2139
(4	-2140
stored	-2141
▁keySerde	-2142
Should	-2143
▁herder	-2144
exception	-2145
AdminClient	-2146
ample	-2147
atest	-2148
▁last	-2149
00,	-2150
PLA	-2151
()))	-2152
Host	-2153
Rest	-2154
SERDE	-2155
Reader	-2156
CONFIGS	-2157
▁format	-2158
my	-2159
YTES	-2160
rust	-2161
eryable	-2162
▁double	-2163
compare	-2164
Expected	-2165
▁Interrupted	-2166
xA	-2167
etched	-2168
sensor	-2169
topicName	-2170
▁producerId	-2171
ln	-2172
Met	-2173
vice	-2174
ADATA	-2175
▁dele	-2176
default	-2177
println	-2178
METADATA	-2179
annotation	-2180
▁6	-2181
Que	-2182
▁"-	-2183
laim	-2184
▁produce	-2185
▁Consumed	-2186
▁interface	-2187
▁expectedKeys	-2188
12	-2189
vio	-2190
vious	-2191
▁Join	-2192
56	-2193
▁2,	-2194
input	-2195
istry	-2196
keySerde	-2197
ValueGetter	-2198
▁Unsupported	-2199
Ev	-2200
Loc	-2201
AndClear	-2202
Interval	-2203
▁listener	-2204
CODE	-2205
▁min	-2206
uccess	-2207
16	-2208
EX	-2209
eq	-2210
(1);	-2211
base	-2212
PRODU	-2213
▁1000	-2214
Entries	-2215
▁Metadata	-2216
▁STR	-2217
▁restore	-2218
▁MockProcessor	-2219
..	-2220
MAP	-2221
Date	-2222
akeup	-2223
▁Stream	-2224
Shutdown	-2225
Ne	-2226
ACK	-2227
tim	-2228
xml	-2229
(0));	-2230
▁values	-2231
▁iterator	-2232
▁PARTITION	-2233
AGE	-2234
Double	-2235
olation	-2236
TopicName	-2237
two	-2238
▁it	-2239
sasl	-2240
▁will	-2241
HEADER	-2242
RUCache	-2243
▁principal	-2244
▁transformed	-2245
▁SimpleRecord	-2246
LL	-2247
otstr	-2248
point	-2249
tention	-2250
OutputStream	-2251
checkAndClear	-2252
raw	-2253
ateg	-2254
▁output	-2255
Mechanism	-2256
▁MockTime	-2257
09	-2258
ReadOnly	-2259
ProcessResult	-2260
xE	-2261
3",	-2262
▁>=	-2263
▁MAX	-2264
▁magic	-2265
otstrap	-2266
▁TimeUnit	-2267
Obj	-2268
amc	-2269
FFER	-2270
hamc	-2271
ility	-2272
▁retry	-2273
hamcrest	-2274
▁batches	-2275
EL	-2276
UTH	-2277
FIEL	-2278
TSTR	-2279
Plugin	-2280
TSTRAP	-2281
ackson	-2282
▁inner	-2283
▁filter	-2284
▁segment	-2285
▁resource	-2286
▁CompressionType	-2287
▁le	-2288
oriz	-2289
magic	-2290
SERVERS	-2291
xF	-2292
KNO	-2293
ats	-2294
KNOWN	-2295
▁when	-2296
TOPICS	-2297
server	-2298
UNKNOWN	-2299
Unknown	-2300
▁sensor	-2301
PARTITIONS	-2302
At	-2303
LEAN	-2304
ROTT	-2305
Queue	-2306
beros	-2307
ROTTLE	-2308
Throwable	-2309
Description	-2310
▁workerTask	-2311
SH	-2312
faster	-2313
rement	-2314
jackson	-2315
▁STRING	-2316
resource	-2317
fasterxml	-2318
▁connection	-2319
DOW	-2320
lim	-2321
ists	-2322
INDOW	-2323
▁Data	-2324
▁sing	-2325
StoreName	-2326
InputStream	-2327
▁StateStore	-2328
ard	-2329
Stand	-2330
▁KafkaStreams	-2331
uf	-2332
CER	-2333
prec	-2334
▁target	-2335
assignment	-2336
mb	-2337
bar	-2338
easy	-2339
pace	-2340
▁active	-2341
easymock	-2342
▁KafkaException	-2343
ANS	-2344
MPTY	-2345
▁are	-2346
FIELD	-2347
Receive	-2348
assigned	-2349
31	-2350
xD	-2351
Lay	-2352
LTER	-2353
▁inc	-2354
BYTES	-2355
urable	-2356
▁Default	-2357
▁SessionWindow	-2358
unc	-2359
kipp	-2360
rand	-2361
istent	-2362
▁cause	-2363
timeout	-2364
gregator	-2365
Av	-2366
Pair	-2367
Poll	-2368
file	-2369
Access	-2370
string	-2371
Consumed	-2372
Sel	-2373
stop	-2374
ting	-2375
▁init	-2376
▁results	-2377
BOOTSTRAP	-2378
BackoffMs	-2379
▁--	-2380
Char	-2381
▁pid	-2382
Delay	-2383
▁Sink	-2384
Period	-2385
TIONAL	-2386
▁nodes	-2387
▁validate	-2388
Old	-2389
actual	-2390
▁sender	-2391
AUTH	-2392
▁user	-2393
Matcher	-2394
checked	-2395
];	-2396
▁match	-2397
▁errors	-2398
▁groupId	-2399
anyObject	-2400
unchecked	-2401
-000000000	-2402
99	-2403
SC	-2404
az	-2405
TCH	-2406
IENT	-2407
etry	-2408
Needed	-2409
▁Count	-2410
Latency	-2411
topology	-2412
.";	-2413
▁12	-2414
inary	-2415
ribute	-2416
Collector	-2417
ugh	-2418
Stub	-2419
fail	-2420
keySet	-2421
status	-2422
andbyTasks	-2423
...	-2424
FIX	-2425
ged	-2426
ook	-2427
mkSet	-2428
▁failed	-2429
assertTrue	-2430
fe	-2431
rl	-2432
seg	-2433
wer	-2434
Gener	-2435
▁info	-2436
CLIENT	-2437
▁valueSerde	-2438
▁ProducerRecord	-2439
)\	-2440
Url	-2441
▁ro	-2442
▁bld	-2443
Found	-2444
▁tasks	-2445
now	-2446
▁Ad	-2447
METR	-2448
))));	-2449
▁must	-2450
METRIC	-2451
▁parse	-2452
Current	-2453
▁Change	-2454
XX	-2455
("0	-2456
LOW	-2457
par	-2458
▁flush	-2459
ference	-2460
portLay	-2461
LeaderEpoch	-2462
ransportLay	-2463
</	-2464
<?>	-2465
PLAIN	-2466
▁host	-2467
Socket	-2468
Ab	-2469
▁RE	-2470
▁0),	-2471
▁oper	-2472
LEADER	-2473
▁Delete	-2474
Authentication	-2475
▁DE	-2476
▁IN	-2477
▁map	-2478
queue	-2479
GroupId	-2480
▁finally	-2481
▁segments	-2482
inner	-2483
validate	-2484
alId	-2485
trace	-2486
filter	-2487
▁handle	-2488
Changelog	-2489
ConfigDef	-2490
▁serialized	-2491
clear	-2492
ability	-2493
session	-2494
US	-2495
MENT	-2496
stan	-2497
ured	-2498
▁2);	-2499
output	-2500
KeySchema	-2501
ProducerId	-2502
▁LinkedHashMap	-2503
(3,	-2504
Scope	-2505
PLICATION	-2506
ransportLayer	-2507
hod	-2508
▁0.	-2509
Types	-2510
bscribe	-2511
lerance	-2512
Instance	-2513
▁Resource	-2514
▁repartition	-2515
old	-2516
Desc	-2517
Format	-2518
cessed	-2519
▁INT	-2520
FILTER	-2521
Simple	-2522
▁gener	-2523
entries	-2524
INTERVAL	-2525
Operation	-2526
ConnectorTaskId	-2527
ecutionException	-2528
POR	-2529
ies	-2530
sDB	-2531
▁"2	-2532
▁su	-2533
SOURCE	-2534
member	-2535
istribu	-2536
PerTopic	-2537
80	-2538
FE	-2539
BER	-2540
Min	-2541
(0),	-2542
Final	-2543
iffer	-2544
mkList	-2545
GH	-2546
UUID	-2547
hout	-2548
ithout	-2549
▁converter	-2550
StoreBuilder	-2551
▁Transaction	-2552
plit	-2553
▁net	-2554
VALID	-2555
Running	-2556
toArray	-2557
Assigned	-2558
Interface	-2559
▁original	-2560
istributed	-2561
Pool	-2562
▁TASK	-2563
▁second	-2564
serialize	-2565
indCoordinator	-2566
net	-2567
rain	-2568
▁stop	-2569
offsets	-2570
▁invalid	-2571
Stability	-2572
redentials	-2573
REFIX	-2574
Objects	-2575
unction	-2576
currentTime	-2577
KA	-2578
ATOR	-2579
LogDir	-2580
configs	-2581
Executor	-2582
▁Serializer	-2583
KeyValueIterator	-2584
▁KafkaFutureImpl	-2585
JO	-2586
"))	-2587
▁by	-2588
ILLI	-2589
Block	-2590
ToTxn	-2591
Total	-2592
redicate	-2593
▁fetcher	-2594
▁clientId	-2595
sec	-2596
CONN	-2597
STAR	-2598
Wait	-2599
rate	-2600
voked	-2601
CONVER	-2602
perties	-2603
register	-2604
▁configuration	-2605
▁[	-2606
>>>	-2607
ful	-2608
▁call	-2609
▁xform	-2610
RA	-2611
Bas	-2612
LED	-2613
NOT	-2614
WINDOW	-2615
▁ERROR	-2616
CONVERTER	-2617
itializer	-2618
Materialized	-2619
},	-2620
▁per	-2621
Scram	-2622
maybe	-2623
token	-2624
waitFor	-2625
fl	-2626
▁)	-2627
Range	-2628
begin	-2629
inter	-2630
▁tags	-2631
Grouped	-2632
instance	-2633
▁Callback	-2634
▁configState	-2635
▁CL	-2636
▁No	-2637
(100	-2638
Open	-2639
sume	-2640
Local	-2641
LoginContext	-2642
1+	-2643
024	-2644
BACK	-2645
ally	-2646
line	-2647
grace	-2648
VERSION	-2649
▁Iterator	-2650
windowStore	-2651
Two	-2652
Herder	-2653
stores	-2654
toStream	-2655
Tolerance	-2656
otstrapServer	-2657
],	-2658
Abs	-2659
END	-2660
Rate	-2661
Same	-2662
ents	-2663
▁dis	-2664
▁non	-2665
MILLI	-2666
apped	-2667
arted	-2668
avail	-2669
DownLatch	-2670
available	-2671
verifyAll	-2672
▁assigned	-2673
▁ByteArray	-2674
StateStores	-2675
Transactional	-2676
32_	-2677
LETE	-2678
▁poll	-2679
WithKey	-2680
▁CLUSTER	-2681
▁LRUCache	-2682
TopicConfig	-2683
▁as	-2684
▁buf	-2685
STATE	-2686
Forward	-2687
▁Network	-2688
Completed	-2689
getString	-2690
▁assertNotNull	-2691
▁consumerClient	-2692
Proj	-2693
EMPTY	-2694
▁getter	-2695
LoginModule	-2696
subscriptions	-2697
COL	-2698
1));	-2699
very	-2700
▁<--	-2701
rough	-2702
random	-2703
▁supplier	-2704
ApiVersions	-2705
▁Ag	-2706
1");	-2707
Init	-2708
rapper	-2709
ersistent	-2710
getLogger	-2711
DESERIALIZER	-2712
Mag	-2713
acy	-2714
ret	-2715
apac	-2716
Magic	-2717
andom	-2718
tempt	-2719
▁body	-2720
addAll	-2721
Storage	-2722
apacity	-2723
Handshake	-2724
replayAll	-2725
▁SchemaAndValue	-2726
2)	-2727
IP	-2728
Auto	-2729
TOCOL	-2730
Element	-2731
▁supported	-2732
achingStore	-2733
▁SourceRecord	-2734
::	-2735
(",	-2736
New	-2737
▁"3	-2738
ater	-2739
tent	-2740
▁1),	-2741
Handl	-2742
Point	-2743
Handle	-2744
▁convert	-2745
LoggerFactory	-2746
▁LoggerFactory	-2747
Pl	-2748
warn	-2749
▁setup	-2750
ingLevel	-2751
▁completed	-2752
<-	-2753
▁8	-2754
men	-2755
(0).	-2756
first	-2757
lying	-2758
space	-2759
getInt	-2760
hashCode	-2761
Reference	-2762
otstrapServers	-2763
▁FetchResponse	-2764
securityProtocol	-2765
Var	-2766
▁was	-2767
Retry	-2768
TRANS	-2769
egacy	-2770
▁maybe	-2771
▁ArrayOf	-2772
Validator	-2773
BytesStore	-2774
ConnectData	-2775
FetchResponse	-2776
▁DataException	-2777
("{}	-2778
▁-->	-2779
admin	-2780
alend	-2781
orrel	-2782
▁Math	-2783
Plugins	-2784
alendar	-2785
▁connect	-2786
Committed	-2787
▁responses	-2788
0).	-2789
2");	-2790
PRODUCER	-2791
JaasConfig	-2792
producerId	-2793
OVER	-2794
Standard	-2795
THROTTLE	-2796
ingCredential	-2797
NUM	-2798
ttp	-2799
mark	-2800
duler	-2801
▁after	-2802
▁Punctu	-2803
ifferent	-2804
▁windows	-2805
transforms	-2806
GroupRequest	-2807
▁compressionType	-2808
1),	-2809
eek	-2810
▁kv	-2811
metricValue	-2812
▁logContext	-2813
▁streamsConfig	-2814
CA	-2815
gener	-2816
nodes	-2817
BUFFER	-2818
Network	-2819
restore	-2820
internal	-2821
▁position	-2822
▁LogContext	-2823
▁MockClient	-2824
StreamsBuilder	-2825
▁RequestFuture	-2826
We	-2827
gn	-2828
mis	-2829
)");	-2830
Action	-2831
ssages	-2832
▁JsonNode	-2833
▁authentic	-2834
Credentials	-2835
Conf	-2836
sWith	-2837
PREFIX	-2838
▁exten	-2839
Success	-2840
▁Common	-2841
▁remove	-2842
selector	-2843
valueSerde	-2844
▁topicName	-2845
▁LRUCacheEntry	-2846
SES	-2847
});	-2848
ified	-2849
riter	-2850
atform	-2851
should	-2852
Segment	-2853
segment	-2854
Password	-2855
▁Capture	-2856
ransition	-2857
▁TimeWindow	-2858
▁windowStore	-2859
3.	-2860
GG	-2861
Dec	-2862
imal	-2863
▁but	-2864
Creator	-2865
boolean	-2866
capture	-2867
Operator	-2868
▁converted	-2869
▁ThreadCache	-2870
0",	-2871
▁mk	-2872
▁my	-2873
▁OFFSET	-2874
▁actual	-2875
Complete	-2876
Security	-2877
Queryable	-2878
ArrayEquals	-2879
StreamsMetrics	-2880
{"	-2881
▁G	-2882
tick	-2883
parent	-2884
TimeUnit	-2885
▁controller	-2886
GroupResponse	-2887
INK	-2888
Red	-2889
▁ab	-2890
seek	-2891
ensure	-2892
riable	-2893
▁empty	-2894
▁Option	-2895
aasContext	-2896
WithTolerance	-2897
LOCK	-2898
ategy	-2899
uplic	-2900
Parser	-2901
Seconds	-2902
ocation	-2903
Matchers	-2904
▁assignor	-2905
Partitioner	-2906
11	-2907
)))	-2908
lap	-2909
rig	-2910
2));	-2911
▁doc	-2912
erifi	-2913
nable	-2914
licationId	-2915
▁CONNECTOR	-2916
▁mechanism	-2917
sizeInBytes	-2918
▁producerEpoch	-2919
23	-2920
vi	-2921
ws	-2922
medi	-2923
ative	-2924
await	-2925
child	-2926
▁used	-2927
▁Scram	-2928
ination	-2929
▁Buffer	-2930
PROTOCOL	-2931
eginning	-2932
uplicate	-2933
▁WindowStore	-2934
PartitionInfo	-2935
KafkaException	-2936
▁topicPartitions	-2937
(-	-2938
TRO	-2939
▁CO	-2940
LIST	-2941
This	-2942
▁env	-2943
ByKey	-2944
OUTPUT	-2945
▁reset	-2946
KStream	-2947
▁Authentic	-2948
StateManager	-2949
XT	-2950
AND	-2951
gine	-2952
▁def	-2953
apply	-2954
option	-2955
groupId	-2956
valueOf	-2957
▁equals	-2958
▁joiner	-2959
▁Timeout	-2960
04	-2961
ACL	-2962
Iter	-2963
pend	-2964
Marker	-2965
Pending	-2966
▁Assert	-2967
materialized	-2968
27	-2969
++;	-2970
UTF	-2971
Wea	-2972
rok	-2973
SCRI	-2974
")));	-2975
Linked	-2976
Weaker	-2977
rokers	-2978
storer	-2979
▁entries	-2980
▁initial	-2981
Authenticate	-2982
WeakerAccess	-2983
▁PartitionInfo	-2984
})	-2985
ble	-2986
peek	-2987
ving	-2988
▁msg	-2989
▁reg	-2990
Claim	-2991
Short	-2992
▁0));	-2993
change	-2994
mediate	-2995
plugins	-2996
storage	-2997
NotFound	-2998
SslConfigs	-2999
Ack	-3000
Ans	-3001
FAI	-3002
READ	-3003
Answer	-3004
FAILED	-3005
Convert	-3006
▁parser	-3007
windowed	-3008
▁hashCode	-3009
RecordContext	-3010
ule	-3011
Load	-3012
Sync	-3013
TEXT	-3014
▁val	-3015
▁toList	-3016
connected	-3017
Unsupported	-3018
WorkerConfig	-3019
▁accumulator	-3020
▁cachingStore	-3021
▁ConfigException	-3022
\\.	-3023
Look	-3024
CONTRO	-3025
▁before	-3026
▁plugin	-3027
▁Builder	-3028
addSource	-3029
subscribe	-3030
valueSchema	-3031
_1,	-3032
atal	-3033
Illegal	-3034
Appender	-3035
Disabled	-3036
▁changelog	-3037
ProducerBatch	-3038
cal	-3039
▁SS	-3040
ther	-3041
delete	-3042
latest	-3043
ByTopic	-3044
Service	-3045
OldValues	-3046
▁workerId	-3047
▁heartbeat	-3048
ero	-3049
ding	-3050
Lookup	-3051
METRICS	-3052
Function	-3053
Position	-3054
getMessage	-3055
onCompletion	-3056
HI	-3057
FOR	-3058
OFF	-3059
Full	-3060
▁PRO	-3061
INPUT	-3062
range	-3063
amples	-3064
Logging	-3065
mission	-3066
network	-3067
AndEpoch	-3068
Strategy	-3069
▁refresh	-3070
SourceTask	-3071
FirstMessage	-3072
etchedRecords	-3073
▁deserialized	-3074
▁CountDownLatch	-3075
url	-3076
▁<=	-3077
Rati	-3078
ical	-3079
Ratio	-3080
TRANSAC	-3081
▁joined	-3082
▁punctu	-3083
longValue	-3084
▁singleton	-3085
OffsetReset	-3086
▁AbstractRequest	-3087
0_	-3088
)",	-3089
TEN	-3090
ell	-3091
lip	-3092
mod	-3093
RETR	-3094
▁sche	-3095
System	-3096
Allowed	-3097
Authoriz	-3098
keyValue	-3099
▁pattern	-3100
▁Produced	-3101
▁mockTime	-3102
▁remaining	-3103
AY	-3104
ke	-3105
JOIN	-3106
▁any	-3107
▁prev	-3108
Exists	-3109
verage	-3110
Charset	-3111
▁Header	-3112
▁cannot	-3113
ationType	-3114
▁received	-3115
deserialize	-3116
SessionStore	-3117
olationLevel	-3118
orrelationId	-3119
ErrorResponse	-3120
TimestampType	-3121
▁AtomicInteger	-3122
(((	-3123
sub	-3124
▁"1:	-3125
Files	-3126
NABLE	-3127
SCRIBE	-3128
kipped	-3129
cumulator	-3130
missionType	-3131
▁Deserializer	-3132
▁createClient	-3133
▁ST	-3134
mory	-3135
ulti	-3136
▁Ssl	-3137
scope	-3138
nodeId	-3139
matches	-3140
Optional	-3141
Registry	-3142
▁Headers	-3143
SaslConfigs	-3144
(4,	-3145
PER	-3146
SUM	-3147
com	-3148
Rule	-3149
BLOCK	-3150
ifiable	-3151
▁thrown	-3152
Selector	-3153
50	-3154
84	-3155
AU	-3156
LOAT	-3157
java	-3158
▁due	-3159
place	-3160
▁part	-3161
▁allow	-3162
Handling	-3163
▁Channel	-3164
remaining	-3165
▁Expected	-3166
▁adminClient	-3167
▁AtomicBoolean	-3168
NG	-3169
SY	-3170
▁")	-3171
CHAN	-3172
DATE	-3173
nder	-3174
▁-1,	-3175
ftJoin	-3176
BACKOFF	-3177
Without	-3178
Requests	-3179
original	-3180
precated	-3181
OAuthBearer	-3182
▁taskManager	-3183
1>	-3184
▁sb	-3185
▁sw	-3186
LOGIN	-3187
rapped	-3188
RESOURCE	-3189
▁requests	-3190
connection	-3191
modifiable	-3192
▁committed	-3193
assertFalse	-3194
StreamThread	-3195
▁ApiVersions	-3196
▁r	-3197
gram	-3198
Factor	-3199
Results	-3200
Checksum	-3201
OPTIONAL	-3202
ActiveTasks	-3203
▁properties	-3204
OS	-3205
ck	-3206
CUR	-3207
SIG	-3208
imum	-3209
reset	-3210
thread	-3211
Startup	-3212
▁getClass	-3213
MILLISECONDS	-3214
FlightRequests	-3215
AB	-3216
_8	-3217
Mis	-3218
Deque	-3219
edded	-3220
▁than	-3221
Broker	-3222
LogDirs	-3223
▁Optional	-3224
repartition	-3225
▁extensions	-3226
ProducerRecord	-3227
36	-3228
PS	-3229
XN	-3230
arli	-3231
▁raw	-3232
(1));	-3233
Order	-3234
limit	-3235
▁only	-3236
ENABLE	-3237
ancell	-3238
arliest	-3239
▁expired	-3240
▁sinkTask	-3241
oreMatchers	-3242
unmodifiable	-3243
2+	-3244
(10	-3245
1";	-3246
Avg	-3247
▁1)	-3248
Absent	-3249
▁child	-3250
Standby	-3251
▁Assign	-3252
▁Window	-3253
ruststore	-3254
▁partitionData	-3255
▁++	-3256
itch	-3257
open	-3258
Infos	-3259
stats	-3260
uring	-3261
ources	-3262
▁TOPICS	-3263
▁prefix	-3264
▁switch	-3265
Charsets	-3266
▁grouped	-3267
▁transformation	-3268
StandardCharsets	-3269
ony	-3270
[0],	-3271
hand	-3272
tasks	-3273
▁queue	-3274
▁under	-3275
mbedded	-3276
mechanism	-3277
Assignments	-3278
Al	-3279
Us	-3280
32,	-3281
URL	-3282
HIGH	-3283
eter	-3284
▁one	-3285
Least	-3286
vance	-3287
▁args	-3288
coding	-3289
mented	-3290
▁clean	-3291
itialized	-3292
▁operation	-3293
APPLICATION	-3294
▁updatedValue	-3295
throttleTimeMs	-3296
ExceptionHandler	-3297
▁ConnectorTaskId	-3298
▁transactionalId	-3299
20	-3300
CT	-3301
KEN	-3302
REG	-3303
isto	-3304
istogram	-3305
▁receive	-3306
78	-3307
▁"[	-3308
MEDI	-3309
MESS	-3310
Text	-3311
imit	-3312
AMPLE	-3313
ingle	-3314
osite	-3315
▁find	-3316
plugin	-3317
BOOLEAN	-3318
MESSAGE	-3319
erberos	-3320
▁Global	-3321
▁ensure	-3322
▁ApiKeys	-3323
Heartbeat	-3324
▁throwable	-3325
KafkaPrincipal	-3326
▁PartitionData	-3327
▁ResourcePattern	-3328
8_	-3329
acl	-3330
ves	-3331
▁ne	-3332
anos	-3333
Limit	-3334
▁Date	-3335
▁SASL	-3336
pattern	-3337
▁CONFIG	-3338
IfAbsent	-3339
▁plugins	-3340
▁waitFor	-3341
▁valueGetter	-3342
."	-3343
4.	-3344
baz	-3345
ito	-3346
the	-3347
("0:	-3348
tten	-3349
Restored	-3350
▁memberId	-3351
SERIALIZED	-3352
StreamTime	-3353
serializer	-3354
ClassLoader	-3355
TargetState	-3356
▁Integration	-3357
▁KafkaConsumer	-3358
54	-3359
rp	-3360
▁7	-3361
ANY	-3362
EST	-3363
ONG	-3364
doc	-3365
▁LO	-3366
imer	-3367
ROKER	-3368
SUMER	-3369
▁Tree	-3370
ritten	-3371
▁found	-3372
Sensors	-3373
ceptors	-3374
getLong	-3375
CONSUMER	-3376
Sessions	-3377
converter	-3378
▁credential	-3379
▁UnsupportedOper	-3380
.0,	-3381
Grp	-3382
UNN	-3383
mpo	-3384
▁cb	-3385
sche	-3386
Abort	-3387
dempo	-3388
▁been	-3389
▁dest	-3390
UNNING	-3391
▁already	-3392
▁messages	-3393
▁nodeName	-3394
▁sequence	-3395
Importance	-3396
▁increment	-3397
▁AclBinding	-3398
▁baseOffset	-3399
77	-3400
PI	-3401
ALL	-3402
iry	-3403
lta	-3404
▁2;	-3405
ITER	-3406
ault	-3407
core	-3408
getC	-3409
GGREG	-3410
ORDIN	-3411
erial	-3412
putAll	-3413
▁serdes	-3414
IfNeeded	-3415
shutdown	-3416
▁Unknown	-3417
Aggregate	-3418
ORDINATOR	-3419
committed	-3420
defaultValue	-3421
deserializer	-3422
ConfigResource	-3423
MetricsReporter	-3424
bootstrapServers	-3425
(6	-3426
MEM	-3427
ich	-3428
tin	-3429
▁lo	-3430
SINK	-3431
omic	-3432
Times	-3433
▁keys	-3434
▁pool	-3435
Verifi	-3436
bytesKey	-3437
namespace	-3438
AppendTime	-3439
▁ListOffset	-3440
▁jaasConfig	-3441
CoreMatchers	-3442
▁AdminClient	-3443
2;	-3444
stant	-3445
Locale	-3446
Single	-3447
aching	-3448
double	-3449
unused	-3450
CONNECT	-3451
matcher	-3452
produce	-3453
secured	-3454
▁replay	-3455
▁created	-3456
plication	-3457
AclsRequest	-3458
activeTasks	-3459
▁fileRecords	-3460
ProcessorNode	-3461
QueryableStore	-3462
PartitionsToTxn	-3463
nap	-3464
opy	-3465
RENT	-3466
hell	-3467
Atomic	-3468
Wakeup	-3469
atomic	-3470
compile	-3471
ributes	-3472
▁replica	-3473
Remaining	-3474
▁executor	-3475
Deprecated	-3476
▁standbyTasks	-3477
waitForCondition	-3478
Dns	-3479
duc	-3480
ish	-3481
roy	-3482
ASSW	-3483
▁use	-3484
Other	-3485
ASSWORD	-3486
▁Output	-3487
listener	-3488
roughput	-3489
▁subject	-3490
▁Converter	-3491
setProperty	-3492
0),	-3493
80,	-3494
Flag	-3495
idth	-3496
rack	-3497
ught	-3498
Index	-3499
REPLIC	-3500
warded	-3501
▁Login	-3502
Required	-3503
▁forward	-3504
Conversion	-3505
assignFrom	-3506
NodeBuilder	-3507
RecordingLevel	-3508
19	-3509
dis	-3510
▁qu	-3511
arch	-3512
json	-3513
Equal	-3514
aught	-3515
ember	-3516
driver	-3517
tyEntry	-3518
▁Number	-3519
GGREGATE	-3520
▁futures	-3521
▁complete	-3522
COORDINATOR	-3523
▁errorCounts	-3524
15	-3525
[1	-3526
<?,	-3527
DIR	-3528
Put	-3529
TXN	-3530
ome	-3531
{}]	-3532
=").	-3533
EADER	-3534
ynony	-3535
▁1024	-3536
▁Byte	-3537
Binary	-3538
Runner	-3539
isting	-3540
second	-3541
▁expir	-3542
RECORDS	-3543
▁socket	-3544
Buffered	-3545
DnsLookup	-3546
ectionKey	-3547
▁batchSize	-3548
metricGroup	-3549
CIP	-3550
INF	-3551
TIC	-3552
avg	-3553
ench	-3554
hash	-3555
▁SSL	-3556
▁Seg	-3557
power	-3558
Method	-3559
apiKey	-3560
DelayMs	-3561
convert	-3562
echanisms	-3563
powermock	-3564
▁xformValue	-3565
▁JoinWindows	-3566
▁timestampType	-3567
SourceConnector	-3568
('	-3569
0;	-3570
3);	-3571
Lock	-3572
kens	-3573
▁Inet	-3574
▁Send	-3575
▁auth	-3576
▁lock	-3577
broker	-3578
▁timer	-3579
Created	-3580
Updates	-3581
Aggregator	-3582
IntervalMs	-3583
LogContext	-3584
▁timeoutMs	-3585
TopicPartitions	-3586
CTOR	-3587
Such	-3588
▁dec	-3589
owner	-3590
CHANIS	-3591
IsNull	-3592
MEDIUM	-3593
Random	-3594
▁renew	-3595
Fetches	-3596
▁asList	-3597
MECHANIS	-3598
Transform	-3599
JsonCreator	-3600
▁bytesStore	-3601
addProcessor	-3602
37	-3603
ES	-3604
]);	-3605
rup	-3606
shot	-3607
intain	-3608
Wrapper	-3609
napshot	-3610
▁serial	-3611
ToString	-3612
▁previous	-3613
▁replicas	-3614
VersionUID	-3615
assertNull	-3616
ConfigState	-3617
FinalMessage	-3618
ResourceType	-3619
ToTransaction	-3620
▁MetricConfig	-3621
28	-3622
3+	-3623
cho	-3624
1"),	-3625
flip	-3626
▁Sel	-3627
Based	-3628
FLOAT	-3629
mmand	-3630
tinue	-3631
MEMBER	-3632
ertion	-3633
ocksDB	-3634
▁array	-3635
HEADERS	-3636
RunWith	-3637
TOSTRING	-3638
kerberos	-3639
memberId	-3640
▁required	-3641
▁Assignment	-3642
▁compression	-3643
▁leaderEpoch	-3644
inFlightRequest	-3645
1;	-3646
Ite	-3647
UNT	-3648
gor	-3649
ORKER	-3650
ecess	-3651
gorith	-3652
KSTREAM	-3653
InFlight	-3654
optional	-3655
▁average	-3656
AclBinding	-3657
Punctuator	-3658
Validation	-3659
▁retention	-3660
▁underlying	-3661
▁apiVersions	-3662
MemoryRecords	-3663
ChannelBuilder	-3664
CaptureAppender	-3665
An	-3666
Mer	-3667
RIN	-3668
\",	-3669
mmy	-3670
.0);	-3671
USER	-3672
ince	-3673
TABLE	-3674
storing	-3675
▁mapper	-3676
SinkTask	-3677
principal	-3678
▁protocol	-3679
▁windowed	-3680
▁metricGrp	-3681
ValueJoiner	-3682
▁KeyValueMapper	-3683
NCE	-3684
STE	-3685
elp	-3686
ict	-3687
SEQUE	-3688
Closed	-3689
rained	-3690
▁ready	-3691
gorithm	-3692
SEQUENCE	-3693
PowerMock	-3694
ReadBuffer	-3695
assertThat	-3696
▁aggregate	-3697
ControlEntry	-3698
▁metricGroup	-3699
▁responseData	-3700
▁keySerializer	-3701
14	-3702
ere	-3703
(2);	-3704
Mode	-3705
CIPAL	-3706
BROKER	-3707
ITERAL	-3708
results	-3709
▁parsed	-3710
RINCIPAL	-3711
supplier	-3712
KeyValues	-3713
assertNot	-3714
▁createTask	-3715
SecurityProtocol	-3716
(10,	-3717
."),	-3718
Case	-3719
ject	-3720
▁att	-3721
▁xFF	-3722
deleg	-3723
exten	-3724
▁NoOp	-3725
Engine	-3726
▁PRODU	-3727
▁deleg	-3728
Decimal	-3729
Initial	-3730
RUNNING	-3731
payload	-3732
▁closed	-3733
▁capture	-3734
▁handler	-3735
choServer	-3736
ertStores	-3737
KTableImpl	-3738
egacyRecord	-3739
▁KafkaProducer	-3740
IntegrationTest	-3741
ix	-3742
FKA	-3743
NAL	-3744
RST	-3745
UCT	-3746
ple	-3747
}),	-3748
FILE	-3749
GMENT	-3750
caled	-3751
BasedLog	-3752
INTERNAL	-3753
StoreKey	-3754
clientId	-3755
getCause	-3756
▁connName	-3757
JsonSchema	-3758
Unexpected	-3759
▁Assertion	-3760
▁apiVersion	-3761
RecordException	-3762
▁AssertionError	-3763
33	-3764
"})	-3765
(5,	-3766
Lag	-3767
cen	-3768
tif	-3769
▁To	-3770
STEM	-3771
find	-3772
Acked	-3773
FIRST	-3774
ByName	-3775
egative	-3776
getTime	-3777
invalid	-3778
asurable	-3779
▁ApiError	-3780
▁startTime	-3781
FlushListener	-3782
SocketAddress	-3783
▁stateDirectory	-3784
1_	-3785
87	-3786
OST	-3787
mac	-3788
inte	-3789
▁LOG	-3790
▁dir	-3791
FETCH	-3792
gnore	-3793
vided	-3794
▁Call	-3795
▁coll	-3796
▁stor	-3797
orized	-3798
INVALID	-3799
▁delete	-3800
▁logger	-3801
completed	-3802
compareAnd	-3803
connectors	-3804
▁PARTITIONS	-3805
AclsResponse	-3806
ringCredential	-3807
▁ProcessorNode	-3808
▁ConsumerRecords	-3809
57	-3810
96	-3811
afe	-3812
ive	-3813
rip	-3814
lect	-3815
FACTOR	-3816
bearer	-3817
▁delay	-3818
▁scope	-3819
extract	-3820
forward	-3821
PASSWORD	-3822
▁aborted	-3823
▁KTableKTable	-3824
PermissionType	-3825
▁ConnectSchema	-3826
▁singletonList	-3827
DER	-3828
arge	-3829
Optim	-3830
PTION	-3831
Schem	-3832
ables	-3833
eners	-3834
oauth	-3835
▁marker	-3836
Receives	-3837
Verifier	-3838
authentic	-3839
▁Duration	-3840
▁toStruct	-3841
EchoServer	-3842
▁ByteUtils	-3843
oauthbearer	-3844
MetricsGroup	-3845
NetworkClient	-3846
TimeoutException	-3847
▁changelogReader	-3848
24	-3849
CB	-3850
QU	-3851
API	-3852
Sub	-3853
alt	-3854
cur	-3855
ren	-3856
ush	-3857
))).	-3858
lude	-3859
rior	-3860
Multi	-3861
▁UUID	-3862
▁prop	-3863
GROUPS	-3864
olving	-3865
▁Plugin	-3866
▁memory	-3867
Captured	-3868
workerId	-3869
▁failure	-3870
Punctuate	-3871
heartbeat	-3872
▁password	-3873
PluginDesc	-3874
serialized	-3875
▁keySchema	-3876
▁deserialize	-3877
Exceptionally	-3878
▁StreamThread	-3879
assignFromUser	-3880
86	-3881
({"	-3882
ORT	-3883
arn	-3884
olu	-3885
ous	-3886
▁li	-3887
ANCE	-3888
Bean	-3889
Body	-3890
Delta	-3891
START	-3892
scram	-3893
SAMPLE	-3894
orrect	-3895
racker	-3896
ecessor	-3897
▁length	-3898
Calendar	-3899
getArray	-3900
▁shutdown	-3901
redecessor	-3902
▁metricTags	-3903
▁ProduceRequest	-3904
▁callbackHandler	-3905
▁keyDeserializer	-3906
2";	-3907
SON	-3908
ibo	-3909
▁15	-3910
HEAD	-3911
COUNT	-3912
ibosh	-3913
▁temp	-3914
ameter	-3915
prefix	-3916
utable	-3917
▁isKey	-3918
IZATION	-3919
Replicas	-3920
connName	-3921
generate	-3922
required	-3923
dempotent	-3924
StoreNames	-3925
▁serialize	-3926
▁assertNext	-3927
▁PatternType	-3928
AbstractStream	-3929
▁numPartitions	-3930
beginTransaction	-3931
35	-3932
▁9	-3933
MIN	-3934
▁".	-3935
▁"0	-3936
ails	-3937
Avail	-3938
float	-3939
inish	-3940
moved	-3941
until	-3942
▁100,	-3943
▁json	-3944
etails	-3945
STARTED	-3946
Creation	-3947
OVERHEAD	-3948
▁ReadOnly	-3949
Checkpoint	-3950
Connectors	-3951
SinkRecord	-3952
ValueSerde	-3953
▁connProps	-3954
▁initialize	-3955
▁serializer	-3956
▁baseSequence	-3957
▁retryBackoffMs	-3958
4",	-3959
Mgr	-3960
NEW	-3961
dec	-3962
mit	-3963
▁ev	-3964
COMP	-3965
INIT	-3966
▁url	-3967
Clock	-3968
ToEnd	-3969
olute	-3970
▁This	-3971
SYSTEM	-3972
punctu	-3973
toList	-3974
▁10000	-3975
▁which	-3976
▁expiry	-3977
▁startMs	-3978
AGGREGATE	-3979
Generator	-3980
precation	-3981
▁StateSerdes	-3982
GroupsResponse	-3983
StreamsException	-3984
IME	-3985
(1).	-3986
▁>>>	-3987
getOr	-3988
▁TIME	-3989
Capacity	-3990
Evolving	-3991
MockTime	-3992
Synchron	-3993
appender	-3994
idString	-3995
password	-3996
▁UNKNOWN	-3997
▁mkEntry	-3998
▁payload	-3999
rebalance	-4000
Distributed	-4001
▁connectors	-4002
▁Coordinator	-4003
▁ValueJoiner	-4004
▁activeTasks	-4005
ClientRequest	-4006
ProcessorName	-4007
TopicMetadata	-4008
▁LegacyRecord	-4009
eginningOffsets	-4010
97	-4011
Att	-4012
PAT	-4013
SED	-4014
ULL	-4015
▁NO	-4016
3");	-4017
CESS	-4018
bind	-4019
path	-4020
ping	-4021
tags	-4022
zero	-4023
▁"",	-4024
▁crc	-4025
cksDB	-4026
lease	-4027
right	-4028
UPDATE	-4029
losing	-4030
sizeOf	-4031
▁block	-4032
batches	-4033
Available	-4034
SourceNode	-4035
controller	-4036
flushState	-4037
TRANSACTION	-4038
adminClient	-4039
deprecation	-4040
integration	-4041
▁ClientState	-4042
ConfigException	-4043
FindCoordinator	-4044
▁expectLastCall	-4045
▁y	-4046
met	-4047
▁FE	-4048
full	-4049
voke	-4050
Child	-4051
retry	-4052
Writer	-4053
failed	-4054
jected	-4055
▁FETCH	-4056
NextKey	-4057
▁Grouped	-4058
▁started	-4059
transform	-4060
▁handshake	-4061
TimeWindows	-4062
atingLoader	-4063
▁numRecords	-4064
FetchRequest	-4065
▁listenerName	-4066
▁StreamsMetrics	-4067
InFlightRequests	-4068
ota	-4069
▁Re	-4070
▁up	-4071
CLAS	-4072
Inet	-4073
bean	-4074
duled	-4075
▁10);	-4076
▁sent	-4077
Member	-4078
oreach	-4079
▁setUp	-4080
Attempt	-4081
CLASSES	-4082
Throttle	-4083
channels	-4084
▁metricName	-4085
▁KafkaMetric	-4086
fetchedRecords	-4087
StreamsTestUtils	-4088
17	-4089
TP	-4090
Crc	-4091
AUTO	-4092
TEST	-4093
over	-4094
ASSIG	-4095
RETRY	-4096
Trace	-4097
▁code	-4098
STRUCT	-4099
livery	-4100
▁single	-4101
Register	-4102
describe	-4103
▁matches	-4104
responses	-4105
▁duration	-4106
cksDBStore	-4107
KafkaFuture	-4108
▁mockClient	-4109
KafkaCluster	-4110
▁TargetState	-4111
ConsumerGroup	-4112
JsonConverter	-4113
ChangelogTopic	-4114
HandlingMetrics	-4115
▁OutputVerifier	-4116
rs	-4117
grp	-4118
igr	-4119
▁"\	-4120
▁3,	-4121
▁VO	-4122
lain	-4123
prop	-4124
▁acl	-4125
▁does	-4126
▁root	-4127
fields	-4128
logger	-4129
Closeable	-4130
caledTime	-4131
▁KTableImpl	-4132
Serialization	-4133
SessionWindows	-4134
producerRecord	-4135
▁AssignmentInfo	-4136
▁shouldNotAllow	-4137
VersionException	-4138
18	-4139
CF	-4140
MO	-4141
kv	-4142
Sec	-4143
rim	-4144
▁SE	-4145
ATCH	-4146
LONG	-4147
ited	-4148
olve	-4149
Fault	-4150
TOKEN	-4151
agent	-4152
ature	-4153
ously	-4154
herder	-4155
Details	-4156
▁latest	-4157
EndPoint	-4158
▁atLeast	-4159
aggregate	-4160
Controller	-4161
Interceptor	-4162
▁AclOperation	-4163
ConsumerGroups	-4164
Transformation	-4165
▁transportLayer	-4166
2>	-4167
BA	-4168
Ns	-4169
OT	-4170
ITH	-4171
▁[]	-4172
DOWN	-4173
▁"2:	-4174
▁500	-4175
gress	-4176
hello	-4177
split	-4178
Varint	-4179
reduce	-4180
Aborted	-4181
andStub	-4182
igrated	-4183
kipping	-4184
▁Access	-4185
Previous	-4186
databind	-4187
changelog	-4188
timeoutMs	-4189
▁Transfor	-4190
▁captured	-4191
Mechanisms	-4192
workerTask	-4193
▁available	-4194
applicationId	-4195
schemaVersions	-4196
▁schemaVersions	-4197
▁PunctuationType	-4198
39	-4199
EY	-4200
01,	-4201
])\	-4202
(1),	-4203
Cast	-4204
[]{0	-4205
▁KEY	-4206
."));	-4207
Bench	-4208
Large	-4209
Pairs	-4210
Until	-4211
White	-4212
▁[])\	-4213
DELETE	-4214
enable	-4215
▁latch	-4216
Sending	-4217
JsonNode	-4218
easurable	-4219
▁keyValue	-4220
SaslServer	-4221
TimeSensor	-4222
extensions	-4223
▁specified	-4224
▁transform	-4225
▁testDriver	-4226
▁ClassLoader	-4227
▁streamsMetrics	-4228
▁connectorConfig	-4229
26	-4230
30	-4231
BB	-4232
DC	-4233
IES	-4234
LER	-4235
ENER	-4236
Trip	-4237
sent	-4238
▁-1;	-4239
▁Expi	-4240
▁need	-4241
▁resp	-4242
CURRENT	-4243
▁report	-4244
▁standby	-4245
COMMITTED	-4246
ClaimName	-4247
SimpleName	-4248
Suppressed	-4249
ransitionTo	-4250
▁generation	-4251
oreachAction	-4252
▁kafkaStreams	-4253
▁stateManager	-4254
▁TestJaasConfig	-4255
ClientConnection	-4256
StringSerializer	-4257
64,	-4258
DEF	-4259
SUP	-4260
utf	-4261
Zone	-4262
▁"3:	-4263
▁2),	-4264
▁App	-4265
▁agg	-4266
erved	-4267
orkers	-4268
CONTROL	-4269
Structs	-4270
inaryKey	-4271
▁stateDir	-4272
destination	-4273
▁assertSink	-4274
▁workerProps	-4275
Synchronously	-4276
getSimpleName	-4277
▁defaultValue	-4278
▁QueryableStore	-4279
85	-4280
("[	-4281
:0+	-4282
Too	-4283
exit	-4284
help	-4285
rupt	-4286
spec	-4287
Bound	-4288
NMENT	-4289
dummy	-4290
enced	-4291
javax	-4292
regex	-4293
Parent	-4294
▁float	-4295
▁success	-4296
keySchema	-4297
▁register	-4298
getInternal	-4299
▁ConfigValue	-4300
▁taskConfigs	-4301
▁valueJoiner	-4302
andStubReturn	-4303
▁StoreBuilder	-4304
ServerException	-4305
▁FindCoordinator	-4306
21	-4307
DA	-4308
hi	-4309
ced	-4310
non	-4311
("--	-4312
Peek	-4313
ined	-4314
Basic	-4315
Param	-4316
Timer	-4317
anage	-4318
▁Void	-4319
Search	-4320
▁index	-4321
Logical	-4322
equalTo	-4323
setNode	-4324
skipped	-4325
▁random	-4326
registry	-4327
sequence	-4328
▁hasNext	-4329
Different	-4330
Projector	-4331
anagement	-4332
processed	-4333
▁Password	-4334
▁Response	-4335
Refreshing	-4336
authorized	-4337
▁processed	-4338
Initializer	-4339
▁scaledTime	-4340
ConfigsResponse	-4341
CoordinatorReady	-4342
29	-4343
ev	-4344
5",	-4345
Upd	-4346
▁End	-4347
▁obj	-4348
▁{},	-4349
abort	-4350
ertif	-4351
ustom	-4352
▁orig	-4353
▁path	-4354
Target	-4355
caught	-4356
fetime	-4357
CLUSTER	-4358
Reducer	-4359
▁sorted	-4360
readable	-4361
Retention	-4362
osEnabled	-4363
▁continue	-4364
DirtyEntry	-4365
Idempotent	-4366
ertificate	-4367
▁condition	-4368
Accumulator	-4369
TopicManager	-4370
MetricValueAs	-4371
▁FetchRequest	-4372
▁OffsetCommit	-4373
AbstractRequest	-4374
RefreshingLogin	-4375
▁ProduceResponse	-4376
Do	-4377
EA	-4378
fic	-4379
PEND	-4380
STOR	-4381
▁len	-4382
▁vol	-4383
TASKS	-4384
TRUST	-4385
atile	-4386
▁enum	-4387
AndGet	-4388
wakeup	-4389
▁agent	-4390
Expired	-4391
STORAGE	-4392
▁apiKey	-4393
▁INVALID	-4394
Extension	-4395
▁newValue	-4396
▁starting	-4397
▁volatile	-4398
BufferSize	-4399
consumerId	-4400
ExceptionOn	-4401
TaskConfigs	-4402
▁SinkRecord	-4403
▁configured	-4404
KafkaStreams	-4405
MetricConfig	-4406
ServerConfigs	-4407
▁WorkerConfig	-4408
▁rocksDBStore	-4409
RequestMatcher	-4410
SecurityConfigs	-4411
▁producerConfig	-4412
▁statusListener	-4413
▁topologyBuilder	-4414
SU	-4415
CLO	-4416
VEL	-4417
bed	-4418
▁":	-4419
ACLS	-4420
PLUS	-4421
Sign	-4422
getP	-4423
▁(!(	-4424
▁New	-4425
LEVEL	-4426
Under	-4427
allow	-4428
▁")";	-4429
▁sync	-4430
Cannot	-4431
▁Alter	-4432
▁Cache	-4433
▁since	-4434
CEPTION	-4435
▁timeTo	-4436
▁compare	-4437
▁Listener	-4438
▁stateMgr	-4439
ApiVersion	-4440
groupByKey	-4441
▁different	-4442
SuchElement	-4443
▁Concurrent	-4444
▁sourceName	-4445
▁assignments	-4446
toConnectData	-4447
▁ApiException	-4448
▁CreateTopics	-4449
▁SaslExtensions	-4450
95	-4451
DF	-4452
64_	-4453
EAR	-4454
GET	-4455
REF	-4456
len	-4457
▁bo	-4458
Conn	-4459
LENG	-4460
SHUT	-4461
Stat	-4462
aded	-4463
amic	-4464
http	-4465
ible	-4466
▁3);	-4467
▁Add	-4468
Async	-4469
BATCH	-4470
▁done	-4471
LENGTH	-4472
Produc	-4473
arator	-4474
arness	-4475
cribed	-4476
target	-4477
ynamic	-4478
▁Agent	-4479
▁fatal	-4480
Consume	-4481
Platform	-4482
TaskSpec	-4483
duration	-4484
▁RocksDB	-4485
▁maximum	-4486
MECHANISM	-4487
PLAINTEXT	-4488
iteration	-4489
▁collector	-4490
OutputRecord	-4491
▁topicStruct	-4492
▁valueSchema	-4493
CompressionType	-4494
▁valueSerializer	-4495
UL	-4496
Agg	-4497
Ali	-4498
BUG	-4499
pid	-4500
qno	-4501
▁te	-4502
-1",	-4503
KEYS	-4504
less	-4505
that	-4506
▁));	-4507
▁foo	-4508
▁off	-4509
epoch	-4510
tiles	-4511
▁Text	-4512
▁make	-4513
PORTED	-4514
▁grace	-4515
latency	-4516
▁COMMIT	-4517
Changing	-4518
centiles	-4519
erThread	-4520
▁brokers	-4521
EndOffset	-4522
Requested	-4523
▁TextNode	-4524
windowedBy	-4525
▁recordValue	-4526
MatcherAssert	-4527
SinkConnector	-4528
▁deserializer	-4529
▁SaslException	-4530
▁KafkaPrincipal	-4531
▁ConnectorStatus	-4532
38	-4533
55	-4534
66	-4535
1).	-4536
Exp	-4537
▁"{	-4538
▁Su	-4539
▁TH	-4540
▁we	-4541
PORT	-4542
olic	-4543
▁10,	-4544
▁bec	-4545
▁may	-4546
("{}:	-4547
1"));	-4548
Split	-4549
asure	-4550
aused	-4551
Remove	-4552
requen	-4553
▁claim	-4554
Listing	-4555
mockito	-4556
ollower	-4557
riority	-4558
▁Sender	-4559
▁Stores	-4560
DESCRIBE	-4561
WINDOWED	-4562
earliest	-4563
newValue	-4564
lastAcked	-4565
baseOffset	-4566
logContext	-4567
▁Predicate	-4568
addArgument	-4569
▁assertSame	-4570
▁loginModule	-4571
Subscriptions	-4572
latestVersion	-4573
▁SessionStore	-4574
ClientResponse	-4575
ConnectMetrics	-4576
▁connectorName	-4577
▁logAppendTime	-4578
▁updatedSchema	-4579
▁RecordCollector	-4580
',	-4581
0.	-4582
suc	-4583
▁60	-4584
HOST	-4585
▁");	-4586
▁req	-4587
ENTIC	-4588
Plain	-4589
index	-4590
▁TEST	-4591
SESSION	-4592
▁Double	-4593
IfExists	-4594
SHUTDOWN	-4595
schedule	-4596
EXCEPTION	-4597
▁maxBytes	-4598
RestServer	-4599
▁duplicate	-4600
▁checkpoint	-4601
OffsetsToTxn	-4602
KeyValueMapper	-4603
06	-4604
25	-4605
[])	-4606
can	-4607
▁TP	-4608
("",	-4609
TERN	-4610
aise	-4611
call	-4612
some	-4613
▁VAL	-4614
▁mis	-4615
(1000	-4616
DEBUG	-4617
Stats	-4618
alled	-4619
ested	-4620
merge	-4621
▁Iter	-4622
▁100);	-4623
▁Deque	-4624
Compare	-4625
LITERAL	-4626
PRODUCE	-4627
NodeName	-4628
Skipping	-4629
leftJoin	-4630
location	-4631
▁Records	-4632
▁pending	-4633
▁running	-4634
▁Iterable	-4635
umentation	-4636
kafkaClient	-4637
▁consumerId	-4638
MockProducer	-4639
SourceRecord	-4640
ConnectorInfo	-4641
RequestResult	-4642
timestampType	-4643
▁checkRequest	-4644
▁storeBuilder	-4645
▁configStorage	-4646
▁sendOldValues	-4647
MetadataRequest	-4648
▁assertNotEquals	-4649
07	-4650
89	-4651
DD	-4652
LQ	-4653
ah	-4654
cb	-4655
ang	-4656
▁()	-4657
▁2)	-4658
▁Mer	-4659
Could	-4660
ethod	-4661
▁open	-4662
▁Valid	-4663
▁nonce	-4664
▁order	-4665
▁serde	-4666
Caching	-4667
Varlong	-4668
parator	-4669
▁Joined	-4670
ForTopic	-4671
maybeAdd	-4672
▁because	-4673
andAnswer	-4674
increment	-4675
opartition	-4676
▁assertTask	-4677
▁endOffsets	-4678
baseSequence	-4679
▁ChannelState	-4680
▁mockConsumer	-4681
▁sessionStore	-4682
▁TestCondition	-4683
▁applicationId	-4684
▁producerProps	-4685
ExecutorService	-4686
HeaderConverter	-4687
▁schemaAndValue	-4688
groupCoordinator	-4689
ou	-4690
Use	-4691
▁),	-4692
▁BU	-4693
LOAD	-4694
Sent	-4695
pond	-4696
sync	-4697
▁The	-4698
▁cur	-4699
=[{}]	-4700
CACHE	-4701
KAFKA	-4702
Sends	-4703
▁Name	-4704
▁back	-4705
▁dead	-4706
▁full	-4707
LEANUP	-4708
▁owner	-4709
overlap	-4710
refresh	-4711
Multiple	-4712
▁mySerde	-4713
ClusterId	-4714
PRINCIPAL	-4715
Scheduler	-4716
▁filtered	-4717
▁maxBlock	-4718
ASSIGNMENT	-4719
CertStores	-4720
Configured	-4721
EndOffsets	-4722
▁Composite	-4723
▁attributes	-4724
compressionType	-4725
▁FutureCallback	-4726
▁expectedResult	-4727
BAL	-4728
Inc	-4729
▁31	-4730
Base	-4731
Copy	-4732
Exit	-4733
HAND	-4734
LOPE	-4735
RESH	-4736
Agent	-4737
Lower	-4738
alone	-4739
▁port	-4740
VELOPE	-4741
closed	-4742
putInt	-4743
▁await	-4744
inition	-4745
limited	-4746
▁BUFFER	-4747
▁KTABLE	-4748
▁Memory	-4749
▁fields	-4750
Equality	-4751
▁Subject	-4752
SUPPORTED	-4753
globalTable	-4754
correlationId	-4755
responseSchema	-4756
fromConnectData	-4757
▁authentication	-4758
▁channelBuilder	-4759
▁partitionState	-4760
delegatingLoader	-4761
▁AtomicReference	-4762
▁WindowKeySchema	-4763
▁consumerGroupId	-4764
-2	-4765
BC	-4766
].	-4767
(12	-4768
Env	-4769
IST	-4770
PEC	-4771
box	-4772
{}'	-4773
▁"'	-4774
atis	-4775
cent	-4776
char	-4777
tial	-4778
utes	-4779
Inner	-4780
PROPS	-4781
older	-4782
recei	-4783
▁"1".	-4784
▁1));	-4785
▁Base	-4786
Parsed	-4787
Sorted	-4788
encode	-4789
▁Meter	-4790
▁range	-4791
▁HEADER	-4792
▁Herder	-4793
▁enable	-4794
▁stores	-4795
Progress	-4796
Restorer	-4797
ingState	-4798
nodeName	-4799
▁attempt	-4800
igDecimal	-4801
Delegating	-4802
createMock	-4803
▁versionId	-4804
ByPartition	-4805
▁destination	-4806
assertNotNull	-4807
InitTransactions	-4808
▁ClientDnsLookup	-4809
▁SchemaProjector	-4810
▁restoreConsumer	-4811
1)	-4812
65	-4813
FC	-4814
OF	-4815
mx	-4816
aph	-4817
kew	-4818
ped	-4819
req	-4820
▁Ch	-4821
00);	-4822
Else	-4823
Http	-4824
Once	-4825
asic	-4826
avar	-4827
▁10;	-4828
▁Ret	-4829
▁ack	-4830
▁did	-4831
Chain	-4832
Usage	-4833
agMap	-4834
graph	-4835
times	-4836
▁push	-4837
Sample	-4838
alance	-4839
flight	-4840
Loaders	-4841
REFRESH	-4842
Started	-4843
metavar	-4844
setTime	-4845
▁Server	-4846
▁object	-4847
ENVELOPE	-4848
Follower	-4849
restored	-4850
▁TreeMap	-4851
getStatus	-4852
▁checksum	-4853
TRUSTSTORE	-4854
valueGetter	-4855
ReplicaLogDirs	-4856
▁socketChannel	-4857
MetricsRegistry	-4858
riableException	-4859
▁createTemplate	-4860
Sw	-4861
("/	-4862
pen	-4863
▁mo	-4864
Line	-4865
Redu	-4866
trim	-4867
ules	-4868
Recon	-4869
etter	-4870
mbers	-4871
olicy	-4872
outer	-4873
▁cast	-4874
▁appID	-4875
Prepare	-4876
Support	-4877
startMs	-4878
▁Random	-4879
▁timeMs	-4880
Segments	-4881
TooLarge	-4882
▁Boolean	-4883
▁control	-4884
ORIZATION	-4885
Unsecured	-4886
▁Kerberos	-4887
▁describe	-4888
ForCompare	-4889
Throughput	-4890
persistent	-4891
▁projected	-4892
▁topicData	-4893
plicationFactor	-4894
▁ConnectorConfig	-4895
05	-4896
13	-4897
Ap	-4898
Ra	-4899
alm	-4900
(2),	-4901
>");	-4902
>>()	-4903
Have	-4904
LLER	-4905
▁sub	-4906
ADDER	-4907
OutOf	-4908
REAMS	-4909
Round	-4910
ecute	-4911
▁"");	-4912
▁Sche	-4913
▁peek	-4914
▁proc	-4915
▁rest	-4916
Fenced	-4917
JOINER	-4918
Legacy	-4919
Length	-4920
lename	-4921
▁Plain	-4922
▁klass	-4923
Minutes	-4924
ynonyms	-4925
Nullable	-4926
Starting	-4927
TOSTREAM	-4928
ToSearch	-4929
Validate	-4930
Whitebox	-4931
Algorithm	-4932
▁DESCRIBE	-4933
▁throttle	-4934
CONTROLLER	-4935
SaslClient	-4936
▁bytesValue	-4937
storeBuilder	-4938
AUTHORIZATION	-4939
liveryTimeoutMs	-4940
▁requestBuilder	-4941
AppConfiguration	-4942
▁partitionStruct	-4943
1]	-4944
45	-4945
94	-4946
("<	-4947
CEI	-4948
RAM	-4949
SHA	-4950
igh	-4951
▁EX	-4952
▁us	-4953
enew	-4954
▁NUM	-4955
ATEST	-4956
Calls	-4957
Meter	-4958
ticky	-4959
▁main	-4960
Ignore	-4961
arkers	-4962
lapsed	-4963
PATTERN	-4964
REPLICA	-4965
groupBy	-4966
▁DELETE	-4967
▁Status	-4968
KeySerde	-4969
vocation	-4970
MapValues	-4971
Responses	-4972
joinGroup	-4973
▁THROTTLE	-4974
▁taskName	-4975
Concurrent	-4976
newCapture	-4977
▁consumers	-4978
StandbyTask	-4979
StartOffset	-4980
annotations	-4981
SocketChannel	-4982
▁MockConsumer	-4983
PartitionState	-4984
TransportLayer	-4985
WithKeySupplier	-4986
unmodifiableMap	-4987
rappedStateStore	-4988
▁workerConnector	-4989
67	-4990
EC	-4991
FB	-4992
VA	-4993
GIN	-4994
Mat	-4995
buf	-4996
iew	-4997
Swap	-4998
copy	-4999
swer	-5000
tics	-5001
uple	-5002
Event	-5003
▁'{}'	-5004
During	-5005
[0]));	-5006
exists	-5007
izable	-5008
▁"1");	-5009
▁Files	-5010
▁Short	-5011
▁print	-5012
Balance	-5013
▁answer	-5014
▁groups	-5015
bscribed	-5016
consumed	-5017
▁maxWait	-5018
▁written	-5019
AUTHENTIC	-5020
Consumers	-5021
▁Runnable	-5022
▁versions	-5023
Processing	-5024
▁Heartbeat	-5025
ConfigValue	-5026
REPLICATION	-5027
segmentName	-5028
▁TaskStatus	-5029
▁connConfig	-5030
BufferConfig	-5031
▁JaasContext	-5032
▁ValueMapper	-5033
▁newConsumer	-5034
▁testInvalid	-5035
▁Authenticate	-5036
▁taskAssignor	-5037
TopicException	-5038
AbstractResponse	-5039
MetadataResponse	-5040
getStreamsConfig	-5041
▁MockValueJoiner	-5042
83	-5043
LA	-5044
LY	-5045
ND	-5046
');	-5047
AVA	-5048
ERO	-5049
ONY	-5050
▁"(	-5051
3131	-5052
ICAL	-5053
INFO	-5054
ines	-5055
upper	-5056
▁"1",	-5057
▁inte	-5058
ERRORS	-5059
mapper	-5060
marker	-5061
select	-5062
▁13131	-5063
Payload	-5064
advance	-5065
inished	-5066
▁nodeId	-5067
AndCheck	-5068
Provided	-5069
VERSIONS	-5070
atistics	-5071
▁CONFIGS	-5072
▁STREAMS	-5073
▁Embedded	-5074
▁groupName	-5075
▁sslEngine	-5076
▁ListenerName	-5077
▁conditionMet	-5078
sequenceNumber	-5079
xnOffsetCommit	-5080
▁StateDirectory	-5081
SaslAuthenticate	-5082
▁StreamsMetadata	-5083
-"	-5084
Aw	-5085
Cb	-5086
Es	-5087
IDS	-5088
ays	-5089
ird	-5090
ket	-5091
msg	-5092
Move	-5093
etty	-5094
oing	-5095
part	-5096
then	-5097
CEIVE	-5098
Nanos	-5099
itive	-5100
Expire	-5101
▁0.0);	-5102
▁1.0);	-5103
▁1000,	-5104
Tracker	-5105
Updater	-5106
latform	-5107
▁action	-5108
ToDelete	-5109
ToSource	-5110
structor	-5111
▁IAnswer	-5112
LowerCase	-5113
addRecord	-5114
countDown	-5115
rustStore	-5116
▁NewTopic	-5117
Disconnect	-5118
Projection	-5119
Statistics	-5120
SystemTime	-5121
taskManager	-5122
theCaptured	-5123
▁LinkedList	-5124
Intermediate	-5125
▁interceptor	-5126
MockProcessor	-5127
tempDirectory	-5128
StoreKeyBinary	-5129
startConnector	-5130
▁RecordHeaders	-5131
workerConnector	-5132
▁ConfigResource	-5133
ConnectException	-5134
ValueTransformer	-5135
LEG	-5136
rop	-5137
xff	-5138
▁'"	-5139
▁TR	-5140
))),	-5141
Tree	-5142
keys	-5143
lang	-5144
▁OUT	-5145
2"));	-5146
Aware	-5147
POINT	-5148
cover	-5149
▁hmac	-5150
▁stub	-5151
entity	-5152
handle	-5153
Complex	-5154
subject	-5155
▁WORKER	-5156
LRUCache	-5157
Migrated	-5158
atermark	-5159
entities	-5160
▁matcher	-5161
▁retries	-5162
Connected	-5163
forwarded	-5164
isolation	-5165
▁delegate	-5166
▁oldValue	-5167
anoseconds	-5168
▁convertTo	-5169
▁newRecord	-5170
▁operating	-5171
SwapLoaders	-5172
accumulator	-5173
▁prepareAdd	-5174
resourceType	-5175
▁FileChannel	-5176
▁TimeWindows	-5177
▁stringSerde	-5178
▁ExpectedTask	-5179
▁correlationId	-5180
▁documentation	-5181
▁metricGrpName	-5182
▁Transformation	-5183
ConnectorContext	-5184
▁segmentInterval	-5185
22	-5186
:/	-5187
>"	-5188
Can	-5189
LOC	-5190
_2,	-5191
Dead	-5192
RITE	-5193
oper	-5194
(3)).	-5195
ancel	-5196
clean	-5197
▁0.00	-5198
▁fact	-5199
())));	-5200
artial	-5201
before	-5202
getter	-5203
HANDLER	-5204
InGroup	-5205
addSink	-5206
▁logDir	-5207
▁pushTo	-5208
▁reduce	-5209
Deletion	-5210
WithNull	-5211
replicas	-5212
▁Plugins	-5213
Listeners	-5214
gedSorted	-5215
▁Location	-5216
▁PRODUCER	-5217
▁negative	-5218
▁directory	-5219
sendFetches	-5220
▁stateStore	-5221
ComplexArray	-5222
▁maxMessages	-5223
▁partitioner	-5224
SessionWindow	-5225
connectorName	-5226
currentThread	-5227
▁RecordHeader	-5228
consumerRecord	-5229
gedSortedCache	-5230
▁createAndCheck	-5231
PrincipalBuilder	-5232
';	-5233
(7	-5234
CD	-5235
EF	-5236
VR	-5237
Now	-5238
rew	-5239
uid	-5240
▁?,	-5241
DELI	-5242
Urls	-5243
ZERO	-5244
blah	-5245
done	-5246
▁"-"	-5247
▁ite	-5248
Alias	-5249
inger	-5250
estroy	-5251
mender	-5252
socket	-5253
▁Width	-5254
ArrayOf	-5255
Deleted	-5256
Missing	-5257
StartMs	-5258
example	-5259
pending	-5260
KEYSTORE	-5261
Kerberos	-5262
▁integer	-5263
Serialized	-5264
▁reconnect	-5265
SizeInBytes	-5266
▁Delegating	-5267
▁persistent	-5268
▁FileRecords	-5269
▁createState	-5270
▁outputTopic	-5271
RestExtension	-5272
StateListener	-5273
▁InternalMock	-5274
▁ProducerBatch	-5275
▁shouldThrowIf	-5276
▁ConnectProtocol	-5277
":	-5278
(@	-5279
74	-5280
HA	-5281
NS	-5282
("(	-5283
2).	-5284
DIS	-5285
MAR	-5286
Nam	-5287
Ops	-5288
Raw	-5289
▁("	-5290
▁ID	-5291
▁Is	-5292
▁Le	-5293
▁sh	-5294
Args	-5295
POLL	-5296
body	-5297
cies	-5298
▁12.	-5299
▁Not	-5300
▁mat	-5301
Debug	-5302
Outer	-5303
RESET	-5304
pause	-5305
▁100;	-5306
▁left	-5307
▁load	-5308
Forwar	-5309
Usable	-5310
runner	-5311
▁Close	-5312
Correct	-5313
Schemas	-5314
centage	-5315
failure	-5316
futures	-5317
service	-5318
▁OUTPUT	-5319
▁writer	-5320
Location	-5321
intValue	-5322
localCrc	-5323
▁enabled	-5324
Forwarder	-5325
StartTime	-5326
formation	-5327
▁METADATA	-5328
▁schedule	-5329
Truststore	-5330
WithOffset	-5331
ancellable	-5332
readyNodes	-5333
withFields	-5334
GlobalStore	-5335
ValueMapper	-5336
newInstance	-5337
findSessions	-5338
CreateSegment	-5339
FlightBatches	-5340
WorkerRequest	-5341
upleForwarder	-5342
▁errorMessage	-5343
▁shouldReturn	-5344
metricInstance	-5345
▁checkResponse	-5346
ConsumerConfigs	-5347
compareKeyValue	-5348
readableRecords	-5349
▁IsolationLevel	-5350
AF	-5351
IO	-5352
://	-5353
AAS	-5354
TIM	-5355
dir	-5356
lot	-5357
uff	-5358
▁3;	-5359
")),	-5360
")).	-5361
EXPI	-5362
args	-5363
docs	-5364
mute	-5365
okup	-5366
▁pos	-5367
▁sum	-5368
(1024	-5369
Fatal	-5370
Items	-5371
Merge	-5372
Regex	-5373
SHORT	-5374
forge	-5375
mmary	-5376
Reduce	-5377
WithNo	-5378
invoke	-5379
submit	-5380
flushed	-5381
initial	-5382
▁doTest	-5383
Mismatch	-5384
argparse	-5385
capacity	-5386
pendents	-5387
▁Segment	-5388
Attribute	-5389
fieldName	-5390
▁authoriz	-5391
▁elements	-5392
▁endPoint	-5393
properties	-5394
▁formatter	-5395
FileChannel	-5396
compression	-5397
sourceforge	-5398
▁copartition	-5399
Authenticator	-5400
▁LocationAware	-5401
▁StateRestorer	-5402
▁recordFactory	-5403
RecordCollector	-5404
RuntimeException	-5405
▁restoreListener	-5406
:9	-5407
AI	-5408
LZ	-5409
GRA	-5410
ITY	-5411
TBE	-5412
ian	-5413
(-1,	-5414
ANDS	-5415
ATUS	-5416
Than	-5417
▁two	-5418
Build	-5419
Namer	-5420
TBEAT	-5421
▁0)),	-5422
▁Exit	-5423
▁JSON	-5424
▁Stop	-5425
ANDSHA	-5426
Strict	-5427
anyInt	-5428
▁VALUE	-5429
▁parts	-5430
LOGICAL	-5431
fetcher	-5432
▁CREATE	-5433
▁testRe	-5434
Keystore	-5435
ancelled	-5436
previous	-5437
▁extract	-5438
▁require	-5439
▁taskIds	-5440
▁unknown	-5441
SaslState	-5442
converted	-5443
throwable	-5444
▁restored	-5445
tException	-5446
▁configDef	-5447
▁Aggregator	-5448
▁sslFactory	-5449
numPartitions	-5450
producerEpoch	-5451
▁FetchSession	-5452
▁disconnected	-5453
TransformValues	-5454
RequestException	-5455
0)	-5456
0/	-5457
81	-5458
AA	-5459
NY	-5460
_2	-5461
do	-5462
▁Av	-5463
Does	-5464
ULTI	-5465
boun	-5466
mall	-5467
root	-5468
uuid	-5469
▁ind	-5470
(2));	-5471
Added	-5472
Categ	-5473
Clean	-5474
SCRAM	-5475
<>());	-5476
EndTxn	-5477
LATEST	-5478
PerSec	-5479
estOps	-5480
▁TRANS	-5481
Content	-5482
created	-5483
unknown	-5484
▁common	-5485
Category	-5486
▁SEGMENT	-5487
▁TreeSet	-5488
RECONNECT	-5489
▁Callable	-5490
▁username	-5491
management	-5492
▁TIMESTAMP	-5493
Connections	-5494
Initialized	-5495
configState	-5496
nanoseconds	-5497
toLowerCase	-5498
▁expiration	-5499
▁storeNames	-5500
▁description	-5501
▁assertSchema	-5502
▁interceptors	-5503
producerConfig	-5504
='	-5505
Kv	-5506
(()	-5507
:80	-5508
een	-5509
Flat	-5510
Part	-5511
Port	-5512
Zero	-5513
sign	-5514
▁102	-5515
Grace	-5516
Tries	-5517
▁Supp	-5518
(10000	-5519
Loaded	-5520
Logout	-5521
etween	-5522
simple	-5523
▁EPOCH	-5524
▁abort	-5525
running	-5526
success	-5527
▁Kibosh	-5528
▁sample	-5529
▁testId	-5530
▁tokens	-5531
throttle	-5532
▁element	-5533
▁fetched	-5534
▁missing	-5535
Benchmark	-5536
Predicate	-5537
RoundTrip	-5538
mediately	-5539
OffsetsFor	-5540
TopicNames	-5541
randomUUID	-5542
▁configMap	-5543
▁logPrefix	-5544
WriteBuffer	-5545
peekNextKey	-5546
MaxTimestamp	-5547
MetricByName	-5548
▁InetAddress	-5549
GroupsRequest	-5550
NullPointerOn	-5551
addStateStore	-5552
▁ExpectedTasks	-5553
▁RequestHeader	-5554
▁saslMechanism	-5555
ClusterResource	-5556
▁clientSupplier	-5557
▁maxBlockTimeMs	-5558
48	-5559
75	-5560
.0.	-5561
={}	-5562
ACT	-5563
ICE	-5564
LAY	-5565
ari	-5566
▁"/	-5567
▁<<	-5568
Lead	-5569
Skew	-5570
THER	-5571
gnor	-5572
oten	-5573
prev	-5574
ssue	-5575
tify	-5576
vlet	-5577
▁12,	-5578
INGLE	-5579
laims	-5580
ories	-5581
raise	-5582
▁Http	-5583
▁more	-5584
Instan	-5585
ToNext	-5586
pended	-5587
rewind	-5588
project	-5589
▁during	-5590
Channels	-5591
Reconfig	-5592
toMillis	-5593
▁advance	-5594
▁another	-5595
▁testGet	-5596
AndOffset	-5597
Converted	-5598
ableError	-5599
retention	-5600
▁Executor	-5601
▁interval	-5602
▁returned	-5603
Transition	-5604
mxReporter	-5605
▁forwarded	-5606
▁scheduler	-5607
setIfExists	-5608
transformer	-5609
▁SslConfigs	-5610
▁compressed	-5611
▁processors	-5612
▁shouldFail	-5613
SelectionKey	-5614
ConfigsRequest	-5615
withValueSerde	-5616
▁configEntries	-5617
▁groupedStream	-5618
toStoreKeyBinary	-5619
▁ScramCredential	-5620
03	-5621
46	-5622
EB	-5623
VO	-5624
10]	-5625
ven	-5626
▁St	-5627
-2",	-5628
NULL	-5629
ROOT	-5630
ffix	-5631
hing	-5632
▁"";	-5633
▁API	-5634
▁rec	-5635
>());	-5636
ARGET	-5637
Float	-5638
ermin	-5639
ollow	-5640
▁LIST	-5641
▁exit	-5642
Letter	-5643
Nested	-5644
PerKey	-5645
Policy	-5646
noNode	-5647
Brokers	-5648
Compati	-5649
RETRIES	-5650
Relogin	-5651
TestEnv	-5652
replace	-5653
▁Values	-5654
Absolute	-5655
Runnable	-5656
parseInt	-5657
▁Fetcher	-5658
OnInvalid	-5659
Supported	-5660
Watermark	-5661
originals	-5662
queryable	-5663
▁Selector	-5664
▁TaskSpec	-5665
▁assertNo	-5666
▁newState	-5667
Converters	-5668
DurationMs	-5669
Standalone	-5670
WithPrefix	-5671
▁fieldName	-5672
Constructor	-5673
LetterQueue	-5674
UnitTestEnv	-5675
distributed	-5676
▁PluginDesc	-5677
▁Punctuator	-5678
▁StreamTask	-5679
▁firstBatch	-5680
▁instanceOf	-5681
▁sourceTask	-5682
WithPrevious	-5683
createConfig	-5684
▁Distributed	-5685
▁sizeInBytes	-5686
DataException	-5687
KafkaProducer	-5688
SchemaBuilder	-5689
TRANSACTIONAL	-5690
RequestHandler	-5691
RecordsReceived	-5692
▁MockAggregator	-5693
AclBindingFilter	-5694
KR	-5695
Ro	-5696
@0/	-5697
Any	-5698
LIC	-5699
UAR	-5700
omp	-5701
▁If	-5702
DIRS	-5703
Item	-5704
UGIN	-5705
aged	-5706
▁isr	-5707
▁{}.	-5708
AndIs	-5709
Every	-5710
Print	-5711
going	-5712
lower	-5713
▁auto	-5714
decode	-5715
number	-5716
▁least	-5717
▁until	-5718
▁{}.",	-5719
ForTask	-5720
Futures	-5721
Subject	-5722
Threads	-5723
charset	-5724
resolve	-5725
writeTo	-5726
▁decode	-5727
▁loader	-5728
REPLICAS	-5729
cacheKey	-5730
▁allData	-5731
▁fooSpec	-5732
LatencyMs	-5733
Signature	-5734
mapValues	-5735
▁Security	-5736
▁lifetime	-5737
▁writeLog	-5738
FileStream	-5739
TopicsInfo	-5740
▁valueSize	-5741
Compression	-5742
GlobalTable	-5743
leaderEpoch	-5744
outputTopic	-5745
stringSerde	-5746
LevelSensors	-5747
PerPartition	-5748
forException	-5749
▁workerState	-5750
KafkaConsumer	-5751
▁ForeachAction	-5752
ConsumerRecords	-5753
Deserialization	-5754
RepartitionNode	-5755
connectionStates	-5756
▁isTransactional	-5757
63	-5758
88	-5759
90	-5760
>\	-5761
64.	-5762
ITI	-5763
LTA	-5764
bin	-5765
ide	-5766
xFF	-5767
▁""	-5768
▁4;	-5769
▁5,	-5770
(500	-5771
CLAI	-5772
SPEC	-5773
[0];	-5774
▁Doc	-5775
.0.0.	-5776
REPOR	-5777
WRITE	-5778
[0]),	-5779
appen	-5780
▁rate	-5781
AndIsr	-5782
CURITY	-5783
▁1000;	-5784
▁Check	-5785
Command	-5786
HANDSHA	-5787
Written	-5788
compute	-5789
ingerMs	-5790
isReady	-5791
▁Broker	-5792
▁Leader	-5793
LEGATION	-5794
REPORTER	-5795
Snapshot	-5796
segments	-5797
toStruct	-5798
FaultSpec	-5799
ToConnect	-5800
binaryKey	-5801
▁produced	-5802
▁restorer	-5803
DateFormat	-5804
InProgress	-5805
NodeGroups	-5806
lastOffset	-5807
▁anyObject	-5808
TaskRequest	-5809
isCompleted	-5810
▁sinkRecord	-5811
▁testConfig	-5812
AbsolutePath	-5813
DebugEnabled	-5814
TopicsResult	-5815
transitionTo	-5816
▁sourceNodes	-5817
▁topicConfig	-5818
RestException	-5819
▁generationId	-5820
▁maxTimestamp	-5821
▁validateOnly	-5822
InitProducerId	-5823
retryBackoffMs	-5824
▁recordContext	-5825
connectorConfig	-5826
transactionalId	-5827
ValidationResult	-5828
singletonCluster	-5829
▁partitionStates	-5830
aa	-5831
-";	-5832
1".	-5833
10,	-5834
Buf	-5835
ood	-5836
▁IS	-5837
▁{"	-5838
ARER	-5839
CALL	-5840
MOUS	-5841
auto	-5842
head	-5843
▁0.0	-5844
▁Avg	-5845
AUSED	-5846
FORMA	-5847
LIEST	-5848
OPTIM	-5849
Quota	-5850
aless	-5851
olved	-5852
▁pair	-5853
(")");	-5854
APPEND	-5855
AUTHBE	-5856
Forget	-5857
LATION	-5858
▁trace	-5859
ONYMOUS	-5860
respond	-5861
▁SOURCE	-5862
▁define	-5863
▁encode	-5864
Embedded	-5865
Stopping	-5866
captured	-5867
fication	-5868
lication	-5869
otential	-5870
playName	-5871
▁address	-5872
▁clients	-5873
▁flushed	-5874
ENERATION	-5875
clusterId	-5876
▁Whitebox	-5877
▁encoding	-5878
▁maintain	-5879
▁provider	-5880
▁renewers	-5881
AUTHBEARER	-5882
Initialize	-5883
TestConfig	-5884
rightTable	-5885
▁taskState	-5886
KafkaMetric	-5887
▁maxRecords	-5888
StandbyTasks	-5889
disconnected	-5890
maxTimestamp	-5891
onPartitions	-5892
parseRequest	-5893
standbyTasks	-5894
▁initializer	-5895
GroupedStream	-5896
SaslExtensions	-5897
▁ConnectorType	-5898
▁NetworkClient	-5899
▁SessionWindows	-5900
▁verifyOptional	-5901
HandshakeRequest	-5902
OAuthBearerToken	-5903
newProcessorName	-5904
partitionRecords	-5905
▁consumerConfigs	-5906
1:	-5907
40	-5908
47	-5909
8(	-5910
>(	-5911
CC	-5912
db	-5913
DNS	-5914
its	-5915
ume	-5916
ERGE	-5917
More	-5918
WITH	-5919
▁ACL	-5920
▁Key	-5921
(100,	-5922
BEROS	-5923
CLAIM	-5924
CLOSE	-5925
DELAY	-5926
MITER	-5927
Pause	-5928
TIONS	-5929
acted	-5930
cause	-5931
igest	-5932
plain	-5933
three	-5934
▁"2".	-5935
▁Sync	-5936
▁addr	-5937
▁http	-5938
▁sign	-5939
▁tear	-5940
▁unit	-5941
ynonym	-5942
▁EMPTY	-5943
▁GROUP	-5944
▁MAGIC	-5945
▁added	-5946
▁getOr	-5947
Mockito	-5948
OnClose	-5949
SEGMENT	-5950
URATION	-5951
baseDir	-5952
getPath	-5953
▁ERRORS	-5954
▁RECORD	-5955
▁sizeOf	-5956
KERBEROS	-5957
snapshot	-5958
▁factory	-5959
▁parents	-5960
▁waiting	-5961
getOrElse	-5962
unsecured	-5963
▁optional	-5964
▁platform	-5965
▁property	-5966
Comparator	-5967
Underlying	-5968
▁validated	-5969
-0000000001	-5970
Certificate	-5971
CurrentNode	-5972
ExceptionIf	-5973
AndTimestamp	-5974
ensureActive	-5975
lineReplicas	-5976
▁predecessor	-5977
LinkedHashMap	-5978
ResetStrategy	-5979
connectorMock	-5980
processorName	-5981
InitialResponse	-5982
getAbsolutePath	-5983
authorizedTopics	-5984
60	-5985
AE	-5986
md	-5987
02,	-5988
Has	-5989
Sus	-5990
laz	-5991
tml	-5992
▁"4	-5993
▁"]	-5994
Skip	-5995
enge	-5996
sert	-5997
▁BOO	-5998
▁Red	-5999
▁URL	-6000
OTHER	-6001
Three	-6002
Timed	-6003
after	-6004
ained	-6005
▁wrap	-6006
Joined	-6007
WORKER	-6008
rigger	-6009
toPath	-6010
uffers	-6011
▁Group	-6012
▁Retry	-6013
▁using	-6014
SAMPLES	-6015
allenge	-6016
▁Sticky	-6017
CALLBACK	-6018
lessTask	-6019
suppress	-6020
▁Runtime	-6021
▁addTask	-6022
▁without	-6023
ofSeconds	-6024
▁cacheKey	-6025
▁contains	-6026
▁deadline	-6027
▁existing	-6028
▁maxTries	-6029
▁reporter	-6030
▁valSerde	-6031
Persistent	-6032
RecordType	-6033
WithSchema	-6034
apiVersion	-6035
mmediately	-6036
▁errorCode	-6037
▁expectStop	-6038
▁lastOffset	-6039
createTopics	-6040
responseData	-6041
▁initialized	-6042
authenticator	-6043
hasProducerId	-6044
▁KafkaChannel	-6045
▁MockProducer	-6046
▁userEndPoint	-6047
AbortableError	-6048
ContextFactory	-6049
maybePunctuate	-6050
responseFuture	-6051
▁DeleteRecords	-6052
▁shouldThrowOn	-6053
inFlightBatches	-6054
metricsRegistry	-6055
FD	-6056
NC	-6057
dk	-6058
ui	-6059
DAY	-6060
IOD	-6061
LEn	-6062
rin	-6063
▁20	-6064
:909	-6065
Dirs	-6066
lazz	-6067
▁got	-6068
ALLOW	-6069
[]>>>	-6070
▁Init	-6071
▁vals	-6072
Called	-6073
Expiry	-6074
PERIOD	-6075
mended	-6076
orrupt	-6077
rinted	-6078
unlock	-6079
Removed	-6080
updated	-6081
▁Filter	-6082
▁follow	-6083
username	-6084
▁Reducer	-6085
▁elapsed	-6086
▁members	-6087
▁release	-6088
▁service	-6089
Definition	-6090
InfoParser	-6091
ShortNamer	-6092
TimePeriod	-6093
Timestamps	-6094
▁Closeable	-6095
▁endOffset	-6096
▁sslConfig	-6097
▁verifyAll	-6098
InetAddress	-6099
Information	-6100
▁globalState	-6101
isDebugEnabled	-6102
▁ConsumerGroup	-6103
▁cacheFunction	-6104
▁consumerProps	-6105
▁processorName	-6106
▁storeIterator	-6107
PowerMockRunner	-6108
▁consumerRecord	-6109
▁createSelector	-6110
ToChangelogTopic	-6111
▁DelegationToken	-6112
▁metricGrpPrefix	-6113
51	-6114
BD	-6115
ia	-6116
Ids	-6117
RAY	-6118
RED	-6119
▁16	-6120
▁4,	-6121
▁50	-6122
▁fl	-6123
AllP	-6124
Html	-6125
Remo	-6126
none	-6127
tool	-6128
}));	-6129
▁EPS	-6130
▁bar	-6131
3"));	-6132
Parse	-6133
ldest	-6134
stand	-6135
▁char	-6136
▁over	-6137
loader	-6138
▁Named	-6139
▁sleep	-6140
CONTEXT	-6141
Matches	-6142
Mutable	-6143
Revoked	-6144
TENSION	-6145
samples	-6146
▁LEADER	-6147
▁happen	-6148
Contains	-6149
Failures	-6150
MemberId	-6151
NewTopic	-6152
ackTrace	-6153
anyTimes	-6154
stateDir	-6155
▁TestSsl	-6156
▁harness	-6157
▁measure	-6158
▁samples	-6159
▁support	-6160
DELIMITER	-6161
SslConfig	-6162
TableJoin	-6163
opologies	-6164
removeAll	-6165
▁timeFrom	-6166
ListOffset	-6167
▁reporters	-6168
ControlFlag	-6169
numReceived	-6170
▁BufferPool	-6171
▁Suppressed	-6172
▁aggregator	-6173
AllPotential	-6174
VarlongSerde	-6175
listenerName	-6176
▁configValue	-6177
AtomicInteger	-6178
requestSchema	-6179
AllowedVersion	-6180
▁ClientRequest	-6181
▁ConnectRecord	-6182
ConversionStats	-6183
incrementAndGet	-6184
▁InitProducerId	-6185
▁consumerConfig	-6186
▁isolationLevel	-6187
JoinGroupRequest	-6188
SendingOldValues	-6189
produceKeyValues	-6190
▁retentionPeriod	-6191
62	-6192
1};	-6193
ACE	-6194
IBU	-6195
NED	-6196
PAR	-6197
sus	-6198
tio	-6199
▁ct	-6200
FKey	-6201
LOGY	-6202
[]{1	-6203
four	-6204
refl	-6205
till	-6206
urge	-6207
uted	-6208
▁cre	-6209
▁ids	-6210
AVAIL	-6211
Alloc	-6212
Recom	-6213
delay	-6214
occur	-6215
ratio	-6216
round	-6217
serde	-6218
tools	-6219
▁item	-6220
PAUSED	-6221
POLOGY	-6222
▁Basic	-6223
▁issue	-6224
LEngine	-6225
OFFSETS	-6226
PROCESS	-6227
Runtime	-6228
TENTION	-6229
▁SCHEMA	-6230
▁SINGLE	-6231
▁UPDATE	-6232
▁cached	-6233
▁testNo	-6234
AsString	-6235
EARLIEST	-6236
messages	-6237
▁PRODUCE	-6238
▁compute	-6239
▁drained	-6240
AVAILABLE	-6241
Beginning	-6242
ConfigKey	-6243
GroupName	-6244
HANDSHAKE	-6245
Protocols	-6246
RefreshMs	-6247
sessionId	-6248
▁CONSUMER	-6249
▁keyBytes	-6250
AutoCommit	-6251
FatalError	-6252
Iterations	-6253
TaskConfig	-6254
ameterized	-6255
▁Unlimited	-6256
▁joinOther	-6257
▁queryable	-6258
-0000000003	-6259
ConfigEntry	-6260
PluginUtils	-6261
ThreadCache	-6262
withLogging	-6263
▁BigDecimal	-6264
▁ObjectNode	-6265
▁SourceNode	-6266
▁SourceTask	-6267
TraceEnabled	-6268
hasCompleted	-6269
▁valueCounts	-6270
KafkaBasedLog	-6271
▁configValues	-6272
▁orderInGroup	-6273
▁Configuration	-6274
▁cacheIterator	-6275
▁serializedKey	-6276
TxnOffsetCommit	-6277
restoreConsumer	-6278
▁ConnectorState	-6279
BeginningOffsets	-6280
CommittedOffsets	-6281
FollowerResponse	-6282
sslClientConfigs	-6283
▁TxnOffsetCommit	-6284
69	-6285
\'	-6286
jm	-6287
ks	-6288
(":	-6289
(15	-6290
=\"	-6291
LEA	-6292
jmh	-6293
▁5;	-6294
("</	-6295
3));	-6296
IDLE	-6297
ONCE	-6298
PLAY	-6299
Resp	-6300
Side	-6301
uilt	-6302
▁":"	-6303
▁3),	-6304
▁Per	-6305
▁utf	-6306
▁vis	-6307
▁yet	-6308
(1)).	-6309
Fully	-6310
MERGE	-6311
RENEW	-6312
Upper	-6313
arger	-6314
coder	-6315
velop	-6316
verti	-6317
▁2));	-6318
▁REST	-6319
▁same	-6320
Applic	-6321
Events	-6322
Folder	-6323
Termin	-6324
Throws	-6325
report	-6326
toSend	-6327
▁DELTA	-6328
▁Store	-6329
▁occur	-6330
▁outer	-6331
BROKERS	-6332
Retries	-6333
isValid	-6334
nextInt	-6335
wrapped	-6336
▁WINDOW	-6337
JoinSide	-6338
LOCATION	-6339
NoWakeup	-6340
OldValue	-6341
hasField	-6342
▁command	-6343
▁latency	-6344
ANONYMOUS	-6345
AutoReset	-6346
Configure	-6347
Histogram	-6348
Initializ	-6349
startTask	-6350
▁RESOURCE	-6351
Compressed	-6352
DELEGATION	-6353
Measurable	-6354
MemoryPool	-6355
TaskStatus	-6356
truststore	-6357
▁replayAll	-6358
▁importance	-6359
Configurable	-6360
ControlBatch	-6361
DefaultValue	-6362
NotAvailable	-6363
TaskAssignor	-6364
▁SaslConfigs	-6365
configuration	-6366
keyValueStore	-6367
▁TimeWindowed	-6368
▁resourceType	-6369
ProduceRequest	-6370
▁Transactional	-6371
ProduceResponse	-6372
▁LoginException	-6373
▁fatalException	-6374
TransactionState	-6375
fulProcessorNode	-6376
▁ClusterResource	-6377
▁DescribeLogDirs	-6378
▁controllerEpoch	-6379
▁transformations	-6380
44	-6381
79	-6382
BF	-6383
[2	-6384
sb	-6385
wt	-6386
("{	-6387
100	-6388
alc	-6389
try	-6390
LICY	-6391
flow	-6392
▁5);	-6393
▁Agg	-6394
▁its	-6395
Leave	-6396
cript	-6397
edInt	-6398
fully	-6399
orian	-6400
▁"2",	-6401
▁NAME	-6402
▁remo	-6403
Direct	-6404
Unsign	-6405
cedure	-6406
memory	-6407
paused	-6408
▁1024,	-6409
▁30000	-6410
▁Timer	-6411
▁Total	-6412
▁merge	-6413
▁needs	-6414
▁recom	-6415
DISPLAY	-6416
Delayed	-6417
ENABLED	-6418
bsolute	-6419
forCode	-6420
foreach	-6421
trolled	-6422
▁Topics	-6423
▁period	-6424
▁states	-6425
Encoding	-6426
Optimize	-6427
Produced	-6428
SECURITY	-6429
TestInfo	-6430
Uncaught	-6431
provider	-6432
regorian	-6433
vertised	-6434
▁Windows	-6435
▁dynamic	-6436
▁sensors	-6437
Scheduled	-6438
sToSearch	-6439
timizable	-6440
▁NotFound	-6441
▁joinThis	-6442
▁mockTask	-6443
▁oldState	-6444
ClientConf	-6445
DataBefore	-6446
Successful	-6447
getDefault	-6448
storeNames	-6449
▁Histogram	-6450
▁callbacks	-6451
-0000000004	-6452
UnsignedInt	-6453
putIfAbsent	-6454
▁Measurable	-6455
▁testStream	-6456
▁trustStore	-6457
ListenerName	-6458
ToNextUpdate	-6459
pollNoWakeup	-6460
▁Initializer	-6461
OffsetsResult	-6462
ReplicaLogDir	-6463
▁assertParsed	-6464
▁onCompletion	-6465
▁refreshEvery	-6466
▁shouldCreate	-6467
ConfigProvider	-6468
UpdateListener	-6469
▁currentOffset	-6470
▁topicMetadata	-6471
MockInitializer	-6472
▁handleResponse	-6473
▁recordingLevel	-6474
RepartitionTopic	-6475
regorianCalendar	-6476
▁expectRebalance	-6477
▁serializedValue	-6478
ne	-6479
Bad	-6480
CLU	-6481
HIS	-6482
ISR	-6483
]",	-6484
cap	-6485
▁'}	-6486
▁1:	-6487
2"),	-6488
InIs	-6489
SSIG	-6490
aign	-6491
prox	-6492
▁ctx	-6493
Admin	-6494
CLUDE	-6495
Invok	-6496
▁"3".	-6497
▁Mode	-6498
INTHIS	-6499
Kibosh	-6500
POLICY	-6501
VALUES	-6502
apping	-6503
resume	-6504
serdes	-6505
uments	-6506
velope	-6507
viders	-6508
▁1)));	-6509
▁Write	-6510
▁clear	-6511
▁dirty	-6512
▁drain	-6513
▁limit	-6514
Closing	-6515
Grouper	-6516
Markers	-6517
ampaign	-6518
anyLong	-6519
bstring	-6520
criptor	-6521
▁Expire	-6522
LoadInIs	-6523
USERNAME	-6524
▁allowed	-6525
▁setting	-6526
▁wrapper	-6527
Duplicate	-6528
Processed	-6529
RECORDING	-6530
TaskState	-6531
separator	-6532
▁lingerMs	-6533
MockMapper	-6534
Schemaless	-6535
compressed	-6536
credential	-6537
punctuated	-6538
▁clusterId	-6539
▁nodeNames	-6540
▁prevTasks	-6541
▁segmentId	-6542
▁setupWith	-6543
JaasContext	-6544
NoAutoReset	-6545
PatternType	-6546
withRecords	-6547
▁AtomicLong	-6548
▁Serialized	-6549
▁durationMs	-6550
▁punctuator	-6551
GlobalKTable	-6552
ScramMessage	-6553
▁firstOffset	-6554
▁transformer	-6555
RequestHeader	-6556
compareAndSet	-6557
validateValue	-6558
▁ObjectMapper	-6559
▁sourceRecord	-6560
CurrentOffsets	-6561
LogInputStream	-6562
NetworkReceive	-6563
transformation	-6564
FencedException	-6565
LoadInIsolation	-6566
trolledShutdown	-6567
▁fetchedRecords	-6568
▁firstException	-6569
PayloadGenerator	-6570
RequestTimeoutMs	-6571
setRecordContext	-6572
streamsGraphNode	-6573
▁NodeApiVersions	-6574
▁credentialCache	-6575
▁expiryTimestamp	-6576
EE	-6577
Ow	-6578
ie	-6579
ls	-6580
▁z	-6581
++]	-6582
16,	-6583
GER	-6584
You	-6585
▁am	-6586
JSON	-6587
Pass	-6588
hole	-6589
ters	-6590
▁4);	-6591
▁?>)	-6592
▁DLQ	-6593
▁Max	-6594
())).	-6595
(10);	-6596
GRADE	-6597
READY	-6598
UGINS	-6599
imate	-6600
mkMap	-6601
ucket	-6602
▁'}';	-6603
▁CONN	-6604
▁NULL	-6605
▁SINK	-6606
▁conf	-6607
▁date	-6608
▁down	-6609
10]:0+	-6610
MARKER	-6611
NUMBER	-6612
Resume	-6613
groups	-6614
owners	-6615
resent	-6616
▁INPUT	-6617
▁Renew	-6618
▁TOKEN	-6619
▁could	-6620
▁names	-6621
▁there	-6622
Already	-6623
FlagDes	-6624
Instant	-6625
Invokes	-6626
Peeking	-6627
UPGRADE	-6628
▁lookup	-6629
▁signal	-6630
TOPOLOGY	-6631
oldValue	-6632
▁toMagic	-6633
▁workers	-6634
@0/10]:0+	-6635
Callbacks	-6636
ClassRule	-6637
ErrorCode	-6638
Overrides	-6639
proximate	-6640
▁calendar	-6641
▁runnable	-6642
▁shouldBe	-6643
Subscribed	-6644
TxnMarkers	-6645
numRecords	-6646
requencies	-6647
sourceName	-6648
▁requested	-6649
▁shouldGet	-6650
BodyInBytes	-6651
IsDifferent	-6652
OAUTHBEARER	-6653
TestMessage	-6654
transformed	-6655
▁expectPoll	-6656
▁jsonSchema	-6657
▁parameters	-6658
withKeySerde	-6659
▁jaasContext	-6660
ApplicationId	-6661
StorageReader	-6662
▁DeleteTopics	-6663
▁SelectionKey	-6664
▁controllerId	-6665
▁shouldFailIf	-6666
ArgumentParser	-6667
FlagDescriptor	-6668
MetadataUpdate	-6669
WindowedStream	-6670
expectedResult	-6671
isTraceEnabled	-6672
kafkaPartition	-6673
▁NoSuchElement	-6674
▁netReadBuffer	-6675
AutoOffsetReset	-6676
ResourcePattern	-6677
isTransactional	-6678
unmodifiableSet	-6679
▁AbstractConfig	-6680
actSerialization	-6681
initTransactions	-6682
▁MetadataRequest	-6683
▁SchemaException	-6684
Li	-6685
MM	-6686
OK	-6687
dd	-6688
16_	-6689
FRO	-6690
Gap	-6691
OTE	-6692
URE	-6693
UTC	-6694
Uri	-6695
dAt	-6696
jdk	-6697
tiv	-6698
voc	-6699
▁"<	-6700
▁AR	-6701
▁es	-6702
9999	-6703
=[0]	-6704
FROM	-6705
Live	-6706
NICE	-6707
ires	-6708
MBean	-6709
Paths	-6710
Using	-6711
centi	-6712
coded	-6713
jetty	-6714
▁"0",	-6715
▁copy	-6716
Expect	-6717
accept	-6718
ceeded	-6719
ferred	-6720
getAll	-6721
▁begin	-6722
<>("1",	-6723
Replace	-6724
centile	-6725
openjdk	-6726
rottler	-6727
sensors	-6728
standby	-6729
▁mapped	-6730
▁paused	-6731
▁tagMap	-6732
ClientId	-6733
JOINTHIS	-6734
checksum	-6735
▁contain	-6736
▁include	-6737
▁runTest	-6738
▁writeTo	-6739
BatchSize	-6740
CacheSize	-6741
ClockSkew	-6742
JOINOTHER	-6743
Providers	-6744
duplicate	-6745
getSensor	-6746
substring	-6747
vocations	-6748
▁brokerId	-6749
▁numberOf	-6750
Forwarding	-6751
GENERATION	-6752
generation	-6753
suppressed	-6754
▁nodeState	-6755
▁startedMs	-6756
Recommender	-6757
predecessor	-6758
AUTHENTICATE	-6759
▁MetricGroup	-6760
▁secondBatch	-6761
WithTimestamp	-6762
ableClockSkew	-6763
requestUpdate	-6764
streamsConfig	-6765
▁LeaderAndIsr	-6766
▁TaskMigrated	-6767
▁metricsGroup	-6768
▁stubProvider	-6769
CountDownLatch	-6770
consumerConfig	-6771
▁LinkedHashSet	-6772
CoordinatorType	-6773
KafkaFutureImpl	-6774
topicPartitions	-6775
▁EndTransaction	-6776
▁expiredBatches	-6777
▁getterSupplier	-6778
getInternalState	-6779
mockLoginContext	-6780
08	-6781
41	-6782
42	-6783
Db	-6784
TW	-6785
ee	-6786
wh	-6787
509	-6788
='"	-6789
ALG	-6790
Pid	-6791
abc	-6792
cks	-6793
lus	-6794
▁os	-6795
(2).	-6796
DUCE	-6797
ITHM	-6798
RESS	-6799
need	-6800
ocks	-6801
0_000	-6802
ALGOR	-6803
MULTI	-6804
REBAL	-6805
Realm	-6806
Stage	-6807
ither	-6808
ulate	-6809
▁high	-6810
▁seek	-6811
Merger	-6812
TARGET	-6813
rawKey	-6814
▁Leave	-6815
▁Round	-6816
▁deque	-6817
▁event	-6818
▁named	-6819
▁sends	-6820
▁seqno	-6821
DoesNot	-6822
Invoked	-6823
Ongoing	-6824
RECEIVE	-6825
itional	-6826
revoked	-6827
windows	-6828
▁Update	-6829
▁method	-6830
Handlers	-6831
received	-6832
▁skipped	-6833
ALGORITHM	-6834
Instances	-6835
Movements	-6836
Procedure	-6837
TimeLimit	-6838
operation	-6839
ureRandom	-6840
▁SinkTask	-6841
▁appender	-6842
checkpoint	-6843
▁Scheduled	-6844
▁composite	-6845
▁recordKey	-6846
-0000000002	-6847
-0000000006	-6848
agentClient	-6849
approximate	-6850
globalStore	-6851
▁ObjectName	-6852
▁emptyTasks	-6853
▁taskConfig	-6854
▁testCreate	-6855
agedReceives	-6856
mendedValues	-6857
▁KStreamImpl	-6858
▁StandbyTask	-6859
▁configEntry	-6860
▁topicGroups	-6861
NoSuchElement	-6862
▁MockInternal	-6863
▁RequestUtils	-6864
▁protocolType	-6865
Repartitioning	-6866
▁clientRequest	-6867
▁handleFailure	-6868
▁transactional	-6869
CommittedOffset	-6870
ConverterConfig	-6871
RestoreConsumer	-6872
ableClockSkewMs	-6873
▁ResponseHeader	-6874
▁sendIdempotent	-6875
ProducerResponse	-6876
mentedBytesStore	-6877
▁TopologyWrapper	-6878
▁clusterResource	-6879
({	-6880
49	-6881
MY	-6882
"};	-6883
GHT	-6884
PAY	-6885
ZIP	-6886
agg	-6887
ant	-6888
mot	-6889
rec	-6890
xed	-6891
▁0:	-6892
={}]	-6893
Java	-6894
SEND	-6895
TING	-6896
Wall	-6897
aved	-6898
bers	-6899
ique	-6900
iven	-6901
left	-6902
▁CLI	-6903
▁VER	-6904
▁{}:	-6905
(0)),	-6906
={}]:	-6907
ITIAL	-6908
QUOTE	-6909
balan	-6910
expir	-6911
▁calc	-6912
▁mute	-6913
▁view	-6914
ACTION	-6915
FORMAT	-6916
LogAnd	-6917
Unable	-6918
ampled	-6919
iteral	-6920
timate	-6921
▁Float	-6922
▁admin	-6923
Fetcher	-6924
PAYLOAD	-6925
bserved	-6926
motable	-6927
notNull	-6928
taskIds	-6929
▁CLIENT	-6930
▁select	-6931
▁simple	-6932
andThrow	-6933
encoding	-6934
property	-6935
▁Instant	-6936
▁Payload	-6937
▁VERSION	-6938
Factories	-6939
RESPONSES	-6940
Refreshes	-6941
TaskCount	-6942
TimeNanos	-6943
isRunning	-6944
▁ApiUtils	-6945
▁earliest	-6946
AndReceive	-6947
Generation	-6948
NumEntries	-6949
SourceSink	-6950
TimeWindow	-6951
parameters	-6952
▁processId	-6953
▁resources	-6954
MetricGroup	-6955
Millisecond	-6956
connectorId	-6957
streamTopic	-6958
windowedKey	-6959
▁iterations	-6960
▁processing	-6961
▁punctuated	-6962
▁WorkerUtils	-6963
▁createTopic	-6964
▁expectStart	-6965
PerConnection	-6966
WindowedSerde	-6967
▁Configurable	-6968
▁LoginManager	-6969
ClientThrottle	-6970
OfMaxTimestamp	-6971
ScramMechanism	-6972
ValueTimestamp	-6973
▁ConnectorInfo	-6974
▁DefaultRecord	-6975
▁assertNotSame	-6976
▁topicResponse	-6977
FormatException	-6978
▁BufferSupplier	-6979
▁netWriteBuffer	-6980
updateEndOffsets	-6981
▁JsonNodeFactory	-6982
:\	-6983
("\	-6984
048	-6985
2".	-6986
4);	-6987
Jws	-6988
RAN	-6989
TTL	-6990
azy	-6991
tmp	-6992
▁";	-6993
▁"}	-6994
]));	-6995
ared	-6996
▁"</	-6997
▁'\'	-6998
▁Sub	-6999
(0.0,	-7000
-1");	-7001
drain	-7002
setup	-7003
verse	-7004
▁2");	-7005
▁LONG	-7006
(0)));	-7007
RESULT	-7008
etered	-7009
merged	-7010
object	-7011
onJoin	-7012
(1024);	-7013
OLATION	-7014
PLUGINS	-7015
ateness	-7016
bounded	-7017
mkEntry	-7018
pointed	-7019
▁1000);	-7020
▁EndTxn	-7021
▁accept	-7022
▁system	-7023
Negative	-7024
UntilMin	-7025
mockTime	-7026
toBinary	-7027
▁CLEANUP	-7028
▁inOrder	-7029
▁keySize	-7030
▁network	-7031
RETENTION	-7032
directory	-7033
restoring	-7034
OutOfRange	-7035
PrepareFor	-7036
Registered	-7037
StackTrace	-7038
joinNeeded	-7039
lyingStore	-7040
timeWindow	-7041
▁docString	-7042
▁maxWaitMs	-7043
▁predicate	-7044
ResetTopics	-7045
TaskCreator	-7046
ingIterator	-7047
▁saslServer	-7048
Interceptors	-7049
UnsecuredJws	-7050
addGraphNode	-7051
▁JmxReporter	-7052
▁WorkerState	-7053
▁startTimeMs	-7054
▁stateStores	-7055
LinkedHashSet	-7056
parseResponse	-7057
▁LoginContext	-7058
▁keyConverter	-7059
setCurrentNode	-7060
▁ClassNotFound	-7061
▁authenticator	-7062
▁partitionInfo	-7063
PluginsResource	-7064
ScramCredential	-7065
▁ConnectMetrics	-7066
▁ConsumerConfig	-7067
▁recordsBuilder	-7068
▁valueConverter	-7069
▁headerConverter	-7070
▁offlineReplicas	-7071
▁stateStoreNames	-7072
(9	-7073
61	-7074
82	-7075
91	-7076
RC	-7077
(42	-7078
:",	-7079
QUI	-7080
THO	-7081
Try	-7082
eer	-7083
env	-7084
gus	-7085
▁UN	-7086
(3);	-7087
ACKS	-7088
Mute	-7089
NoOp	-7090
[]{"	-7091
moke	-7092
sort	-7093
▁"),	-7094
▁Arg	-7095
1)));	-7096
aised	-7097
cksdb	-7098
klass	-7099
▁'\''	-7100
▁DATE	-7101
▁head	-7102
▁mode	-7103
▁salt	-7104
Sender	-7105
Stable	-7106
anaged	-7107
isOpen	-7108
parser	-7109
rogdor	-7110
tokens	-7111
▁Table	-7112
▁alloc	-7113
▁calls	-7114
▁split	-7115
▁width	-7116
CLEANUP	-7117
Samples	-7118
TaskIds	-7119
umented	-7120
▁ignore	-7121
JsonText	-7122
WithName	-7123
requency	-7124
resolved	-7125
▁Managed	-7126
▁between	-7127
▁removed	-7128
▁startNs	-7129
AllTopics	-7130
EXTENSION	-7131
Projected	-7132
jAppender	-7133
▁Argument	-7134
▁location	-7135
▁provided	-7136
▁toForget	-7137
▁uncaught	-7138
Collectors	-7139
ConfigName	-7140
Incomplete	-7141
getBoolean	-7142
readOutput	-7143
thenReturn	-7144
▁punctuate	-7145
ByteChannel	-7146
GlobalState	-7147
StateSerdes	-7148
ToPartition	-7149
TotalTimeMs	-7150
getProperty	-7151
withCaching	-7152
▁NamedCache	-7153
▁shouldHave	-7154
BeforeLogout	-7155
IllegalToken	-7156
▁displayName	-7157
▁stateSerdes	-7158
AtomicBoolean	-7159
▁pluginLoader	-7160
▁testValidate	-7161
FilterResponse	-7162
ReloginAllowed	-7163
StatusResponse	-7164
ExistsException	-7165
HandshakeStatus	-7166
▁logStartOffset	-7167
setApplicationId	-7168
▁AddOffsetsToTxn	-7169
▁WorkerConnector	-7170
Bo	-7171
]:	-7172
lq	-7173
(0.	-7174
(6,	-7175
IDE	-7176
TEE	-7177
ias	-7178
ulk	-7179
▁so	-7180
GUAR	-7181
Left	-7182
Must	-7183
Safe	-7184
TIVE	-7185
Temp	-7186
_8);	-7187
coll	-7188
orig	-7189
ough	-7190
work	-7191
▁1.0	-7192
▁MIN	-7193
(1.0,	-7194
ANTEE	-7195
Owner	-7196
Robin	-7197
ToKey	-7198
Trust	-7199
eclip	-7200
orary	-7201
ranch	-7202
rease	-7203
▁Host	-7204
▁line	-7205
ByHost	-7206
Insert	-7207
MILLIS	-7208
STABLE	-7209
STANCE	-7210
Stored	-7211
anager	-7212
ective	-7213
▁Batch	-7214
Fetched	-7215
destroy	-7216
eclipse	-7217
replica	-7218
▁Method	-7219
▁claims	-7220
▁expire	-7221
▁raised	-7222
ExpireMs	-7223
ToConfig	-7224
restorer	-7225
▁BOOLEAN	-7226
▁METRICS	-7227
▁tracker	-7228
GUARANTEE	-7229
UserTopic	-7230
compareTo	-7231
configDef	-7232
punctuate	-7233
selectKey	-7234
▁HostInfo	-7235
▁Shutdown	-7236
▁filename	-7237
▁setState	-7238
Allocation	-7239
MECHANISMS	-7240
TaskWorker	-7241
pluginPath	-7242
▁Executors	-7243
▁PRINCIPAL	-7244
▁configKey	-7245
▁expectAnd	-7246
▁namespace	-7247
▁shouldAdd	-7248
ContextName	-7249
MetadataFor	-7250
fileRecords	-7251
gingEnabled	-7252
taskConfigs	-7253
▁ProducerId	-7254
▁offsetData	-7255
▁sslContext	-7256
▁unexpected	-7257
LoginManager	-7258
TopicPattern	-7259
flushedEntry	-7260
▁LoginModule	-7261
▁TestElement	-7262
▁shouldClose	-7263
▁unavailable	-7264
▁windowedKey	-7265
RequestStruct	-7266
mockProcessor	-7267
partitionData	-7268
▁pushToStream	-7269
▁singletonMap	-7270
SchemaAndValue	-7271
▁principalName	-7272
▁processorNode	-7273
JoinNodeBuilder	-7274
PunctuationType	-7275
printStackTrace	-7276
▁RecordMetadata	-7277
▁resourceConfig	-7278
▁supportedTypes	-7279
▁tupleForwarder	-7280
CommittedRecords	-7281
StreamsGraphNode	-7282
59	-7283
@"	-7284
MX	-7285
tr	-7286
DES	-7287
IER	-7288
Siz	-7289
arb	-7290
iet	-7291
inf	-7292
mas	-7293
src	-7294
▁8;	-7295
▁JO	-7296
-256	-7297
0001	-7298
000;	-7299
32",	-7300
Find	-7301
GZIP	-7302
avig	-7303
cale	-7304
ceed	-7305
item	-7306
itiz	-7307
lied	-7308
ount	-7309
view	-7310
▁12)	-7311
▁Dec	-7312
▁tmp	-7313
"))).	-7314
("0:(	-7315
PLIER	-7316
[0]);	-7317
[]{0,	-7318
appId	-7319
dules	-7320
event	-7321
names	-7322
renew	-7323
slice	-7324
▁"0";	-7325
▁"1:(	-7326
▁1234	-7327
▁acks	-7328
(1000,	-7329
000");	-7330
adding	-7331
anitiz	-7332
formed	-7333
lineMs	-7334
maller	-7335
▁FIRST	-7336
▁exist	-7337
▁nowMs	-7338
EndTime	-7339
Handles	-7340
Updated	-7341
enqueue	-7342
execute	-7343
sistent	-7344
▁Verifi	-7345
▁decomp	-7346
Envelope	-7347
Existing	-7348
Matching	-7349
TimeZone	-7350
avigable	-7351
keystore	-7352
taskName	-7353
▁Decimal	-7354
▁delayed	-7355
▁matched	-7356
▁testAdd	-7357
BUFFERING	-7358
WallClock	-7359
batchSize	-7360
reconnect	-7361
sizeBytes	-7362
▁Calendar	-7363
▁MockType	-7364
▁hostname	-7365
▁kerberos	-7366
Exceptions	-7367
LatencyAnd	-7368
LoadedNode	-7369
MULTIPLIER	-7370
configKeys	-7371
▁SSLEngine	-7372
▁binaryKey	-7373
▁fetchData	-7374
▁following	-7375
▁newTopics	-7376
▁parameter	-7377
▁testClose	-7378
-0000000000	-7379
ActiveCount	-7380
ToBeginning	-7381
WorkerState	-7382
createTopic	-7383
▁CertStores	-7384
▁Partitions	-7385
▁SaslServer	-7386
▁Verifiable	-7387
▁allMetrics	-7388
▁topicEntry	-7389
StableOffset	-7390
bufferOffset	-7391
wrappedStore	-7392
▁KafkaClient	-7393
▁recordBatch	-7394
TestConnector	-7395
getStateStore	-7396
▁windowedPair	-7397
AbstractConfig	-7398
TestJaasConfig	-7399
ToSourceTopics	-7400
consumerPrefix	-7401
▁Serialization	-7402
IllegalArgument	-7403
WakeupException	-7404
▁kafkaClusterId	-7405
▁partitionArray	-7406
▁producerRecord	-7407
▁resourceStruct	-7408
▁shouldNotThrow	-7409
▁timestampDelta	-7410
appendWithOffset	-7411
timeToNextUpdate	-7412
valueTransformer	-7413
▁getMetricByName	-7414
Ma	-7415
RY	-7416
TA	-7417
if	-7418
xf	-7419
yy	-7420
434	-7421
DLQ	-7422
IND	-7423
MIS	-7424
UNA	-7425
att	-7426
cre	-7427
▁30	-7428
▁KA	-7429
JAAS	-7430
LOOK	-7431
NODE	-7432
[]>(	-7433
cast	-7434
keyA	-7435
▁200	-7436
▁sus	-7437
("1",	-7438
(2)).	-7439
Mbean	-7440
Query	-7441
RIDES	-7442
ering	-7443
extra	-7444
third	-7445
tions	-7446
▁"3",	-7447
▁uuid	-7448
LOOKUP	-7449
Region	-7450
STATUS	-7451
Verify	-7452
arbage	-7453
ityAnd	-7454
▁0.001	-7455
▁KAFKA	-7456
▁Match	-7457
▁leave	-7458
▁lines	-7459
▁stats	-7460
BufSize	-7461
Commits	-7462
Destroy	-7463
Encoder	-7464
RocksDB	-7465
STRUCTS	-7466
TreeMap	-7467
aborted	-7468
ections	-7469
mySerde	-7470
suspend	-7471
▁invoke	-7472
KeyStore	-7473
Managers	-7474
NULLABLE	-7475
reporter	-7476
▁Harness	-7477
▁LITERAL	-7478
▁Metered	-7479
▁acquire	-7480
▁defined	-7481
▁tokenId	-7482
Addresses	-7483
OVERRIDES	-7484
OrPending	-7485
Restoring	-7486
convertTo	-7487
isUnknown	-7488
outerJoin	-7489
▁JsonUtil	-7490
▁absolute	-7491
▁groupIds	-7492
▁leftJoin	-7493
▁taskTags	-7494
CONTROLLED	-7495
endOffsets	-7496
▁COMMITTED	-7497
▁histogram	-7498
▁maxOffset	-7499
▁onFailure	-7500
-0000000005	-7501
CurrentTime	-7502
KafkaClient	-7503
ValidityAnd	-7504
allowOffset	-7505
assignments	-7506
maxMessages	-7507
patternType	-7508
percentiles	-7509
workerProps	-7510
▁doneFuture	-7511
RestoreStart	-7512
interceptors	-7513
pluginLoader	-7514
topicGroupId	-7515
▁ConfigEntry	-7516
▁StopReplica	-7517
▁getConsumer	-7518
▁invocations	-7519
▁metricValue	-7520
▁numExpected	-7521
ConnectHeader	-7522
SaslMechanism	-7523
StatusTracker	-7524
commitOffsets	-7525
saslMechanism	-7526
▁NoOpTaskSpec	-7527
▁initialState	-7528
▁parentGetter	-7529
DeletionResult	-7530
EasyMockRunner	-7531
requestBuilder	-7532
stateDirectory	-7533
stateStoreName	-7534
▁KafkaBasedLog	-7535
▁assignedTasks	-7536
ChangelogTopics	-7537
ConnectorStatus	-7538
PowerMockIgnore	-7539
consumerGroupId	-7540
▁responseFuture	-7541
▁serializeValue	-7542
IteratorFunction	-7543
SyncGroupRequest	-7544
▁authorizationId	-7545
▁operatingSchema	-7546
1-	-7547
3]	-7548
53	-7549
92	-7550
@5	-7551
td	-7552
▁Z	-7553
1>>	-7554
Are	-7555
Jwt	-7556
NTI	-7557
TWO	-7558
cep	-7559
sel	-7560
▁"5	-7561
0");	-7562
DATA	-7563
DAYS	-7564
ENTR	-7565
FAIL	-7566
Idle	-7567
hmac	-7568
icit	-7569
izer	-7570
orld	-7571
ways	-7572
▁"\"	-7573
▁ANY	-7574
▁CUR	-7575
▁Crc	-7576
▁jws	-7577
01});	-7578
ACTLY	-7579
Await	-7580
LEAVE	-7581
REQUI	-7582
There	-7583
order	-7584
ransl	-7585
▁COMP	-7586
▁JOIN	-7587
▁stat	-7588
(10));	-7589
Digest	-7590
Ensure	-7591
Paused	-7592
Stress	-7593
Suffix	-7594
bility	-7595
cancel	-7596
getDec	-7597
reater	-7598
▁equal	-7599
▁upper	-7600
NullKey	-7601
RESSION	-7602
Summary	-7603
TaskFor	-7604
Trogdor	-7605
Workers	-7606
forName	-7607
limiter	-7608
myTopic	-7609
rocksdb	-7610
▁Sample	-7611
▁larger	-7612
▁owners	-7613
▁reader	-7614
▁wakeup	-7615
Attempts	-7616
CacheKey	-7617
Callable	-7618
Returned	-7619
Schedule	-7620
SubTypes	-7621
children	-7622
existing	-7623
hasError	-7624
maintain	-7625
sinkTask	-7626
▁CURRENT	-7627
▁closing	-7628
▁execute	-7629
▁sending	-7630
Collected	-7631
advanceBy	-7632
filterNot	-7633
orVersion	-7634
segmentId	-7635
▁Priority	-7636
▁bytesKey	-7637
▁leaderId	-7638
▁registry	-7639
Attributes	-7640
LinkedList	-7641
NumRecords	-7642
OpenOption	-7643
disconnect	-7644
getPlugins	-7645
getRuntime	-7646
startsWith	-7647
topologies	-7648
unregister	-7649
▁MockState	-7650
▁restoring	-7651
MockReducer	-7652
classloader	-7653
doubleValue	-7654
fromLogical	-7655
interestOps	-7656
sWithPrefix	-7657
stateStores	-7658
umentedType	-7659
▁OffsetsFor	-7660
▁dirtyEntry	-7661
▁isInternal	-7662
▁streamTime	-7663
AclOperation	-7664
FullStrategy	-7665
MockConsumer	-7666
ProviderStub	-7667
hasRemaining	-7668
rejoinNeeded	-7669
▁Punctuation	-7670
▁RecordQueue	-7671
▁offsetDelta	-7672
▁patternType	-7673
PeriodSeconds	-7674
currentTimeMs	-7675
principalName	-7676
recordContext	-7677
▁createTopics	-7678
▁topicPattern	-7679
MergeProcessor	-7680
▁FetchMetadata	-7681
ChangelogReader	-7682
▁LongSerializer	-7683
▁connectMetrics	-7684
▁setCurrentTime	-7685
▁trustStoreFile	-7686
ConnectorRequest	-7687
▁CoordinatorType	-7688
▁recordCollector	-7689
▁transformValues	-7690
3;	-7691
76	-7692
VI	-7693
64;	-7694
8",	-7695
Eos	-7696
ams	-7697
ego	-7698
opt	-7699
64",	-7700
CREA	-7701
ONLY	-7702
REST	-7703
ToBe	-7704
desc	-7705
flat	-7706
good	-7707
▁}".	-7708
CHECK	-7709
Chang	-7710
SSAPI	-7711
egoti	-7712
onent	-7713
▁"127	-7714
▁live	-7715
("01",	-7716
(1)));	-7717
IfLive	-7718
OrNull	-7719
ocksDb	-7720
▁0)));	-7721
▁1024;	-7722
▁BYTES	-7723
▁Empty	-7724
▁Tasks	-7725
▁lower	-7726
▁mkMap	-7727
MARKERS	-7728
REFIXED	-7729
SSIGNED	-7730
Synonym	-7731
another	-7732
receive	-7733
reflect	-7734
▁maxNum	-7735
HostInfo	-7736
Maintain	-7737
TimedOut	-7738
executor	-7739
keyBytes	-7740
mokeTest	-7741
▁seconds	-7742
▁threads	-7743
MAPVALUES	-7744
ReadToEnd	-7745
Retriable	-7746
StructObj	-7747
handshake	-7748
▁InMemory	-7749
▁PREFIXED	-7750
AndDefault	-7751
Compatible	-7752
Duplicates	-7753
EosEnabled	-7754
Operations	-7755
PROCESSING	-7756
UNASSIGNED	-7757
consistent	-7758
hasOngoing	-7759
hasPending	-7760
iterations	-7761
jaasConfig	-7762
taskConfig	-7763
▁"127.0.0.	-7764
▁advanceMs	-7765
▁extension	-7766
AclCreation	-7767
Termination	-7768
description	-7769
uncommitted	-7770
▁Forwarding	-7771
▁topicError	-7772
▁truststore	-7773
KafkaChannel	-7774
StructFields	-7775
resetOffsets	-7776
serializeKey	-7777
▁AgentClient	-7778
▁putIfAbsent	-7779
ErrorHandling	-7780
FetchPosition	-7781
Parameterized	-7782
RecordsSensor	-7783
RefreshConfig	-7784
UsableVersion	-7785
getStatusCode	-7786
▁ResourceType	-7787
▁workerConfig	-7788
▁MockConnector	-7789
▁WorkerRunning	-7790
▁appReadBuffer	-7791
▁expectedValue	-7792
SendToPartition	-7793
WindowKeySchema	-7794
clusterResource	-7795
refresherThread	-7796
▁NetworkReceive	-7797
▁startingOffset	-7798
▁stringConsumed	-7799
CommitIntervalMs	-7800
DefaultOverrides	-7801
ProtocolMetadata	-7802
awaitTermination	-7803
▁assertRoundTrip	-7804
▁deserialization	-7805
▁expectedRecords	-7806
43	-7807
8:	-7808
:8	-7809
-\\	-7810
32:	-7811
AIT	-7812
CKS	-7813
ORI	-7814
Tic	-7815
isr	-7816
("\\	-7817
02);	-7818
32("	-7819
<?>)	-7820
ForP	-7821
Hook	-7822
IfNo	-7823
LAST	-7824
PING	-7825
SYNC	-7826
five	-7827
ific	-7828
forId	-7829
licit	-7830
rules	-7831
▁Rate	-7832
▁each	-7833
▁hash	-7834
▁lead	-7835
Custom	-7836
Params	-7837
cepted	-7838
isNull	-7839
▁Exten	-7840
▁FLOAT	-7841
▁given	-7842
▁round	-7843
AndWait	-7844
IsEqual	-7845
TimeAvg	-7846
TimeMax	-7847
handler	-7848
putLong	-7849
runOnce	-7850
startup	-7851
▁SAMPLE	-7852
▁Socket	-7853
▁counts	-7854
Blocking	-7855
Inflight	-7856
LeftJoin	-7857
ToCommit	-7858
ableFrom	-7859
addChild	-7860
filtered	-7861
isAssign	-7862
▁Printed	-7863
▁REQUEST	-7864
▁counter	-7865
▁metered	-7866
▁replace	-7867
▁resolve	-7868
Namespace	-7869
Subscribe	-7870
▁typeName	-7871
ClaimValue	-7872
Maintainer	-7873
RestClient	-7874
TaskCounts	-7875
durationMs	-7876
stateStore	-7877
▁claimName	-7878
▁originals	-7879
Materialize	-7880
targetState	-7881
unsubscribe	-7882
▁Credential	-7883
▁SslFactory	-7884
▁dependents	-7885
▁nodeGroups	-7886
▁sourceNode	-7887
ChannelClose	-7888
JsonSubTypes	-7889
OPTIMIZATION	-7890
ProcessorAnd	-7891
TargetStates	-7892
ofEpochMilli	-7893
BytesIterator	-7894
ForeachAction	-7895
NextCondition	-7896
WallClockTime	-7897
assignedTasks	-7898
setAssignment	-7899
▁ConfigSource	-7900
▁transitionTo	-7901
DeletedRecords	-7902
PrepareForTest	-7903
▁bytesIterator	-7904
▁memoryRecords	-7905
arbageCollected	-7906
▁ChannelBuilder	-7907
▁ClientResponse	-7908
▁DocumentedType	-7909
▁firstTimestamp	-7910
BufferConfigImpl	-7911
JoinSideNodeName	-7912
StandaloneConfig	-7913
isAssignableFrom	-7914
▁ClassTestConfig	-7915
▁SessionWindowed	-7916
▁produceResponse	-7917
▁totalMetricName	-7918
(8	-7919
2_	-7920
52	-7921
5;	-7922
_1	-7923
("1	-7924
03,	-7925
64:	-7926
@5/	-7927
EOS	-7928
Got	-7929
Kvs	-7930
Net	-7931
Std	-7932
bob	-7933
iol	-7934
obj	-7935
oth	-7936
sal	-7937
som	-7938
▁Op	-7939
▁tt	-7940
-3",	-7941
Drop	-7942
HEAR	-7943
Jaas	-7944
WAIT	-7945
cing	-7946
ntal	-7947
▁"--	-7948
▁3};	-7949
▁eff	-7950
▁exc	-7951
▁pur	-7952
▁you	-7953
CTION	-7954
EndMs	-7955
IfNot	-7956
MATCH	-7957
STRIC	-7958
Whole	-7959
categ	-7960
erime	-7961
parts	-7962
▁HEAR	-7963
▁INIT	-7964
▁comb	-7965
▁free	-7966
KTABLE	-7967
istory	-7968
ration	-7969
▁Token	-7970
▁scram	-7971
▁third	-7972
Buffers	-7973
PENDING	-7974
ariable	-7975
enabled	-7976
odified	-7977
▁amount	-7978
▁either	-7979
▁retain	-7980
▁toSend	-7981
▁unsent	-7982
BeanName	-7983
Patterns	-7984
Resetter	-7985
Retained	-7986
Synonyms	-7987
experime	-7988
interval	-7989
tempFile	-7990
▁Element	-7991
▁Matcher	-7992
▁encoded	-7993
▁filters	-7994
▁invoked	-7995
▁reducer	-7996
▁toBytes	-7997
ClassName	-7998
Creations	-7999
Executors	-8000
HEARTBEAT	-8001
Increment	-8002
OutBuffer	-8003
interrupt	-8004
pointable	-8005
predicate	-8006
versionId	-8007
▁capacity	-8008
▁waitTime	-8009
AclsResult	-8010
Invocation	-8011
Processors	-8012
ReadyCheck	-8013
RestoreEnd	-8014
Unresolved	-8015
categories	-8016
converters	-8017
createTemp	-8018
onShutdown	-8019
▁HEARTBEAT	-8020
▁addPrefix	-8021
▁replicaId	-8022
AndOptimize	-8023
application	-8024
interceptor	-8025
isPartition	-8026
▁ConfigData	-8027
▁FileStream	-8028
▁testCommit	-8029
▁topicArray	-8030
Punctuations	-8031
RestResource	-8032
experimental	-8033
ioEchoServer	-8034
▁ClientUtils	-8035
▁Optimizable	-8036
▁TaskManager	-8037
▁globalTable	-8038
▁headerValue	-8039
TopicCreation	-8040
TypeConverter	-8041
emptyIterator	-8042
▁SimpleConfig	-8043
▁entriesByKey	-8044
BufferSupplier	-8045
EndTxnResponse	-8046
untilTimeLimit	-8047
▁MockScheduler	-8048
▁shouldConvert	-8049
InFlightRequest	-8050
keyDeserializer	-8051
▁KGroupedStream	-8052
▁PartitionState	-8053
▁ProducerConfig	-8054
▁ScramMechanism	-8055
▁TransportLayer	-8056
▁expectedRecord	-8057
▁partitionInfos	-8058
directoryForTask	-8059
restoringTaskFor	-8060
▁CollectionUtils	-8061
▁connectorHandle	-8062
▁mockAdminClient	-8063
-1	-8064
58	-8065
71	-8066
72	-8067
73	-8068
LS	-8069
Sh	-8070
df	-8071
nc	-8072
ru	-8073
(".	-8074
2),	-8075
5);	-8076
HTT	-8077
LON	-8078
UGH	-8079
bie	-8080
seq	-8081
tid	-8082
xFE	-8083
▁1.	-8084
1)).	-8085
Bulk	-8086
PATH	-8087
View	-8088
Wrap	-8089
extr	-8090
itor	-8091
mode	-8092
ners	-8093
pool	-8094
rime	-8095
ross	-8096
tect	-8097
▁").	-8098
▁STO	-8099
(5));	-8100
0)));	-8101
43434	-8102
@5/15	-8103
ARRAY	-8104
activ	-8105
claim	-8106
ipher	-8107
itter	-8108
ombie	-8109
tence	-8110
▁mark	-8111
ByTags	-8112
EXPIRY	-8113
Identi	-8114
OrFail	-8115
RUNode	-8116
Setter	-8117
expiry	-8118
lusive	-8119
sorted	-8120
utting	-8121
▁Range	-8122
▁endMs	-8123
▁mbean	-8124
▁prime	-8125
▁quota	-8126
▁retri	-8127
▁still	-8128
Changes	-8129
Partial	-8130
TopicOr	-8131
address	-8132
▁343434	-8133
▁called	-8134
▁epochs	-8135
▁module	-8136
▁rawKey	-8137
Continue	-8138
Lateness	-8139
TypeName	-8140
addEntry	-8141
assignor	-8142
ensitive	-8143
getShort	-8144
mmutable	-8145
newState	-8146
userData	-8147
workload	-8148
▁Destroy	-8149
▁TIMEOUT	-8150
▁renewer	-8151
▁runtime	-8152
▁servers	-8153
errorCode	-8154
iConsumer	-8155
newRecord	-8156
resources	-8157
serdeFrom	-8158
textValue	-8159
▁Standard	-8160
▁generate	-8161
▁reserved	-8162
BoundField	-8163
InEquality	-8164
avedLoader	-8165
configured	-8166
orrelation	-8167
processing	-8168
windowSize	-8169
▁ConfigKey	-8170
▁Plaintext	-8171
▁Scheduler	-8172
▁TaskState	-8173
▁headerKey	-8174
▁listeners	-8175
▁selectKey	-8176
▁validator	-8177
CONNECTIONS	-8178
LevelSensor	-8179
OFException	-8180
Suppression	-8181
secondBatch	-8182
▁TopicsSpec	-8183
▁assertType	-8184
▁memoryPool	-8185
-0000000001\	-8186
Disconnected	-8187
FilterByTags	-8188
generationId	-8189
sourceTopics	-8190
▁KafkaConfig	-8191
▁keyChanging	-8192
▁percentiles	-8193
▁pollTimeout	-8194
▁produceData	-8195
FailureAction	-8196
HerderRequest	-8197
InTransaction	-8198
OrderSequence	-8199
ReadOnlyStore	-8200
RequestFuture	-8201
TestCondition	-8202
UnsignedIntLE	-8203
durationRatio	-8204
keySerializer	-8205
▁OutputStream	-8206
▁filterResult	-8207
▁sourceTopics	-8208
InitializeTask	-8209
InternalTopics	-8210
SecurityConfig	-8211
SequenceNumber	-8212
▁createFetcher	-8213
▁drainProducer	-8214
▁kafkaBasedLog	-8215
▁recordBatches	-8216
CapturedForward	-8217
ConnectionState	-8218
availableMemory	-8219
computeIfAbsent	-8220
convertToString	-8221
▁JsonRestServer	-8222
▁operatingValue	-8223
▁partitionEntry	-8224
▁stateStoreName	-8225
TopicOrPartition	-8226
UntilMinKeyValue	-8227
▁CredentialCache	-8228
▁mockTaskManager	-8229
2-	-8230
98	-8231
MD	-8232
SK	-8233
(-1	-8234
(11	-8235
1()	-8236
11,	-8237
1<-	-8238
2};	-8239
ADD	-8240
Com	-8241
INN	-8242
JIT	-8243
OUN	-8244
PSI	-8245
Sum	-8246
URI	-8247
Val	-8248
ano	-8249
cnt	-8250
eal	-8251
isS	-8252
sup	-8253
unk	-8254
▁11	-8255
▁2:	-8256
▁3.	-8257
▁64	-8258
▁8)	-8259
▁AP	-8260
()];	-8261
0"),	-8262
MASK	-8263
OUND	-8264
ffff	-8265
lice	-8266
▁-1)	-8267
▁Bad	-8268
▁CLO	-8269
(3));	-8270
:9999	-8271
Alter	-8272
Apply	-8273
Built	-8274
INNER	-8275
Ignor	-8276
Lines	-8277
Quiet	-8278
ealth	-8279
▁EPSI	-8280
▁HOST	-8281
▁NONE	-8282
▁even	-8283
1")));	-8284
CHANGE	-8285
Holder	-8286
JITTER	-8287
Latest	-8288
Trying	-8289
cenari	-8290
ground	-8291
lative	-8292
leting	-8293
rupted	-8294
▁60000	-8295
▁ALTER	-8296
▁Print	-8297
▁alias	-8298
▁debug	-8299
▁fault	-8300
▁iters	-8301
Cleanup	-8302
DirInfo	-8303
General	-8304
RESTORE	-8305
Require	-8306
[]{0}),	-8307
[]{1}),	-8308
defined	-8309
ization	-8310
testKey	-8311
tokenId	-8312
ultiple	-8313
▁ending	-8314
▁exists	-8315
▁newAgg	-8316
AndCount	-8317
AndStart	-8318
AndStore	-8319
Grouping	-8320
INSTANCE	-8321
addStore	-8322
athering	-8323
setState	-8324
writeInt	-8325
▁EPSILON	-8326
▁delayMs	-8327
▁example	-8328
▁stopped	-8329
▁waiters	-8330
Cancelled	-8331
Fetchable	-8332
Formatter	-8333
REBALANCE	-8334
Resources	-8335
extracted	-8336
igInteger	-8337
▁Buffered	-8338
▁Segments	-8339
▁calcDead	-8340
▁finished	-8341
▁keystore	-8342
▁topicsTo	-8343
BackoffMax	-8344
CONVERTERS	-8345
GroupByKey	-8346
Percentage	-8347
ThreadImpl	-8348
percentage	-8349
▁ensureNot	-8350
▁leftTable	-8351
ExceptionIn	-8352
KafkaConfig	-8353
LinkedQueue	-8354
RecordsSend	-8355
ServiceName	-8356
getInstance	-8357
initialized	-8358
numAssigned	-8359
sendOffsets	-8360
▁ApiVersion	-8361
▁Connection	-8362
▁JsonSchema	-8363
▁MemoryPool	-8364
▁claimsJson	-8365
▁disconnect	-8366
▁eosEnabled	-8367
▁numThreads	-8368
▁readyNodes	-8369
CommitFailed	-8370
▁Cancellable	-8371
▁connections	-8372
▁currentNode	-8373
▁taskStartup	-8374
CacheIterator	-8375
RobinAssignor	-8376
TokenCallback	-8377
configCapture	-8378
logAppendTime	-8379
▁GlobalKTable	-8380
▁HttpResponse	-8381
▁createConfig	-8382
▁loginContext	-8383
▁milliseconds	-8384
DownConversion	-8385
MessagesPerSec	-8386
createTempFile	-8387
encodeToString	-8388
▁AppInfoParser	-8389
▁SaslAuthentic	-8390
▁clientAddress	-8391
▁createdTimeMs	-8392
▁invalidBuffer	-8393
▁setupConsumer	-8394
▁shouldRestore	-8395
AtomicReference	-8396
CollectionUtils	-8397
OffsetException	-8398
PersistentStore	-8399
▁calcDeadlineMs	-8400
▁expectConsumer	-8401
▁globalConsumer	-8402
▁responseHeader	-8403
SessionKeySchema	-8404
unmodifiableList	-8405
▁globalStateTask	-8406
▁stubProviderTwo	-8407
68	-8408
93	-8409
:"	-8410
rm	-8411
20,	-8412
Idx	-8413
USE	-8414
aem	-8415
crc	-8416
▁42	-8417
▁SY	-8418
(3),	-8419
3456	-8420
CHAR	-8421
Cons	-8422
DULE	-8423
LING	-8424
PARA	-8425
Slot	-8426
ZStd	-8427
[1],	-8428
]:0+	-8429
ason	-8430
card	-8431
ites	-8432
once	-8433
safe	-8434
ular	-8435
ummy	-8436
▁ADD	-8437
▁Has	-8438
▁seq	-8439
▁src	-8440
▁suc	-8441
("");	-8442
-2");	-8443
Fixed	-8444
INFOS	-8445
Renew	-8446
_8));	-8447
acked	-8448
aemon	-8449
eeper	-8450
inite	-8451
kinit	-8452
orded	-8453
▁JAAS	-8454
▁Java	-8455
▁Path	-8456
▁cert	-8457
▁exec	-8458
▁mask	-8459
▁safe	-8460
▁then	-8461
REDUCE	-8462
Sequen	-8463
ToJson	-8464
ileged	-8465
onical	-8466
static	-8467
▁addTo	-8468
▁being	-8469
▁clazz	-8470
▁times	-8471
▁types	-8472
(1000);	-8473
AndSize	-8474
ClassOr	-8475
brokers	-8476
ecuting	-8477
itRatio	-8478
opulate	-8479
waiting	-8480
▁0.0001	-8481
▁MEMBER	-8482
▁Member	-8483
▁waiter	-8484
▁within	-8485
:9999");	-8486
COMPLETE	-8487
Creating	-8488
DURATION	-8489
PollTask	-8490
Prefixed	-8491
Priority	-8492
REQUESTS	-8493
STRICTED	-8494
authoriz	-8495
hostname	-8496
iTrogdor	-8497
platform	-8498
standing	-8499
▁backoff	-8500
▁barSpec	-8501
@5/15]:0+	-8502
AndEnsure	-8503
AuthBytes	-8504
ISOLATION	-8505
StoreOpen	-8506
ToRestore	-8507
addPrefix	-8508
arraycopy	-8509
balancing	-8510
bootstrap	-8511
createAnd	-8512
headerKey	-8513
ifference	-8514
nextBatch	-8515
rivileged	-8516
▁Checksum	-8517
▁children	-8518
▁function	-8519
▁ofMillis	-8520
▁synonyms	-8521
▁tearDown	-8522
WorkerTask	-8523
addRecords	-8524
dempotence	-8525
▁assignors	-8526
▁blockSize	-8527
▁channelId	-8528
▁construct	-8529
▁sizeBytes	-8530
▁statusMap	-8531
▁subscribe	-8532
-0000000007	-8533
ErrorCounts	-8534
Immediately	-8535
apiVersions	-8536
copartition	-8537
▁addRequest	-8538
▁statusCode	-8539
DoesNotMatch	-8540
JoinedValues	-8541
SourceTopics	-8542
ToRestoreLog	-8543
alIdAuthoriz	-8544
removeSensor	-8545
▁ConfigInfos	-8546
▁KafkaStatus	-8547
▁Transformer	-8548
▁globalStore	-8549
▁numMessages	-8550
▁peekNextKey	-8551
▁segmentDirs	-8552
▁startOffset	-8553
▁targetState	-8554
AndEnsureOpen	-8555
ConnectRecord	-8556
HostException	-8557
ProducerState	-8558
astLoadedNode	-8559
queryableName	-8560
writeTopology	-8561
▁messageCount	-8562
▁setSaslState	-8563
▁taskTypeName	-8564
AUTHENTICATION	-8565
transportLayer	-8566
▁NioEchoServer	-8567
▁expectedCount	-8568
▁initialOffset	-8569
▁metadataState	-8570
▁requestHeader	-8571
assertNotEquals	-8572
iTrogdorCluster	-8573
seekToBeginning	-8574
▁ArgumentParser	-8575
▁PartitionsSpec	-8576
▁allActiveTasks	-8577
▁assignmentInfo	-8578
▁createMetadata	-8579
▁logInputStream	-8580
▁responseStruct	-8581
▁scopeClaimName	-8582
WindowBytesStore	-8583
buildAndOptimize	-8584
▁AbstractOptions	-8585
▁HeaderConverter	-8586
▁expectConfigure	-8587
2:	-8588
AW	-8589
Bl	-8590
EW	-8591
_0	-8592
yc	-8593
096	-8594
601	-8595
COM	-8596
COR	-8597
DEX	-8598
LAG	-8599
NAP	-8600
dst	-8601
lum	-8602
mal	-8603
may	-8604
ref	-8605
>(),	-8606
COPE	-8607
Each	-8608
MANA	-8609
Main	-8610
OPER	-8611
POSE	-8612
Plan	-8613
Reco	-8614
Runn	-8615
STOP	-8616
UTED	-8617
VIEW	-8618
ased	-8619
here	-8620
jaas	-8621
more	-8622
nano	-8623
ones	-8624
▁","	-8625
▁812	-8626
▁AGG	-8627
▁Min	-8628
▁PUR	-8629
▁RAW	-8630
▁err	-8631
▁sel	-8632
(500,	-8633
2)));	-8634
ABORT	-8635
ALTER	-8636
Chars	-8637
Comma	-8638
LIGHT	-8639
OnGet	-8640
Since	-8641
ached	-8642
apter	-8643
ledge	-8644
roken	-8645
ually	-8646
▁-1);	-8647
▁Lock	-8648
▁recs	-8649
("1"),	-8650
Restor	-8651
aluate	-8652
quires	-8653
Classes	-8654
INITIAL	-8655
MANAGER	-8656
MapWith	-8657
Trigger	-8658
cenario	-8659
expired	-8660
getList	-8661
iceMock	-8662
options	-8663
retries	-8664
tempted	-8665
toBytes	-8666
untPath	-8667
▁STATUS	-8668
▁entity	-8669
▁merged	-8670
▁resume	-8671
▁testTo	-8672
AndError	-8673
Builders	-8674
ConfPath	-8675
ENDPOINT	-8676
Elements	-8677
FILENAME	-8678
KafkaLog	-8679
LISTENER	-8680
MESSAGES	-8681
TypeInfo	-8682
brokerId	-8683
filename	-8684
inMemory	-8685
maxBytes	-8686
nanoTime	-8687
testFile	-8688
timation	-8689
▁PURPOSE	-8690
▁RECEIVE	-8691
▁baseDir	-8692
▁cleanup	-8693
▁destroy	-8694
▁mapping	-8695
▁markers	-8696
▁revoked	-8697
▁startup	-8698
▁visible	-8699
Arguments	-8700
Gathering	-8701
NodeNames	-8702
NullValue	-8703
OuterJoin	-8704
Runnables	-8705
StoreType	-8706
beginning	-8707
ingConfig	-8708
onFailure	-8709
onStartup	-8710
ranslator	-8711
toLogical	-8712
▁Constant	-8713
▁SinkNode	-8714
▁blocking	-8715
▁indicate	-8716
▁intSerde	-8717
▁issuedAt	-8718
▁localCrc	-8719
▁minBytes	-8720
▁suppress	-8721
JsonString	-8722
MaxLatency	-8723
MockClient	-8724
SingleTask	-8725
completion	-8726
connecting	-8727
delegation	-8728
eosEnabled	-8729
lastHeader	-8730
sessionKey	-8731
▁castWhole	-8732
▁nullValue	-8733
▁storeTags	-8734
InterestOps	-8735
LevelNested	-8736
ReceiveSize	-8737
TopicsFound	-8738
UpdateCache	-8739
globalState	-8740
isFetchable	-8741
pollTimeout	-8742
shutdownNow	-8743
-0000000003\	-8744
InternalMock	-8745
IteratorStub	-8746
Materializer	-8747
RequestCount	-8748
▁Certificate	-8749
▁credentials	-8750
▁processData	-8751
▁uncommitted	-8752
▁windowStart	-8753
BatchRestored	-8754
RecordHeaders	-8755
StreamTimeAnd	-8756
TopicsOptions	-8757
▁connectionId	-8758
▁intermediate	-8759
▁startStreams	-8760
MemoryLRUCache	-8761
▁ConverterType	-8762
▁newNodeGroups	-8763
▁newPartitions	-8764
▁storeSupplier	-8765
OldValueEnabled	-8766
TopologyWrapper	-8767
authorizationId	-8768
capturedForward	-8769
retentionPeriod	-8770
rewriteTopology	-8771
▁AbstractHerder	-8772
▁TaskController	-8773
▁TupleForwarder	-8774
▁isControlBatch	-8775
SupportedVersion	-8776
ValueIsDifferent	-8777
processorContext	-8778
▁WriteTxnMarkers	-8779
▁metadataManager	-8780
▁produceMessages	-8781
:(	-8782
GC	-8783
fs	-8784
"},	-8785
(16	-8786
(30	-8787
12,	-8788
3).	-8789
32;	-8790
567	-8791
BEF	-8792
CEF	-8793
Clo	-8794
Man	-8795
Rep	-8796
SUF	-8797
YPE	-8798
gss	-8799
vis	-8800
▁FL	-8801
▁KR	-8802
000,	-8803
10",	-8804
64("	-8805
ById	-8806
IZED	-8807
PROG	-8808
RULE	-8809
SERV	-8810
aran	-8811
fact	-8812
ient	-8813
math	-8814
resp	-8815
runc	-8816
skip	-8817
vide	-8818
▁"01	-8819
▁5),	-8820
▁Par	-8821
Dirty	-8822
Exist	-8823
NAMES	-8824
ROUGH	-8825
Seqno	-8826
THOUS	-8827
andid	-8828
block	-8829
nonce	-8830
there	-8831
under	-8832
▁Impl	-8833
▁TYPE	-8834
▁rand	-8835
▁tick	-8836
(100);	-8837
LOADER	-8838
Second	-8839
Tokens	-8840
counts	-8841
foobar	-8842
getAnd	-8843
indent	-8844
▁""));	-8845
▁bound	-8846
▁jetty	-8847
Changed	-8848
Maximum	-8849
Setting	-8850
modules	-8851
sending	-8852
timated	-8853
ushHttp	-8854
▁getAll	-8855
:9092");	-8856
MockType	-8857
Overflow	-8858
PROGRESS	-8859
PeriodMs	-8860
Recovery	-8861
Scenario	-8862
THOUSAND	-8863
WithZStd	-8864
ampaigns	-8865
andidate	-8866
leaderId	-8867
▁KafkaLZ	-8868
▁LRUNode	-8869
▁Sampled	-8870
▁deleted	-8871
▁endTime	-8872
▁maxPoll	-8873
▁partial	-8874
▁smaller	-8875
Iteration	-8876
RESOURCES	-8877
SizeBytes	-8878
Templates	-8879
configKey	-8880
getPublic	-8881
▁Implicit	-8882
▁migrated	-8883
▁observed	-8884
▁storeKey	-8885
▁teardown	-8886
▁testExpi	-8887
ActiveTask	-8888
ConfigKeys	-8889
Expiration	-8890
FieldValue	-8891
LeaveGroup	-8892
commitSync	-8893
getPrivate	-8894
objectNode	-8895
withClient	-8896
▁attribute	-8897
▁keyMapper	-8898
▁keyValues	-8899
▁outputRaw	-8900
▁sessionId	-8901
▁shouldUse	-8902
▁testWrite	-8903
InterBroker	-8904
RecordValue	-8905
VarintSerde	-8906
abortResult	-8907
addShutdown	-8908
expectedKey	-8909
getMessages	-8910
writeVarint	-8911
▁Comparator	-8912
▁TaskConfig	-8913
▁TestConfig	-8914
▁TopicAdmin	-8915
▁additional	-8916
▁configKeys	-8917
▁promotable	-8918
▁recordSize	-8919
ForPartition	-8920
KeyException	-8921
configurable	-8922
errorMessage	-8923
▁ChannelMute	-8924
▁defaultTags	-8925
▁ensureValid	-8926
▁jettyServer	-8927
▁metricScope	-8928
▁shouldFetch	-8929
CONFIGURATION	-8930
ConnectSchema	-8931
▁"127.0.0.1",	-8932
▁NameCallback	-8933
▁absoluteLast	-8934
▁authenticate	-8935
▁changeLogger	-8936
▁checkInvalid	-8937
▁globalStores	-8938
Initialization	-8939
StatusListener	-8940
▁SocketChannel	-8941
▁TypeReference	-8942
▁serialization	-8943
▁shouldNotHave	-8944
▁sortedCurrent	-8945
▁stateConsumer	-8946
▁storeProvider	-8947
JsonNodeFactory	-8948
LeaderException	-8949
addShutdownHook	-8950
▁AbstractStatus	-8951
▁ScramFormatter	-8952
▁expirationTime	-8953
ArgumentMatchers	-8954
TopicDescription	-8955
sessionTimeoutMs	-8956
▁expectException	-8957
▁inFlightRequest	-8958
▁metricsRegistry	-8959
(?	-8960
-5	-8961
0:	-8962
cl	-8963
jo	-8964
2},	-8965
81,	-8966
ARY	-8967
Did	-8968
ENS	-8969
GEX	-8970
Mem	-8971
Tag	-8972
Und	-8973
tag	-8974
ues	-8975
▁<"	-8976
▁AT	-8977
▁ks	-8978
▁})	-8979
!");	-8980
(128	-8981
(30,	-8982
(5);	-8983
).";	-8984
2)),	-8985
Acks	-8986
Four	-8987
Help	-8988
Seek	-8989
Viol	-8990
[]>)	-8991
abel	-8992
asdf	-8993
atas	-8994
firm	-8995
make	-8996
mbst	-8997
must	-8998
osed	-8999
umer	-9000
}");	-9001
▁MAP	-9002
▁NOT	-9003
▁asy	-9004
▁ref	-9005
▁too	-9006
▁top	-9007
(",")	-9008
(2048	-9009
DISTR	-9010
ENSOR	-9011
Rules	-9012
Sizes	-9013
TRIBU	-9014
ToAdd	-9015
apsed	-9016
caped	-9017
mkdir	-9018
somet	-9019
▁"000	-9020
▁1)),	-9021
▁idle	-9022
▁peer	-9023
▁seen	-9024
▁some	-9025
Broken	-9026
Enable	-9027
IBUTED	-9028
Router	-9029
Select	-9030
Zombie	-9031
copyOf	-9032
joined	-9033
joiner	-9034
notify	-9035
parsed	-9036
produc	-9037
qEntry	-9038
states	-9039
▁pause	-9040
▁plain	-9041
(2048);	-9042
ClockMs	-9043
Include	-9044
Literal	-9045
Skipped	-9046
Through	-9047
createN	-9048
element	-9049
ipherSu	-9050
schemas	-9051
toUpper	-9052
tractor	-9053
▁SENSOR	-9054
▁instan	-9055
▁logged	-9056
▁testUn	-9057
TaskInfo	-9058
enchmark	-9059
formance	-9060
getStore	-9061
getTrust	-9062
▁"01"));	-9063
▁correct	-9064
▁illegal	-9065
▁minimum	-9066
▁newType	-9067
▁respond	-9068
▁stubOne	-9069
▁testPut	-9070
Challenge	-9071
CloseTest	-9072
StoreMock	-9073
anyString	-9074
ledgement	-9075
logPrefix	-9076
nullValue	-9077
someTopic	-9078
▁Assigned	-9079
▁Extended	-9080
▁Interrup	-9081
▁explicit	-9082
▁newTopic	-9083
▁rawValue	-9084
▁readFrom	-9085
▁readOnly	-9086
▁sinkName	-9087
▁template	-9088
BigDecimal	-9089
MockStrict	-9090
Privileged	-9091
ResClockMs	-9092
TestRecord	-9093
advertised	-9094
firstBatch	-9095
writeValue	-9096
▁connected	-9097
▁initializ	-9098
▁nodeGroup	-9099
▁whenCheck	-9100
DISTRIBUTED	-9101
Deserialize	-9102
JoinWindows	-9103
Optimizable	-9104
ParseString	-9105
RecordCount	-9106
Subtopology	-9107
headerValue	-9108
recordCount	-9109
setInternal	-9110
toUpperCase	-9111
▁registered	-9112
▁schemaType	-9113
▁testUpdate	-9114
▁tokenCache	-9115
▁windowSpec	-9116
ClassOrAlias	-9117
ConfigSetter	-9118
NameCallback	-9119
RecordHeader	-9120
isSuccessful	-9121
▁InputStream	-9122
▁contextName	-9123
▁frequencies	-9124
▁immediately	-9125
BatchingState	-9126
BytesBuffered	-9127
ClientOptions	-9128
Compatibility	-9129
ConsumerProps	-9130
SaslException	-9131
StorageWriter	-9132
ableException	-9133
cacheIterator	-9134
expectedValue	-9135
isOffsetReset	-9136
stopConnector	-9137
▁StreamStream	-9138
▁TopicDetails	-9139
▁bufferConfig	-9140
▁shouldAssign	-9141
connectorNames	-9142
createNiceMock	-9143
producerPrefix	-9144
▁TestCloseable	-9145
▁createRequest	-9146
▁valSerializer	-9147
▁wrapperRecord	-9148
AddOffsetsToTxn	-9149
StateTransition	-9150
WindowAggregate	-9151
sourcePartition	-9152
▁expectResponse	-9153
▁internalTopics	-9154
▁rateMetricName	-9155
CompressionRatio	-9156
pointableOffsets	-9157
▁Deserialization	-9158
▁RecordsToDelete	-9159
▁producerConfigs	-9160
▁serverSignature	-9161
▁streamsMetadata	-9162
+6	-9163
BI	-9164
KV	-9165
Tp	-9166
(',	-9167
(7,	-9168
++,	-9169
04,	-9170
2<-	-9171
DOM	-9172
Doc	-9173
MIC	-9174
TAG	-9175
bye	-9176
cmd	-9177
ole	-9178
zip	-9179
▁-=	-9180
▁3)	-9181
▁7;	-9182
▁>>	-9183
▁wo	-9184
(123	-9185
(4),	-9186
(4);	-9187
-1";	-9188
01",	-9189
3"),	-9190
<>(1	-9191
>();	-9192
ABOR	-9193
ATIC	-9194
BITR	-9195
DENY	-9196
NEED	-9197
None	-9198
PACE	-9199
STAN	-9200
TRAC	-9201
[0].	-9202
]");	-9203
bool	-9204
drop	-9205
ixed	-9206
know	-9207
salt	-9208
stat	-9209
sums	-9210
tual	-9211
utOf	-9212
▁150	-9213
▁234	-9214
▁END	-9215
▁avg	-9216
▁isS	-9217
▁txn	-9218
())),	-9219
(4));	-9220
)))),	-9221
<>("[	-9222
Exact	-9223
FORMS	-9224
LOBAL	-9225
Nonce	-9226
REGEX	-9227
SCOPE	-9228
TRACE	-9229
basic	-9230
clazz	-9231
icted	-9232
recom	-9233
tiate	-9234
▁Dead	-9235
▁Peek	-9236
▁}"),	-9237
BEFORE	-9238
Closes	-9239
Notify	-9240
Scheme	-9241
Ticket	-9242
Tombst	-9243
eature	-9244
ignore	-9245
secret	-9246
sender	-9247
▁-1));	-9248
▁42));	-9249
▁Epoch	-9250
▁OutOf	-9251
▁delta	-9252
▁imple	-9253
▁never	-9254
▁optim	-9255
<>("2",	-9256
Adapter	-9257
BITRARY	-9258
Builtin	-9259
Contain	-9260
Generic	-9261
MISSION	-9262
MaxIdle	-9263
Removal	-9264
TRACTOR	-9265
collect	-9266
drained	-9267
dynamic	-9268
fetched	-9269
getHost	-9270
grouped	-9271
keyFrom	-9272
measure	-9273
members	-9274
pendent	-9275
through	-9276
▁REPLIC	-9277
▁indent	-9278
▁oldest	-9279
ApiError	-9280
Contents	-9281
Finished	-9282
definite	-9283
endPoint	-9284
getLocal	-9285
readFrom	-9286
▁PROCESS	-9287
▁Peeking	-9288
▁UPGRADE	-9289
▁appends	-9290
▁consume	-9291
▁greater	-9292
▁present	-9293
▁project	-9294
▁reading	-9295
▁specify	-9296
MockState	-9297
Separator	-9298
Suspended	-9299
Undrained	-9300
newSingle	-9301
▁controls	-9302
▁discover	-9303
▁exchange	-9304
▁exitCode	-9305
▁getCount	-9306
▁increase	-9307
▁removing	-9308
▁requires	-9309
▁testRead	-9310
CONNECTION	-9311
Estimation	-9312
IfProducer	-9313
SensorName	-9314
Tombstones	-9315
UpperBound	-9316
▁AGGREGATE	-9317
▁ARBITRARY	-9318
▁endPoints	-9319
▁extracted	-9320
▁fetchSize	-9321
▁rawRecord	-9322
▁shouldPut	-9323
▁tokenInfo	-9324
AclsOptions	-9325
CLASSLOADER	-9326
ControlFile	-9327
CreateTopic	-9328
Directories	-9329
NullableStr	-9330
Punctuation	-9331
SaslSupport	-9332
UNCOMMITTED	-9333
addListener	-9334
channelMock	-9335
erializable	-9336
erification	-9337
errorCounts	-9338
getProducer	-9339
getTimeZone	-9340
httpRequest	-9341
setTimeZone	-9342
▁RocksDBSeg	-9343
▁TaskWorker	-9344
▁mechanisms	-9345
▁minVersion	-9346
▁streamsOne	-9347
▁topicNames	-9348
▁transition	-9349
BuiltinTypes	-9350
OfPartitions	-9351
RateAndCount	-9352
Successfully	-9353
enceProducer	-9354
isRegistered	-9355
mayPunctuate	-9356
▁COMPRESSION	-9357
▁application	-9358
▁correlation	-9359
▁implemented	-9360
▁outstanding	-9361
▁responseMap	-9362
▁shouldAllow	-9363
▁valuePrefix	-9364
FailOnInvalid	-9365
ProvidedProps	-9366
ValidPosition	-9367
ValueMismatch	-9368
configEntries	-9369
hasIncomplete	-9370
serializedKey	-9371
▁assertFuture	-9372
▁currentState	-9373
▁logDirStruct	-9374
▁nextMetadata	-9375
▁onPartitions	-9376
▁transactions	-9377
ConnectorState	-9378
ManagerFactory	-9379
ProjectedEvent	-9380
ResponseHeader	-9381
SessionEndTime	-9382
StagedReceives	-9383
TableOperation	-9384
isolationLevel	-9385
logStartOffset	-9386
▁GroupAuthoriz	-9387
▁RestException	-9388
▁SaslHandshake	-9389
▁decompression	-9390
▁latestSession	-9391
▁returnedProps	-9392
▁sessionMerger	-9393
StartingOffsets	-9394
ThrowsException	-9395
UnderlyingStore	-9396
getMetricByName	-9397
newSingleThread	-9398
persistentStore	-9399
segmentInterval	-9400
transformations	-9401
▁EpochEndOffset	-9402
▁KTableSuppress	-9403
▁WorkerSinkTask	-9404
▁createIterator	-9405
▁partitionCount	-9406
▁permissionType	-9407
ClassLoaderUsage	-9408
ConsumerProtocol	-9409
beginningOffsets	-9410
processedRecords	-9411
updatePartitions	-9412
▁MockAdminClient	-9413
▁clientDnsLookup	-9414
▁commitRequested	-9415
▁groupAssignment	-9416
▁groupedInternal	-9417
')	-9418
II	-9419
SA	-9420
)];	-9421
0()	-9422
0<-	-9423
345	-9424
456	-9425
APP	-9426
ASE	-9427
DOU	-9428
FIC	-9429
IZE	-9430
MAC	-9431
NEG	-9432
REM	-9433
SUB	-9434
TLS	-9435
YNA	-9436
[1]	-9437
_01	-9438
oom	-9439
ote	-9440
▁Bo	-9441
▁MO	-9442
601_	-9443
8_0_	-9444
BOOM	-9445
Life	-9446
ORIG	-9447
Pars	-9448
Requ	-9449
SHOT	-9450
_000	-9451
acks	-9452
ered	-9453
just	-9454
ling	-9455
oder	-9456
pose	-9457
▁For	-9458
▁rep	-9459
▁via	-9460
={}",	-9461
CLOCK	-9462
Fails	-9463
IfKey	-9464
MUTED	-9465
Parts	-9466
force	-9467
mbean	-9468
purge	-9469
stead	-9470
uaran	-9471
▁"));	-9472
▁"2:(	-9473
▁200,	-9474
▁3));	-9475
▁ACKS	-9476
▁BASE	-9477
▁Cast	-9478
▁Lazy	-9479
▁RETR	-9480
▁SEND	-9481
▁acls	-9482
▁four	-9483
▁warn	-9484
(128);	-9485
0000);	-9486
Accept	-9487
DOUBLE	-9488
Expand	-9489
FLIGHT	-9490
KABOOM	-9491
LagMax	-9492
SECOND	-9493
Static	-9494
Waiter	-9495
YNAMIC	-9496
_8601_	-9497
ackout	-9498
atible	-9499
coming	-9500
forced	-9501
itiate	-9502
onSend	-9503
riting	-9504
ulated	-9505
▁5000,	-9506
▁Queue	-9507
▁Shell	-9508
▁TASKS	-9509
▁toSet	-9510
Aliases	-9511
COMPACT	-9512
Conflic	-9513
Flatten	-9514
LogText	-9515
Metered	-9516
NAPSHOT	-9517
Nothing	-9518
Parsers	-9519
Quietly	-9520
REMOVER	-9521
Stopped	-9522
Strings	-9523
ageView	-9524
getPort	-9525
ication	-9526
include	-9527
started	-9528
uarante	-9529
▁cancel	-9530
▁custom	-9531
▁millis	-9532
▁queued	-9533
▁retval	-9534
Allocate	-9535
Batching	-9536
Earliest	-9537
JoinNode	-9538
OrUpdate	-9539
REQUIRED	-9540
TRIBUTES	-9541
Variable	-9542
alformed	-9543
isClosed	-9544
ookeeper	-9545
▁Caching	-9546
▁anyLong	-9547
▁confirm	-9548
▁groupBy	-9549
▁instead	-9550
▁leaders	-9551
▁reduced	-9552
▁shouldn	-9553
▁summary	-9554
▁trigger	-9555
FromCache	-9556
PROTOCOLS	-9557
PidResult	-9558
Specified	-9559
allTopics	-9560
lastError	-9561
reference	-9562
setTopics	-9563
sslConfig	-9564
teAddress	-9565
valueFrom	-9566
▁PROTOCOL	-9567
▁ReqEntry	-9568
▁attempts	-9569
▁fetchAll	-9570
▁maxTasks	-9571
▁tempFile	-9572
▁xformKey	-9573
AndRecords	-9574
CHECKPOINT	-9575
Difference	-9576
EXTENSIONS	-9577
NextHeader	-9578
PerRequest	-9579
StatusRead	-9580
bytesStore	-9581
isOptional	-9582
maxRecords	-9583
testDriver	-9584
▁Principal	-9585
▁accumData	-9586
▁childName	-9587
▁effective	-9588
▁generator	-9589
▁leaderUrl	-9590
-0000000011	-9591
-0000000036	-9592
Cancellable	-9593
ContextImpl	-9594
GroupMember	-9595
ProcessName	-9596
Processable	-9597
SourceNodes	-9598
allWithName	-9599
dStateStore	-9600
firstOffset	-9601
ipherSuites	-9602
mentedCache	-9603
numBuffered	-9604
pointIdenti	-9605
▁Processing	-9606
▁RestServer	-9607
▁SSLContext	-9608
▁SaslClient	-9609
▁StatusData	-9610
▁fatalError	-9611
▁fromSchema	-9612
▁sessionKey	-9613
▁threadName	-9614
▁totalCount	-9615
▁validation	-9616
-0000000002\	-9617
ErrorMessage	-9618
SimpleRecord	-9619
ToPartitions	-9620
WindowCloses	-9621
hiResClockMs	-9622
lowWatermark	-9623
toEpochMilli	-9624
▁LogReporter	-9625
▁controlFlag	-9626
▁groupStruct	-9627
▁maybeUpdate	-9628
▁outerRecord	-9629
▁unsupported	-9630
▁withRecords	-9631
AfterRecovery	-9632
AppInfoParser	-9633
Authorization	-9634
OrUpdateEntry	-9635
PrincipalType	-9636
expectedFinal	-9637
mechanismName	-9638
▁KTableSource	-9639
▁KerberosName	-9640
▁TestSslUtils	-9641
▁activeTopics	-9642
▁assertHeader	-9643
▁endingOffset	-9644
▁expectedUrls	-9645
▁outputStream	-9646
▁parsedConfig	-9647
▁responseBody	-9648
▁topicConfigs	-9649
ClientSelector	-9650
FirstHeartbeat	-9651
PrepareInvokes	-9652
ValueConverter	-9653
WindowGrouping	-9654
permissionType	-9655
▁invalidTopics	-9656
▁singleReplica	-9657
CompleteInvokes	-9658
DeadLetterQueue	-9659
Reconfiguration	-9660
StreamsMetadata	-9661
controllerEpoch	-9662
▁MockSourceNode	-9663
▁coordinatorKey	-9664
▁kafkaPartition	-9665
▁receivedRecord	-9666
commonClientConf	-9667
getKeyValueStore	-9668
hasTimestampType	-9669
isPartitionAdded	-9670
myTopicPartition	-9671
requestTimeoutMs	-9672
stringSerializer	-9673
▁CallbackHandler	-9674
▁MetricsReporter	-9675
▁NumberConverter	-9676
▁UnlimitedWindow	-9677
▁bytesSerializer	-9678
▁ensureNotClosed	-9679
▁lifetimeMinutes	-9680
▁persistentStore	-9681
▁recordsToDelete	-9682
▁renewTimePeriod	-9683
▁repartitionNode	-9684
▁shouldRoundTrip	-9685
▁sinkTaskContext	-9686
▁sslConfigValues	-9687
-9	-9688
4;	-9689
4_	-9690
><	-9691
Eq	-9692
ze	-9693
▁u	-9694
(20	-9695
(32	-9696
(8,	-9697
10.	-9698
FUN	-9699
KET	-9700
STD	-9701
ans	-9702
▁Al	-9703
▁eq	-9704
▁fr	-9705
4"),	-9706
=[1]	-9707
FLOW	-9708
HECK	-9709
POST	-9710
Sets	-9711
[][]	-9712
[]{2	-9713
cape	-9714
mari	-9715
rong	-9716
▁4),	-9717
▁INF	-9718
▁mgr	-9719
(2)),	-9720
ADVER	-9721
CCESS	-9722
CEFUL	-9723
CHARS	-9724
INDEX	-9725
Right	-9726
SIBLE	-9727
TISED	-9728
aryEq	-9729
enter	-9730
iring	-9731
luded	-9732
rence	-9733
scale	-9734
world	-9735
▁".";	-9736
▁"3:(	-9737
▁0");	-9738
▁Auth	-9739
▁FIND	-9740
▁Mess	-9741
▁STOP	-9742
▁halt	-9743
▁slot	-9744
▁urls	-9745
▁zero	-9746
("02",	-9747
7.0.0.	-9748
Acknow	-9749
Aggreg	-9750
Enough	-9751
GSSAPI	-9752
Queues	-9753
Report	-9754
SUFFIX	-9755
logout	-9756
marize	-9757
method	-9758
oldest	-9759
return	-9760
tector	-9761
▁10));	-9762
▁32));	-9763
▁Bogus	-9764
▁CHECK	-9765
▁Input	-9766
▁QUOTE	-9767
▁Quota	-9768
▁level	-9769
▁promo	-9770
▁right	-9771
Average	-9772
Drained	-9773
Elapsed	-9774
GroupBy	-9775
INCLUDE	-9776
Iterate	-9777
OnWrite	-9778
Padding	-9779
Sources	-9780
accepts	-9781
attempt	-9782
closing	-9783
control	-9784
hasItem	-9785
reducer	-9786
runcate	-9787
runners	-9788
▁LogAnd	-9789
▁METRIC	-9790
▁Wakeup	-9791
▁access	-9792
▁allows	-9793
▁trying	-9794
AndAwait	-9795
ByRegion	-9796
ErrorAck	-9797
FUNCTION	-9798
FileName	-9799
InMillis	-9800
Injected	-9801
JsonUtil	-9802
NonEmpty	-9803
StoreAnd	-9804
ableSize	-9805
evaluate	-9806
putShort	-9807
▁1000)),	-9808
▁Control	-9809
▁Message	-9810
▁listing	-9811
▁manager	-9812
Allocated	-9813
AndCreate	-9814
Delimiter	-9815
Plaintext	-9816
Requiring	-9817
Sequences	-9818
WindowEnd	-9819
addMetric	-9820
algorithm	-9821
extension	-9822
reporters	-9823
valueSize	-9824
▁INTERNAL	-9825
▁populate	-9826
▁storeLog	-9827
ADVERTISED	-9828
AfterReset	-9829
QueryParam	-9830
ReadyNodes	-9831
SinkConfig	-9832
Unreadable	-9833
beginAbort	-9834
beginFlush	-9835
dependents	-9836
getSubject	-9837
listTopics	-9838
otherTopic	-9839
recordSize	-9840
sourceTask	-9841
sslContext	-9842
throughput	-9843
tification	-9844
▁Checksums	-9845
▁Converted	-9846
▁RECONNECT	-9847
▁addresses	-9848
▁beginning	-9849
▁bytesRead	-9850
▁cacheName	-9851
▁challenge	-9852
▁taskClass	-9853
▁testToken	-9854
▁unbounded	-9855
BenchWorker	-9856
FutureError	-9857
KStreamImpl	-9858
remainingMs	-9859
tedPassword	-9860
topicGroups	-9861
▁CacheEntry	-9862
▁deprecated	-9863
▁expectTask	-9864
▁occurrence	-9865
▁onErrorAck	-9866
▁restServer	-9867
▁successful	-9868
▁throughput	-9869
-0000000004\	-9870
Initializing	-9871
PropertyName	-9872
activeTopics	-9873
createWorker	-9874
initialState	-9875
parentGetter	-9876
shouldRecord	-9877
validateOnly	-9878
▁GlobalState	-9879
▁Repartition	-9880
▁fetchOffset	-9881
▁getOrCreate	-9882
▁sslKeystore	-9883
▁timestampMs	-9884
▁topicErrors	-9885
InternalTopic	-9886
ScramMessages	-9887
StateConsumer	-9888
ToCommitLatch	-9889
fetchResponse	-9890
getConfigured	-9891
mutePartition	-9892
▁aclCreations	-9893
▁bufferOffset	-9894
▁inputRecords	-9895
▁predecessors	-9896
▁sinkTaskTags	-9897
▁sourceOffset	-9898
▁streamThread	-9899
▁wrapNullable	-9900
CommitCallback	-9901
RemainingLatch	-9902
SessionsStream	-9903
▁ChangeLogging	-9904
▁DefaultProduc	-9905
▁SecurityStore	-9906
▁authorization	-9907
▁connectorMock	-9908
▁highWatermark	-9909
▁numIterations	-9910
▁shallowOffset	-9911
▁stateListener	-9912
Acknowledgement	-9913
CompressionRate	-9914
MetadataVersion	-9915
connectionDelay	-9916
partitionStates	-9917
valueSerializer	-9918
▁BatchRetention	-9919
▁ConnectHeaders	-9920
▁SegmentedCache	-9921
▁createCallback	-9922
▁recordMetadata	-9923
▁startTimestamp	-9924
▁topicExtractor	-9925
▁verifyEquality	-9926
DataOutputStream	-9927
hasNextCondition	-9928
testLoginContext	-9929
ynchronizedCache	-9930
▁DataInputStream	-9931
▁DeadLetterQueue	-9932
▁ExecutorService	-9933
▁WakeupException	-9934
▁capturedForward	-9935
▁coordinatorType	-9936
▁executorService	-9937
▁intDeserializer	-9938
▁refresherThread	-9939
):	-9940
70	-9941
It	-9942
mf	-9943
▁]	-9944
05,	-9945
0},	-9946
21,	-9947
25,	-9948
3),	-9949
56;	-9950
=["	-9951
Due	-9952
Msg	-9953
WAT	-9954
YYY	-9955
iss	-9956
xAD	-9957
xFA	-9958
▁(<	-9959
▁).	-9960
▁24	-9961
▁25	-9962
▁6,	-9963
▁De	-9964
▁db	-9965
(").	-9966
("12	-9967
(0.0	-9968
(20,	-9969
02",	-9970
1234	-9971
8().	-9972
DEAD	-9973
INAL	-9974
MARK	-9975
NEGA	-9976
Need	-9977
Unre	-9978
Used	-9979
only	-9980
rich	-9981
vals	-9982
▁101	-9983
▁15;	-9984
▁42,	-9985
▁CRC	-9986
▁Dis	-9987
▁TXN	-9988
▁alt	-9989
▁}";	-9990
8"));	-9991
:8083	-9992
Datas	-9993
FOUND	-9994
IDEMP	-9995
TOLER	-9996
WATER	-9997
accum	-9998
acket	-9999
amped	-10000
issue	-10001
latch	-10002
liver	-10003
orize	-10004
toSet	-10005
▁1.0,	-10006
▁Char	-10007
▁able	-10008
▁were	-10009
02"));	-10010
Agents	-10011
EXPIRE	-10012
Inputs	-10013
Limits	-10014
OpenID	-10015
PECTED	-10016
Signal	-10017
custom	-10018
millis	-10019
retain	-10020
▁")");	-10021
▁ARRAY	-10022
▁Final	-10023
▁INFOS	-10024
▁acked	-10025
▁async	-10026
▁ignor	-10027
▁muted	-10028
▁proof	-10029
▁regex	-10030
(10000,	-10031
Appends	-10032
ByTimes	-10033
EXCLUDE	-10034
Flushed	-10035
ForBulk	-10036
Interop	-10037
Numbers	-10038
Waiters	-10039
anyName	-10040
delayed	-10041
fooSpec	-10042
getMain	-10043
invoked	-10044
parated	-10045
release	-10046
sertion	-10047
servlet	-10048
▁10000;	-10049
▁BROKER	-10050
▁Failed	-10051
▁Merger	-10052
▁branch	-10053
▁logout	-10054
▁oldAgg	-10055
▁sizeMs	-10056
▁stored	-10057
▁tpInfo	-10058
▁unique	-10059
Balanced	-10060
Children	-10061
Estimate	-10062
InBuffer	-10063
Inactive	-10064
Modified	-10065
NEGATIVE	-10066
OrHeader	-10067
Updating	-10068
function	-10069
kVersion	-10070
renewers	-10071
▁Corrupt	-10072
▁Mutable	-10073
▁RUNNING	-10074
▁cleanUp	-10075
▁desired	-10076
▁hasSize	-10077
▁reverse	-10078
▁testSet	-10079
AttemptMs	-10080
JoinGroup	-10081
Navigable	-10082
SaslPlain	-10083
TOLERANCE	-10084
WATERMARK	-10085
benchmark	-10086
component	-10087
parseLong	-10088
peekFirst	-10089
scheduler	-10090
▁NULLABLE	-10091
▁allTasks	-10092
▁getValue	-10093
▁hostInfo	-10094
▁inflight	-10095
▁multiple	-10096
▁promoted	-10097
▁security	-10098
▁theStore	-10099
ClientAuth	-10100
RESTRICTED	-10101
Translator	-10102
assertSame	-10103
createTask	-10104
getDecoder	-10105
getVersion	-10106
maintainMs	-10107
setDefault	-10108
setRequest	-10109
tokenValue	-10110
▁Rebalance	-10111
▁TopicName	-10112
▁Validator	-10113
▁algorithm	-10114
▁allocated	-10115
▁allowAuto	-10116
▁bootstrap	-10117
▁cancelled	-10118
▁formatted	-10119
▁joinGroup	-10120
▁loadBatch	-10121
▁onSuccess	-10122
▁roundTrip	-10123
▁suspended	-10124
-0000000018	-10125
UNSUPPORTED	-10126
ardShutdown	-10127
configValue	-10128
ensureValid	-10129
initializer	-10130
oraryFolder	-10131
topicRecord	-10132
▁Generation	-10133
▁Percentile	-10134
▁WorkerTask	-10135
▁definition	-10136
▁maxRetries	-10137
▁maxVersion	-10138
▁onComplete	-10139
▁shouldPass	-10140
▁testClient	-10141
▁testHandle	-10142
▁unassigned	-10143
CachingStore	-10144
ChannelState	-10145
DeleteTopics	-10146
GenerationId	-10147
SensorPrefix	-10148
TaskMigrated	-10149
cacheEnabled	-10150
newConnector	-10151
punctuatedAt	-10152
sizeOfVarint	-10153
topicPattern	-10154
▁buildStream	-10155
▁checkResult	-10156
▁inputValues	-10157
▁liveBrokers	-10158
▁numTimedOut	-10159
▁rebalancing	-10160
▁storePrefix	-10161
▁testMissing	-10162
AndPartitions	-10163
AssignedTasks	-10164
AvgMaxLatency	-10165
CommandRunner	-10166
HeaderInterop	-10167
KeyValuePairs	-10168
NullPointerIf	-10169
RatioForTopic	-10170
ThreadFactory	-10171
ToConfigNames	-10172
orizeCallback	-10173
socketChannel	-10174
▁TasksRequest	-10175
▁TopicListing	-10176
▁configSource	-10177
▁findSessions	-10178
▁jaasContexts	-10179
▁loginManager	-10180
▁objectMapper	-10181
▁partitionObj	-10182
▁partitionsTo	-10183
ConnectCluster	-10184
EnoughReplicas	-10185
FetchPositions	-10186
IsolationLevel	-10187
LoginException	-10188
SchemaMetadata	-10189
StateStoresFor	-10190
UpdateSupplier	-10191
channelBuilder	-10192
unsecuredLogin	-10193
▁TestConnector	-10194
▁batchIterator	-10195
▁blockChecksum	-10196
▁expectedFinal	-10197
▁requiredScope	-10198
▁saslAuthBytes	-10199
▁shouldSupport	-10200
HandlerResponse	-10201
JoinValueGetter	-10202
MetadataUpdater	-10203
RequiringCommit	-10204
SendingOldValue	-10205
headerConverter	-10206
transformValues	-10207
▁ConfigProvider	-10208
▁ResourceFilter	-10209
▁channelBinding	-10210
▁connectorState	-10211
▁loggingEnabled	-10212
▁maxReceiveSize	-10213
▁storeDirectory	-10214
CreatePartitions	-10215
HeartbeatRequest	-10216
ProcessorFactory	-10217
SubscribedTopics	-10218
WindowedKeyValue	-10219
newClientRequest	-10220
refreshBackoffMs	-10221
▁CommittedOffset	-10222
▁PartitionStates	-10223
▁adminClientConf	-10224
▁handshakeStatus	-10225
▁interceptorList	-10226
▁peekingIterator	-10227
▁recordsReturned	-10228
▁scramCredential	-10229
▁streamRunnables	-10230
▁txnOffsetCommit	-10231
▁valDeserializer	-10232
1[	-10233
2[	-10234
:1	-10235
ha	-10236
').	-10237
("-	-10238
(0)	-10239
00;	-10240
3<-	-10241
IMP	-10242
JAN	-10243
JMX	-10244
KED	-10245
May	-10246
REE	-10247
ROY	-10248
Seq	-10249
TAL	-10250
bad	-10251
big	-10252
ose	-10253
oss	-10254
zid	-10255
▁"6	-10256
▁')	-10257
▁21	-10258
▁3:	-10259
▁99	-10260
▁AB	-10261
▁ok	-10262
▁ta	-10263
("1.	-10264
(197	-10265
(42,	-10266
(5),	-10267
56);	-10268
EAVE	-10269
Emit	-10270
Even	-10271
META	-10272
Math	-10273
OTEN	-10274
REVO	-10275
SELE	-10276
UARY	-10277
VERY	-10278
WNER	-10279
cert	-10280
conf	-10281
deps	-10282
edia	-10283
impl	-10284
proc	-10285
when	-10286
▁CON	-10287
▁SES	-10288
▁ass	-10289
▁dlq	-10290
▁dst	-10291
▁{0,	-10292
()");	-10293
())))	-10294
INITY	-10295
Maybe	-10296
Named	-10297
ROYED	-10298
THREE	-10299
\":\"	-10300
allOf	-10301
evict	-10302
query	-10303
raver	-10304
setUp	-10305
▁2)),	-10306
▁42);	-10307
▁Next	-10308
▁OPER	-10309
▁Refl	-10310
▁SYNC	-10311
▁Tool	-10312
▁USER	-10313
▁flat	-10314
▁pass	-10315
▁post	-10316
▁repe	-10317
▁tool	-10318
(1970,	-10319
-256",	-10320
32"));	-10321
Across	-10322
Doesnt	-10323
NoSuch	-10324
OTENCE	-10325
RELOAD	-10326
Rejoin	-10327
bouncy	-10328
castle	-10329
epCopy	-10330
leased	-10331
lookup	-10332
sample	-10333
toHtml	-10334
uckets	-10335
▁Bound	-10336
▁LEAVE	-10337
▁MULTI	-10338
▁VALID	-10339
▁alter	-10340
▁built	-10341
▁taken	-10342
JANUARY	-10343
Leaders	-10344
REVOKED	-10345
STROYED	-10346
TreeSet	-10347
WaitFor	-10348
onPause	-10349
▁'{}'",	-10350
▁1234);	-10351
▁Select	-10352
▁aggKey	-10353
▁aggOne	-10354
▁aggTwo	-10355
▁always	-10356
▁caught	-10357
▁finish	-10358
▁isOpen	-10359
▁ktable	-10360
▁needed	-10361
▁onJoin	-10362
ForTimes	-10363
INFINITY	-10364
Lifetime	-10365
ShouldBe	-10366
Shutting	-10367
TryingTo	-10368
activity	-10369
ediaType	-10370
endsWith	-10371
fromCode	-10372
nodeById	-10373
nullable	-10374
propName	-10375
raversal	-10376
testutil	-10377
uarantee	-10378
▁Delayed	-10379
▁SESSION	-10380
▁Wrapper	-10381
▁buffers	-10382
▁content	-10383
▁fetches	-10384
▁kStream	-10385
▁provide	-10386
▁taskIdB	-10387
AndUpdate	-10388
AndVerify	-10389
ChangeLog	-10390
SinceLast	-10391
TaskProps	-10392
WrittenTo	-10393
allocated	-10394
operating	-10395
ternative	-10396
unbounded	-10397
▁PASSWORD	-10398
▁TestExpi	-10399
▁creation	-10400
▁embedded	-10401
▁hasItems	-10402
▁numSplit	-10403
▁occurred	-10404
▁onCommit	-10405
▁relative	-10406
▁saslName	-10407
▁stopping	-10408
▁testFile	-10409
▁testNull	-10410
RawRecords	-10411
SplitBatch	-10412
ThreadPool	-10413
TrustStore	-10414
Validating	-10415
canConsume	-10416
connConfig	-10417
createSend	-10418
deallocate	-10419
ectionKeys	-10420
minVersion	-10421
newFailure	-10422
sourceNode	-10423
▁FetchInfo	-10424
▁PROCESSOR	-10425
▁SmokeTest	-10426
▁allTopics	-10427
▁arguments	-10428
▁changeLog	-10429
▁currently	-10430
▁filterNot	-10431
▁isRunning	-10432
▁mapValues	-10433
▁newSchema	-10434
▁reference	-10435
▁scopeJson	-10436
▁shouldSet	-10437
▁throttler	-10438
FlightBatch	-10439
IDEMPOTENCE	-10440
JmxReporter	-10441
KafkaServer	-10442
WithInvalid	-10443
contextName	-10444
materialize	-10445
serviceName	-10446
usedVersion	-10447
▁BoundField	-10448
▁LogDirInfo	-10449
▁OffsetData	-10450
▁TestWindow	-10451
▁WorkerDone	-10452
▁addWithout	-10453
▁assertOnly	-10454
▁cleanState	-10455
▁collection	-10456
▁configData	-10457
▁suppressed	-10458
▁txnManager	-10459
▁valueBytes	-10460
AfterFailure	-10461
BaseFunction	-10462
GroupedTable	-10463
ObjectMapper	-10464
StructSchema	-10465
bouncycastle	-10466
getTimestamp	-10467
responseBody	-10468
▁AclCreation	-10469
▁NetworkSend	-10470
▁interrupted	-10471
▁ownerStruct	-10472
▁reconfigure	-10473
▁serviceName	-10474
CastException	-10475
ChangeLogging	-10476
ConfigsResult	-10477
MoreAvailable	-10478
RefreshBuffer	-10479
SERIALIZATION	-10480
URLConnection	-10481
configStorage	-10482
fenceProducer	-10483
metadataFetch	-10484
partitionsFor	-10485
requestHeader	-10486
storeSupplier	-10487
▁groupedTable	-10488
▁optionParser	-10489
▁shouldLogAnd	-10490
▁throttleTime	-10491
▁verification	-10492
▁verifyRecord	-10493
ConfigsOptions	-10494
OffsetResponse	-10495
RecordTooLarge	-10496
RestoredOffset	-10497
TaskController	-10498
innerStoreMock	-10499
▁Authenticator	-10500
▁addInvocation	-10501
▁mockProcessor	-10502
▁partitionsFor	-10503
▁totalRestored	-10504
▁updatedTopics	-10505
AndTimestampMap	-10506
AvailableMemory	-10507
ClosingChannels	-10508
MetadataWithKey	-10509
callbackHandler	-10510
restoreListener	-10511
waitForShutdown	-10512
▁ProjectedEvent	-10513
▁TimeDefinition	-10514
▁allSourceNodes	-10515
▁jaasConfigProp	-10516
▁reconfigurable	-10517
▁windowedStream	-10518
PartitionGrouper	-10519
SingleAllocation	-10520
hasValidPosition	-10521
▁InvalidMetadata	-10522
▁KTableProcessor	-10523
▁LeastLoadedNode	-10524
▁SSLEngineResult	-10525
▁applySchemaless	-10526
▁consumedOffsets	-10527
▁includeSynonyms	-10528
▁otherValueSerde	-10529
={	-10530
FL	-10531
GT	-10532
KS	-10533
MB	-10534
_"	-10535
rb	-10536
vm	-10537
ys	-10538
}/	-10539
(50	-10540
123	-10541
125	-10542
2))	-10543
200	-10544
DBY	-10545
ERS	-10546
Exc	-10547
IPS	-10548
[3]	-10549
ade	-10550
lag	-10551
tty	-10552
xDE	-10553
xED	-10554
▁{1	-10555
+4",	-10556
03);	-10557
100.	-10558
16",	-10559
Bits	-10560
Cert	-10561
DIGE	-10562
HMAC	-10563
LIVE	-10564
NEST	-10565
PTOR	-10566
REAL	-10567
Room	-10568
Root	-10569
TLSv	-10570
ZSTD	-10571
_1);	-10572
rapp	-10573
yyyy	-10574
▁GAP	-10575
▁ISO	-10576
▁Int	-10577
▁Txn	-10578
(1)),	-10579
Alive	-10580
Evict	-10581
HTTPS	-10582
ORDER	-10583
Proof	-10584
TEGER	-10585
While	-10586
]"));	-10587
acter	-10588
deque	-10589
grade	-10590
level	-10591
ysOut	-10592
▁')';	-10593
▁256;	-10594
▁Safe	-10595
▁allT	-10596
▁cons	-10597
▁curr	-10598
▁desc	-10599
▁just	-10600
▁reqs	-10601
(5000,	-10602
DIGEST	-10603
IDENTI	-10604
Jitter	-10605
NESTED	-10606
RANDOM	-10607
ToDrop	-10608
WaitMs	-10609
Within	-10610
cratch	-10611
nested	-10612
onents	-10613
toChar	-10614
topicA	-10615
utDown	-10616
▁"2");	-10617
▁Admin	-10618
▁comma	-10619
▁mkSet	-10620
▁pairs	-10621
▁raise	-10622
▁rules	-10623
AndInit	-10624
Compute	-10625
Corrupt	-10626
ENTRIES	-10627
RocksDb	-10628
RoomFor	-10629
Servlet	-10630
allowed	-10631
command	-10632
keySize	-10633
reduced	-10634
riginal	-10635
visible	-10636
waiters	-10637
▁Append	-10638
▁Produc	-10639
▁STREAM	-10640
▁Strict	-10641
▁params	-10642
▁putAll	-10643
▁retrie	-10644
▁seqnum	-10645
DateTime	-10646
FICATION	-10647
GRACEFUL	-10648
OneTopic	-10649
WhenFull	-10650
hostInfo	-10651
inScheme	-10652
newTopic	-10653
testPath	-10654
▁150)));	-10655
▁DocInfo	-10656
▁EXACTLY	-10657
▁Process	-10658
▁RECORDS	-10659
▁Replica	-10660
▁Stamped	-10661
▁hasItem	-10662
▁logical	-10663
▁maxLife	-10664
▁objects	-10665
▁perform	-10666
00000000,	-10667
BasicAuth	-10668
Classpath	-10669
MediaType	-10670
OffsetLag	-10671
PathParam	-10672
StoreFile	-10673
Throttler	-10674
ToConvert	-10675
Traversal	-10676
childName	-10677
loadProps	-10678
logChange	-10679
pollFirst	-10680
preCommit	-10681
processId	-10682
readValue	-10683
requested	-10684
testCache	-10685
▁"1000");	-10686
▁Throttle	-10687
▁allocate	-10688
▁deletion	-10689
▁fetching	-10690
▁onChange	-10691
▁pollTime	-10692
▁toInsert	-10693
DoneFuture	-10694
JoinResult	-10695
PluginPath	-10696
RecordSize	-10697
SSLContext	-10698
SslFactory	-10699
Whitespace	-10700
attributes	-10701
canConnect	-10702
fromSchema	-10703
metricTags	-10704
statusCode	-10705
▁Insertion	-10706
▁JSONSerde	-10707
▁Retriable	-10708
▁SaslState	-10709
▁allTagMap	-10710
▁configLog	-10711
▁executing	-10712
▁extractor	-10713
▁mBeanName	-10714
▁testFetch	-10715
-0000000008	-10716
-0000000035	-10717
-0000000037	-10718
AndInitTask	-10719
LoaderUsage	-10720
MILLISECOND	-10721
MessageSize	-10722
ResponseObj	-10723
SourceTopic	-10724
currentNode	-10725
isQueryable	-10726
partitioner	-10727
recordLevel	-10728
recordValue	-10729
toCharArray	-10730
▁Disconnect	-10731
▁advertised	-10732
▁checkState	-10733
▁commitSync	-10734
▁conversion	-10735
▁memberData	-10736
▁parsedArgs	-10737
▁taskFuture	-10738
▁topicsData	-10739
▁totalBytes	-10740
-0000000006\	-10741
AssignedTask	-10742
ChangeLogger	-10743
ConsumedRate	-10744
CurrentMagic	-10745
KeyConverter	-10746
LocalStreams	-10747
Notification	-10748
ProduceMagic	-10749
Requirements	-10750
SyncReplicas	-10751
hasUndrained	-10752
orderInGroup	-10753
rappingStore	-10754
secureRandom	-10755
toJsonString	-10756
unauthorized	-10757
userEndPoint	-10758
▁GlobalStore	-10759
▁MockReducer	-10760
▁SampledStat	-10761
▁assertState	-10762
▁atLeastOnce	-10763
▁brokerProps	-10764
▁clientProps	-10765
▁configProps	-10766
▁isSensitive	-10767
▁numRestored	-10768
▁readOnlyKey	-10769
▁replication	-10770
▁savedLoader	-10771
▁segmentName	-10772
▁shouldCount	-10773
▁threadState	-10774
▁usedVersion	-10775
ConfigSynonym	-10776
ConnectedKeys	-10777
ConnectorType	-10778
ConsumedTotal	-10779
DefaultRecord	-10780
DeleteRecords	-10781
FullyBalanced	-10782
ParseStringOf	-10783
RefreshWindow	-10784
SkipOnInvalid	-10785
StartedFuture	-10786
ToleranceType	-10787
batchIterator	-10788
beginShutdown	-10789
hasPartitions	-10790
isProcessable	-10791
partitionInfo	-10792
patternFilter	-10793
produceValues	-10794
topicMetadata	-10795
▁MethodHandle	-10796
▁ensureActive	-10797
▁outputRecord	-10798
▁verifyOutput	-10799
CallbackResult	-10800
ConnectorTasks	-10801
IDENTIFICATION	-10802
StartupSuccess	-10803
ThreadMetadata	-10804
completedSends	-10805
consumerClient	-10806
loggingEnabled	-10807
mechanismNames	-10808
mockPunctuator	-10809
processingFrom	-10810
requestContext	-10811
▁EndTxnRequest	-10812
▁InsertionSpec	-10813
▁NewPartitions	-10814
▁PriorityQueue	-10815
▁allPartitions	-10816
▁cleanUpConfig	-10817
▁encodeVersion	-10818
▁expectConvert	-10819
▁groupProtocol	-10820
▁nextChallenge	-10821
▁senderMetrics	-10822
▁shouldExtract	-10823
ClientDnsLookup	-10824
ConsumedOffsets	-10825
InflightBatches	-10826
OffsetCommitter	-10827
SchemaException	-10828
TargetException	-10829
WindowStoreStub	-10830
serializedValue	-10831
▁MemoryLRUCache	-10832
▁addAndInitTask	-10833
▁connectCluster	-10834
▁groupProtocols	-10835
▁issueTimestamp	-10836
▁messageVersion	-10837
▁pluginLocation	-10838
▁sessionTimeout	-10839
▁shouldNotMatch	-10840
▁verifyKeyValue	-10841
BlockInputStream	-10842
MetadataIfNeeded	-10843
ReplicaOffsetLag	-10844
ToDropTombstones	-10845
anagementFactory	-10846
setClientOptions	-10847
▁configProviders	-10848
▁javaProcessName	-10849
▁prepareResponse	-10850
▁sinkMetricValue	-10851
▁streamTableJoin	-10852
,"	-10853
.\	-10854
FT	-10855
HH	-10856
IX	-10857
]+	-10858
gg	-10859
ny	-10860
▁\	-10861
(?<	-10862
)";	-10863
0-9	-10864
3".	-10865
809	-10866
ARD	-10867
BAD	-10868
EDE	-10869
Off	-10870
Req	-10871
Rst	-10872
SEC	-10873
TIN	-10874
VID	-10875
dle	-10876
eep	-10877
hey	-10878
jks	-10879
xBB	-10880
▁(1	-10881
▁6;	-10882
▁ss	-10883
")))	-10884
(101	-10885
2)).	-10886
Both	-10887
Demo	-10888
FLAG	-10889
LEFT	-10890
Most	-10891
Prev	-10892
WALL	-10893
[1];	-10894
free	-10895
high	-10896
ices	-10897
illy	-10898
lies	-10899
mous	-10900
page	-10901
post	-10902
ring	-10903
▁0).	-10904
▁11,	-10905
▁20;	-10906
▁600	-10907
▁PER	-10908
▁cnt	-10909
▁cor	-10910
▁fix	-10911
▁uri	-10912
(200,	-10913
+6"),	-10914
32().	-10915
32\",	-10916
ENTRY	-10917
IMPLE	-10918
IsNot	-10919
LOCAL	-10920
Mixed	-10921
Prior	-10922
TYPES	-10923
aited	-10924
bound	-10925
ether	-10926
lumns	-10927
ormal	-10928
seqno	-10929
xffff	-10930
▁12);	-10931
▁4096	-10932
▁form	-10933
▁rack	-10934
▁ttls	-10935
(10)).	-10936
(200);	-10937
ARATOR	-10938
ExitMs	-10939
InLine	-10940
LINGER	-10941
Layout	-10942
Logged	-10943
Mocked	-10944
Negoti	-10945
Retain	-10946
STATES	-10947
THREAD	-10948
cached	-10949
factor	-10950
health	-10951
icient	-10952
isFull	-10953
maries	-10954
riched	-10955
umeric	-10956
writer	-10957
▁MBean	-10958
▁clock	-10959
▁items	-10960
▁local	-10961
▁their	-10962
(1024),	-10963
(123456	-10964
=[{}]",	-10965
AtLeast	-10966
CREATED	-10967
Clients	-10968
EXACTLY	-10969
MAPPING	-10970
MEDIATE	-10971
SCHEMAS	-10972
SPECIAL	-10973
STANDBY	-10974
UPDATED	-10975
ValueTo	-10976
elapsed	-10977
goodbye	-10978
indexOf	-10979
isAlive	-10980
manager	-10981
onymous	-10982
ponenti	-10983
resents	-10984
without	-10985
▁1000.0	-10986
▁5000);	-10987
▁60_000	-10988
▁FAILED	-10989
▁NoSuch	-10990
▁doneMs	-10991
▁passed	-10992
▁produc	-10993
▁ticket	-10994
External	-10995
Iterable	-10996
Original	-10997
Replaced	-10998
ToExitMs	-10999
hasItems	-11000
hitRatio	-11001
joinThis	-11002
mplement	-11003
rawValue	-11004
tempting	-11005
toSchema	-11006
▁"02"));	-11007
▁General	-11008
▁REPLICA	-11009
▁Servlet	-11010
▁actions	-11011
▁afterMs	-11012
▁caching	-11013
▁doCount	-11014
▁httpCon	-11015
▁ignored	-11016
▁recover	-11017
▁sources	-11018
▁strings	-11019
▁taskIdA	-11020
▁testJwt	-11021
▁testing	-11022
AndHandle	-11023
Composite	-11024
EXTRACTOR	-11025
PerPeriod	-11026
Restorers	-11027
SEQUENCES	-11028
awaitStop	-11029
cacheName	-11030
metricGrp	-11031
readFully	-11032
readToEnd	-11033
something	-11034
startedMs	-11035
tryAppend	-11036
ualRecord	-11037
validated	-11038
validator	-11039
▁KeyStore	-11040
▁NodeData	-11041
▁Provider	-11042
▁creating	-11043
▁initiate	-11044
▁isSimple	-11045
▁progress	-11046
▁tpCounts	-11047
▁userData	-11048
("127.0.0.	-11049
BySequence	-11050
COMPARATOR	-11051
Closeables	-11052
Indefinite	-11053
LogDirInfo	-11054
Negotiated	-11055
StreamTask	-11056
UriBuilder	-11057
Verifiable	-11058
isComplete	-11059
jorVersion	-11060
maxVersion	-11061
numSamples	-11062
replaceAll	-11063
sinkRecord	-11064
standalone	-11065
underlying	-11066
▁Changelog	-11067
▁fetchable	-11068
▁lastAcked	-11069
▁lastError	-11070
▁reenqueue	-11071
▁saslState	-11072
▁serverKey	-11073
▁streamOne	-11074
▁testReset	-11075
▁testValid	-11076
▁undefined	-11077
-0000000021	-11078
MarkerEntry	-11079
MemoryBytes	-11080
TopicGroups	-11081
Transitions	-11082
UntilTimeMs	-11083
activityGap	-11084
containsAll	-11085
jaasContext	-11086
keyChanging	-11087
reconfigure	-11088
totalMemory	-11089
▁ATTRIBUTES	-11090
▁BigInteger	-11091
▁awaitReady	-11092
▁brokerData	-11093
▁brokerList	-11094
▁claimValue	-11095
▁committing	-11096
▁completion	-11097
▁converters	-11098
▁currentNet	-11099
▁expiryTime	-11100
▁finalState	-11101
▁operations	-11102
▁parentNode	-11103
▁tokenValue	-11104
ApiTimeoutMs	-11105
ByTopicEntry	-11106
CalledStates	-11107
ConsumerPair	-11108
CreateTopics	-11109
FinalResults	-11110
HttpResponse	-11111
INTERMEDIATE	-11112
IfEosEnabled	-11113
TRANSACTIONS	-11114
ToBeReplaced	-11115
WithNoParent	-11116
deserialized	-11117
mkProperties	-11118
selectionKey	-11119
sourceOffset	-11120
▁PluginUtils	-11121
▁allExpected	-11122
▁allScenario	-11123
▁appendComma	-11124
▁checkClient	-11125
▁checkServer	-11126
▁configInfos	-11127
▁configNames	-11128
▁createBasic	-11129
▁entryFilter	-11130
▁fileChannel	-11131
▁otherWindow	-11132
▁recommender	-11133
▁shouldMatch	-11134
CommitEnabled	-11135
ConversionAnd	-11136
InLineRecords	-11137
MechanismName	-11138
NumPartitions	-11139
PerRequestAvg	-11140
StringBuilder	-11141
addDirtyEntry	-11142
addRawRecords	-11143
assignedCount	-11144
consumerGroup	-11145
containsMbean	-11146
gracePeriodMs	-11147
initPidResult	-11148
mmutableValue	-11149
netReadBuffer	-11150
producerProps	-11151
sendOldValues	-11152
▁DefaultLogin	-11153
▁EOFException	-11154
▁deleteTopics	-11155
▁fetchRecords	-11156
▁kerberosName	-11157
▁noPartitions	-11158
▁offsetWriter	-11159
▁recordCommit	-11160
▁topicGroupId	-11161
▁uncompressed	-11162
BrokerVersions	-11163
CoordinatorFor	-11164
ExceptionOnPut	-11165
FutureCallback	-11166
HerderProvider	-11167
JsonProcessing	-11168
KGroupedStream	-11169
LeaderResponse	-11170
OffsetPosition	-11171
PartitionCount	-11172
Reconfigurable	-11173
UnsecuredLogin	-11174
createDescribe	-11175
currentAddress	-11176
expiredBatches	-11177
netWriteBuffer	-11178
onRestoreStart	-11179
▁JsonToConnect	-11180
▁TopicAuthoriz	-11181
▁claimOrHeader	-11182
▁connectorInfo	-11183
▁currentTimeMs	-11184
▁decodeVersion	-11185
▁flushListener	-11186
▁getStateStore	-11187
▁nodeFactories	-11188
▁principalType	-11189
▁receivedValue	-11190
▁serverAddress	-11191
▁verifyCorrect	-11192
▁workerMetrics	-11193
BasicAuthFilter	-11194
DescribeLogDirs	-11195
IndefiniteField	-11196
WriteBufferSize	-11197
createSslConfig	-11198
forCurrentMagic	-11199
isFullyBalanced	-11200
needMetadataFor	-11201
recordCollector	-11202
serverSignature	-11203
▁AbstractStream	-11204
▁EndTxnResponse	-11205
▁RecordTooLarge	-11206
▁ResourceConfig	-11207
▁clientResponse	-11208
▁connectorProps	-11209
▁containsString	-11210
▁jaasConfigFile	-11211
ContextualRecord	-11212
ConvertedRecords	-11213
ReadyCheckResult	-11214
StateExceptionOn	-11215
evaluateResponse	-11216
oraryMemoryBytes	-11217
setStateListener	-11218
updateAssignment	-11219
▁ForwardingCache	-11220
▁GroupedInternal	-11221
▁blockingConnect	-11222
▁consumerRecords	-11223
▁expectTraversal	-11224
▁loadBatchHeader	-11225
▁partitionOffset	-11226
▁partitionsArray	-11227
▁resourceStructs	-11228
▁selectKeyStream	-11229
▁writeToTopology	-11230
':	-11231
,,	-11232
->	-11233
1@	-11234
8;	-11235
=4	-11236
EK	-11237
Na	-11238
[4	-11239
ts	-11240
▁X	-11241
.")	-11242
10)	-11243
16:	-11244
2()	-11245
27,	-11246
32(	-11247
324	-11248
35,	-11249
36,	-11250
500	-11251
56,	-11252
ANC	-11253
Alt	-11254
GOT	-11255
Ori	-11256
Poo	-11257
RAP	-11258
SYN	-11259
YTE	-11260
_1)	-11261
cat	-11262
htt	-11263
lem	-11264
var	-11265
was	-11266
xAA	-11267
xAC	-11268
xBE	-11269
xBF	-11270
xCE	-11271
▁">	-11272
▁"_	-11273
▁33	-11274
▁Te	-11275
▁av	-11276
▁hw	-11277
▁{0	-11278
("0+	-11279
++])	-11280
+1",	-11281
+5",	-11282
-2";	-11283
32),	-11284
=[0,	-11285
Able	-11286
CACH	-11287
MOCK	-11288
PEEK	-11289
SUME	-11290
TRUE	-11291
[2],	-11292
_8),	-11293
ager	-11294
apMs	-11295
bing	-11296
clam	-11297
dead	-11298
eces	-11299
echo	-11300
ello	-11301
heri	-11302
kerb	-11303
noOp	-11304
unks	-11305
ycle	-11306
▁"1.	-11307
▁TGT	-11308
▁\""	-11309
▁had	-11310
▁}),	-11311
("2",	-11312
(5000	-11313
:8080	-11314
<>(),	-11315
AllOr	-11316
AsMap	-11317
Estim	-11318
OWNER	-11319
REALM	-11320
Space	-11321
[1]);	-11322
ceeds	-11323
elong	-11324
https	-11325
iform	-11326
lared	-11327
quota	-11328
tests	-11329
thing	-11330
▁"100	-11331
▁"4".	-11332
▁1278	-11333
▁AUTH	-11334
▁CODE	-11335
▁Null	-11336
▁READ	-11337
▁fill	-11338
▁fire	-11339
▁here	-11340
▁into	-11341
▁late	-11342
▁meas	-11343
▁}));	-11344
()))).	-11345
ANCING	-11346
GOTTEN	-11347
Listen	-11348
MODULE	-11349
NodeId	-11350
OPTION	-11351
Origin	-11352
Pooled	-11353
SYNONY	-11354
TICKET	-11355
TimeNs	-11356
Unique	-11357
Writes	-11358
arable	-11359
claims	-11360
expire	-11361
search	-11362
▁"1"),	-11363
▁avoid	-11364
▁keyTo	-11365
▁means	-11366
▁ratio	-11367
CACHING	-11368
Counter	-11369
FAILURE	-11370
ForSend	-11371
KafkaLZ	-11372
KvPairs	-11373
Loading	-11374
Sanitiz	-11375
Suspend	-11376
THROUGH	-11377
ToLocal	-11378
WithTTL	-11379
acquire	-11380
atLeast	-11381
average	-11382
curNode	-11383
filters	-11384
forEach	-11385
herited	-11386
ingPeek	-11387
mytopic	-11388
▁0.0000	-11389
▁Exclam	-11390
▁STRUCT	-11391
▁TARGET	-11392
▁adjust	-11393
▁castTo	-11394
▁opName	-11395
ACTIONAL	-11396
AndOwner	-11397
Detector	-11398
EmptyMap	-11399
ITERATOR	-11400
PRODUCED	-11401
Recorded	-11402
WindowMs	-11403
WorkerId	-11404
askField	-11405
discover	-11406
getCount	-11407
graceful	-11408
isObject	-11409
ownerUrl	-11410
rimitive	-11411
saslName	-11412
▁CONNECT	-11413
▁RocksDb	-11414
▁SCHEMAS	-11415
▁decimal	-11416
▁deliver	-11417
▁expires	-11418
▁isValid	-11419
▁oldSize	-11420
▁synonym	-11421
▁testBad	-11422
▁through	-11423
AndErrors	-11424
Container	-11425
DESTROYED	-11426
Estimator	-11427
FailureIn	-11428
ForRecord	-11429
Iterators	-11430
Malformed	-11431
Notifying	-11432
OtherSize	-11433
Reconnect	-11434
ShouldNot	-11435
WithEmpty	-11436
WorkerIds	-11437
changeLog	-11438
createNew	-11439
ponential	-11440
prevTasks	-11441
storeTrue	-11442
summarize	-11443
▁1000000,	-11444
▁Platform	-11445
▁addAgent	-11446
▁combined	-11447
▁measured	-11448
▁ownerUrl	-11449
▁priority	-11450
▁propName	-11451
▁subjects	-11452
▁testFrom	-11453
Accessible	-11454
BeforeTest	-11455
IfNotReady	-11456
IgnoreCase	-11457
MoreEvents	-11458
Represents	-11459
StateEntry	-11460
Topologies	-11461
Unassigned	-11462
ValuesWith	-11463
aggregator	-11464
brokerList	-11465
brokerNode	-11466
configInfo	-11467
connectorB	-11468
createFile	-11469
getOptions	-11470
isInternal	-11471
nodeGroups	-11472
processors	-11473
schemaType	-11474
▁Frequency	-11475
▁attempted	-11476
▁dirtyKeys	-11477
▁frequency	-11478
▁getString	-11479
▁longSerde	-11480
▁mountPath	-11481
▁muteState	-11482
▁printJson	-11483
▁retriable	-11484
▁storedKey	-11485
▁testEmpty	-11486
▁totalSize	-11487
-0000000010	-11488
-0000000029	-11489
BeforeClass	-11490
FileRecords	-11491
OneConsumer	-11492
RetryTimeMs	-11493
Unavailable	-11494
WithDefault	-11495
arrayOffset	-11496
createMeter	-11497
iformRandom	-11498
loginModule	-11499
offsetDelta	-11500
reflections	-11501
setUncaught	-11502
▁ArrayDeque	-11503
▁CONTROLLED	-11504
▁Comparable	-11505
▁OptionSpec	-11506
▁SystemTime	-11507
▁WriteBatch	-11508
▁background	-11509
▁elapsedSec	-11510
▁fieldValue	-11511
▁listTopics	-11512
▁shouldFind	-11513
▁shouldPeek	-11514
▁statusData	-11515
▁taskCommit	-11516
-0000000011\	-11517
AllOrNothing	-11518
ConfigSource	-11519
ConnectionId	-11520
Constructors	-11521
DataBeforeGC	-11522
Descriptions	-11523
NestedStruct	-11524
SSLHandshake	-11525
ToLocalRules	-11526
TopicProduce	-11527
TopologyWith	-11528
commitNeeded	-11529
kafkaChannel	-11530
newConverter	-11531
onRestoreEnd	-11532
predecessors	-11533
removeMetric	-11534
revokedCount	-11535
timeWindowMs	-11536
▁BaseRecords	-11537
▁Exclamation	-11538
▁Frequencies	-11539
▁IllegalSasl	-11540
▁KafkaThread	-11541
▁PrintStream	-11542
▁Recommender	-11543
▁TRANSACTION	-11544
▁alternative	-11545
▁approximate	-11546
▁currentTime	-11547
▁expectPolls	-11548
▁getInternal	-11549
▁inputStream	-11550
▁instantiate	-11551
▁kafkaClient	-11552
▁nodeRequest	-11553
▁partitionId	-11554
▁prepareData	-11555
▁resetPolicy	-11556
▁sourceTopic	-11557
▁streamsProp	-11558
DescClasspath	-11559
OffsetCommits	-11560
RunningMetric	-11561
SaslAuthentic	-11562
TopicAuthoriz	-11563
authenticated	-11564
flatMapValues	-11565
hasReadyNodes	-11566
metricGrpName	-11567
newPartitions	-11568
▁AbstractTask	-11569
▁BufferConfig	-11570
▁ConsumerPair	-11571
▁CountingPeek	-11572
▁expireTimeMs	-11573
▁recordsFetch	-11574
▁reinitialize	-11575
▁replicaInfos	-11576
▁shouldBeAble	-11577
▁topicFutures	-11578
ChangeExecutor	-11579
ConvertedBatch	-11580
DescPluginPath	-11581
EndpointIdenti	-11582
FetchedRecords	-11583
IfTransactions	-11584
KeyValueRecord	-11585
NodeIdProvider	-11586
ReceivedValues	-11587
RetriableError	-11588
clientSupplier	-11589
currentOffsets	-11590
isControlBatch	-11591
storeDirectory	-11592
▁ConcurrentMap	-11593
▁ConfigKeyInfo	-11594
▁JsonConverter	-11595
▁LockException	-11596
▁MetricGroupId	-11597
▁MockTimestamp	-11598
▁Parameterized	-11599
▁RangeAssignor	-11600
▁TRANSACTIONAL	-11601
▁authenticated	-11602
▁baseTimestamp	-11603
▁bufferSeconds	-11604
▁buildResponse	-11605
▁getConfigured	-11606
▁inFlightBatch	-11607
▁intSerializer	-11608
▁newProperties	-11609
▁operationName	-11610
▁remoteAddress	-11611
▁sslTruststore	-11612
ErrorCodeStruct	-11613
KiboshFaultSpec	-11614
MetadataManager	-11615
MockAdminClient	-11616
NodeApiVersions	-11617
ReceiveResponse	-11618
RecordsPerTopic	-11619
SetStructFields	-11620
ValidationUtils	-11621
groupPartitions	-11622
produceResponse	-11623
stateStoreNames	-11624
▁AbstractLegacy	-11625
▁AppendProducer	-11626
▁MockSerializer	-11627
▁assignedTopics	-11628
e	-11629
▁	-11630
t	-11631
r	-11632
a	-11633
i	-11634
o	-11635
s	-11636
n	-11637
c	-11638
l	-11639
p	-11640
.	-11641
u	-11642
d	-11643
(	-11644
)	-11645
m	-11646
g	-11647
f	-11648
;	-11649
S	-11650
,	-11651
h	-11652
T	-11653
k	-11654
E	-11655
C	-11656
y	-11657
b	-11658
"	-11659
v	-11660
R	-11661
I	-11662
A	-11663
w	-11664
O	-11665
M	-11666
N	-11667
=	-11668
L	-11669
P	-11670
x	-11671
{	-11672
_	-11673
0	-11674
}	-11675
F	-11676
>	-11677
<	-11678
B	-11679
D	-11680
K	-11681
V	-11682
1	-11683
q	-11684
U	-11685
j	-11686
G	-11687
z	-11688
2	-11689
H	-11690
@	-11691
+	-11692
W	-11693
-	-11694
:	-11695
3	-11696
[	-11697
]	-11698
4	-11699
Y	-11700
5	-11701
6	-11702
J	-11703
8	-11704
!	-11705
X	-11706
\	-11707
9	-11708
7	-11709
/	-11710
?	-11711
&	-11712
'	-11713
Z	-11714
Q	-11715
