[PAD]	0
[UNK]	0
<s>	0
</s>	0
[SOS]	0
[EOL]	0
[EOS]	0
on	-0
er	-1
or	-2
ti	-3
es	-4
et	-5
ri	-6
te	-7
en	-8
▁i	-9
ic	-10
th	-11
tion	-12
);	-13
al	-14
se	-15
▁p	-16
lc	-17
re	-18
▁{	-19
an	-20
▁}	-21
le	-22
mp	-23
ap	-24
▁th	-25
ac	-26
is	-27
ne	-28
fi	-29
▁c	-30
ta	-31
ort	-32
▁=	-33
()	-34
ng	-35
lic	-36
get	-37
el	-38
tri	-39
ub	-40
ur	-41
ad	-42
ce	-43
de	-44
▁imp	-45
Plc	-46
he	-47
as	-48
va	-49
▁s	-50
▁or	-51
▁import	-52
eld	-53
▁S	-54
▁L	-55
alu	-56
Re	-57
qu	-58
ess	-59
est	-60
▁pub	-61
▁public	-62
ro	-63
▁(	-64
ache	-65
▁the	-66
▁r	-67
▁fi	-68
ense	-69
▁"	-70
pe	-71
un	-72
Con	-73
am	-74
ag	-75
ption	-76
▁A	-77
tring	-78
icense	-79
▁org	-80
ar	-81
ass	-82
ava	-83
new	-84
java	-85
▁in	-86
etur	-87
eturn	-88
▁t	-89
In	-90
at	-91
ation	-92
ent	-93
Ex	-94
apache	-95
▁return	-96
in	-97
ver	-98
alue	-99
▁License	-100
Fi	-101
ul	-102
▁e	-103
ter	-104
ype	-105
▁new	-106
of	-107
ut	-108
▁@	-109
▁b	-110
quest	-111
plc	-112
Field	-113
ted	-114
▁w	-115
der	-116
ception	-117
▁v	-118
▁m	-119
ress	-120
("	-121
oc	-122
lass	-123
▁Plc	-124
▁this	-125
▁l	-126
Exception	-127
Request	-128
();	-129
▁n	-130
▁d	-131
yte	-132
ode	-133
Type	-134
ction	-135
▁f	-136
and	-137
▁re	-138
ata	-139
ger	-140
ame	-141
ct	-142
esp	-143
ay	-144
String	-145
IN	-146
bu	-147
up	-148
nal	-149
espon	-150
ed	-151
▁+	-152
um	-153
esponse	-154
▁un	-155
it	-156
age	-157
▁co	-158
si	-159
ms	-160
Value	-161
Ad	-162
▁under	-163
ack	-164
ist	-165
▁to	-166
TI	-167
id	-168
▁if	-169
st	-170
tic	-171
ing	-172
nection	-173
ith	-174
oo	-175
▁ex	-176
▁pri	-177
vate	-178
▁private	-179
",	-180
ty	-181
▁O	-182
im	-183
Over	-184
ride	-185
Override	-186
Response	-187
add	-188
AS	-189
▁get	-190
fig	-191
▁C	-192
▁o	-193
ble	-194
li	-195
▁sta	-196
▁con	-197
");	-198
De	-199
ase	-200
ch	-201
ou	-202
ment	-203
ult	-204
Data	-205
rite	-206
tribu	-207
▁for	-208
▁String	-209
▁dis	-210
▁file	-211
ON	-212
Bu	-213
row	-214
▁final	-215
▁T	-216
tributed	-217
▁distributed	-218
able	-219
▁B	-220
▁static	-221
ock	-222
Id	-223
sc	-224
Un	-225
▁java	-226
ull	-227
alues	-228
ol	-229
oid	-230
class	-231
▁field	-232
til	-233
.0	-234
api	-235
▁case	-236
gger	-237
sion	-238
▁0	-239
▁void	-240
));	-241
▁throw	-242
ds	-243
Connection	-244
Name	-245
Read	-246
Add	-247
con	-248
ance	-249
fer	-250
INT	-251
od	-252
are	-253
Pro	-254
il	-255
son	-256
nel	-257
ot	-258
press	-259
▁W	-260
CE	-261
annel	-262
List	-263
ect	-264
util	-265
ject	-266
▁on	-267
Config	-268
scri	-269
ubscri	-270
ads	-271
ht	-272
().	-273
IS	-274
eng	-275
ength	-276
▁with	-277
bject	-278
ER	-279
Hand	-280
Address	-281
ate	-282
ip	-283
py	-284
tem	-285
Ams	-286
ore	-287
oole	-288
ses	-289
ert	-290
fic	-291
▁y	-292
▁Se	-293
uration	-294
▁of	-295
())	-296
ware	-297
oft	-298
▁Ap	-299
lo	-300
▁ag	-301
2.0	-302
▁lic	-303
oftware	-304
▁Apache	-305
▁copy	-306
▁See	-307
▁may	-308
enses	-309
▁agre	-310
▁you	-311
▁M	-312
());	-313
teger	-314
▁add	-315
assert	-316
Buf	-317
Test	-318
Net	-319
ex	-320
ser	-321
Byte	-322
ang	-323
▁is	-324
rap	-325
ES	-326
Json	-327
ments	-328
oolean	-329
▁N	-330
ubscription	-331
atch	-332
iz	-333
UT	-334
ire	-335
hannel	-336
00	-337
ong	-338
oun	-339
Integer	-340
Par	-341
▁pack	-342
pec	-343
om	-344
ition	-345
app	-346
▁.	-347
rr	-348
read	-349
▁null	-350
tation	-351
tain	-352
ers	-353
▁assert	-354
[]	-355
xt	-356
sp	-357
▁int	-358
esult	-359
▁tr	-360
Th	-361
ime	-362
")	-363
vic	-364
▁1	-365
▁class	-366
ure	-367
mpl	-368
Port	-369
code	-370
Code	-371
text	-372
fa	-373
ten	-374
▁a	-375
vice	-376
Inter	-377
hort	-378
quire	-379
value	-380
En	-381
act	-382
tim	-383
erm	-384
fault	-385
Item	-386
▁wri	-387
river	-388
▁package	-389
IT	-390
our	-391
▁g	-392
▁-	-393
qual	-394
field	-395
put	-396
▁F	-397
Sta	-398
int	-399
HO	-400
AN	-401
ilder	-402
Of	-403
ound	-404
use	-405
ener	-406
▁not	-407
sum	-408
ig	-409
dex	-410
Write	-411
▁value	-412
tr	-413
uture	-414
byte	-415
//	-416
Time	-417
Ver	-418
ogger	-419
tes	-420
for	-421
ion	-422
essage	-423
ue	-424
AR	-425
ytes	-426
stance	-427
ler	-428
ting	-429
pt	-430
mple	-431
NetId	-432
▁Ads	-433
aw	-434
sumer	-435
ator	-436
roup	-437
wn	-438
cept	-439
▁Un	-440
▁pro	-441
Configuration	-442
))	-443
▁en	-444
ory	-445
Context	-446
per	-447
utor	-448
Version	-449
▁D	-450
time	-451
rray	-452
else	-453
▁require	-454
▁values	-455
▁byte	-456
(),	-457
▁reg	-458
acket	-459
ource	-460
SE	-461
ork	-462
▁else	-463
pression	-464
form	-465
▁==	-466
://	-467
▁boolean	-468
Subscription	-469
ding	-470
▁K	-471
<>	-472
TE	-473
ize	-474
pes	-475
angu	-476
anguage	-477
▁P	-478
Ads	-479
toc	-480
tocol	-481
Channel	-482
ber	-483
LI	-484
ial	-485
Map	-486
OND	-487
set	-488
amet	-489
Length	-490
▁an	-491
ning	-492
▁->	-493
omm	-494
ARR	-495
ght	-496
ob	-497
▁at	-498
ocal	-499
ission	-500
Default	-501
▁plc	-502
TION	-503
out	-504
feren	-505
Expression	-506
peci	-507
write	-508
over	-509
▁comp	-510
▁and	-511
Future	-512
olle	-513
Builder	-514
no	-515
tp	-516
quals	-517
pecific	-518
▁Ams	-519
ither	-520
).	-521
org	-522
right	-523
raper	-524
tations	-525
Packet	-526
DataType	-527
TIES	-528
▁one	-529
Handler	-530
Ser	-531
▁Version	-532
▁use	-533
GER	-534
actory	-535
Consumer	-536
▁assertTh	-537
▁ob	-538
ream	-539
spi	-540
▁by	-541
▁work	-542
OTI	-543
tar	-544
▁language	-545
hip	-546
cted	-547
http	-548
arding	-549
▁app	-550
formation	-551
ww	-552
www	-553
trib	-554
AmsNetId	-555
▁required	-556
▁Y	-557
Man	-558
to	-559
),	-560
▁more	-561
ference	-562
▁Object	-563
Internal	-564
IND	-565
ager	-566
▁lim	-567
lied	-568
▁BAS	-569
▁sup	-570
itional	-571
▁either	-572
▁The	-573
▁You	-574
▁writing	-575
▁specific	-576
SF	-577
▁AN	-578
▁http	-579
▁IS	-580
▁OF	-581
▁OR	-582
TIONS	-583
▁license	-584
▁instance	-585
▁additional	-586
▁information	-587
CEN	-588
▁ANY	-589
▁perm	-590
▁applic	-591
ASF	-592
the	-593
-2.0	-594
HOUT	-595
ONDI	-596
less	-597
▁2.0	-598
▁ASF	-599
▁WIT	-600
▁law	-601
▁own	-602
ARRAN	-603
CENSE	-604
OTICE	-605
▁KIND	-606
▁limi	-607
ements	-608
ership	-609
liance	-610
▁BASIS	-611
▁CONDI	-612
▁Found	-613
▁gover	-614
LICENSE	-615
License	-616
issions	-617
▁NOTICE	-618
▁Unless	-619
▁WARRAN	-620
▁agreed	-621
▁except	-622
▁obtain	-623
licenses	-624
tributor	-625
▁WITHOUT	-626
▁express	-627
▁implied	-628
▁Licensed	-629
▁Software	-630
▁licenses	-631
▁software	-632
▁copyright	-633
▁governing	-634
▁ownership	-635
▁regarding	-636
▁CONDITIONS	-637
▁Foundation	-638
▁WARRANTIES	-639
▁agreements	-640
▁applicable	-641
▁compliance	-642
▁contributor	-643
▁limitations	-644
▁permissions	-645
▁name	-646
AL	-647
ve	-648
Factory	-649
▁par	-650
Handle	-651
tific	-652
Manager	-653
tification	-654
ams	-655
Bytes	-656
Object	-657
(0	-658
eth	-659
ument	-660
▁throws	-661
net	-662
umber	-663
ameter	-664
types	-665
▁exten	-666
Class	-667
Reference	-668
Node	-669
Driver	-670
Size	-671
▁extends	-672
BY	-673
▁R	-674
Group	-675
rg	-676
PlcField	-677
ash	-678
▁de	-679
▁type	-680
▁instanceof	-681
St	-682
essag	-683
▁assertThat	-684
urr	-685
urrent	-686
otification	-687
essages	-688
PlcConnection	-689
To	-690
ke	-691
vent	-692
▁U	-693
ace	-694
gener	-695
Values	-696
▁List	-697
name	-698
▁bu	-699
target	-700
mplet	-701
end	-702
State	-703
▁result	-704
gn	-705
▁!	-706
pri	-707
▁super	-708
▁In	-709
ReadRequest	-710
omplet	-711
==	-712
Message	-713
Arg	-714
ctor	-715
▁request	-716
rea	-717
AmsPort	-718
Ele	-719
DE	-720
messages	-721
cap	-722
alid	-723
▁address	-724
Protocol	-725
oint	-726
pl	-727
alse	-728
(1	-729
▁read	-730
Parameter	-731
AD	-732
du	-733
gnore	-734
current	-735
Buffer	-736
Device	-737
ethod	-738
Ignore	-739
▁catch	-740
Sc	-741
▁:	-742
▁h	-743
((	-744
LE	-745
apter	-746
JsonIgnore	-747
▁source	-748
tity	-749
upp	-750
Array	-751
cu	-752
oub	-753
▁!=	-754
type	-755
Set	-756
▁ads	-757
ouble	-758
Run	-759
";	-760
▁com	-761
perty	-762
▁try	-763
OR	-764
ans	-765
mock	-766
WriteRequest	-767
BYTE	-768
▁<	-769
<>();	-770
par	-771
▁io	-772
comm	-773
cp	-774
job	-775
la	-776
mi	-777
As	-778
tected	-779
TypeReference	-780
Dec	-781
Tr	-782
ast	-783
▁PlcValue	-784
Long	-785
▁I	-786
PlcSubscription	-787
Number	-788
Null	-789
vo	-790
values	-791
this	-792
Date	-793
ader	-794
▁response	-795
ck	-796
unit	-797
ey	-798
AT	-799
iter	-800
netty	-801
VAL	-802
voke	-803
▁data	-804
timeException	-805
ocket	-806
Key	-807
fin	-808
GGER	-809
▁target	-810
trigger	-811
mod	-812
load	-813
Argument	-814
▁connection	-815
ml	-816
junit	-817
ma	-818
Notification	-819
pro	-820
▁true	-821
▁Default	-822
loat	-823
File	-824
cess	-825
rigger	-826
▁false	-827
ableFuture	-828
▁protected	-829
atcher	-830
ayload	-831
equals	-832
ReadResponse	-833
▁&	-834
length	-835
fo	-836
Event	-837
Short	-838
Property	-839
IL	-840
notation	-841
ompletableFuture	-842
unction	-843
ollection	-844
CO	-845
ool	-846
finition	-847
str	-848
config	-849
ST	-850
igInteger	-851
nt	-852
Logger	-853
heck	-854
Int	-855
He	-856
co	-857
FI	-858
MA	-859
Stream	-860
test	-861
then	-862
Serial	-863
ink	-864
▁config	-865
>>	-866
tive	-867
OGGER	-868
connection	-869
Hash	-870
point	-871
▁{}	-872
▁Array	-873
istr	-874
▁long	-875
ansp	-876
▁imple	-877
ansport	-878
io	-879
model	-880
ary	-881
exception	-882
ME	-883
▁write	-884
▁LOGGER	-885
lock	-886
tems	-887
Header	-888
fset	-889
ByteBuf	-890
▁test	-891
reak	-892
Pa	-893
zz	-894
lazz	-895
lier	-896
::	-897
▁buf	-898
▁break	-899
▁2	-900
print	-901
▁E	-902
Mock	-903
Element	-904
dexGroup	-905
all	-906
ated	-907
DriverManager	-908
ING	-909
valid	-910
InternalPlc	-911
RuntimeException	-912
Reg	-913
cri	-914
Definition	-915
annotation	-916
▁Map	-917
ned	-918
nect	-919
ys	-920
xml	-921
ResponseCode	-922
ystem	-923
lle	-924
32	-925
af	-926
Local	-927
Uns	-928
▁inter	-929
channel	-930
op	-931
Offset	-932
▁encode	-933
RE	-934
▁(!	-935
▁((	-936
▁AD	-937
▁set	-938
short	-939
▁Byte	-940
Var	-941
rror	-942
mo	-943
getName	-944
gal	-945
ild	-946
▁PlcConnection	-947
sig	-948
▁ma	-949
Co	-950
arg	-951
llegal	-952
NIL	-953
Error	-954
inked	-955
Socket	-956
imple	-957
RT	-958
Job	-959
MAX	-960
Supp	-961
▁logger	-962
.*	-963
64	-964
tern	-965
lient	-966
<?	-967
▁|	-968
lang	-969
▁implements	-970
Hex	-971
ir	-972
us	-973
▁Exception	-974
ister	-975
signed	-976
▁writer	-977
IO	-978
Invalid	-979
serData	-980
ine	-981
▁Sc	-982
aster	-983
scraper	-984
.*;	-985
ORD	-986
tx	-987
ery	-988
▁System	-989
isit	-990
Qu	-991
jup	-992
Boolean	-993
jupiter	-994
HORT	-995
Return	-996
Ip	-997
tainer	-998
<>(	-999
▁out	-1000
Tcp	-1001
gin	-1002
SHORT	-1003
[0	-1004
attern	-1005
HashMap	-1006
"),	-1007
jack	-1008
▁job	-1009
faster	-1010
jackson	-1011
▁fields	-1012
fasterxml	-1013
concurrent	-1014
1,	-1015
16	-1016
ample	-1017
55	-1018
led	-1019
Util	-1020
exceptions	-1021
An	-1022
▁ctx	-1023
JsonType	-1024
cua	-1025
EGER	-1026
Impl	-1027
data	-1028
stan	-1029
INTEGER	-1030
Trigger	-1031
ito	-1032
common	-1033
ec	-1034
oop	-1035
erial	-1036
WriteResponse	-1037
rm	-1038
sl	-1039
Bit	-1040
Non	-1041
ommand	-1042
▁AmsPort	-1043
..	-1044
()).	-1045
reate	-1046
append	-1047
====	-1048
Mode	-1049
ollector	-1050
Entity	-1051
Mod	-1052
CODE	-1053
Query	-1054
▁Integer	-1055
ces	-1056
Decl	-1057
0000	-1058
Parser	-1059
Registr	-1060
▁Logger	-1061
▁Collection	-1062
▁wh	-1063
10	-1064
slf	-1065
mise	-1066
ugin	-1067
.2	-1068
Supplier	-1069
Container	-1070
ze	-1071
err	-1072
ite	-1073
reg	-1074
size	-1075
▁hand	-1076
NonNull	-1077
▁Linked	-1078
escri	-1079
generator	-1080
[0]	-1081
long	-1082
▁ADS	-1083
WORD	-1084
error	-1085
Timeout	-1086
adapter	-1087
commons	-1088
▁Channel	-1089
▁SUT	-1090
Option	-1091
pected	-1092
RES	-1093
Info	-1094
address	-1095
rup	-1096
Collector	-1097
▁'	-1098
Adapter	-1099
izer	-1100
Equals	-1101
ResponseItem	-1102
="	-1103
ln	-1104
TIME	-1105
Parse	-1106
println	-1107
▁Illegal	-1108
UB	-1109
fier	-1110
sing	-1111
dexOffset	-1112
TypeDefinition	-1113
▁1)	-1114
Items	-1115
Double	-1116
Payload	-1117
wit	-1118
Gener	-1119
ugins	-1120
witch	-1121
action	-1122
stream	-1123
mb	-1124
bus	-1125
face	-1126
qualTo	-1127
readwrite	-1128
null	-1129
generic	-1130
nx	-1131
End	-1132
stant	-1133
uthen	-1134
plugins	-1135
uthentic	-1136
▁default	-1137
▁Con	-1138
▁});	-1139
Result	-1140
PlcValue	-1141
uthentication	-1142
tag	-1143
Method	-1144
codegenerator	-1145
▁arg	-1146
vokeId	-1147
▁string	-1148
toString	-1149
JsonProperty	-1150
tedException	-1151
3.	-1152
ONG	-1153
ask	-1154
▁short	-1155
ashCode	-1156
getT	-1157
getField	-1158
0,	-1159
▁INT	-1160
Service	-1161
Datatype	-1162
▁Scraper	-1163
Str	-1164
bstr	-1165
bstract	-1166
Po	-1167
cei	-1168
"));	-1169
Command	-1170
Not	-1171
ames	-1172
▁ams	-1173
Float	-1174
DateTime	-1175
...	-1176
ATE	-1177
Instance	-1178
Op	-1179
enti	-1180
hema	-1181
BigInteger	-1182
Registration	-1183
Al	-1184
og	-1185
buf	-1186
uite	-1187
Input	-1188
▁",	-1189
Pair	-1190
rmata	-1191
ansaction	-1192
FF	-1193
UM	-1194
LONG	-1195
true	-1196
RING	-1197
Utils	-1198
etary	-1199
prietary	-1200
▁trigger	-1201
ERN	-1202
Unit	-1203
ansm	-1204
Block	-1205
▁driver	-1206
▁targetAmsPort	-1207
imul	-1208
configuration	-1209
ach	-1210
ord	-1211
mote	-1212
▁LinkedList	-1213
UL	-1214
map	-1215
DRES	-1216
DRESS	-1217
Stack	-1218
▁Mock	-1219
▁local	-1220
command	-1221
▁sourceAmsNetId	-1222
ecu	-1223
Elements	-1224
▁byteBuf	-1225
mpty	-1226
Index	-1227
▁UINT	-1228
▁Class	-1229
▁Result	-1230
PlcReadRequest	-1231
ET	-1232
ry	-1233
matcher	-1234
▁AmsNetId	-1235
MIN	-1236
ile	-1237
NetIp	-1238
Unsigned	-1239
];	-1240
▁&&	-1241
▁Th	-1242
Arrays	-1243
▁length	-1244
Unsubscription	-1245
afe	-1246
Names	-1247
suite	-1248
ecutor	-1249
▁message	-1250
JsonTypeInfo	-1251
\\	-1252
▁0;	-1253
comp	-1254
group	-1255
nected	-1256
request	-1257
▁sourceAmsPort	-1258
▁IllegalArgument	-1259
IP	-1260
PAT	-1261
▁parser	-1262
▁PlcList	-1263
▁*	-1264
men	-1265
▁sc	-1266
AdsField	-1267
▁adapter	-1268
RequestContainer	-1269
rc	-1270
rom	-1271
▁max	-1272
▁switch	-1273
▁IndexGroup	-1274
▁3	-1275
▁?	-1276
lose	-1277
Stamp	-1278
▁packet	-1279
Proprietary	-1280
HandlerContext	-1281
--	-1282
PATT	-1283
omic	-1284
utput	-1285
PATTERN	-1286
valueOf	-1287
protocol	-1288
▁channel	-1289
▁ArrayList	-1290
+)	-1291
EL	-1292
tis	-1293
▁bit	-1294
inter	-1295
isitor	-1296
getValue	-1297
bound	-1298
▁check	-1299
▁>	-1300
ADS	-1301
tip	-1302
build	-1303
ooled	-1304
▁configuration	-1305
UR	-1306
All	-1307
getS	-1308
imal	-1309
▁InternalPlc	-1310
Dis	-1311
rape	-1312
()));	-1313
igDec	-1314
mitive	-1315
igDecimal	-1316
▁invokeId	-1317
ost	-1318
ause	-1319
▁BIT	-1320
escription	-1321
AdsDataType	-1322
aration	-1323
getType	-1324
▁device	-1325
commands	-1326
Transport	-1327
▁PlcField	-1328
accept	-1329
ources	-1330
11	-1331
▁Pcap	-1332
▁Time	-1333
entifier	-1334
Ch	-1335
dp	-1336
ange	-1337
Client	-1338
buffer	-1339
▁consumer	-1340
entry	-1341
ParseException	-1342
PlcWriteRequest	-1343
▁port	-1344
▁{}",	-1345
source	-1346
Function	-1347
rimitive	-1348
▁targetAmsNetId	-1349
CON	-1350
.");	-1351
Bits	-1352
hand	-1353
stru	-1354
▁Data	-1355
Scraper	-1356
connect	-1357
ded	-1358
ypes	-1359
orted	-1360
LO	-1361
Se	-1362
les	-1363
▁Collections	-1364
And	-1365
try	-1366
▁ms	-1367
wrap	-1368
PlcReadResponse	-1369
▁requireNonNull	-1370
TcpPlcConnection	-1371
\"	-1372
DINT	-1373
mplex	-1374
parse	-1375
▁Term	-1376
AC	-1377
yn	-1378
ELD	-1379
val	-1380
Each	-1381
rows	-1382
Be	-1383
▁fieldQuery	-1384
Authentication	-1385
[]{	-1386
pdu	-1387
▁op	-1388
Pool	-1389
Fields	-1390
tistic	-1391
▁handle	-1392
structor	-1393
TES	-1394
arget	-1395
check	-1396
▁gener	-1397
Firmata	-1398
At	-1399
Del	-1400
With	-1401
Entry	-1402
serial	-1403
ubscriber	-1404
▁readRequest	-1405
▁4	-1406
00,	-1407
info	-1408
tate	-1409
Thread	-1410
hashCode	-1411
em	-1412
min	-1413
▁mock	-1414
be	-1415
Base	-1416
Task	-1417
ipField	-1418
▁equalTo	-1419
ReturnCode	-1420
▁assertEquals	-1421
FieldException	-1422
RO	-1423
TP	-1424
knx	-1425
BYTES	-1426
▁Node	-1427
asList	-1428
string	-1429
▁bytes	-1430
ameters	-1431
ByteValue	-1432
Declaration	-1433
bug	-1434
irect	-1435
encode	-1436
tistics	-1437
getConnection	-1438
▁PlcReadRequest	-1439
Fr	-1440
Term	-1441
ipel	-1442
riable	-1443
addItem	-1444
ipeline	-1445
▁Trigger	-1446
TY	-1447
▁8	-1448
orre	-1449
▁toString	-1450
▁BigInteger	-1451
▁u	-1452
oot	-1453
apper	-1454
result	-1455
▁future	-1456
▁interface	-1457
8:	-1458
000	-1459
Coun	-1460
Loop	-1461
▁end	-1462
FIELD	-1463
utils	-1464
SocketAddress	-1465
SUT	-1466
ian	-1467
▁||	-1468
Comp	-1469
port	-1470
▁Mod	-1471
ccess	-1472
netip	-1473
byteBuf	-1474
▁builder	-1475
▁internal	-1476
_1	-1477
++)	-1478
ext	-1479
Valid	-1480
▁Serial	-1481
mentNumber	-1482
PlcDriverManager	-1483
my	-1484
tus	-1485
▁St	-1486
pcap	-1487
arset	-1488
▁time	-1489
1:	-1490
DO	-1491
ft	-1492
key	-1493
Endian	-1494
getClass	-1495
Collectors	-1496
OO	-1497
ly	-1498
Cal	-1499
▁qu	-1500
▁msg	-1501
▁index	-1502
ADDRESS	-1503
omplete	-1504
lis	-1505
ized	-1506
cessor	-1507
register	-1508
▁PlcResponseCode	-1509
Cre	-1510
ped	-1511
▁Tr	-1512
.255	-1513
lias	-1514
Trace	-1515
table	-1516
tains	-1517
Creator	-1518
▁method	-1519
imulated	-1520
▁HashMap	-1521
PlcResponseCode	-1522
bin	-1523
SINT	-1524
STRING	-1525
mockito	-1526
Contexts	-1527
ff	-1528
ner	-1529
uments	-1530
?<	-1531
PE	-1532
Path	-1533
ipes	-1534
Frame	-1535
reamp	-1536
▁when	-1537
▁Local	-1538
streamp	-1539
▁Arrays	-1540
streampipes	-1541
DB	-1542
cr	-1543
NUM	-1544
hed	-1545
ual	-1546
.0.0	-1547
UBLE	-1548
ampl	-1549
ther	-1550
Asser	-1551
rowable	-1552
fieldName	-1553
Collection	-1554
getDataType	-1555
▁addressStr	-1556
agmentNumber	-1557
Get	-1558
let	-1559
leton	-1560
▁clazz	-1561
========	-1562
Testsuite	-1563
ts	-1564
Pos	-1565
ete	-1566
url	-1567
ved	-1568
hedu	-1569
tions	-1570
amples	-1571
▁Field	-1572
▁remote	-1573
LoggerFactory	-1574
2,	-1575
bytes	-1576
debug	-1577
itter	-1578
atches	-1579
Promise	-1580
response	-1581
▁Pattern	-1582
getLogger	-1583
getAdsDataType	-1584
Hel	-1585
top	-1586
xFF	-1587
▁>>	-1588
Pcap	-1589
▁ser	-1590
▁sub	-1591
Match	-1592
Types	-1593
fields	-1594
mplemen	-1595
▁LoggerFactory	-1596
EC	-1597
LC	-1598
<?>	-1599
kno	-1600
()))	-1601
ummy	-1602
Clazz	-1603
known	-1604
▁error	-1605
Executor	-1606
▁notification	-1607
Enum	-1608
▁ParseException	-1609
MS	-1610
▁do	-1611
isten	-1612
Implemen	-1613
sub	-1614
▁0)	-1615
▁can	-1616
▁Long	-1617
▁that	-1618
▁create	-1619
▁matcher	-1620
▁getField	-1621
gen	-1622
isE	-1623
▁be	-1624
ties	-1625
coder	-1626
ootst	-1627
▁recei	-1628
codegen	-1629
perties	-1630
▁serial	-1631
function	-1632
ootstrap	-1633
upported	-1634
BigDecimal	-1635
▁subscription	-1636
ationException	-1637
ID	-1638
sk	-1639
").	-1640
itSet	-1641
create	-1642
iteral	-1643
▁parse	-1644
Interrup	-1645
▁context	-1646
singleton	-1647
Identifier	-1648
1.	-1649
OK	-1650
ka	-1651
rol	-1652
ymb	-1653
▁ST	-1654
trol	-1655
vers	-1656
▁tag	-1657
Output	-1658
format	-1659
transport	-1660
Assertions	-1661
StackTrace	-1662
LEByteValue	-1663
RequestBuilder	-1664
){	-1665
7.	-1666
PP	-1667
DEN	-1668
ody	-1669
ONDS	-1670
afka	-1671
▁Short	-1672
Literal	-1673
testpoint	-1674
verAddress	-1675
▁PlcWriteRequest	-1676
NS	-1677
UE	-1678
(()	-1679
(?<	-1680
pect	-1681
Pattern	-1682
▁Thread	-1683
▁number	-1684
Interval	-1685
JsonCreator	-1686
GroupAddress	-1687
ragmentNumber	-1688
▁ResponseItem	-1689
DU	-1690
Wri	-1691
LINT	-1692
▁num	-1693
dition	-1694
▁Double	-1695
contains	-1696
ansmitter	-1697
▁adsDataType	-1698
ansmitterAddress	-1699
yc	-1700
LAS	-1701
ook	-1702
mbed	-1703
local	-1704
antity	-1705
▁cause	-1706
▁while	-1707
mbedded	-1708
ocation	-1709
▁Modbus	-1710
pedBuffer	-1711
▁Consumer	-1712
▁generate	-1713
▁PlcSubscription	-1714
CH	-1715
ORT	-1716
▁Op	-1717
▁Run	-1718
Alias	-1719
longValue	-1720
▁adsField	-1721
tep	-1722
▁al	-1723
(0);	-1724
cord	-1725
VALUE	-1726
▁event	-1727
▁Length	-1728
UserData	-1729
ubscribe	-1730
Arguments	-1731
▁TimeUnit	-1732
NO	-1733
NX	-1734
For	-1735
ard	-1736
▁//	-1737
heduled	-1738
Statement	-1739
etAddress	-1740
NetIpField	-1741
10.	-1742
res	-1743
▁);	-1744
)));	-1745
IDEN	-1746
TIFI	-1747
core	-1748
rupt	-1749
star	-1750
Simple	-1751
▁items	-1752
▁buffer	-1753
IDENTIFI	-1754
▁visitor	-1755
▁plcValue	-1756
ChannelFactory	-1757
PlcWriteResponse	-1758
ULL	-1759
CLAS	-1760
ared	-1761
getM	-1762
plit	-1763
CLASS	-1764
amsads	-1765
arator	-1766
matches	-1767
▁encoder	-1768
(!	-1769
Te	-1770
Safe	-1771
driver	-1772
Mockito	-1773
require	-1774
IDENTIFIER	-1775
IOException	-1776
NotificationS	-1777
▁writeRequest	-1778
▁driverManager	-1779
PM	-1780
▁sb	-1781
▁last	-1782
▁state	-1783
ecution	-1784
PMException	-1785
ationContext	-1786
▁parserContexts	-1787
tial	-1788
work	-1789
("");	-1790
Schema	-1791
Source	-1792
getData	-1793
▁params	-1794
vocation	-1795
HexString	-1796
Primitive	-1797
Le	-1798
if	-1799
ctx	-1800
ham	-1801
war	-1802
crest	-1803
▁Invoke	-1804
hamcrest	-1805
endRequest	-1806
Va	-1807
lee	-1808
tcp	-1809
ush	-1810
▁id	-1811
fore	-1812
move	-1813
play	-1814
Scrape	-1815
istener	-1816
NumberOf	-1817
FieldName	-1818
Generator	-1819
Triggered	-1820
subscription	-1821
▁fieldInternal	-1822
JobConfiguration	-1823
NA	-1824
ie	-1825
tin	-1826
▁31	-1827
lter	-1828
▁Not	-1829
▁args	-1830
InBits	-1831
▁State	-1832
message	-1833
▁promise	-1834
▁PlcInteger	-1835
versationContext	-1836
2.	-1837
RI	-1838
vi	-1839
Tag	-1840
icC	-1841
ifi	-1842
rst	-1843
▁10	-1844
▁<=	-1845
ital	-1846
agicC	-1847
itial	-1848
ookie	-1849
▁DATE	-1850
▁Read	-1851
▁code	-1852
▁entry	-1853
▁Message	-1854
Execution	-1855
agicCookie	-1856
thenReturn	-1857
imulatedField	-1858
▁assertThrows	-1859
QU	-1860
OOL	-1861
LOAT	-1862
false	-1863
ingle	-1864
change	-1865
tribute	-1866
AmsHeader	-1867
Su	-1868
FIG	-1869
dpu	-1870
▁At	-1871
getSize	-1872
▁getName	-1873
▁PlcEntity	-1874
getResponse	-1875
▁indexOffset	-1876
PDU	-1877
▁RE	-1878
REAL	-1879
lect	-1880
PPING	-1881
colle	-1882
oding	-1883
▁main	-1884
CONFIG	-1885
igital	-1886
builder	-1887
collect	-1888
TypeSafe	-1889
complete	-1890
▁AdsRead	-1891
▁Objects	-1892
▁protocol	-1893
Subscriber	-1894
▁plcConnection	-1895
No	-1896
32:	-1897
ATA	-1898
Sup	-1899
not	-1900
▁()	-1901
▁fa	-1902
Addr	-1903
math	-1904
tamp	-1905
warn	-1906
▁ass	-1907
abled	-1908
clazz	-1909
ession	-1910
▁BITARR	-1911
Abstract	-1912
Declared	-1913
▁ByteBuf	-1914
AY	-1915
ek	-1916
Ass	-1917
▁16	-1918
▁(!(	-1919
▁has	-1920
(0));	-1921
opcua	-1922
trace	-1923
▁comm	-1924
▁Atomic	-1925
▁server	-1926
Variable	-1927
▁fieldName	-1928
InputStream	-1929
▁PlcInvalid	-1930
ClientDatatype	-1931
*/	-1932
IG	-1933
Lo	-1934
ax	-1935
tt	-1936
AND	-1937
Log	-1938
Que	-1939
nio	-1940
own	-1941
pre	-1942
ule	-1943
TYPE	-1944
peek	-1945
that	-1946
Queue	-1947
erved	-1948
onent	-1949
crimin	-1950
mplate	-1951
▁Opcua	-1952
Charset	-1953
NotNull	-1954
Requests	-1955
orVersion	-1956
▁amsPacket	-1957
Constructor	-1958
serDataLength	-1959
80	-1960
By	-1961
16:	-1962
Sub	-1963
▁".	-1964
Hello	-1965
inary	-1966
Target	-1967
▁connect	-1968
Processor	-1969
▁dataType	-1970
ansmission	-1971
AdsReturnCode	-1972
irectAdsField	-1973
targetAmsNetId	-1974
CP	-1975
mq	-1976
{"	-1977
)).	-1978
Rate	-1979
pool	-1980
ring	-1981
close	-1982
coding	-1983
packet	-1984
forEach	-1985
▁mapper	-1986
▁Firmata	-1987
▁registr	-1988
acAddress	-1989
ansmissionMode	-1990
sap	-1991
ync	-1992
Oper	-1993
READ	-1994
emory	-1995
Control	-1996
▁command	-1997
triggered	-1998
▁fieldType	-1999
▁transaction	-2000
(2	-2001
1;	-2002
Fn	-2003
PRO	-2004
vel	-2005
▁crc	-2006
getAs	-2007
▁File	-2008
Unable	-2009
ptions	-2010
▁group	-2011
getText	-2012
▁object	-2013
Connected	-2014
Parameters	-2015
▁stringBytes	-2016
(3	-2017
arr	-2018
ign	-2019
low	-2020
uld	-2021
ump	-2022
▁0,	-2023
▁IO	-2024
Host	-2025
Sele	-2026
etad	-2027
word	-2028
array	-2029
Status	-2030
etadata	-2031
▁decode	-2032
Endpoint	-2033
▁payload	-2034
EventLoop	-2035
▁AdsState	-2036
Statistics	-2037
PlcConsumer	-2038
Parameterized	-2039
requireNonNull	-2040
ab	-2041
ld	-2042
uf	-2043
Raw	-2044
Res	-2045
now	-2046
▁CO	-2047
PORT	-2048
▁run	-2049
[0]);	-2050
Assert	-2051
Before	-2052
Complex	-2053
▁equals	-2054
▁simple	-2055
▁current	-2056
Transaction	-2057
Unsupported	-2058
2;	-2059
RC	-2060
WR	-2061
ateg	-2062
case	-2063
DOUBLE	-2064
Counter	-2065
▁Method	-2066
▁accept	-2067
Listener	-2068
assertTh	-2069
LocalDate	-2070
LocalTime	-2071
DriverContext	-2072
Ac	-2073
"))	-2074
EST	-2075
LIS	-2076
▁le	-2077
▁se	-2078
Last	-2079
flect	-2080
illis	-2081
start	-2082
handle	-2083
pooled	-2084
▁Driver	-2085
Readable	-2086
▁timeout	-2087
Serializer	-2088
▁PlcProtocol	-2089
▁groupAddress	-2090
printStackTrace	-2091
os	-2092
rt	-2093
pic	-2094
NAME	-2095
Step	-2096
▁Arg	-2097
▁COTP	-2098
Options	-2099
boolean	-2100
▁BitSet	-2101
Register	-2102
▁isValid	-2103
className	-2104
fieldQuery	-2105
Description	-2106
getDeclared	-2107
▁IndexOffset	-2108
▁OPMException	-2109
ED	-2110
EP	-2111
jo	-2112
Xml	-2113
ias	-2114
tle	-2115
▁Hex	-2116
ecute	-2117
lated	-2118
regex	-2119
▁TIME	-2120
▁pool	-2121
▁Boolean	-2122
▁TypeSafe	-2123
▁MockField	-2124
▁Expression	-2125
▁indexGroup	-2126
▁NotImplemen	-2127
▁TypeDefinition	-2128
▁PlcReadResponse	-2129
[1	-2130
ns	-2131
Line	-2132
Tsap	-2133
arch	-2134
Exten	-2135
Recei	-2136
ittle	-2137
▁loop	-2138
device	-2139
remove	-2140
▁float	-2141
▁output	-2142
knxnetip	-2143
ittleEndian	-2144
▁IOException	-2145
currentThread	-2146
singletonList	-2147
IntLEByteValue	-2148
Is	-2149
64-	-2150
fix	-2151
has	-2152
sta	-2153
tten	-2154
urer	-2155
ycle	-2156
mspec	-2157
▁call	-2158
▁enum	-2159
payload	-2160
version	-2161
▁Stream	-2162
▁AmsError	-2163
JsonTypeName	-2164
mbeddedChannel	-2165
au	-2166
any	-2167
ust	-2168
orld	-2169
DWORD	-2170
Logic	-2171
kafka	-2172
Encode	-2173
Millis	-2174
Server	-2175
▁Write	-2176
Handles	-2177
▁Unsigned	-2178
▁property	-2179
Configurer	-2180
adsDataType	-2181
PlcFieldHandler	-2182
01	-2183
On	-2184
UN	-2185
mm	-2186
one	-2187
▁"0	-2188
----	-2189
WRIT	-2190
dung	-2191
▁0);	-2192
▁cur	-2193
event	-2194
▁NULL	-2195
▁Test	-2196
▁supp	-2197
Reader	-2198
▁Block	-2199
▁build	-2200
Illegal	-2201
Visitor	-2202
bindung	-2203
orrelated	-2204
JsonObject	-2205
getRequest	-2206
▁Throwable	-2207
getSizeInBits	-2208
02	-2209
Fl	-2210
▁1;	-2211
getC	-2212
▁NUM	-2213
▁from	-2214
▁item	-2215
▁Gener	-2216
getBytes	-2217
getLength	-2218
Properties	-2219
▁parameter	-2220
LocalDateTime	-2221
getFieldNames	-2222
Ap	-2223
Ur	-2224
ho	-2225
Url	-2226
nex	-2227
DATA	-2228
User	-2229
estin	-2230
▁size	-2231
Loader	-2232
double	-2233
lement	-2234
Objects	-2235
pduSize	-2236
reflect	-2237
▁double	-2238
▁Request	-2239
▁sources	-2240
ScrapeJob	-2241
nexpected	-2242
estination	-2243
wrappedBuffer	-2244
8,	-2245
Ret	-2246
TCP	-2247
bit	-2248
msg	-2249
▁32	-2250
amel	-2251
▁pre	-2252
▁url	-2253
Writer	-2254
utable	-2255
▁STRING	-2256
▁entity	-2257
language	-2258
ycleTime	-2259
▁expected	-2260
▁register	-2261
generation	-2262
StampHeader	-2263
5,	-2264
ge	-2265
Rou	-2266
ath	-2267
mat	-2268
▁DF	-2269
Args	-2270
iled	-2271
▁Auf	-2272
▁Ver	-2273
▁map	-2274
WRITE	-2275
espace	-2276
▁Float	-2277
▁client	-2278
▁Function	-2279
▁abstract	-2280
getNumberOf	-2281
▁Verbindung	-2282
MockConnection	-2283
▁TypeReference	-2284
/0	-2285
Ms	-2286
RR	-2287
(0,	-2288
MIL	-2289
▁MA	-2290
Call	-2291
From	-2292
skip	-2293
▁key	-2294
ACnet	-2295
Delay	-2296
MILLIS	-2297
filter	-2298
parser	-2299
compile	-2300
dataType	-2301
Unexpected	-2302
NodeVisitor	-2303
triggeredscraper	-2304
(4	-2305
32-	-2306
OUT	-2307
The	-2308
UBS	-2309
War	-2310
alc	-2311
can	-2312
▁My	-2313
DEEP	-2314
URNS	-2315
olic	-2316
uple	-2317
▁");	-2318
▁min	-2319
STUBS	-2320
empty	-2321
method	-2322
parent	-2323
search	-2324
Unknown	-2325
ymbolic	-2326
Matchers	-2327
amespace	-2328
ferences	-2329
eteDevice	-2330
▁hashCode	-2331
Collections	-2332
StackConfigurer	-2333
VI	-2334
bE	-2335
fl	-2336
ERR	-2337
Lay	-2338
RAN	-2339
ark	-2340
run	-2341
VICE	-2342
bEth	-2343
leep	-2344
with	-2345
astic	-2346
Replay	-2347
ending	-2348
assword	-2349
isEmpty	-2350
ulation	-2351
▁Device	-2352
▁Output	-2353
▁Simple	-2354
expected	-2355
readByte	-2356
AddDevice	-2357
Interface	-2358
getTarget	-2359
skipBytes	-2360
criminator	-2361
▁Configuration	-2362
▁internalEncode	-2363
GE	-2364
("(	-2365
dic	-2366
oll	-2367
xed	-2368
▁")	-2369
▁"."	-2370
▁{},	-2371
Point	-2372
getKey	-2373
inMode	-2374
invoke	-2375
params	-2376
▁split	-2377
integer	-2378
▁assign	-2379
plcField	-2380
▁integer	-2381
ampleSize	-2382
interrupt	-2383
MacAddress	-2384
getPayload	-2385
▁Primitive	-2386
ConfigValue	-2387
▁JsonTypeInfo	-2388
KT	-2389
{}	-2390
SEC	-2391
▁no	-2392
Throw	-2393
Module	-2394
SECONDS	-2395
timizer	-2396
KTPacket	-2397
▁process	-2398
▁endpoint	-2399
PlcRequest	-2400
▁PlcValues	-2401
asticsearch	-2402
DefaultValue	-2403
7_	-2404
64:	-2405
qtt	-2406
▁};	-2407
atap	-2408
▁Tcp	-2409
Reten	-2410
camel	-2411
ifier	-2412
nings	-2413
ounds	-2414
.0.0.0	-2415
Modbus	-2416
andard	-2417
Connect	-2418
▁Socket	-2419
Charsets	-2420
Suppress	-2421
Warnings	-2422
areValue	-2423
atapoint	-2424
mmutable	-2425
▁ADDRESS	-2426
Retention	-2427
▁Parameter	-2428
▁arguments	-2429
andardCharsets	-2430
ParserSerializer	-2431
SuppressWarnings	-2432
Up	-2433
=2;	-2434
ACK	-2435
▁lo	-2436
host	-2437
Bound	-2438
apping	-2439
ulated	-2440
▁close	-2441
ctionKey	-2442
igEndian	-2443
▁addItem	-2444
amsHeader	-2445
readBytes	-2446
getAddress	-2447
DeleteDevice	-2448
EN	-2449
Out	-2450
ati	-2451
bac	-2452
fire	-2453
Level	-2454
QUEST	-2455
Network	-2456
handler	-2457
▁Pooled	-2458
isInstance	-2459
VariableLiteral	-2460
OP	-2461
vl	-2462
Amq	-2463
CES	-2464
KNX	-2465
PLC	-2466
VAR	-2467
YTE	-2468
[1]	-2469
{1,	-2470
▁12	-2471
▁\"	-2472
▁va	-2473
Dump	-2474
ases	-2475
cast	-2476
thon	-2477
▁CRC	-2478
▁BYTE	-2479
AmqCal	-2480
estamp	-2481
icImpl	-2482
lation	-2483
▁start	-2484
Matching	-2485
edObject	-2486
PlcDriver	-2487
▁AdsField	-2488
▁amsHeader	-2489
▁bitLength	-2490
ClassicImpl	-2491
ecutorService	-2492
encodeHexString	-2493
12	-2494
13	-2495
66	-2496
Io	-2497
df	-2498
xF	-2499
ain	-2500
num	-2501
ree	-2502
sim	-2503
way	-2504
wer	-2505
wri	-2506
▁8)	-2507
▁ta	-2508
ally	-2509
next	-2510
Codec	-2511
STATE	-2512
ULINT	-2513
andom	-2514
Access	-2515
Linked	-2516
RIGGER	-2517
actual	-2518
ateway	-2519
entity	-2520
▁visit	-2521
Success	-2522
TimeUnit	-2523
intValue	-2524
▁MAPPING	-2525
parameter	-2526
▁Internal	-2527
▁numberOf	-2528
▁quantity	-2529
indexGroup	-2530
▁statistics	-2531
DataTypePair	-2532
▁ModbusField	-2533
TriggeredImpl	-2534
▁getConnection	-2535
================	-2536
TimeoutException	-2537
Or	-2538
PON	-2539
Pre	-2540
eue	-2541
spl	-2542
▁"'	-2543
▁fe	-2544
ched	-2545
tent	-2546
▁100	-2547
Count	-2548
PONSE	-2549
ating	-2550
float	-2551
Active	-2552
socket	-2553
InBytes	-2554
Pipeline	-2555
Template	-2556
TpduSize	-2557
bacnetip	-2558
esponses	-2559
▁PlcLong	-2560
Condition	-2561
NullValue	-2562
▁testpoint	-2563
mmutablePair	-2564
notification	-2565
▁description	-2566
40	-2567
MP	-2568
SI	-2569
ASE	-2570
cre	-2571
(1);	-2572
caps	-2573
ists	-2574
main	-2575
}));	-2576
▁fin	-2577
Tests	-2578
Typed	-2579
ative	-2580
vider	-2581
000000	-2582
client	-2583
object	-2584
stants	-2585
▁FLOAT	-2586
▁param	-2587
TRIGGER	-2588
crement	-2589
pecParser	-2590
▁Executor	-2591
▁implemen	-2592
orrelation	-2593
▁AmsSerial	-2594
▁ByteValue	-2595
▁ReadBuffer	-2596
UnsignedShort	-2597
▁fragmentNumber	-2598
▁plcSubscription	-2599
-1	-2600
7,	-2601
UC	-2602
zl	-2603
NEC	-2604
PER	-2605
cat	-2606
hut	-2607
ven	-2608
UINT	-2609
Void	-2610
▁ede	-2611
(1));	-2612
Model	-2613
ested	-2614
split	-2615
state	-2616
Mapper	-2617
Runner	-2618
nector	-2619
▁valid	-2620
TIMEOUT	-2621
execute	-2622
timator	-2623
nerClass	-2624
▁scraper	-2625
▁support	-2626
isEqualTo	-2627
readShort	-2628
▁Abstract	-2629
BeforeEach	-2630
InetAddress	-2631
capsulation	-2632
▁parameters	-2633
ChannelConfig	-2634
plcConnection	-2635
▁SimulatedField	-2636
▁parserArguments	-2637
1/	-2638
};	-2639
(1,	-2640
0);	-2641
[]>	-2642
_18	-2643
dis	-2644
sup	-2645
▁"}	-2646
▁DO	-2647
BASE	-2648
valu	-2649
0000_	-2650
Netty	-2651
UDINT	-2652
▁must	-2653
ECONDS	-2654
Format	-2655
Matcher	-2656
sources	-2657
upplier	-2658
Exchange	-2659
readable	-2660
▁version	-2661
MILLISECONDS	-2662
MessageCodec	-2663
▁AdsDataType	-2664
▁implemented	-2665
ChannelOption	-2666
▁Notification	-2667
▁localAddress	-2668
▁LocalDateTime	-2669
▁plcReadResponse	-2670
":	-2671
3,	-2672
Es	-2673
dk	-2674
xy	-2675
(((	-2676
UTF	-2677
ged	-2678
▁'"	-2679
▁18	-2680
Open	-2681
down	-2682
fter	-2683
▁RET	-2684
▁dec	-2685
▁res	-2686
▁}*/	-2687
Opcua	-2688
actor	-2689
lease	-2690
vices	-2691
▁body	-2692
▁tags	-2693
▁term	-2694
Bounds	-2695
atible	-2696
remote	-2697
▁input	-2698
hutdown	-2699
lerType	-2700
parseInt	-2701
▁RETURNS	-2702
▁options	-2703
Attribute	-2704
▁Supplier	-2705
▁pipeline	-2706
PlcInvalid	-2707
testpointId	-2708
edObjectPool	-2709
Encapsulation	-2710
readableBytes	-2711
▁fieldHandler	-2712
".	-2713
0)	-2714
El	-2715
ib	-2716
Cau	-2717
Ref	-2718
[].	-2719
cur	-2720
ets	-2721
upC	-2722
▁00	-2723
▁as	-2724
▁ro	-2725
!");	-2726
▁-1;	-2727
▁266	-2728
▁KNX	-2729
▁all	-2730
ACKET	-2731
Topic	-2732
World	-2733
ymbol	-2734
▁BOOL	-2735
▁does	-2736
Atomic	-2737
PROPER	-2738
Parent	-2739
ifiers	-2740
AdsData	-2741
terator	-2742
▁BACnet	-2743
adsField	-2744
▁Element	-2745
ArrayList	-2746
▁Duration	-2747
▁registry	-2748
HelloWorld	-2749
mockDevice	-2750
▁AmsPacket	-2751
▁Arguments	-2752
▁Triggered	-2753
▁BigDecimal	-2754
▁Concurrent	-2755
LocalAddress	-2756
OutputStream	-2757
▁getProtocol	-2758
▁AdsReturnCode	-2759
stantExpression	-2760
▁assertMatching	-2761
ExpressionParser	-2762
▁DriverTestsuite	-2763
▁executorService	-2764
▁receiverAddress	-2765
.1	-2766
WN	-2767
})	-2768
▁J	-2769
)),	-2770
ALI	-2771
Bac	-2772
flu	-2773
ish	-2774
ods	-2775
firm	-2776
json	-2777
left	-2778
reem	-2779
▁Knx	-2780
▁Raw	-2781
▁cas	-2782
arker	-2783
▁send	-2784
▁stop	-2785
PACKET	-2786
ethods	-2787
firmed	-2788
future	-2789
schema	-2790
toList	-2791
▁DWORD	-2792
Require	-2793
element	-2794
loating	-2795
▁failed	-2796
▁session	-2797
Estimator	-2798
TCPPacket	-2799
itializer	-2800
reemarker	-2801
tedValues	-2802
▁plcField	-2803
VarRequest	-2804
▁connected	-2805
▁exception	-2806
MSpecParser	-2807
▁assertByte	-2808
0:	-2809
:\	-2810
("1	-2811
COM	-2812
air	-2813
ede	-2814
ive	-2815
ous	-2816
sdk	-2817
▁ch	-2818
111:	-2819
calc	-2820
flux	-2821
USINT	-2822
cover	-2823
ptive	-2824
▁coun	-2825
Thrown	-2826
decode	-2827
▁pAddr	-2828
Digital	-2829
ocument	-2830
service	-2831
toArray	-2832
▁DOUBLE	-2833
▁scrape	-2834
▁Command	-2835
Throwable	-2836
▁requests	-2837
definition	-2838
escriptive	-2839
▁bootstrap	-2840
▁serialize	-2841
PlcResponse	-2842
▁AdsAbstract	-2843
▁stringValues	-2844
MessageRequest	-2845
ReceiverAddress	-2846
▁PlcProprietary	-2847
Has	-2848
Tim	-2849
raw	-2850
ron	-2851
▁up	-2852
()),	-2853
BOOL	-2854
Body	-2855
Scal	-2856
plic	-2857
▁255	-2858
▁Cip	-2859
▁ent	-2860
▁tmp	-2861
ATION	-2862
Tasks	-2863
ether	-2864
sleep	-2865
▁Enum	-2866
▁open	-2867
Layout	-2868
Router	-2869
Scalar	-2870
Single	-2871
TsapId	-2872
modbus	-2873
number	-2874
▁block	-2875
▁enter	-2876
default	-2877
▁Binary	-2878
.255.255	-2879
BaseType	-2880
▁receive	-2881
Scheduled	-2882
amsPacket	-2883
emptyList	-2884
substring	-2885
ScalarTypes	-2886
definitions	-2887
▁notNullValue	-2888
LengthSupplier	-2889
ToMessageCodec	-2890
▁DirectAdsField	-2891
56	-2892
▁)	-2893
Ack	-2894
Def	-2895
Num	-2896
dev	-2897
▁bo	-2898
Area	-2899
CHAR	-2900
Enip	-2901
getP	-2902
getIn	-2903
▁WORD	-2904
▁wrap	-2905
<>());	-2906
CONNEC	-2907
OfLast	-2908
Unsafe	-2909
unwrap	-2910
▁alias	-2911
▁first	-2912
Process	-2913
ategory	-2914
▁Builder	-2915
▁fieldId	-2916
▁plcList	-2917
AmsPacket	-2918
PlcEntity	-2919
plication	-2920
xProtocol	-2921
▁testcase	-2922
jorVersion	-2923
shortValue	-2924
OfLastBlock	-2925
RequestItem	-2926
xProtocolBase	-2927
therNetIpField	-2928
▁ChannelFuture	-2929
▁SocketAddress	-2930
ymbolicAdsField	-2931
▁plcReadRequest	-2932
>\\	-2933
Fet	-2934
KNO	-2935
edg	-2936
ity	-2937
uct	-2938
▁<<	-2939
▁ac	-2940
(1),	-2941
00);	-2942
anno	-2943
copy	-2944
from	-2945
sign	-2946
▁Ser	-2947
▁Set	-2948
▁mod	-2949
▁val	-2950
KNOWN	-2951
hould	-2952
index	-2953
uring	-2954
▁link	-2955
▁tdpu	-2956
ERVICE	-2957
edgent	-2958
python	-2959
reader	-2960
HexDump	-2961
Registry	-2962
ThrownBy	-2963
emoryArea	-2964
getObject	-2965
annotations	-2966
isInstanceOf	-2967
loatingPoint	-2968
Exceptionally	-2969
ParameterItem	-2970
▁castedValues	-2971
SimulatedField	-2972
▁entityManager	-2973
NetworkInterface	-2974
(@	-2975
54	-2976
OF	-2977
}'	-2978
("/	-2979
IGN	-2980
ags	-2981
lot	-2982
mit	-2983
▁Ad	-2984
80::	-2985
Cast	-2986
[]{0	-2987
ater	-2988
imit	-2989
lers	-2990
mpor	-2991
nifi	-2992
rich	-2993
▁));	-2994
▁Get	-2995
▁man	-2996
IGNED	-2997
ender	-2998
visit	-2999
▁DINT	-3000
▁fail	-3001
mporal	-3002
nowled	-3003
Example	-3004
NSIGNED	-3005
Duration	-3006
astTests	-3007
internal	-3008
▁contain	-3009
▁hasSize	-3010
Functions	-3011
Subscribe	-3012
getFields	-3013
getSimple	-3014
assertThat	-3015
getMessage	-3016
witchField	-3017
▁LocalTime	-3018
▁addressFn	-3019
containsKey	-3020
▁numElements	-3021
getSimpleName	-3022
▁PlcException	-3023
StateException	-3024
▁AtomicInteger	-3025
▁booleanValues	-3026
▁remoteAddress	-3027
▁MockConnection	-3028
▁endOfLastBlock	-3029
HasConfiguration	-3030
▁ReceiverAddress	-3031
OB	-3032
US	-3033
[2	-3034
max	-3035
▁UN	-3036
▁te	-3037
MPTY	-3038
ToBe	-3039
True	-3040
[0];	-3041
file	-3042
igin	-3043
olve	-3044
▁CIP	-3045
FLOAT	-3046
dummy	-3047
▁SINT	-3048
▁list	-3049
▁task	-3050
10.10.	-3051
Incomp	-3052
covery	-3053
duSize	-3054
expect	-3055
olling	-3056
▁dummy	-3057
▁match	-3058
firmata	-3059
▁parent	-3060
Selector	-3061
entrySet	-3062
ttenData	-3063
FastTests	-3064
bEthField	-3065
▁maxValue	-3066
▁minValue	-3067
▁userData	-3068
▁subscriber	-3069
Incompatible	-3070
▁constructor	-3071
▁FirmataField	-3072
EventLoopGroup	-3073
▁FragmentNumber	-3074
FA	-3075
▁G	-3076
100	-3077
ONE	-3078
Seg	-3079
URI	-3080
Uri	-3081
xff	-3082
▁Co	-3083
▁st	-3084
<?>>	-3085
COTP	-3086
Left	-3087
Mask	-3088
jobs	-3089
lish	-3090
ures	-3091
▁1);	-3092
▁tim	-3093
LWORD	-3094
QName	-3095
▁REAL	-3096
▁getS	-3097
Nested	-3098
Record	-3099
Instant	-3100
checked	-3101
▁Option	-3102
Category	-3103
Messages	-3104
▁jobName	-3105
bitLength	-3106
▁encoding	-3107
▁supplier	-3108
Annotation	-3109
Comparator	-3110
references	-3111
▁Transport	-3112
▁getLength	-3113
indexOffset	-3114
JsonConsumer	-3115
WriteControl	-3116
ProtocolLogic	-3117
▁littleEndian	-3118
ChannelHandler	-3119
▁responseItems	-3120
▁wrappedBuffer	-3121
EmbeddedChannel	-3122
▁userDataLength	-3123
4,	-3124
5.	-3125
2);	-3126
Can	-3127
Tri	-3128
crc	-3129
dle	-3130
}';	-3131
(0),	-3132
args	-3133
coun	-3134
licy	-3135
path	-3136
▁ref	-3137
First	-3138
Flush	-3139
hedul	-3140
offer	-3141
super	-3142
▁'}';	-3143
▁getM	-3144
Policy	-3145
adding	-3146
orrupt	-3147
Enabled	-3148
Fetched	-3149
context	-3150
▁Single	-3151
▁bitSet	-3152
▁expect	-3153
▁getter	-3154
Language	-3155
irectory	-3156
pipeline	-3157
plcValue	-3158
▁Matcher	-3159
▁UNKNOWN	-3160
▁comPort	-3161
▁counter	-3162
▁handler	-3163
Extension	-3164
TcpHeader	-3165
processor	-3166
subscribe	-3167
▁function	-3168
▁variable	-3169
PROPERTIES	-3170
isReadable	-3171
▁bigEndian	-3172
▁testField	-3173
Application	-3174
▁innerClass	-3175
assertThrows	-3176
getParameter	-3177
driverManager	-3178
IllegalArgument	-3179
TimeoutConsumer	-3180
2:	-3181
4:	-3182
6,	-3183
='	-3184
Fa	-3185
pr	-3186
1",	-3187
BIT	-3188
uid	-3189
▁oc	-3190
()){	-3191
Keys	-3192
mode	-3193
▁PLC	-3194
▁dev	-3195
())).	-3196
codec	-3197
dWith	-3198
tuple	-3199
▁Enip	-3200
▁LINT	-3201
AmsNet	-3202
Assign	-3203
Caught	-3204
SetupC	-3205
System	-3206
alRead	-3207
atomic	-3208
iginal	-3209
stanti	-3210
static	-3211
▁QName	-3212
▁UDINT	-3213
▁array	-3214
▁queue	-3215
▁setUp	-3216
▁types	-3217
Content	-3218
PDURead	-3219
Outbound	-3220
Password	-3221
Provider	-3222
Subtypes	-3223
▁complex	-3224
Bootstrap	-3225
getAsLong	-3226
▁Unpooled	-3227
Concurrent	-3228
ExtendWith	-3229
▁PlcString	-3230
ElementList	-3231
description	-3232
stringBytes	-3233
readUnsigned	-3234
singletonMap	-3235
▁localAmsNet	-3236
▁writeBuffer	-3237
elasticsearch	-3238
▁registration	-3239
▁LinkedHashMap	-3240
▁requestTimeout	-3241
registerSubtypes	-3242
1);	-3243
NET	-3244
STE	-3245
foo	-3246
ilo	-3247
▁1,	-3248
▁>=	-3249
▁SY	-3250
▁TP	-3251
▁tm	-3252
(4);	-3253
Anal	-3254
Calc	-3255
LIAS	-3256
Stop	-3257
getA	-3258
proj	-3259
{1,3	-3260
▁Uns	-3261
▁was	-3262
Limit	-3263
cases	-3264
ultip	-3265
▁jobs	-3266
Analog	-3267
Params	-3268
Pooled	-3269
dField	-3270
option	-3271
▁ALIAS	-3272
▁LREAL	-3273
▁ULINT	-3274
▁USINT	-3275
▁allow	-3276
example	-3277
timeout	-3278
▁Number	-3279
Modifier	-3280
TypeName	-3281
▁Instant	-3282
connected	-3283
isNotNull	-3284
▁EipField	-3285
▁Protocol	-3286
▁eipField	-3287
▁outbound	-3288
▁Connection	-3289
▁TPKTPacket	-3290
▁comparator	-3291
UserDataItem	-3292
▁AdsAddDevice	-3293
▁DataTypePair	-3294
UnsignedBounds	-3295
vocationTarget	-3296
KeyedObjectPool	-3297
getResponseCode	-3298
▁PlcUnsupported	-3299
▁AdsDeleteDevice	-3300
03	-3301
>[	-3302
RP	-3303
fy	-3304
▁5	-3305
AST	-3306
CHE	-3307
DAY	-3308
_16	-3309
lip	-3310
▁Po	-3311
▁},	-3312
ANCE	-3313
COMM	-3314
FAUL	-3315
Text	-3316
unic	-3317
▁Max	-3318
▁any	-3319
dices	-3320
▁Pool	-3321
▁decl	-3322
ansfer	-3323
ponent	-3324
server	-3325
writer	-3326
MAPPING	-3327
PoolKey	-3328
heduler	-3329
▁actual	-3330
▁record	-3331
ToString	-3332
examples	-3333
generate	-3334
▁example	-3335
ByteArray	-3336
imulation	-3337
unchecked	-3338
valueType	-3339
▁Interrup	-3340
DeviceInfo	-3341
ReadBuffer	-3342
▁LocalDate	-3343
ScraperImpl	-3344
▁PlcBoolean	-3345
▁dummyField	-3346
.255.255.255	-3347
groupAddress	-3348
▁JsonCreator	-3349
▁WriteBuffer	-3350
▁WriteLength	-3351
▁destination	-3352
▁encodeShort	-3353
▁StringBuilder	-3354
▁assertNotNull	-3355
plcSubscription	-3356
▁ChannelPromise	-3357
▁authentication	-3358
DF	-3359
db	-3360
(",	-3361
Cip	-3362
OUR	-3363
Szl	-3364
UID	-3365
ken	-3366
ome	-3367
▁64	-3368
▁{\	-3369
?");	-3370
Such	-3371
itor	-3372
▁16)	-3373
FAULT	-3374
eclip	-3375
exten	-3376
input	-3377
tamps	-3378
tings	-3379
▁base	-3380
▁root	-3381
ByName	-3382
RRData	-3383
Struct	-3384
olding	-3385
onitor	-3386
HashSet	-3387
REQUEST	-3388
eclipse	-3389
getCode	-3390
knxproj	-3391
ultiple	-3392
▁Config	-3393
▁getAll	-3394
▁should	-3395
▁status	-3396
ByteSize	-3397
Optional	-3398
instance	-3399
▁Unknown	-3400
▁getType	-3401
Connector	-3402
byteValue	-3403
getResult	-3404
getSource	-3405
unication	-3406
LinkedList	-3407
NotImplemen	-3408
CompareValue	-3409
▁DeviceState	-3410
▁lastFetched	-3411
▁requestItem	-3412
Discriminator	-3413
SizeEstimator	-3414
SocketChannel	-3415
fieldInternal	-3416
AccessException	-3417
ResponseMessage	-3418
newJsonConsumer	-3419
▁UserDataLength	-3420
ExpressionString	-3421
)0	-3422
Ne	-3423
bo	-3424
(\\	-3425
)",	-3426
3);	-3427
RUC	-3428
_0)	-3429
hex	-3430
▁),	-3431
▁To	-3432
(2);	-3433
IGRP	-3434
INST	-3435
RRAY	-3436
RUCT	-3437
ates	-3438
milo	-3439
▁net	-3440
Empty	-3441
INTER	-3442
alias	-3443
{1,3}	-3444
▁node	-3445
copyOf	-3446
record	-3447
▁ARRAY	-3448
PlcList	-3449
calcite	-3450
catType	-3451
▁during	-3452
Expected	-3453
HashCode	-3454
RESPONSE	-3455
UNSIGNED	-3456
Unpooled	-3457
▁PoolKey	-3458
Confirmed	-3459
Datatypes	-3460
Protected	-3461
extension	-3462
getString	-3463
▁Optional	-3464
▁adsState	-3465
TypedLogic	-3466
atedDriver	-3467
▁testsuite	-3468
IdFieldName	-3469
transaction	-3470
▁ReadLength	-3471
▁SampleSize	-3472
SelectionKey	-3473
▁Unsupported	-3474
▁jobReference	-3475
oldingRegister	-3476
▁PcapException	-3477
PropertyBuilder	-3478
toAdsReturnCode	-3479
TypedLogicalRead	-3480
connectionString	-3481
▁PlcIncompatible	-3482
06	-3483
24	-3484
CU	-3485
My	-3486
po	-3487
=1,	-3488
NOT	-3489
dom	-3490
▁"-	-3491
▁"/	-3492
▁'\	-3493
▁As	-3494
Jobs	-3495
loop	-3496
peed	-3497
AndIn	-3498
Table	-3499
terms	-3500
▁Line	-3501
▁cotp	-3502
▁pcap	-3503
DataEn	-3504
Expect	-3505
▁ether	-3506
▁opcua	-3507
Written	-3508
ousMode	-3509
INSTANCE	-3510
getAndIn	-3511
perBound	-3512
peration	-3513
richment	-3514
▁AdsData	-3515
Component	-3516
resultSet	-3517
valuation	-3518
▁UserData	-3519
ArrayField	-3520
ConfigKeys	-3521
▁PlcDouble	-3522
▁PlcDriver	-3523
ScraperTask	-3524
doubleValue	-3525
toHexString	-3526
▁AtomicLong	-3527
▁DataLength	-3528
▁DefaultPlc	-3529
ListSupplier	-3530
assertEquals	-3531
IndexInternal	-3532
ChannelPromise	-3533
Configurations	-3534
ControllerType	-3535
DataEnrichment	-3536
sourceAmsNetId	-3537
getAndIncrement	-3538
ScraperException	-3539
▁255.255.255.255	-3540
▁UnsupportedOper	-3541
(5	-3542
CI	-3543
.",	-3544
01,	-3545
Big	-3546
LOC	-3547
Pin	-3548
[2]	-3549
bar	-3550
com	-3551
erc	-3552
que	-3553
ute	-3554
});	-3555
▁+=	-3556
▁PO	-3557
▁fl	-3558
(0).	-3559
SCHE	-3560
abel	-3561
back	-3562
ight	-3563
iver	-3564
last	-3565
open	-3566
tdpu	-3567
▁Ede	-3568
▁SUB	-3569
(10);	-3570
Child	-3571
NetIP	-3572
RANGE	-3573
ategy	-3574
yclic	-3575
▁Base	-3576
▁ENUM	-3577
▁only	-3578
bitSet	-3579
prefix	-3580
▁Valid	-3581
▁empty	-3582
options	-3583
▁STRUCT	-3584
▁finish	-3585
▁reader	-3586
--------	-3587
AndFlush	-3588
Document	-3589
Metadata	-3590
Specific	-3591
▁POINTER	-3592
▁Samples	-3593
Directory	-3594
simulated	-3595
▁MaxDelay	-3596
▁exchange	-3597
▁ofMethod	-3598
Disconnect	-3599
Evaluation	-3600
PacketData	-3601
invocation	-3602
▁CycleTime	-3603
▁Execution	-3604
magicCookie	-3605
▁PcapReplay	-3606
▁getDefault	-3607
▁properties	-3608
▁MagicCookie	-3609
▁PlcResponse	-3610
ScrapeJobImpl	-3611
writeAndFlush	-3612
authentication	-3613
▁PlcSubscriber	-3614
RetentionPolicy	-3615
▁channelFactory	-3616
▁unsubscription	-3617
▁AdsWriteControl	-3618
▁opcuaConnection	-3619
If	-3620
cy	-3621
gr	-3622
.55	-3623
168	-3624
Knx	-3625
One	-3626
TIM	-3627
\":	-3628
ait	-3629
eds	-3630
ply	-3631
pop	-3632
unc	-3633
▁{0	-3634
)");	-3635
.211	-3636
alog	-3637
prec	-3638
rity	-3639
▁RES	-3640
▁yet	-3641
2.168	-3642
Check	-3643
block	-3644
cause	-3645
nable	-3646
unnel	-3647
▁exit	-3648
Binary	-3649
Cannot	-3650
Getter	-3651
quired	-3652
▁SYSTE	-3653
▁boxed	-3654
▁topic	-3655
.211.55	-3656
maining	-3657
▁Schema	-3658
Settings	-3659
Username	-3660
▁Timeout	-3661
▁gateway	-3662
▁reading	-3663
AmqCallee	-3664
IpAddress	-3665
Operation	-3666
Optimizer	-3667
▁getValue	-3668
ThreadPool	-3669
▁10.211.55	-3670
▁Executors	-3671
▁GetRouter	-3672
▁enipField	-3673
▁supported	-3674
▁transport	-3675
StringUtils	-3676
readerIndex	-3677
▁correlated	-3678
▁scrapeRate	-3679
ommunication	-3680
ulatedLength	-3681
▁InetAddress	-3682
▁correlation	-3683
▁deviceState	-3684
sourceAmsPort	-3685
targetAmsPort	-3686
▁ObjectMapper	-3687
▁ImmutablePair	-3688
ExecutorService	-3689
getLengthInBytes	-3690
▁readRequestItem	-3691
**	-3692
CS	-3693
FO	-3694
Nb	-3695
UP	-3696
▁X	-3697
'",	-3698
.\\	-3699
<?,	-3700
Pad	-3701
aml	-3702
apt	-3703
cel	-3704
sed	-3705
▁24	-3706
▁vl	-3707
CESS	-3708
LEAN	-3709
Runs	-3710
That	-3711
date	-3712
getN	-3713
imum	-3714
ping	-3715
push	-3716
utun	-3717
▁32)	-3718
▁Bac	-3719
▁Ets	-3720
▁pin	-3721
000);	-3722
Deque	-3723
Kafka	-3724
Produ	-3725
aByte	-3726
izing	-3727
▁bits	-3728
▁exce	-3729
▁host	-3730
▁sele	-3731
Deprec	-3732
Invoke	-3733
OOLEAN	-3734
dicate	-3735
getAll	-3736
ivered	-3737
submit	-3738
▁doesn	-3739
Pending	-3740
etected	-3741
xSchema	-3742
xSource	-3743
▁Packet	-3744
MSERVICE	-3745
consumer	-3746
invokeId	-3747
quantity	-3748
unneling	-3749
▁ADSIGRP	-3750
▁inbound	-3751
▁valueFn	-3752
AmqCaller	-3753
EntryNode	-3754
StateMask	-3755
liOptions	-3756
localhost	-3757
testsuite	-3758
Deprecated	-3759
▁Simulated	-3760
▁TimeStamp	-3761
▁valueType	-3762
CommandType	-3763
WriteBuffer	-3764
▁PlcRequest	-3765
▁fieldValue	-3766
FormatParser	-3767
NetIPMessage	-3768
▁sendRequest	-3769
PacketHandler	-3770
PlcSubscriber	-3771
RequestResult	-3772
▁AdsReadState	-3773
▁PlcFunctions	-3774
expectResponse	-3775
▁LineEntryNode	-3776
▁ModbusPDURead	-3777
▁packetConsumer	-3778
MockitoExtension	-3779
xEmbeddedChannel	-3780
▁expectedSuccess	-3781
6:	-3782
:/	-3783
Com	-3784
Fin	-3785
Hop	-3786
Req	-3787
Too	-3788
UND	-3789
VLC	-3790
eip	-3791
eri	-3792
nec	-3793
src	-3794
tmp	-3795
▁Ch	-3796
▁No	-3797
▁es	-3798
Case	-3799
Head	-3800
This	-3801
allo	-3802
gram	-3803
repl	-3804
tags	-3805
▁Dis	-3806
7.0.0	-3807
After	-3808
Could	-3809
iddle	-3810
param	-3811
▁Mqtt	-3812
▁safe	-3813
Change	-3814
uccess	-3815
▁aByte	-3816
▁found	-3817
▁least	-3818
▁other	-3819
Headers	-3820
Inbound	-3821
Mapping	-3822
charset	-3823
poolKey	-3824
replace	-3825
tractor	-3826
▁Stamps	-3827
▁schema	-3828
10.10.64	-3829
Iterator	-3830
getChild	-3831
outbound	-3832
ualField	-3833
Acknowled	-3834
Constants	-3835
getStatus	-3836
▁KnxNetIp	-3837
▁canWrite	-3838
.0.0.0.0.0	-3839
FieldNames	-3840
VarPayload	-3841
▁className	-3842
▁cycleTime	-3843
AdsProtocol	-3844
▁Correlated	-3845
▁identifier	-3846
StampHeaders	-3847
▁Descriptive	-3848
AliasRegistry	-3849
ChannelFuture	-3850
fireException	-3851
▁Subscription	-3852
AdsCommandType	-3853
ServiceRequest	-3854
TagApplication	-3855
▁SYSTEMSERVICE	-3856
▁driverContext	-3857
▁receiveHandle	-3858
▁resultHandler	-3859
▁triggerConfig	-3860
TestsuiteRunner	-3861
▁SingleProtocol	-3862
UsernamePassword	-3863
▁AdsWriteRequest	-3864
(8	-3865
1)	-3866
4.	-3867
SY	-3868
TO	-3869
[3	-3870
ps	-3871
sa	-3872
▁/	-3873
(-1	-3874
(13	-3875
01:	-3876
INV	-3877
Lib	-3878
Pri	-3879
VER	-3880
[0-	-3881
emi	-3882
gle	-3883
▁11	-3884
▁UH	-3885
▁bi	-3886
▁ff	-3887
▁})	-3888
1111	-3889
:(?<	-3890
ALID	-3891
Bean	-3892
Coil	-3893
Fail	-3894
Pojo	-3895
QUAL	-3896
Rack	-3897
Sync	-3898
Wrap	-3899
base	-3900
erms	-3901
iven	-3902
rong	-3903
term	-3904
▁").	-3905
▁cal	-3906
▁col	-3907
▁raw	-3908
Close	-3909
ERROR	-3910
Equal	-3911
Steps	-3912
abeth	-3913
crete	-3914
oogle	-3915
▁Code	-3916
▁Pojo	-3917
▁left	-3918
▁same	-3919
Either	-3920
Exists	-3921
ackage	-3922
ations	-3923
binary	-3924
events	-3925
exists	-3926
getPlc	-3927
ilable	-3928
issing	-3929
mUtils	-3930
random	-3931
resent	-3932
ublish	-3933
▁Dummy	-3934
▁EMPTY	-3935
▁Split	-3936
COMMAND	-3937
INVALID	-3938
Support	-3939
ableSup	-3940
equalTo	-3941
getArgs	-3942
DataItem	-3943
Disabled	-3944
EipField	-3945
FilePath	-3946
Quantity	-3947
▁Mockito	-3948
HexDumper	-3949
XEndpoint	-3950
writeLine	-3951
▁writable	-3952
IntervalMs	-3953
TPKTPacket	-3954
identifier	-3955
▁Scheduled	-3956
▁TcpLength	-3957
▁configure	-3958
▁enableSup	-3959
▁namespace	-3960
▁testcases	-3961
ElementType	-3962
IntFunction	-3963
SerialFrame	-3964
isConnected	-3965
readRequest	-3966
▁ByteBuffer	-3967
▁CliOptions	-3968
▁assignable	-3969
▁getAdsData	-3970
integerValue	-3971
▁SplitConfig	-3972
AtomicInteger	-3973
ExpectRequest	-3974
ImmutablePair	-3975
▁booleanValue	-3976
▁readResponse	-3977
▁responseCode	-3978
HoldingRegister	-3979
sourceFieldName	-3980
▁clientDatatype	-3981
AdsNotificationS	-3982
CalculatedLength	-3983
▁plcWriteRequest	-3984
,5	-3985
3:	-3986
>)	-3987
NT	-3988
▁6	-3989
(0)	-3990
,()	-3991
10:	-3992
CIP	-3993
Ets	-3994
Got	-3995
LER	-3996
Rem	-3997
SET	-3998
[3]	-3999
cle	-4000
del	-4001
lab	-4002
opm	-4003
tty	-4004
urz	-4005
vey	-4006
▁..	-4007
▁2,	-4008
▁ip	-4009
▁ne	-4010
.254	-4011
7://	-4012
NPDU	-4013
Slot	-4014
Spec	-4015
UInt	-4016
aces	-4017
cond	-4018
ence	-4019
enum	-4020
hash	-4021
odes	-4022
pare	-4023
user	-4024
▁"";	-4025
▁8),	-4026
▁CON	-4027
▁Man	-4028
▁Res	-4029
▁del	-4030
▁log	-4031
▁tcp	-4032
Fixed	-4033
Flags	-4034
Right	-4035
iring	-4036
rever	-4037
veyor	-4038
▁dump	-4039
ceptor	-4040
starts	-4041
▁"'");	-4042
▁Input	-4043
▁World	-4044
Contain	-4045
Remover	-4046
assertj	-4047
getList	-4048
istance	-4049
promise	-4050
reverse	-4051
BacNetIp	-4052
imulator	-4053
unsigned	-4054
▁REQUEST	-4055
▁canRead	-4056
▁execute	-4057
▁handles	-4058
▁outputD	-4059
▁parsing	-4060
Testpoint	-4061
iginalPlc	-4062
▁ADSSTATE	-4063
▁buildADS	-4064
▁validate	-4065
ArrayUtils	-4066
ByteBuffer	-4067
creteInput	-4068
criminated	-4069
hasMessage	-4070
startsWith	-4071
▁RawSocket	-4072
▁byteArray	-4073
▁getString	-4074
▁reference	-4075
▁responses	-4076
Interceptor	-4077
TriggerType	-4078
fieldString	-4079
newInstance	-4080
newSupplier	-4081
▁AmsRequest	-4082
▁OpcuaField	-4083
DataTypeCode	-4084
enderContext	-4085
writeRequest	-4086
▁PlcConsumer	-4087
▁ScraperTask	-4088
▁magicCookie	-4089
getAnnotation	-4090
FirmataMessage	-4091
atedDriverBase	-4092
triggerhandler	-4093
▁COTPParameter	-4094
▁UnsignedShort	-4095
▁sessionHandle	-4096
PlcFieldRequest	-4097
▁directAdsField	-4098
▁plcProprietary	-4099
▁triggerElement	-4100
▁ExecutorService	-4101
05	-4102
71	-4103
72	-4104
DW	-4105
KA	-4106
])	-4107
bs	-4108
do	-4109
pf	-4110
wo	-4111
▁\	-4112
/32	-4113
00:	-4114
4);	-4115
:13	-4116
ADU	-4117
Any	-4118
Crc	-4119
LEN	-4120
ank	-4121
ano	-4122
cer	-4123
▁"\	-4124
▁8;	-4125
▁If	-4126
ATER	-4127
Else	-4128
HOST	-4129
Send	-4130
find	-4131
rono	-4132
uess	-4133
▁Add	-4134
▁Job	-4135
▁nif	-4136
Async	-4137
EQUAL	-4138
Files	-4139
Token	-4140
\\.\\	-4141
endar	-4142
faces	-4143
tissa	-4144
▁")";	-4145
▁1000	-4146
Blocks	-4147
Helper	-4148
Static	-4149
TcpADU	-4150
aClass	-4151
addAll	-4152
assive	-4153
google	-4154
nement	-4155
output	-4156
simple	-4157
utures	-4158
▁Alias	-4159
▁after	-4160
▁flush	-4161
▁getAs	-4162
▁getIn	-4163
JobName	-4164
PinMode	-4165
Polling	-4166
Segment	-4167
Wrapper	-4168
aryTerm	-4169
geFrame	-4170
mplates	-4171
pecting	-4172
▁Server	-4173
Identity	-4174
Reserved	-4175
Strategy	-4176
Temporal	-4177
encoding	-4178
numberOf	-4179
ronoUnit	-4180
▁Complex	-4181
▁PinMode	-4182
▁digital	-4183
▁exceeds	-4184
▁factory	-4185
▁initial	-4186
▁manager	-4187
▁service	-4188
00000000_	-4189
ClazzName	-4190
Responses	-4191
Serialize	-4192
rawsocket	-4193
▁Reserved	-4194
▁callable	-4195
▁commands	-4196
▁messages	-4197
Interfaces	-4198
expression	-4199
▁MessageIO	-4200
▁attribute	-4201
▁lastBlock	-4202
ajorVersion	-4203
inorVersion	-4204
sendRequest	-4205
▁getRequest	-4206
▁instanceOf	-4207
OPMException	-4208
jobReference	-4209
▁declaration	-4210
▁expectClazz	-4211
▁getNumberOf	-4212
AdapterStream	-4213
▁canSubscribe	-4214
▁ChannelOption	-4215
▁SerialChannel	-4216
▁checkConsumer	-4217
ChannelPipeline	-4218
▁AdsStampHeader	-4219
▁AmsSerialFrame	-4220
▁LengthSupplier	-4221
▁lengthSupplier	-4222
AcknowledgeFrame	-4223
EvaluationResult	-4224
nementExpression	-4225
▁EtherNetIpField	-4226
▁PlcFieldHandler	-4227
▁littleEndianMap	-4228
''	-4229
(6	-4230
20	-4231
50	-4232
Df	-4233
ML	-4234
_8	-4235
▁x	-4236
("\	-4237
0,(	-4238
553	-4239
64,	-4240
='"	-4241
EIP	-4242
Ede	-4243
Ops	-4244
SER	-4245
hen	-4246
ify	-4247
▁"{	-4248
▁2;	-4249
▁Um	-4250
▁df	-4251
▁it	-4252
("\"	-4253
:///	-4254
MENT	-4255
NONE	-4256
NULL	-4257
Only	-4258
Rest	-4259
_1);	-4260
etch	-4261
expr	-4262
mqtt	-4263
some	-4264
ynch	-4265
▁2);	-4266
▁Tag	-4267
▁Tim	-4268
,50,(	-4269
IdMap	-4270
Label	-4271
PcapN	-4272
clear	-4273
ready	-4274
rting	-4275
stack	-4276
xFFFF	-4277
▁'\''	-4278
▁Pair	-4279
▁With	-4280
▁json	-4281
▁load	-4282
Parsed	-4283
logger	-4284
quence	-4285
sumers	-4286
ulator	-4287
verify	-4288
▁proxy	-4289
7.0.0.1	-4290
DEFAULT	-4291
Failure	-4292
Resolve	-4293
Sending	-4294
Session	-4295
WSTRING	-4296
digital	-4297
wrapper	-4298
ynchron	-4299
LoopType	-4300
channels	-4301
ingQueue	-4302
mpletion	-4303
▁AdsSync	-4304
▁element	-4305
▁getByte	-4306
▁getData	-4307
▁methods	-4308
▁pduSize	-4309
▁poolKey	-4310
optimizer	-4311
reference	-4312
▁Argument	-4313
▁Embedded	-4314
▁PlcFloat	-4315
▁RESPONSE	-4316
▁intValue	-4317
▁supports	-4318
FieldValue	-4319
OpcuaField	-4320
Processing	-4321
▁PlcWriter	-4322
▁byteValue	-4323
▁condition	-4324
▁consumers	-4325
▁datapoint	-4326
▁getObject	-4327
▁maxLength	-4328
▁modifiers	-4329
▁subscribe	-4330
AdapterTest	-4331
IoException	-4332
PlcProtocol	-4333
getQuantity	-4334
▁MockDevice	-4335
▁expression	-4336
▁freemarker	-4337
MethodSource	-4338
PendingTasks	-4339
PlcException	-4340
▁writtenData	-4341
Discriminated	-4342
getParameters	-4343
▁innerClasses	-4344
▁simpleString	-4345
WithAssertions	-4346
assiveBacNetIp	-4347
lengthSupplier	-4348
imulationModule	-4349
▁AdsReadRequest	-4350
▁WithAssertions	-4351
▁adsStampHeader	-4352
SymbolicAdsField	-4353
payloadClazzName	-4354
▁getProtocolName	-4355
):	-4356
1\	-4357
28	-4358
43	-4359
7-	-4360
>,	-4361
Ar	-4362
PT	-4363
_4	-4364
qn	-4365
▁j	-4366
()[	-4367
.40	-4368
32_	-4369
AMS	-4370
RET	-4371
SYM	-4372
Use	-4373
_00	-4374
ere	-4375
hel	-4376
iff	-4377
otp	-4378
ple	-4379
▁Df	-4380
▁my	-4381
Func	-4382
INET	-4383
LOAD	-4384
Mqtt	-4385
amic	-4386
defi	-4387
resh	-4388
send	-4389
tify	-4390
when	-4391
▁(((	-4392
▁obj	-4393
▁str	-4394
LREAL	-4395
Range	-4396
Start	-4397
ercen	-4398
other	-4399
toMap	-4400
▁READ	-4401
▁find	-4402
▁text	-4403
AndGet	-4404
CATION	-4405
DEVICE	-4406
Memory	-4407
Remote	-4408
Symbol	-4409
TooBig	-4410
ardown	-4411
getSub	-4412
ynamic	-4413
▁Queue	-4414
▁given	-4415
▁occur	-4416
▁query	-4417
▁terms	-4418
CONNECT	-4419
Present	-4420
addLast	-4421
jobName	-4422
plcList	-4423
registr	-4424
▁remove	-4425
TestStep	-4426
gedField	-4427
iterator	-4428
reserved	-4429
sRequest	-4430
typeNode	-4431
▁Generic	-4432
▁INTEGER	-4433
▁TagData	-4434
▁getLong	-4435
AdsDevice	-4436
Expecting	-4437
readValue	-4438
▁DefaultS	-4439
▁Validate	-4440
▁handlers	-4441
▁reserved	-4442
iddleGroup	-4443
processors	-4444
▁adsSerial	-4445
▁edeLayout	-4446
▁resultSet	-4447
ModbusField	-4448
VarResponse	-4449
getDatatype	-4450
getInstance	-4451
getPlcField	-4452
getProtocol	-4453
▁ArrayUtils	-4454
▁CodeWriter	-4455
▁EnipPacket	-4456
▁FieldUtils	-4457
▁annotation	-4458
▁assertTrue	-4459
▁bigInteger	-4460
▁unregister	-4461
ByteReadable	-4462
FirmataField	-4463
▁connections	-4464
▁createField	-4465
▁initializer	-4466
.0.0.0.0.0:13	-4467
DiscreteInput	-4468
HostException	-4469
InputRegister	-4470
addressString	-4471
booleanValues	-4472
crementAndGet	-4473
▁AmsTCPPacket	-4474
▁serverSocket	-4475
getProprietary	-4476
mockConnection	-4477
plcProprietary	-4478
▁errorConsumer	-4479
▁getBigInteger	-4480
EtherNetIpField	-4481
IntDefaultValue	-4482
plcReadResponse	-4483
▁ChannelHandler	-4484
ExceptionHandler	-4485
▁AdsReadResponse	-4486
▁embeddedChannel	-4487
▁getProtocolCode	-4488
!=	-4489
.3	-4490
2)	-4491
:"	-4492
DI	-4493
IC	-4494
SA	-4495
VE	-4496
!",	-4497
)))	-4498
ATI	-4499
Bro	-4500
ITY	-4501
Imp	-4502
Ind	-4503
Max	-4504
Min	-4505
Sty	-4506
Udp	-4507
]+)	-4508
isc	-4509
old	-4510
red	-4511
ume	-4512
win	-4513
zer	-4514
▁14	-4515
▁4)	-4516
▁nb	-4517
("("	-4518
()];	-4519
(3);	-4520
:");	-4521
CONT	-4522
LOCK	-4523
RANS	-4524
Work	-4525
bind	-4526
call	-4527
dump	-4528
full	-4529
ible	-4530
impl	-4531
supp	-4532
ules	-4533
used	-4534
utes	-4535
▁4);	-4536
")));	-4537
FOUND	-4538
Order	-4539
ReqEx	-4540
Style	-4541
WCHAR	-4542
alloc	-4543
ature	-4544
count	-4545
igest	-4546
sible	-4547
ustom	-4548
▁Sele	-4549
▁conn	-4550
▁tpdu	-4551
▁uuid	-4552
Filter	-4553
UCCESS	-4554
Wiring	-4555
getRaw	-4556
▁level	-4557
▁speci	-4558
BOOLEAN	-4559
DefNode	-4560
Package	-4561
getByte	-4562
getHost	-4563
getLeft	-4564
lements	-4565
support	-4566
thernet	-4567
umeThat	-4568
valuate	-4569
▁Either	-4570
▁Manual	-4571
▁offset	-4572
▁thread	-4573
Received	-4574
Services	-4575
getIndex	-4576
metadata	-4577
required	-4578
▁invalid	-4579
▁pattern	-4580
ByteOrder	-4581
Datapoint	-4582
bootstrap	-4583
iConsumer	-4584
igestUtil	-4585
setAccess	-4586
viousMode	-4587
▁constant	-4588
▁getFloat	-4589
▁getShort	-4590
▁maxDelay	-4591
▁safeCast	-4592
▁synchron	-4593
MockDevice	-4594
ToBeParsed	-4595
getByteBuf	-4596
serializer	-4597
▁AdsDevice	-4598
▁generator	-4599
▁getDouble	-4600
▁getFields	-4601
▁mainClass	-4602
▁scheduled	-4603
10.10.64.40	-4604
NumElements	-4605
TaggedField	-4606
▁SerialPort	-4607
▁deviceName	-4608
▁encodeByte	-4609
▁getBoolean	-4610
▁getByteBuf	-4611
▁getInteger	-4612
▁invocation	-4613
▁sourceName	-4614
IndexRequest	-4615
▁InputStream	-4616
▁dataTypeMap	-4617
▁unsubscribe	-4618
BacNetIpField	-4619
orruptPackage	-4620
setAccessible	-4621
▁AdsException	-4622
▁buildADSData	-4623
▁sameInstance	-4624
▁testToString	-4625
ativeException	-4626
connectionpool	-4627
▁DriverContext	-4628
▁triggerResult	-4629
MessageResponse	-4630
ParameterSetupC	-4631
WiringException	-4632
getGroupAddress	-4633
▁EmbeddedUnsafe	-4634
ClassDeclaration	-4635
LanguageTypeName	-4636
MethodDefinition	-4637
plcDriverManager	-4638
▁CIPDataTypeCode	-4639
▁connectionAlias	-4640
▁getLocalAddress	-4641
++	-4642
0;	-4643
LR	-4644
Pl	-4645
WI	-4646
bi	-4647
fe	-4648
▁V	-4649
(1)	-4650
(3,	-4651
(8,	-4652
20,	-4653
5);	-4654
7);	-4655
>()	-4656
BER	-4657
CUA	-4658
Ctx	-4659
LED	-4660
LIC	-4661
RUN	-4662
esc	-4663
log	-4664
ncy	-4665
pin	-4666
▁).	-4667
▁aw	-4668
("\\	-4669
....	-4670
1");	-4671
NOTI	-4672
PTLR	-4673
TOCO	-4674
geti	-4675
list	-4676
nter	-4677
pace	-4678
ptor	-4679
tend	-4680
▁0),	-4681
▁Int	-4682
▁Udp	-4683
▁knx	-4684
▁non	-4685
▁pos	-4686
▁tar	-4687
(13),	-4688
Layer	-4689
RTERR	-4690
Reset	-4691
Speed	-4692
_8));	-4693
asure	-4694
conds	-4695
getOr	-4696
rigin	-4697
▁Call	-4698
▁PORT	-4699
▁UmCI	-4700
▁step	-4701
Identi	-4702
Influx	-4703
LEMENT	-4704
NOTIFI	-4705
REATER	-4706
SCHEMA	-4707
[0])).	-4708
_16));	-4709
atency	-4710
cancel	-4711
getint	-4712
hedule	-4713
influx	-4714
replay	-4715
▁Pcaps	-4716
▁kafka	-4717
▁point	-4718
▁setup	-4719
AdsRead	-4720
Generic	-4721
LibPort	-4722
RunWith	-4723
TagData	-4724
comPort	-4725
counter	-4726
inbound	-4727
▁NoSuch	-4728
▁Source	-4729
▁shorts	-4730
▁update	-4731
▁verify	-4732
Producer	-4733
schedule	-4734
shutdown	-4735
▁Adapter	-4736
▁Address	-4737
▁HashSet	-4738
▁allowed	-4739
▁futures	-4740
▁generic	-4741
▁numRuns	-4742
ClassName	-4743
FieldItem	-4744
RawSocket	-4745
TcpLength	-4746
TimeStamp	-4747
Timestamp	-4748
asedField	-4749
attribute	-4750
collector	-4751
escriptor	-4752
getParent	-4753
namespace	-4754
sResponse	-4755
serialize	-4756
startLine	-4757
tendation	-4758
▁acquired	-4759
▁exponent	-4760
▁occurred	-4761
▁shutdown	-4762
▁wBuilder	-4763
References	-4764
ScrapeRate	-4765
getTrigger	-4766
uessSchema	-4767
▁AdsSerial	-4768
▁AmsHeader	-4769
▁Condition	-4770
▁ConfigDef	-4771
▁Statement	-4772
▁remaining	-4773
▁targetint	-4774
▁throwable	-4775
FieldValues	-4776
PayloadItem	-4777
currentTime	-4778
numElements	-4779
staticParse	-4780
trollerType	-4781
writtenData	-4782
▁AbEthField	-4783
▁arrayField	-4784
▁disconnect	-4785
▁encodeLong	-4786
▁handlerMap	-4787
▁readBuffer	-4788
▁readLength	-4789
▁shortValue	-4790
NOTIFICATION	-4791
etectedBlock	-4792
littleEndian	-4793
▁ConfigValue	-4794
▁encodeFloat	-4795
▁fieldString	-4796
▁lastWritten	-4797
▁switchField	-4798
▁updateValue	-4799
BlockingQueue	-4800
remoteAddress	-4801
▁AmsTcpHeader	-4802
▁ByteReadable	-4803
▁MajorVersion	-4804
▁MinorVersion	-4805
▁encodeDouble	-4806
▁openRequests	-4807
EventTriggered	-4808
PlcProprietary	-4809
getHostAddress	-4810
parserContexts	-4811
▁BacNetIpField	-4812
▁encodeBoolean	-4813
▁encodeInteger	-4814
▁getBigDecimal	-4815
▁getExpression	-4816
▁lastBlockSize	-4817
/0.0.0.0.0.0:13	-4818
MethodException	-4819
getSubscription	-4820
incrementAndGet	-4821
readUnsignedInt	-4822
ArgumentMatchers	-4823
PacketConnection	-4824
RawSocketAddress	-4825
adsRequestResult	-4826
▁exampleResponse	-4827
(-	-4828
74	-4829
:3	-4830
:4	-4831
BO	-4832
Eq	-4833
VL	-4834
[4	-4835
].	-4836
vt	-4837
(10	-4838
/64	-4839
ANO	-4840
CRC	-4841
Eip	-4842
Nio	-4843
Rel	-4844
Sin	-4845
URL	-4846
art	-4847
off	-4848
ogy	-4849
tiv	-4850
udp	-4851
umn	-4852
▁"]	-4853
▁FI	-4854
▁}\	-4855
1000	-4856
ATIC	-4857
BITS	-4858
Bool	-4859
DATE	-4860
NANO	-4861
Root	-4862
Tdpu	-4863
Tree	-4864
beat	-4865
body	-4866
eric	-4867
flow	-4868
isDe	-4869
ners	-4870
stop	-4871
{}",	-4872
}");	-4873
▁JOB	-4874
▁mer	-4875
Admin	-4876
BLOCK	-4877
OURCE	-4878
Since	-4879
Sleep	-4880
heart	-4881
ility	-4882
ished	-4883
ology	-4884
queue	-4885
recei	-4886
tinue	-4887
topic	-4888
tries	-4889
ulate	-4890
▁32),	-4891
▁Java	-4892
▁Math	-4893
▁conf	-4894
▁init	-4895
▁pair	-4896
▁unit	-4897
▁}));	-4898
BACnet	-4899
BitSet	-4900
Called	-4901
Factor	-4902
achine	-4903
apture	-4904
hecked	-4905
▁colle	-4906
▁table	-4907
Acquire	-4908
Calling	-4909
IsEqual	-4910
PROTOCO	-4911
isDebug	-4912
isTrace	-4913
mapping	-4914
project	-4915
readInt	-4916
▁parsed	-4917
00000000	-4918
Callback	-4919
Complete	-4920
Testcase	-4921
ToParent	-4922
adsState	-4923
defaults	-4924
endpoint	-4925
getItems	-4926
identity	-4927
▁PlcDate	-4928
▁already	-4929
▁errored	-4930
▁matches	-4931
▁results	-4932
000000");	-4933
AfterEach	-4934
PlcReader	-4935
Templates	-4936
aterLevel	-4937
heartbeat	-4938
interface	-4939
protected	-4940
simulator	-4941
▁Property	-4942
▁finisher	-4943
▁isString	-4944
▁listener	-4945
▁pcapFile	-4946
▁refValue	-4947
Containers	-4948
ResetFrame	-4949
VersionUID	-4950
dicesAdmin	-4951
getChecked	-4952
getInteger	-4953
rawsockets	-4954
readBuffer	-4955
subscriber	-4956
{1,3}\\.\\	-4957
▁127.0.0.1	-4958
▁Connected	-4959
▁PlcSimple	-4960
▁bitOffset	-4961
▁constants	-4962
▁getParams	-4963
▁longValue	-4964
▁operation	-4965
▁timeStamp	-4966
▁triggered	-4967
Acquirement	-4968
ContextNode	-4969
Destination	-4970
Initializer	-4971
PacketClass	-4972
getMetadata	-4973
requestItem	-4974
writeBuffer	-4975
▁BinaryTerm	-4976
▁MacAddress	-4977
▁byteOffset	-4978
▁dataLength	-4979
▁statements	-4980
▁subPromise	-4981
▁upperBound	-4982
FieldAddress	-4983
anIntervalMs	-4984
getAmsHeader	-4985
orruptPacket	-4986
responseCode	-4987
reverseBytes	-4988
▁10.211.55.3	-4989
▁IfStatement	-4990
▁isConnected	-4991
CollectorImpl	-4992
PlcFieldEntry	-4993
SerialChannel	-4994
SetupComplete	-4995
TransportSize	-4996
▁MockPlcValue	-4997
▁encodeString	-4998
AdsStampHeader	-4999
SimpleBaseType	-5000
channelFactory	-5001
fragmentNumber	-5002
isDebugEnabled	-5003
isTraceEnabled	-5004
unsubscription	-5005
▁KnxNetIpField	-5006
▁discriminator	-5007
▁plcSubscriber	-5008
KNXNetIPMessage	-5009
getRequestItems	-5010
▁COTPPacketData	-5011
▁ChannelFactory	-5012
▁PlcSimpleValue	-5013
▁responseFuture	-5014
CIPEncapsulation	-5015
ConnectionString	-5016
FieldDeclaration	-5017
InvocationTarget	-5018
ResponseItemSize	-5019
dicesAdminClient	-5020
getDeclaredField	-5021
numberOfElements	-5022
▁VariableLiteral	-5023
▁runPendingTasks	-5024
5:	-5025
70	-5026
;\	-5027
>(	-5028
Bl	-5029
MI	-5030
PC	-5031
Ua	-5032
cv	-5033
eq	-5034
fr	-5035
*))	-5036
.2.	-5037
128	-5038
21,	-5039
57,	-5040
65,	-5041
72,	-5042
Cov	-5043
Dev	-5044
Foo	-5045
GRO	-5046
New	-5047
OFF	-5048
PRE	-5049
PRI	-5050
Pdu	-5051
aud	-5052
pos	-5053
}")	-5054
}),	-5055
▁"_	-5056
▁2)	-5057
▁bt	-5058
▁{(	-5059
))).	-5060
1.1:	-5061
BVLC	-5062
Deco	-5063
Inet	-5064
Java	-5065
Next	-5066
ROUT	-5067
[1];	-5068
blem	-5069
cotp	-5070
fied	-5071
init	-5072
lone	-5073
mark	-5074
ulti	-5075
▁128	-5076
▁306	-5077
▁got	-5078
▁ops	-5079
▁xml	-5080
.2.3.	-5081
DULED	-5082
ERERR	-5083
ERNAL	-5084
GROUP	-5085
Route	-5086
Suite	-5087
Times	-5088
Watch	-5089
bSize	-5090
endor	-5091
fiers	-5092
hallo	-5093
olumn	-5094
▁"");	-5095
▁Date	-5096
▁cemi	-5097
(")");	-5098
("1"),	-5099
(100);	-5100
Altern	-5101
LOGGER	-5102
NUMBER	-5103
OFFSET	-5104
OURCES	-5105
OnMock	-5106
Setter	-5107
Triple	-5108
aField	-5109
active	-5110
connec	-5111
gative	-5112
iLimit	-5113
inTime	-5114
keySet	-5115
orrect	-5116
unused	-5117
▁")");	-5118
▁FIELD	-5119
▁hUser	-5120
▁wrong	-5121
2.168.0	-5122
Configs	-5123
Decoder	-5124
Methods	-5125
Problem	-5126
SUCCESS	-5127
ableKey	-5128
getBody	-5129
getLong	-5130
getMain	-5131
reshold	-5132
riginal	-5133
▁Future	-5134
▁analog	-5135
▁invoke	-5136
▁testOf	-5137
▁within	-5138
AsString	-5139
Finished	-5140
KnxNetIp	-5141
NotEmpty	-5142
Runnable	-5143
SizeCode	-5144
allocate	-5145
eipField	-5146
getShort	-5147
inkLayer	-5148
transfer	-5149
userData	-5150
▁Connect	-5151
▁NotOpen	-5152
▁PlcTime	-5153
▁loading	-5154
▁maximum	-5155
▁missing	-5156
▁padding	-5157
DataFrame	-5158
ROUTERERR	-5159
TopicName	-5160
getByName	-5161
onitoring	-5162
parseLong	-5163
setDevice	-5164
testField	-5165
uFunction	-5166
▁contains	-5167
▁continue	-5168
BinaryTerm	-5169
CONNECTION	-5170
PacketTime	-5171
PcapReplay	-5172
TypedField	-5173
disconnect	-5174
getJobName	-5175
pcapreplay	-5176
testValues	-5177
▁IntStream	-5178
▁PlcReader	-5179
▁TestField	-5180
▁checkRead	-5181
▁container	-5182
01000000");	-5183
ClassLoader	-5184
ComplexType	-5185
Connections	-5186
Identifiers	-5187
PoolableKey	-5188
inetAddress	-5189
originalPlc	-5190
▁assumeThat	-5191
▁curRequest	-5192
▁getAddress	-5193
▁getChannel	-5194
▁memoryArea	-5195
▁mockDevice	-5196
▁parserArgs	-5197
▁toVariable	-5198
ResponseSize	-5199
essionHandle	-5200
▁Declaration	-5201
▁Expressions	-5202
▁PojoFactory	-5203
▁plcConsumer	-5204
▁subRequests	-5205
▁typeContext	-5206
Elasticsearch	-5207
IndexResponse	-5208
MatcherAssert	-5209
ParameterRead	-5210
TextReference	-5211
endorSpecific	-5212
getIdentifier	-5213
▁getTransport	-5214
▁synchronized	-5215
ymbolicAddress	-5216
▁allProperties	-5217
▁checkInternal	-5218
HashCodeBuilder	-5219
MessageUserData	-5220
inkLayerAddress	-5221
▁allowPrimitive	-5222
PlcEntityManager	-5223
parserserializer	-5224
xSourceConnector	-5225
▁getFieldHandler	-5226
▁parseExpression	-5227
('	-5228
18	-5229
7)	-5230
BU	-5231
KE	-5232
ND	-5233
TH	-5234
UD	-5235
Vl	-5236
YC	-5237
],	-5238
dd	-5239
ia	-5240
kt	-5241
ow	-5242
sm	-5243
we	-5244
(!(	-5245
("0	-5246
)){	-5247
++;	-5248
16(	-5249
16_	-5250
2",	-5251
2:2	-5252
48,	-5253
Ans	-5254
DBD	-5255
DOM	-5256
LEV	-5257
Per	-5258
\"\	-5259
ant	-5260
▁48	-5261
▁ID	-5262
▁el	-5263
▁me	-5264
.10.	-5265
CAST	-5266
PEED	-5267
[]::	-5268
asic	-5269
bsol	-5270
conn	-5271
ench	-5272
etri	-5273
exit	-5274
hole	-5275
sele	-5276
tage	-5277
ving	-5278
▁16;	-5279
▁224	-5280
▁24)	-5281
▁AMS	-5282
▁Pre	-5283
▁Rou	-5284
▁are	-5285
▁ava	-5286
▁bec	-5287
▁opc	-5288
EMPTY	-5289
Found	-5290
LEVEL	-5291
Ports	-5292
Proxy	-5293
Split	-5294
anged	-5295
apply	-5296
eriod	-5297
label	-5298
noPlc	-5299
onInd	-5300
range	-5301
▁16),	-5302
▁Comp	-5303
▁LONG	-5304
▁Misc	-5305
▁npdu	-5306
("(");	-5307
...");	-5308
Events	-5309
NoSuch	-5310
STATIC	-5311
Worker	-5312
getRes	-5313
getTag	-5314
isting	-5315
tivity	-5316
▁names	-5317
▁props	-5318
▁right	-5319
AtFixed	-5320
ELEMENT	-5321
OfState	-5322
RETURNS	-5323
RUNTIME	-5324
Runtime	-5325
ackhole	-5326
areNode	-5327
audRate	-5328
bsolute	-5329
complex	-5330
ourceAs	-5331
process	-5332
▁Buffer	-5333
▁before	-5334
▁custom	-5335
▁memory	-5336
▁prefix	-5337
2.168.0.	-5338
Constant	-5339
Encoding	-5340
Multiple	-5341
addField	-5342
enchmark	-5343
getLocal	-5344
interval	-5345
isteners	-5346
ompleted	-5347
paceName	-5348
provider	-5349
registry	-5350
variable	-5351
▁Charset	-5352
▁Handler	-5353
▁because	-5354
▁finally	-5355
▁mapping	-5356
▁release	-5357
Discovery	-5358
Modifiers	-5359
ReadWrite	-5360
acknowled	-5361
bigEndian	-5362
component	-5363
condition	-5364
container	-5365
ercentage	-5366
getDevice	-5367
resources	-5368
scheduled	-5369
writeByte	-5370
▁Modifier	-5371
▁getBytes	-5372
▁javaType	-5373
▁mantissa	-5374
▁objValue	-5375
▁setValue	-5376
▁template	-5377
▁transfer	-5378
comparator	-5379
properties	-5380
referenced	-5381
▁available	-5382
▁bytesRead	-5383
▁scheduler	-5384
▁specified	-5385
AtFixedRate	-5386
Expressions	-5387
bsolutePath	-5388
copyOfRange	-5389
getArgument	-5390
getProperty	-5391
▁Properties	-5392
▁objectType	-5393
▁outputFile	-5394
▁registered	-5395
▁sizeInBits	-5396
AdsAddDevice	-5397
AndThrowable	-5398
CountTrigger	-5399
acknowledged	-5400
compareValue	-5401
connectivity	-5402
getAttribute	-5403
localAddress	-5404
▁EnumFactory	-5405
▁blockNumber	-5406
▁proprietary	-5407
▁splitConfig	-5408
FloatingPoint	-5409
PayloadTooBig	-5410
TestpointName	-5411
getResourceAs	-5412
▁GroupAddress	-5413
▁currentValue	-5414
▁fieldAddress	-5415
▁toExpression	-5416
DirectAdsField	-5417
FragmentNumber	-5418
IdentifierType	-5419
requestTimeout	-5420
userDataLength	-5421
▁PlcBigInteger	-5422
▁ToIntFunction	-5423
▁TransportSize	-5424
▁addressString	-5425
▁typeReference	-5426
AdsDeleteDevice	-5427
receiverAddress	-5428
unnelingRequest	-5429
▁FieldReference	-5430
▁FirmataMessage	-5431
▁PlcIoException	-5432
VarParameterItem	-5433
getNumberOfItems	-5434
▁adsStampHeaders	-5435
▁recordException	-5436
)(	-5437
84	-5438
AP	-5439
DC	-5440
EX	-5441
Ep	-5442
Ok	-5443
_2	-5444
dl	-5445
mt	-5446
▁;	-5447
(2,	-5448
-->	-5449
02:	-5450
26:	-5451
5.6	-5452
6);	-5453
64_	-5454
7(0	-5455
AIN	-5456
ARD	-5457
But	-5458
Cut	-5459
DOC	-5460
Doc	-5461
ECT	-5462
NAP	-5463
OID	-5464
URE	-5465
ari	-5466
ave	-5467
irt	-5468
ker	-5469
leg	-5470
lib	-5471
mps	-5472
ops	-5473
sri	-5474
tax	-5475
▁"+	-5476
▁5,	-5477
▁DE	-5478
▁NO	-5479
▁ar	-5480
▁po	-5481
((?<	-5482
****	-5483
.0),	-5484
/0";	-5485
/128	-5486
00,(	-5487
0001	-5488
>[0-	-5489
Done	-5490
Down	-5491
ILDC	-5492
JECT	-5493
Main	-5494
OPIC	-5495
Pins	-5496
Trim	-5497
VATE	-5498
_000	-5499
lies	-5500
line	-5501
root	-5502
▁"",	-5503
▁"/"	-5504
▁?>,	-5505
▁Sta	-5506
▁fdb	-5507
(1)).	-5508
(6553	-5509
4.5.6	-5510
AINER	-5511
AbEth	-5512
Alloc	-5513
Apply	-5514
Codes	-5515
Dummy	-5516
ESTIN	-5517
False	-5518
fully	-5519
licit	-5520
maven	-5521
yntax	-5522
ython	-5523
▁calc	-5524
▁defi	-5525
▁stmt	-5526
▁then	-5527
▁user	-5528
AYLOAD	-5529
Cutoff	-5530
KNXNET	-5531
Manual	-5532
NAPLEN	-5533
Prefix	-5534
STRANS	-5535
Sample	-5536
Second	-5537
Valued	-5538
atures	-5539
cessed	-5540
cyclic	-5541
orElse	-5542
scrape	-5543
status	-5544
throws	-5545
▁octed	-5546
▁ready	-5547
▁timer	-5548
▁tuple	-5549
GREATER	-5550
ILDCARD	-5551
Parsing	-5552
Project	-5553
TypeArg	-5554
compare	-5555
erGroup	-5556
getTags	-5557
machine	-5558
rapeJob	-5559
rawData	-5560
setBody	-5561
smonInd	-5562
▁period	-5563
▁stamps	-5564
▁stream	-5565
▁unwrap	-5566
("1.2.3.	-5567
ByteBuff	-5568
Calendar	-5569
INTERNAL	-5570
PROTOCOL	-5571
Segments	-5572
argument	-5573
werBound	-5574
▁Gateway	-5575
▁Process	-5576
▁getters	-5577
▁network	-5578
▁running	-5579
▁station	-5580
▁tabSize	-5581
=========	-5582
CONTAINER	-5583
ChannelId	-5584
EipPacket	-5585
EnumValue	-5586
Supported	-5587
ValueItem	-5588
anyString	-5589
arguments	-5590
completed	-5591
confirmed	-5592
getAsByte	-5593
getValues	-5594
isPresent	-5595
onTimeout	-5596
thenApply	-5597
timeStamp	-5598
▁DataType	-5599
▁OpmUtils	-5600
▁Response	-5601
▁loopType	-5602
▁received	-5603
▁sequence	-5604
2.168.0.43	-5605
DefaultBit	-5606
ESTINATION	-5607
FieldUtils	-5608
FromFuture	-5609
Invocation	-5610
addressStr	-5611
dataformat	-5612
dummydummy	-5613
fieldValue	-5614
floatValue	-5615
getBoolean	-5616
objectType	-5617
puFunction	-5618
veyorState	-5619
ynamicTest	-5620
▁ByteArray	-5621
▁CipRRData	-5622
▁Predicate	-5623
▁ScrapeJob	-5624
▁commandId	-5625
▁dataPoint	-5626
▁discovery	-5627
▁getTarget	-5628
CallingTsap	-5629
EndpointUrl	-5630
InputArrays	-5631
destination	-5632
ericLiteral	-5633
getTextTrim	-5634
payloadType	-5635
▁EnipStatus	-5636
▁collection	-5637
▁encodeDate	-5638
▁encodeTime	-5639
▁processing	-5640
▁stateFlags	-5641
VarParameter	-5642
getModifiers	-5643
newScheduled	-5644
stringValues	-5645
▁Constructor	-5646
▁PlcDateTime	-5647
▁correlatedC	-5648
▁ifStatement	-5649
▁paramString	-5650
▁testpointId	-5651
COTPParameter	-5652
DataProcessor	-5653
SenderContext	-5654
SerializerArg	-5655
SingleRequest	-5656
checkConsumer	-5657
floatingPoint	-5658
onitoringMode	-5659
plcSubscriber	-5660
thernetPacket	-5661
transactionId	-5662
▁amsTCPPacket	-5663
▁fieldMapping	-5664
▁majorVersion	-5665
▁maxAmqCallee	-5666
▁maxAmqCaller	-5667
▁minorVersion	-5668
▁selectionKey	-5669
EventProcessor	-5670
OutboundBuffer	-5671
StaticProperty	-5672
mpletionFuture	-5673
plcReadRequest	-5674
triggerElement	-5675
▁ResultHandler	-5676
▁buildByteBuff	-5677
▁fieldResponse	-5678
▁floatingPoint	-5679
▁hasDisconnect	-5680
▁responseValue	-5681
LengthEstimator	-5682
PayloadUserData	-5683
completedFuture	-5684
getAbsolutePath	-5685
▁FieldValueItem	-5686
▁PoolKeyFactory	-5687
▁encodeDateTime	-5688
▁loopExpression	-5689
▁quantityString	-5690
adsNotificationS	-5691
atencyStatistics	-5692
deviceIdentifier	-5693
getTargetAmsPort	-5694
▁ScheduledFuture	-5695
▁SimulatedDevice	-5696
▁genericDatatype	-5697
85	-5698
RL	-5699
ew	-5700
gi	-5701
nb	-5702
wt	-5703
.0,	-5704
2(0	-5705
3(0	-5706
5(0	-5707
AML	-5708
Bad	-5709
CPU	-5710
DBW	-5711
ENT	-5712
ERI	-5713
ERO	-5714
FKA	-5715
IST	-5716
ITT	-5717
IpV	-5718
LWI	-5719
MIS	-5720
PAR	-5721
iot	-5722
kip	-5723
olu	-5724
sex	-5725
tel	-5726
tif	-5727
▁("	-5728
")).	-5729
'");	-5730
2");	-5731
DIAN	-5732
Devs	-5733
HAND	-5734
LITT	-5735
STOP	-5736
ansi	-5737
dpus	-5738
duct	-5739
getB	-5740
icro	-5741
join	-5742
lean	-5743
osgi	-5744
pers	-5745
raph	-5746
real	-5747
rted	-5748
toUp	-5749
void	-5750
yaml	-5751
ysex	-5752
▁"-"	-5753
▁EIP	-5754
▁Iot	-5755
▁Nio	-5756
▁URL	-5757
))"),	-5758
))));	-5759
0}));	-5760
ButUn	-5761
CODED	-5762
Modes	-5763
OPCUA	-5764
PORTS	-5765
Param	-5766
Vlans	-5767
[0]),	-5768
ached	-5769
admin	-5770
alone	-5771
await	-5772
ayout	-5773
first	-5774
items	-5775
order	-5776
proxy	-5777
stall	-5778
uplic	-5779
xffff	-5780
▁APDU	-5781
▁desc	-5782
▁have	-5783
▁sent	-5784
▁used	-5785
())));	-5786
ENDIAN	-5787
LITTLE	-5788
Random	-5789
Termin	-5790
analog	-5791
define	-5792
header	-5793
isFile	-5794
izable	-5795
losing	-5796
supply	-5797
within	-5798
▁XPath	-5799
▁could	-5800
▁steps	-5801
Publish	-5802
ReadSzl	-5803
anoTime	-5804
ansient	-5805
canRead	-5806
hasSize	-5807
leftPad	-5808
myClazz	-5809
notNull	-5810
olution	-5811
onError	-5812
perCase	-5813
stField	-5814
▁NodeId	-5815
▁binary	-5816
▁called	-5817
▁events	-5818
▁idNode	-5819
▁isByte	-5820
▁isLong	-5821
▁isNull	-5822
▁notify	-5823
IpSocket	-5824
Shutdown	-5825
UInteger	-5826
XContent	-5827
addError	-5828
addValue	-5829
andalone	-5830
databind	-5831
elements	-5832
requests	-5833
rityBits	-5834
toMillis	-5835
tributes	-5836
typeName	-5837
ulateCrc	-5838
▁MyClazz	-5839
▁Payload	-5840
▁Service	-5841
▁comment	-5842
▁complet	-5843
▁isFloat	-5844
▁isShort	-5845
▁ofBytes	-5846
▁prepare	-5847
▁publish	-5848
▁stateId	-5849
▁success	-5850
▁unknown	-5851
MessageIO	-5852
MockField	-5853
NotEquals	-5854
Simulator	-5855
adsSerial	-5856
ationship	-5857
findFirst	-5858
iFunction	-5859
ingTsapId	-5860
localDate	-5861
numActive	-5862
▁PlcShort	-5863
▁ToString	-5864
▁evaluate	-5865
▁getKafka	-5866
▁interval	-5867
▁isDouble	-5868
▁iterator	-5869
▁original	-5870
▁password	-5871
▁possible	-5872
▁teardown	-5873
AMLFactory	-5874
CalledTsap	-5875
Controller	-5876
ValuesList	-5877
getChannel	-5878
getService	-5879
getTagName	-5880
licitField	-5881
parseShort	-5882
replaceAll	-5883
statements	-5884
unregister	-5885
▁Bootstrap	-5886
▁Datapoint	-5887
▁PlcStruct	-5888
▁argValues	-5889
▁extractor	-5890
▁isBoolean	-5891
▁isInteger	-5892
▁localDate	-5893
▁processed	-5894
▁testSuite	-5895
▁transient	-5896
Correlation	-5897
CpuFunction	-5898
Information	-5899
MyReadWrite	-5900
NANOSECONDS	-5901
WriteLength	-5902
deviceState	-5903
expectClazz	-5904
getBaseType	-5905
irtualField	-5906
jobInterval	-5907
supplyAsync	-5908
toUpperCase	-5909
ymbolHandle	-5910
▁AdsLibPort	-5911
▁Comparator	-5912
▁MemoryArea	-5913
▁PcapHandle	-5914
▁endRequest	-5915
▁resultCode	-5916
ModbusTcpADU	-5917
SubContainer	-5918
startRequest	-5919
testExchange	-5920
withinBounds	-5921
▁BuilderItem	-5922
▁ContextNode	-5923
▁classLoader	-5924
▁jobInterval	-5925
▁scraperTask	-5926
▁stringValue	-5927
▁testcaseXml	-5928
("1.2.3.4.5.6	-5929
ExistsRequest	-5930
assertNotNull	-5931
getScrapeRate	-5932
nectorConfigs	-5933
▁assertLength	-5934
▁etherBuilder	-5935
▁isBigDecimal	-5936
▁isBigInteger	-5937
▁referenceXml	-5938
▁serverModule	-5939
PlcUnsupported	-5940
TriggerElement	-5941
objectInstance	-5942
ollingInterval	-5943
▁AliasRegistry	-5944
▁DefaultSimple	-5945
▁channelFuture	-5946
▁getBinaryTerm	-5947
▁transactionId	-5948
ParserArguments	-5949
PollingSelector	-5950
RequestElements	-5951
ServiceResponse	-5952
addErrorMessage	-5953
getNotification	-5954
newListSupplier	-5955
plcWriteRequest	-5956
▁CallExpression	-5957
▁UnknownCommand	-5958
▁amsSerialFrame	-5959
▁objectInstance	-5960
▁parameterTypes	-5961
▁requestBuilder	-5962
CorrelationIdMap	-5963
getSourceAmsPort	-5964
getTestpointName	-5965
readUnsignedByte	-5966
▁AdsNotification	-5967
▁AdsSubscription	-5968
▁PassiveBacNetIp	-5969
▁basePacketClass	-5970
▁handleException	-5971
▁localMacAddress	-5972
▁remoteIpAddress	-5973
',	-5974
.{	-5975
0-	-5976
47	-5977
=0	-5978
EQ	-5979
bt	-5980
ha	-5981
sb	-5982
sh	-5983
zA	-5984
},	-5985
▁[	-5986
.00	-5987
0()	-5988
1(0	-5989
2()	-5990
6(0	-5991
ALL	-5992
APP	-5993
CUO	-5994
EMI	-5995
IGH	-5996
JOB	-5997
Lvl	-5998
MAL	-5999
MES	-6000
Sen	-6001
Tia	-6002
ToW	-6003
ane	-6004
ced	-6005
dst	-6006
edi	-6007
ern	-6008
gor	-6009
ied	-6010
lex	-6011
mis	-6012
pax	-6013
sor	-6014
vok	-6015
wor	-6016
zip	-6017
|\\	-6018
▁IN	-6019
(-1,	-6020
))",	-6021
."),	-6022
AtBu	-6023
Exit	-6024
FFER	-6025
Help	-6026
Idle	-6027
Live	-6028
Netz	-6029
Tags	-6030
VLCO	-6031
_128	-6032
araf	-6033
eded	-6034
exam	-6035
fail	-6036
ging	-6037
hurz	-6038
item	-6039
ithm	-6040
rift	-6041
ured	-6042
werk	-6043
zero	-6044
})",	-6045
▁"\"	-6046
▁8);	-6047
▁PRO	-6048
▁but	-6049
▁hex	-6050
▁imm	-6051
▁lib	-6052
("(.{	-6053
(14);	-6054
...00	-6055
13");	-6056
APPER	-6057
CUOUS	-6058
MBean	-6059
_000,	-6060
biner	-6061
ental	-6062
eries	-6063
final	-6064
liers	-6065
miscu	-6066
ometh	-6067
perim	-6068
ublic	-6069
uffix	-6070
undle	-6071
words	-6072
▁"'",	-6073
▁"}";	-6074
▁1));	-6075
▁CEMI	-6076
▁DATA	-6077
▁Inet	-6078
▁Json	-6079
▁getP	-6080
▁ping	-6081
▁zero	-6082
AndSet	-6083
Causes	-6084
Couldn	-6085
Declar	-6086
Enumer	-6087
Labels	-6088
PROMIS	-6089
Sensor	-6090
ctable	-6091
ediate	-6092
isDone	-6093
legate	-6094
reater	-6095
return	-6096
thrift	-6097
wLimit	-6098
▁Assig	-6099
▁Kafka	-6100
▁aLong	-6101
▁assig	-6102
▁clone	-6103
▁fetch	-6104
▁times	-6105
AndExit	-6106
AtBuild	-6107
DECODED	-6108
HANDLER	-6109
PAYLOAD	-6110
PRIVATE	-6111
Sources	-6112
ToBeDel	-6113
endLine	-6114
getApdu	-6115
getMask	-6116
getTime	-6117
gorithm	-6118
hasNext	-6119
helpers	-6120
indices	-6121
invalid	-6122
ization	-6123
padding	-6124
prepare	-6125
publish	-6126
runners	-6127
success	-6128
uaField	-6129
▁1_000,	-6130
▁format	-6131
▁module	-6132
▁sender	-6133
Asserter	-6134
Checksum	-6135
Combiner	-6136
FieldPin	-6137
Instanti	-6138
Netzwerk	-6139
OpmUtils	-6140
Promiscu	-6141
Starting	-6142
WILDCARD	-6143
crcField	-6144
handlers	-6145
influxdb	-6146
isAssign	-6147
ofMillis	-6148
omething	-6149
openLive	-6150
specific	-6151
sription	-6152
▁DEFAULT	-6153
▁knxproj	-6154
▁myState	-6155
▁pinMode	-6156
▁readSzl	-6157
▁resolve	-6158
▁testNew	-6159
Benchmark	-6160
BusmonInd	-6161
ErrorCode	-6162
Extractor	-6163
PlcValues	-6164
Predicate	-6165
SCHEDULED	-6166
Scheduler	-6167
Suppliers	-6168
Tokenizer	-6169
getBlocks	-6170
modifiers	-6171
protocols	-6172
▁ADSTRANS	-6173
▁Document	-6174
▁Endpoint	-6175
▁FileType	-6176
▁XContent	-6177
▁distance	-6178
▁esClient	-6179
AssignNode	-6180
AtomicLong	-6181
ChronoUnit	-6182
ConcatType	-6183
Descriptor	-6184
OneElement	-6185
SerialPort	-6186
bigInteger	-6187
collection	-6188
getCommand	-6189
getPduSize	-6190
getRawData	-6191
peedFactor	-6192
perimental	-6193
rParameter	-6194
writeBytes	-6195
writeValue	-6196
▁Timestamp	-6197
▁adsDevice	-6198
▁curFields	-6199
▁eventLoop	-6200
▁getDevice	-6201
▁getResult	-6202
▁getSimple	-6203
▁getSource	-6204
▁immediate	-6205
▁localTime	-6206
ActiveTasks	-6207
Alternative	-6208
DESTINATION	-6209
Descriptive	-6210
IdGenerator	-6211
LinkedQueue	-6212
PROMISCUOUS	-6213
ReplaySpeed	-6214
SwitchField	-6215
Unprotected	-6216
VLCOriginal	-6217
correlation	-6218
getSubGroup	-6219
gramChannel	-6220
ifStatement	-6221
numberValue	-6222
valueString	-6223
▁ChronoUnit	-6224
▁PlcMessage	-6225
▁abEthField	-6226
▁checkBound	-6227
▁methodName	-6228
▁poolConfig	-6229
LittleEndian	-6230
ProtocolTest	-6231
Requirements	-6232
StackBuilder	-6233
calculateCrc	-6234
dataTypePair	-6235
getOrDefault	-6236
isAssignable	-6237
tendationLvl	-6238
▁AddressType	-6239
▁ScraperImpl	-6240
▁SendRequest	-6241
▁SwitchField	-6242
▁dumpAndExit	-6243
▁entityClass	-6244
▁kafkaConfig	-6245
▁valueString	-6246
DirectoryPath	-6247
FieldPinModes	-6248
Subscriptions	-6249
ToBeDelivered	-6250
ctableChannel	-6251
getStatistics	-6252
resultHandler	-6253
▁TcpTransport	-6254
▁compareValue	-6255
▁dataPointMap	-6256
▁dataTypePair	-6257
▁defaultValue	-6258
▁integerValue	-6259
▁payloadItems	-6260
▁plcFieldName	-6261
▁protocolName	-6262
▁testsuiteXml	-6263
ActiveRequests	-6264
ExpressionRest	-6265
exampleRequest	-6266
getSizeInBytes	-6267
outboundBuffer	-6268
sriptionHandle	-6269
▁AtomicBoolean	-6270
▁ConcurrentMap	-6271
▁JavaGenerator	-6272
▁UnknownPacket	-6273
▁cemiDataFrame	-6274
▁checkSupplier	-6275
▁localDateTime	-6276
AdsWriteRequest	-6277
ConnectedEntity	-6278
DefaultPlcValue	-6279
GetLocalAddress	-6280
OneElementArray	-6281
PromiscuousMode	-6282
RequestConsumer	-6283
TypeDefinitions	-6284
localMacAddress	-6285
readRequestItem	-6286
▁EthernetPacket	-6287
▁EventLoopGroup	-6288
▁PlcNotImplemen	-6289
▁TriggerElement	-6290
▁checkException	-6291
▁controllerType	-6292
▁getDefaultPort	-6293
▁identifierType	-6294
▁remainingBytes	-6295
FactoryException	-6296
IoTypeDefinition	-6297
ManualArrayField	-6298
StandardCharsets	-6299
TriggerCollector	-6300
triggerCollector	-6301
writeRequestItem	-6302
▁assertNotEquals	-6303
▁transportConfig	-6304
')	-6305
.5	-6306
14	-6307
2?	-6308
:7	-6309
MO	-6310
[5	-6311
[8	-6312
▁H	-6313
(")	-6314
(12	-6315
(42	-6316
)-1	-6317
.0)	-6318
0),	-6319
010	-6320
1";	-6321
1){	-6322
672	-6323
Arr	-6324
Ava	-6325
Bin	-6326
CSV	-6327
CYC	-6328
ETH	-6329
FOR	-6330
GTH	-6331
IMA	-6332
Tmp	-6333
asd	-6334
ean	-6335
fan	-6336
rel	-6337
ret	-6338
two	-6339
yml	-6340
▁""	-6341
▁'0	-6342
▁4,	-6343
▁42	-6344
▁Pl	-6345
▁dp	-6346
()==	-6347
(\\[	-6348
.[0-	-6349
00};	-6350
64);	-6351
>(\\	-6352
ANGE	-6353
Hurz	-6354
LETE	-6355
SAGE	-6356
Sing	-6357
[2];	-6358
[8];	-6359
_180	-6360
_410	-6361
anos	-6362
enip	-6363
etwe	-6364
getL	-6365
mask	-6366
more	-6367
only	-6368
plus	-6369
soft	-6370
sync	-6371
vert	-6372
wers	-6373
zlId	-6374
▁1),	-6375
▁10;	-6376
▁180	-6377
▁32;	-6378
▁410	-6379
▁50,	-6380
▁64)	-6381
▁New	-6382
▁Rel	-6383
▁UCS	-6384
▁ets	-6385
▁evt	-6386
▁two	-6387
(2));	-6388
."));	-6389
<?>>>	-6390
ALIAS	-6391
Blank	-6392
Broad	-6393
Ether	-6394
Hallo	-6395
IMAGE	-6396
KAFKA	-6397
Nodes	-6398
Timer	-6399
Using	-6400
aLong	-6401
fancy	-6402
mapTo	-6403
petri	-6404
props	-6405
three	-6406
ticle	-6407
vious	-6408
▁-1);	-6409
▁BVLC	-6410
▁Loop	-6411
▁crcs	-6412
▁line	-6413
▁resp	-6414
▁slot	-6415
("(-->	-6416
(-1));	-6417
0000);	-6418
://(?<	-6419
Answer	-6420
BUFFER	-6421
EqNode	-6422
Groups	-6423
Import	-6424
Master	-6425
RANDOM	-6426
ToSend	-6427
])?");	-6428
]{1,3}	-6429
domain	-6430
enrich	-6431
etween	-6432
getMax	-6433
getUrl	-6434
isTrue	-6435
rupted	-6436
single	-6437
tifact	-6438
|\\*))	-6439
▁Deque	-6440
▁Error	-6441
▁First	-6442
▁Hello	-6443
▁Netty	-6444
▁Timer	-6445
▁alloc	-6446
▁ports	-6447
▁print	-6448
▁tasks	-6449
("\"").	-6450
("\"");	-6451
(1000);	-6452
(\\[(?<	-6453
0000");	-6454
Encoder	-6455
IOIMAGE	-6456
Indexes	-6457
Initial	-6458
KeySpec	-6459
MESSAGE	-6460
Modules	-6461
Printer	-6462
XReader	-6463
ability	-6464
adsRead	-6465
applies	-6466
emplate	-6467
forName	-6468
getJobs	-6469
indexOf	-6470
interop	-6471
lowFile	-6472
nAssign	-6473
necting	-6474
pattern	-6475
quested	-6476
station	-6477
▁Create	-6478
▁Equals	-6479
▁Please	-6480
▁blocks	-6481
▁bounds	-6482
▁doStop	-6483
▁filter	-6484
▁getMax	-6485
▁random	-6486
▁second	-6487
▁single	-6488
▁submit	-6489
▁suffix	-6490
11111111	-6491
ELEMENTS	-6492
Existing	-6493
Internet	-6494
NotFound	-6495
PROPERTY	-6496
acquired	-6497
bytesAva	-6498
canWrite	-6499
entation	-6500
getAsInt	-6501
nanoTime	-6502
ntStream	-6503
onitored	-6504
password	-6505
testcase	-6506
username	-6507
wordNode	-6508
▁Require	-6509
▁anymore	-6510
▁getDate	-6511
▁getEnum	-6512
▁getTime	-6513
▁greater	-6514
▁install	-6515
▁project	-6516
▁samples	-6517
Algorithm	-6518
Broadcast	-6519
MethodTmp	-6520
PlcWriter	-6521
Singleton	-6522
XmlMapper	-6523
_00000000	-6524
cycleTime	-6525
decodeHex	-6526
getColumn	-6527
intercept	-6528
timestamp	-6529
▁baseType	-6530
▁datatype	-6531
▁duration	-6532
▁firstHop	-6533
▁metadata	-6534
▁starting	-6535
("--------	-6536
AbEthField	-6537
AddressAny	-6538
BiConsumer	-6539
Conditions	-6540
Correlated	-6541
DataFormat	-6542
]{1,3}.[0-	-6543
asicThread	-6544
estContext	-6545
freemarker	-6546
getDefault	-6547
getSources	-6548
▁channelId	-6549
▁currently	-6550
▁gatewayIp	-6551
▁jobConfig	-6552
▁messageId	-6553
▁optimizer	-6554
MemoryBlock	-6555
SendRequest	-6556
SystemUtils	-6557
Unconfirmed	-6558
addListener	-6559
blockNumber	-6560
createField	-6561
fancyOption	-6562
fireChannel	-6563
getPlcValue	-6564
liasedField	-6565
stringValue	-6566
toByteArray	-6567
toPrimitive	-6568
voidPromise	-6569
▁DefaultCon	-6570
▁DigestUtil	-6571
▁MiscEntity	-6572
▁addressInt	-6573
▁datapoints	-6574
▁getSources	-6575
▁jsonObject	-6576
▁lowerBound	-6577
▁sendHandle	-6578
▁serializer	-6579
▁splitWrite	-6580
▁writeBlock	-6581
CPUFunctions	-6582
Experimental	-6583
ObjectMapper	-6584
PayloadWrite	-6585
RequestItems	-6586
ServerModule	-6587
TcpTransport	-6588
UnsignedByte	-6589
digitalpetri	-6590
getNamespace	-6591
lementNumber	-6592
pduReference	-6593
withProtocol	-6594
▁StringUtils	-6595
▁compareNode	-6596
▁interrupted	-6597
▁tableCutoff	-6598
ByNameExample	-6599
ChangeOfState	-6600
DeclaredField	-6601
EventExecutor	-6602
PacketBuilder	-6603
RemoteAddress	-6604
Serialization	-6605
ToIntFunction	-6606
irectProvider	-6607
parameterType	-6608
▁COTPTpduSize	-6609
▁JobReference	-6610
▁SourceConfig	-6611
▁SymbolHandle	-6612
▁TcpHexDumper	-6613
▁constructors	-6614
▁outputBuffer	-6615
▁parsedFields	-6616
▁tcpHexDumper	-6617
ParameterWrite	-6618
SingleProtocol	-6619
TemplateHelper	-6620
attributeValue	-6621
bytesAvailable	-6622
clientDatatype	-6623
defaultCharset	-6624
getPoolableKey	-6625
packetConsumer	-6626
serviceRequest	-6627
▁BaseOptimizer	-6628
▁ChannelConfig	-6629
▁ExpectRequest	-6630
▁PacketHandler	-6631
▁StringLiteral	-6632
▁getFieldNames	-6633
FieldDefinition	-6634
KNXGroupAddress	-6635
PlcConnectionOf	-6636
getProtocolCode	-6637
staticSerialize	-6638
symbolicAddress	-6639
transportConfig	-6640
▁DefaultComplex	-6641
▁getFieldParams	-6642
▁instanceNumber	-6643
▁outboundBuffer	-6644
▁poolKeyFactory	-6645
ConnectContainer	-6646
exceptionMessage	-6647
getDiscriminator	-6648
getResponseItems	-6649
getSessionHandle	-6650
isAssignableFrom	-6651
readResponseItem	-6652
requestTimeoutMs	-6653
▁BACnetConfirmed	-6654
▁ChannelPipeline	-6655
▁ConnectedEntity	-6656
▁ModbusFieldCoil	-6657
▁attributeNumber	-6658
▁groupAddressRef	-6659
07	-6660
75	-6661
>"	-6662
AB	-6663
AW	-6664
DL	-6665
Ns	-6666
_(	-6667
ql	-6668
so	-6669
ug	-6670
▁_	-6671
!")	-6672
("-	-6673
("8	-6674
("[	-6675
(){	-6676
+))	-6677
-1)	-6678
.1:	-6679
00)	-6680
003	-6681
02,	-6682
040	-6683
1()	-6684
10,	-6685
5),	-6686
8:6	-6687
:55	-6688
?",	-6689
AIT	-6690
ANA	-6691
CAT	-6692
Fla	-6693
MOR	-6694
Rep	-6695
TED	-6696
UDP	-6697
]).	-6698
]);	-6699
_17	-6700
amq	-6701
ddy	-6702
eno	-6703
lin	-6704
vor	-6705
}).	-6706
▁17	-6707
▁1:	-6708
▁3;	-6709
▁::	-6710
▁AC	-6711
▁CH	-6712
▁Is	-6713
▁bl	-6714
("",	-6715
(10,	-6716
(102	-6717
(5);	-6718
(7);	-6719
(8);	-6720
++){	-6721
/0/0	-6722
0/32	-6723
01::	-6724
02::	-6725
Capt	-6726
Char	-6727
Comm	-6728
Conn	-6729
IsEn	-6730
Isol	-6731
KEEP	-6732
MANA	-6733
MAST	-6734
PREV	-6735
VOID	-6736
[]{(	-6737
_0);	-6738
bove	-6739
buil	-6740
gith	-6741
gson	-6742
npdu	-6743
rack	-6744
sCov	-6745
safe	-6746
slot	-6747
stat	-6748
ttyS	-6749
▁"{"	-6750
▁'{}	-6751
▁10,	-6752
▁Cal	-6753
▁Eip	-6754
▁OUT	-6755
▁TIM	-6756
▁bin	-6757
▁det	-6758
▁dif	-6759
▁ids	-6760
▁ist	-6761
▁now	-6762
▁{*/	-6763
▁}).	-6764
())";	-6765
(:(?<	-6766
)-1),	-6767
:5555	-6768
AsInt	-6769
Invok	-6770
RIVER	-6771
Unary	-6772
_16);	-6773
bined	-6774
delta	-6775
frame	-6776
graph	-6777
plane	-6778
query	-6779
rData	-6780
sapId	-6781
tract	-6782
ushed	-6783
▁UHLI	-6784
▁date	-6785
▁elts	-6786
▁fire	-6787
▁forw	-6788
▁getF	-6789
▁sync	-6790
▁utun	-6791
▁yaml	-6792
("1").	-6793
(0)));	-6794
Create	-6795
Failed	-6796
Finish	-6797
Flavor	-6798
IsNull	-6799
MALLER	-6800
MASTER	-6801
NullPo	-6802
OBJECT	-6803
Plugin	-6804
SERVER	-6805
SOURCE	-6806
TestOn	-6807
aching	-6808
concat	-6809
easure	-6810
enable	-6811
entile	-6812
erNode	-6813
erator	-6814
estOps	-6815
ferent	-6816
fluxDB	-6817
getPos	-6818
github	-6819
ignore	-6820
lables	-6821
layout	-6822
riched	-6823
runner	-6824
symbol	-6825
winCAT	-6826
xNetty	-6827
▁""));	-6828
▁AbEth	-6829
▁apply	-6830
▁child	-6831
▁maven	-6832
▁oData	-6833
▁reset	-6834
▁xpath	-6835
BoolVar	-6836
Comment	-6837
Encoded	-6838
Entries	-6839
Invoked	-6840
IsEnded	-6841
MANAGER	-6842
MyClazz	-6843
Running	-6844
SNAPLEN	-6845
Seconds	-6846
Servers	-6847
ValueId	-6848
builtin	-6849
carding	-6850
changed	-6851
content	-6852
control	-6853
correct	-6854
errored	-6855
espoint	-6856
factory	-6857
fieldId	-6858
findAll	-6859
getCemi	-6860
handles	-6861
isArray	-6862
pConfig	-6863
release	-6864
runtime	-6865
unknown	-6866
▁...");	-6867
▁Python	-6868
▁Routen	-6869
▁curPos	-6870
▁merged	-6871
▁ofLong	-6872
▁option	-6873
▁orelse	-6874
(65535),	-6875
Callable	-6876
Handlers	-6877
Isolated	-6878
constant	-6879
disabled	-6880
fireUser	-6881
fromFile	-6882
getCause	-6883
maxDelay	-6884
newFixed	-6885
pcapFile	-6886
temporal	-6887
▁0.0.0.0	-6888
▁SOURCES	-6889
▁TStream	-6890
▁firmata	-6891
▁leftPad	-6892
▁libpcap	-6893
▁rawData	-6894
▁setting	-6895
:5555/0/0	-6896
Allocator	-6897
CountUtil	-6898
DataTypes	-6899
IntStream	-6900
checkByte	-6901
delivered	-6902
discovery	-6903
ercentile	-6904
fieldType	-6905
framework	-6906
isTypeArg	-6907
localTime	-6908
operation	-6909
remaining	-6910
setTestOn	-6911
stantiate	-6912
▁BacNetIp	-6913
▁Calendar	-6914
▁DateTime	-6915
▁InfluxDB	-6916
▁Iterator	-6917
▁Multiple	-6918
▁Selector	-6919
▁Specific	-6920
▁UNSIGNED	-6921
▁argument	-6922
▁byteSize	-6923
▁callNode	-6924
▁detected	-6925
▁errorPos	-6926
▁getClass	-6927
▁multiple	-6928
▁ofString	-6929
▁opcField	-6930
▁rootType	-6931
▁selector	-6932
▁services	-6933
▁streamOf	-6934
▁subGroup	-6935
0000_0000_	-6936
Attributes	-6937
Compatible	-6938
DataStream	-6939
DefaultPlc	-6940
DigestUtil	-6941
Functional	-6942
IsFinished	-6943
StatusCode	-6944
assertTrue	-6945
deviceName	-6946
easurement	-6947
ernaryTerm	-6948
innerClass	-6949
ipResponse	-6950
iterations	-6951
parameters	-6952
portString	-6953
serialPort	-6954
textLength	-6955
valueBytes	-6956
waterLevel	-6957
xProcessor	-6958
▁AmsRouter	-6959
▁EdeLayout	-6960
▁EventLoop	-6961
▁Simulator	-6962
▁blackhole	-6963
▁connectTo	-6964
▁different	-6965
▁elementNb	-6966
▁extension	-6967
▁getParent	-6968
▁implement	-6969
▁listItems	-6970
▁listeners	-6971
▁mainGroup	-6972
▁memoryUse	-6973
▁messageIO	-6974
▁messageIo	-6975
▁nullValue	-6976
▁propsFile	-6977
▁sourceint	-6978
▁splitRead	-6979
▁timestamp	-6980
▁topicName	-6981
AliasEntity	-6982
AsHexString	-6983
EventSchema	-6984
Interrupted	-6985
KafkaConfig	-6986
MillisSince	-6987
NullPointer	-6988
PrintStream	-6989
Requirement	-6990
binedResult	-6991
constructor	-6992
getAsString	-6993
getFunction	-6994
getInvokeId	-6995
ticleNumber	-6996
▁ArrayField	-6997
▁BiConsumer	-6998
▁EdeVersion	-6999
▁assertPort	-7000
▁checkWrite	-7001
▁definition	-7002
▁floatValue	-7003
▁isNullable	-7004
▁knxAddress	-7005
▁setupSteps	-7006
▁simulation	-7007
▁stringPair	-7008
▁typeString	-7009
10.10.64.40.	-7010
AmsTCPPacket	-7011
ArgumentList	-7012
FieldContext	-7013
FilterString	-7014
MemoryBlocks	-7015
OrExpression	-7016
PayloadItems	-7017
PropertyFile	-7018
StringParser	-7019
VirtualField	-7020
achingEntity	-7021
booleanValue	-7022
getMainGroup	-7023
onitoredItem	-7024
plcFieldName	-7025
toCollection	-7026
▁ElementType	-7027
▁fieldValues	-7028
▁getDateTime	-7029
▁guessSchema	-7030
▁inputStream	-7031
▁numberValue	-7032
▁statusCodes	-7033
▁workerGroup	-7034
AndExpression	-7035
ImplicitField	-7036
ModbusPDURead	-7037
PropertyField	-7038
Registrations	-7039
ResponseItems	-7040
StateResponse	-7041
errorConsumer	-7042
fireConnected	-7043
getConditions	-7044
getIndexGroup	-7045
nAssignerNode	-7046
sumExpression	-7047
xNettyWrapper	-7048
▁AdsPlcDriver	-7049
▁MyDefaultBit	-7050
▁StringBuffer	-7051
▁amsPacketSer	-7052
▁consumerHash	-7053
▁numRunsParse	-7054
▁numberOfRuns	-7055
▁outputPacket	-7056
▁sourceConfig	-7057
://10.10.64.40	-7058
AdsReadRequest	-7059
InstanceNumber	-7060
containsString	-7061
domainProperty	-7062
getMiddleGroup	-7063
getRequestItem	-7064
identifierType	-7065
richedPlcValue	-7066
▁NewExpression	-7067
▁ScrapeJobImpl	-7068
▁ServiceLoader	-7069
▁consumerIdMap	-7070
▁corruptPacket	-7071
▁getFromFuture	-7072
▁numberOfBytes	-7073
AdsReadResponse	-7074
ParseExpression	-7075
PassiveBacNetIp	-7076
PojoDescription	-7077
exampleResponse	-7078
getLocalAddress	-7079
▁AbstractUnsafe	-7080
▁PacketListener	-7081
▁connectOptions	-7082
▁groupAddresses	-7083
▁localIpAddress	-7084
▁mockConnection	-7085
▁packetListener	-7086
▁possibleCauses	-7087
▁referenceValue	-7088
▁requestIsEnded	-7089
▁scanIntervalMs	-7090
("1.2.3.4.5.6");	-7091
ConfirmedRequest	-7092
ExtensionContext	-7093
NamesConfigValue	-7094
ReadRequestItems	-7095
SelectorProvider	-7096
SimulationModule	-7097
booleanByteValue	-7098
invocationOnMock	-7099
transmissionMode	-7100
▁KNXGroupAddress	-7101
▁PythonGenerator	-7102
▁fieldToBeParsed	-7103
▁getSubscription	-7104
▁receiveResponse	-7105
▁variableLiteral	-7106
'}	-7107
({	-7108
,0	-7109
2(	-7110
22	-7111
51	-7112
76	-7113
7]	-7114
:6	-7115
Do	-7116
LL	-7117
OS	-7118
Ob	-7119
PI	-7120
RS	-7121
SP	-7122
SU	-7123
Ty	-7124
["	-7125
ah	-7126
eb	-7127
tm	-7128
vr	-7129
xA	-7130
xC	-7131
xD	-7132
xE	-7133
▁,	-7134
"})	-7135
()>	-7136
(3)	-7137
({"	-7138
)>(	-7139
-01	-7140
.")	-7141
00;	-7142
04:	-7143
1")	-7144
101	-7145
256	-7146
32,	-7147
ANY	-7148
Bpf	-7149
COV	-7150
Dif	-7151
Dir	-7152
FIN	-7153
HND	-7154
Mis	-7155
Now	-7156
Obj	-7157
Opm	-7158
PUT	-7159
REG	-7160
Sco	-7161
Syn	-7162
Try	-7163
Way	-7164
YPE	-7165
[4]	-7166
[])	-7167
_);	-7168
_12	-7169
aos	-7170
cal	-7171
cor	-7172
ies	-7173
oci	-7174
pkt	-7175
pow	-7176
qry	-7177
rid	-7178
sql	-7179
squ	-7180
tab	-7181
tal	-7182
tid	-7183
und	-7184
}))	-7185
▁--	-7186
▁13	-7187
▁56	-7188
▁El	-7189
▁IP	-7190
▁Ip	-7191
▁Re	-7192
▁TO	-7193
")){	-7194
("8.	-7195
()";	-7196
()["	-7197
(17,	-7198
(5.0	-7199
);*/	-7200
.12.	-7201
.23.	-7202
/(?<	-7203
0010	-7204
1"),	-7205
1032	-7206
16",	-7207
32",	-7208
851/	-7209
Crea	-7210
Expo	-7211
Free	-7212
HIGH	-7213
Mult	-7214
PCAP	-7215
RATE	-7216
SERI	-7217
TIMI	-7218
Uint	-7219
Unic	-7220
Uuid	-7221
beha	-7222
cemi	-7223
conf	-7224
dash	-7225
node	-7226
otal	-7227
sole	-7228
sume	-7229
task	-7230
ttys	-7231
vavr	-7232
vior	-7233
▁-1)	-7234
▁0).	-7235
▁181	-7236
▁182	-7237
▁240	-7238
▁2];	-7239
▁37)	-7240
▁API	-7241
▁Ans	-7242
▁Bad	-7243
▁Bpf	-7244
▁Del	-7245
▁Key	-7246
▁MAC	-7247
▁Was	-7248
▁Win	-7249
▁don	-7250
▁old	-7251
▁req	-7252
▁{}:	-7253
(100,	-7254
1.1:3	-7255
Above	-7256
Cause	-7257
Clean	-7258
Dates	-7259
OnThe	-7260
Retry	-7261
SByte	-7262
SPEED	-7263
Scope	-7264
Sysex	-7265
ToUse	-7266
Wrong	-7267
aught	-7268
board	-7269
getId	-7270
loads	-7271
match	-7272
orrow	-7273
squid	-7274
▁24),	-7275
▁6553	-7276
▁JOBS	-7277
▁Type	-7278
▁info	-7279
▁prev	-7280
▁skip	-7281
()[0];	-7282
.10.11	-7283
00}));	-7284
2.168.	-7285
56.23.	-7286
Adding	-7287
Associ	-7288
Broker	-7289
Captor	-7290
Cyclic	-7291
Forwar	-7292
Locale	-7293
NodeId	-7294
OPTIMI	-7295
OpNode	-7296
PARITY	-7297
PerKey	-7298
Synced	-7299
ToWire	-7300
Typing	-7301
[0])),	-7302
[0]));	-7303
_000);	-7304
arDown	-7305
curity	-7306
direct	-7307
entify	-7308
finish	-7309
getBit	-7310
messag	-7311
oolVar	-7312
shorts	-7313
spring	-7314
▁1000,	-7315
▁Asser	-7316
▁Close	-7317
▁await	-7318
▁count	-7319
▁exist	-7320
▁getId	-7321
▁inten	-7322
▁javax	-7323
▁merge	-7324
▁netId	-7325
▁total	-7326
▁xPath	-7327
=1,"));	-7328
AboveTh	-7329
BpfComp	-7330
Cleaner	-7331
Flushed	-7332
IOUtils	-7333
Interop	-7334
NECTION	-7335
Program	-7336
Samples	-7337
Strings	-7338
TimeOut	-7339
Unicast	-7340
WRAPPER	-7341
_1864);	-7342
dedNPDU	-7343
dstAddr	-7344
ecurity	-7345
getFile	-7346
getRoot	-7347
ileMode	-7348
isAlias	-7349
layouts	-7350
running	-7351
srcAddr	-7352
timized	-7353
zipFile	-7354
▁KNXnet	-7355
▁Return	-7356
▁access	-7357
▁active	-7358
▁cyclic	-7359
▁header	-7360
▁ifNode	-7361
▁modbus	-7362
▁please	-7363
▁select	-7364
▁socket	-7365
1.1:851/	-7366
Artifact	-7367
Exponent	-7368
Exposing	-7369
ForField	-7370
JavaType	-7371
OnTheWay	-7372
Timeouts	-7373
Validate	-7374
ValueFor	-7375
ackplane	-7376
adapters	-7377
addEvent	-7378
baseType	-7379
behavior	-7380
exponent	-7381
getFloat	-7382
getRight	-7383
icrosoft	-7384
isEquals	-7385
mapToObj	-7386
oTimeout	-7387
pedField	-7388
readLong	-7389
services	-7390
setValue	-7391
template	-7392
▁BOOLEAN	-7393
▁IsEqual	-7394
▁closing	-7395
▁content	-7396
▁queries	-7397
▁sending	-7398
▁subType	-7399
.12.13");	-7400
AllFields	-7401
CSVRecord	-7402
ElementNb	-7403
Executors	-7404
PROTOCOLS	-7405
Simulated	-7406
XConsumer	-7407
XProducer	-7408
adsDevice	-7409
arraycopy	-7410
compareTo	-7411
dashboard	-7412
getDouble	-7413
getReturn	-7414
isSuccess	-7415
mainGroup	-7416
messaging	-7417
printHelp	-7418
scheduler	-7419
setFilter	-7420
thenThrow	-7421
throwable	-7422
wtBuilder	-7423
▁EdeModel	-7424
▁Exchange	-7425
▁Instanti	-7426
▁Runnable	-7427
▁decoding	-7428
▁devState	-7429
▁disabled	-7430
▁identify	-7431
▁mainType	-7432
▁negative	-7433
▁temporal	-7434
▁typeName	-7435
▁typeSafe	-7436
Associated	-7437
ByteOutput	-7438
PcapHandle	-7439
PlcBoolean	-7440
SampleSize	-7441
Statements	-7442
XSupported	-7443
byteOffset	-7444
ethernetip	-7445
getPoolKey	-7446
iasedField	-7447
isNotEmpty	-7448
setSuccess	-7449
simulation	-7450
subRequest	-7451
toHashCode	-7452
triggerVar	-7453
typeString	-7454
upperBound	-7455
withPacket	-7456
▁EnumValue	-7457
▁ModbusPDU	-7458
▁UnaryTerm	-7459
▁currentAD	-7460
▁doConnect	-7461
▁getValues	-7462
▁localAddr	-7463
▁onConnect	-7464
▁requested	-7465
▁sentButUn	-7466
▁serialzer	-7467
▁spaceName	-7468
ManualField	-7469
NamesConfig	-7470
PlcFieldMap	-7471
PoolCreator	-7472
Termination	-7473
UnicastNPDU	-7474
UnsignedInt	-7475
contextName	-7476
descriptive	-7477
findAllDevs	-7478
getLoopType	-7479
▁BpfProgram	-7480
▁CONNECTION	-7481
▁ConcatType	-7482
▁Disconnect	-7483
▁anyAddress	-7484
▁applyAsInt	-7485
▁assignNode	-7486
▁getPoolKey	-7487
▁isNotEmpty	-7488
▁jobBuilder	-7489
▁parentType	-7490
▁readFuture	-7491
10.10.56.23.	-7492
ConsumerHash	-7493
Disconnected	-7494
MessageFrame	-7495
Relationship	-7496
amsTcpHeader	-7497
canSubscribe	-7498
configValues	-7499
containsOnly	-7500
currentValue	-7501
getOperation	-7502
notNullValue	-7503
readResponse	-7504
ryIntervalMs	-7505
ugAssignNode	-7506
whenComplete	-7507
▁AmsPacketIO	-7508
▁TestRequest	-7509
▁Unconnected	-7510
▁addressType	-7511
▁allocHandle	-7512
▁assertFalse	-7513
▁fetchAndSet	-7514
▁inetAddress	-7515
▁initChannel	-7516
▁instantiate	-7517
▁internalPlc	-7518
▁originalPlc	-7519
▁plcResponse	-7520
▁sourceEntry	-7521
▁triggerType	-7522
▁writeFuture	-7523
▁writeLength	-7524
/10.10.64.40.	-7525
BroadcastNPDU	-7526
DataTypePairs	-7527
DefaultTyping	-7528
EqualsBuilder	-7529
ForwardedNPDU	-7530
InteropServer	-7531
containsEntry	-7532
discriminator	-7533
getComparator	-7534
jobReferences	-7535
triggerConfig	-7536
▁Serializable	-7537
▁TPKTPacketIO	-7538
▁UdpTransport	-7539
▁clientHandle	-7540
▁constantName	-7541
▁datapointSub	-7542
▁digitalField	-7543
▁mavenWrapper	-7544
▁paddingValue	-7545
AboveThreshold	-7546
AmsSerialFrame	-7547
BpfCompileMode	-7548
COTPPacketData	-7549
CompatibleWith	-7550
CorruptPackage	-7551
Implementation	-7552
LanguageOutput	-7553
PlcFieldConfig	-7554
RequestElement	-7555
ResolveAddress	-7556
ResponseFuture	-7557
ScrapeInterval	-7558
SerialProtocol	-7559
amsPacketBytes	-7560
atedDriverByte	-7561
comparatorType	-7562
getIndexOffset	-7563
getNumElements	-7564
getTransaction	-7565
parameterValue	-7566
payloadBuilder	-7567
requestElement	-7568
responseFuture	-7569
scrapeInterval	-7570
simpleBaseType	-7571
▁ConveyorState	-7572
▁Elasticsearch	-7573
▁EqualsBuilder	-7574
▁GetConnection	-7575
▁LinkedHashSet	-7576
▁adsConnection	-7577
▁jobReferences	-7578
.10.11.12.13");	-7579
AdsSubscription	-7580
DriverTestsuite	-7581
NetworkSettings	-7582
PayloadProtocol	-7583
PollingConsumer	-7584
RegisterSession	-7585
ToStringBuilder	-7586
UnsignedShortLE	-7587
XContentBuilder	-7588
adsStampHeaders	-7589
executorService	-7590
getCompareValue	-7591
inboundMessages	-7592
springframework	-7593
variableLiteral	-7594
▁SimulatorState	-7595
▁acquiredObject	-7596
▁combinedResult	-7597
▁containsString	-7598
▁curRequestSize	-7599
▁gatewayAddress	-7600
▁newEndpointUrl	-7601
▁protocolNumber	-7602
▁requestElement	-7603
▁scrapeInterval	-7604
▁serviceRequest	-7605
▁unitIdentifier	-7606
AdsWriteResponse	-7607
ByteBufAllocator	-7608
CounterGenerator	-7609
getRemoteAddress	-7610
getUnsignedShort	-7611
groupAddressType	-7612
jobConfiguration	-7613
methodDefinition	-7614
outboundMessages	-7615
▁AdsFieldHandler	-7616
▁ChannelMetadata	-7617
▁EmbeddedChannel	-7618
▁HashCodeBuilder	-7619
▁ScraperTaskImpl	-7620
▁ToStringBuilder	-7621
▁adsSubscription	-7622
▁curResponseSize	-7623
▁getNotification	-7624
▁pollingInterval	-7625
▁promiseCombiner	-7626
▁sourceFieldName	-7627
▁timeMillisSince	-7628
/"	-7629
/8	-7630
36	-7631
4)	-7632
7;	-7633
86	-7634
87	-7635
?/	-7636
GO	-7637
Gr	-7638
MX	-7639
OW	-7640
QL	-7641
SO	-7642
We	-7643
]*	-7644
ai	-7645
az	-7646
bc	-7647
cl	-7648
cs	-7649
da	-7650
eg	-7651
lf	-7652
lr	-7653
ya	-7654
",\	-7655
');	-7656
(33	-7657
.\"	-7658
/1/	-7659
080	-7660
1.5	-7661
167	-7662
2.5	-7663
254	-7664
4),	-7665
8(0	-7666
<--	-7667
ACT	-7668
CSI	-7669
DAT	-7670
DEF	-7671
DIS	-7672
Day	-7673
FER	-7674
IED	-7675
IPV	-7676
KER	-7677
LUS	-7678
MBO	-7679
SON	-7680
Top	-7681
UNT	-7682
WOR	-7683
[],	-7684
cUa	-7685
cis	-7686
ctn	-7687
evt	-7688
faz	-7689
fqn	-7690
iis	-7691
ill	-7692
jin	-7693
nam	-7694
och	-7695
ref	-7696
stu	-7697
ves	-7698
vlc	-7699
wat	-7700
{},	-7701
▁":	-7702
▁";	-7703
▁))	-7704
▁,(	-7705
▁2:	-7706
▁40	-7707
▁De	-7708
▁LO	-7709
▁MS	-7710
▁SA	-7711
▁ok	-7712
▁su	-7713
▁tt	-7714
▁ut	-7715
!"),	-7716
(1).	-7717
)"),	-7718
),//	-7719
0));	-7720
00::	-7721
1));	-7722
232_	-7723
64",	-7724
:/?/	-7725
<>((	-7726
<?>,	-7727
COMP	-7728
DIFF	-7729
Elts	-7730
FACT	-7731
FILE	-7732
INFO	-7733
LIST	-7734
Orel	-7735
Part	-7736
ROAD	-7737
SION	-7738
SUPP	-7739
TIVE	-7740
TODO	-7741
UUID	-7742
VENT	-7743
Wait	-7744
[4];	-7745
_182	-7746
ahya	-7747
apdu	-7748
asdf	-7749
ason	-7750
chri	-7751
cool	-7752
cust	-7753
daem	-7754
flat	-7755
greg	-7756
hive	-7757
ired	-7758
isib	-7759
ling	-7760
linq	-7761
oted	-7762
pair	-7763
poll	-7764
sert	-7765
trim	-7766
uuid	-7767
{1,5	-7768
{1,7	-7769
▁"("	-7770
▁"((	-7771
▁"))	-7772
▁":"	-7773
▁"}\	-7774
▁1).	-7775
▁10\	-7776
▁127	-7777
▁3);	-7778
▁64;	-7779
▁ALL	-7780
▁Cpf	-7781
▁IpV	-7782
▁Num	-7783
▁Szl	-7784
▁URI	-7785
▁arp	-7786
▁awa	-7787
▁big	-7788
▁dst	-7789
▁due	-7790
▁fqn	-7791
▁ipv	-7792
▁src	-7793
▁too	-7794
▁top	-7795
▁uri	-7796
"))).	-7797
(15);	-7798
--");	-7799
16010	-7800
2})",	-7801
://12	-7802
ATYPE	-7803
Added	-7804
BOUND	-7805
CYCLE	-7806
Cache	-7807
ENCES	-7808
ERIES	-7809
Epoch	-7810
Grace	-7811
Intel	-7812
Multi	-7813
REFER	-7814
Scrap	-7815
TOPIC	-7816
UTURE	-7817
\".\"	-7818
ables	-7819
antlr	-7820
atory	-7821
buddy	-7822
dereg	-7823
ecast	-7824
flush	-7825
ineno	-7826
reset	-7827
ridge	-7828
stash	-7829
tener	-7830
▁"0")	-7831
▁"]).	-7832
▁64),	-7833
▁CONF	-7834
▁Send	-7835
▁Tree	-7836
▁been	-7837
▁bvlc	-7838
▁crcR	-7839
▁crea	-7840
▁diff	-7841
▁expr	-7842
▁flag	-7843
▁flex	-7844
▁free	-7845
▁here	-7846
▁iter	-7847
▁look	-7848
▁mand	-7849
▁mqtt	-7850
▁next	-7851
▁oper	-7852
▁path	-7853
▁posi	-7854
▁rate	-7855
▁recv	-7856
▁than	-7857
("(<--	-7858
(",");	-7859
.10.56	-7860
00::/8	-7861
840001	-7862
DENIED	-7863
Duplic	-7864
FACTOR	-7865
ItemTo	-7866
KEEPER	-7867
LENGTH	-7868
Orelse	-7869
Precis	-7870
REGIST	-7871
WORKER	-7872
adslib	-7873
alform	-7874
amqCal	-7875
atives	-7876
ctness	-7877
custom	-7878
daemon	-7879
ertank	-7880
getEde	-7881
getInt	-7882
getTim	-7883
hivemq	-7884
isOpen	-7885
naming	-7886
offset	-7887
pduRef	-7888
stamps	-7889
thread	-7890
▁"\"";	-7891
▁10000	-7892
▁1000;	-7893
▁1001,	-7894
▁Files	-7895
▁Label	-7896
▁SPEED	-7897
▁SYMBO	-7898
▁TOPIC	-7899
▁Table	-7900
▁UHLWI	-7901
▁limit	-7902
▁rData	-7903
▁route	-7904
▁stack	-7905
▁tdpus	-7906
▁{0}")	-7907
▁{})",	-7908
(-1),//	-7909
0001032	-7910
:/?/?",	-7911
AMSPort	-7912
ByteVar	-7913
Capture	-7914
Created	-7915
Current	-7916
Gateway	-7917
KeyFile	-7918
Locales	-7919
LongVar	-7920
NamePos	-7921
Padding	-7922
QUERIES	-7923
SOURCES	-7924
Scrapes	-7925
TwinCAT	-7926
VERSION	-7927
WinTime	-7928
ardware	-7929
defined	-7930
edeFile	-7931
enabled	-7932
entries	-7933
flatMap	-7934
getNpdu	-7935
getPath	-7936
getPcap	-7937
getPort	-7938
getTest	-7939
gregate	-7940
isValid	-7941
jSerial	-7942
jinahya	-7943
knxData	-7944
nextInt	-7945
pOutput	-7946
resolve	-7947
seconds	-7948
tepType	-7949
uleNode	-7950
▁1000.5	-7951
▁1001.5	-7952
▁1002);	-7953
▁1002.5	-7954
▁FIELDS	-7955
▁MyNode	-7956
▁Plugin	-7957
▁Random	-7958
▁Syntax	-7959
▁concat	-7960
▁detect	-7961
▁fieldH	-7962
▁getFqn	-7963
▁getPos	-7964
▁intVar	-7965
▁struct	-7966
▁termin	-7967
▁tpduId	-7968
********	-7969
+)])?");	-7970
........	-7971
AdsState	-7972
Channels	-7973
DATATYPE	-7974
Declarer	-7975
Distribu	-7976
InfluxDB	-7977
ItemType	-7978
OOKEEPER	-7979
PlcShort	-7980
ROADCAST	-7981
ShortVar	-7982
Stopping	-7983
Topology	-7984
ValuePos	-7985
ablePart	-7986
ductData	-7987
embedded	-7988
evaluate	-7989
exchange	-7990
fazecast	-7991
finisher	-7992
flowFile	-7993
fromArgs	-7994
hexValue	-7995
instanti	-7996
itSetupC	-7997
listener	-7998
maxValue	-7999
minValue	-8000
poolSize	-8001
property	-8002
selector	-8003
tespoint	-8004
topology	-8005
trySleep	-8006
validate	-8007
xcontent	-8008
▁Capture	-8009
▁HexDump	-8010
▁INVALID	-8011
▁Modules	-8012
▁TreeMap	-8013
▁aDouble	-8014
▁adsRead	-8015
▁amsPort	-8016
▁byteVar	-8017
▁bytesTo	-8018
▁convert	-8019
▁defined	-8020
▁dynamic	-8021
▁edeFile	-8022
▁getBody	-8023
▁getJobs	-8024
▁hiLimit	-8025
▁isArray	-8026
▁keyName	-8027
▁longVar	-8028
▁minimum	-8029
▁objects	-8030
▁operand	-8031
▁printer	-8032
▁refetch	-8033
▁reflect	-8034
▁tagName	-8035
▁writeIn	-8036
AmsSerial	-8037
BaseTable	-8038
ByteInput	-8039
CONNECTED	-8040
DataValue	-8041
EnumEntry	-8042
FrameData	-8043
Generated	-8044
Namespace	-8045
Precision	-8046
ReadBytes	-8047
Something	-8048
StringHex	-8049
Validator	-8050
ValuedMap	-8051
actionGet	-8052
apability	-8053
arityBits	-8054
bitOffset	-8055
bytebuddy	-8056
cUaClient	-8057
commandId	-8058
getNumber	-8059
inputPath	-8060
isibility	-8061
itialized	-8062
plcDriver	-8063
readFloat	-8064
responses	-8065
trictness	-8066
utableInt	-8067
watertank	-8068
xmlString	-8069
▁10.10.56	-8070
▁Elements	-8071
▁FirstHop	-8072
▁LoopType	-8073
▁Netzwerk	-8074
▁Services	-8075
▁Testcase	-8076
▁conveyor	-8077
▁crcBytes	-8078
▁edeFiles	-8079
▁elements	-8080
▁features	-8081
▁fileType	-8082
▁getNamed	-8083
▁hostname	-8084
▁identity	-8085
▁lowLimit	-8086
▁numBytes	-8087
▁poolSize	-8088
▁positive	-8089
▁shortVar	-8090
▁solution	-8091
▁startPos	-8092
▁tpduSize	-8093
▁unitCode	-8094
▁username	-8095
▁writeOne	-8096
("(.{2})",	-8097
10.10.64.2	-8098
AdsRequest	-8099
BuilderMap	-8100
Completion	-8101
Containing	-8102
Exceptions	-8103
Gracefully	-8104
Importance	-8105
InstanceOf	-8106
IntegerVar	-8107
MethodTest	-8108
REFERENCES	-8109
ReadLength	-8110
UriPattern	-8111
ableEntity	-8112
addressInt	-8113
dataLength	-8114
deregister	-8115
escriptors	-8116
getSubType	-8117
instanceOf	-8118
longValues	-8119
otedString	-8120
readLength	-8121
registered	-8122
setFailure	-8123
stateFlags	-8124
viousValue	-8125
▁224.0.0.0	-8126
▁240.0.0.0	-8127
▁Reference	-8128
▁SAXReader	-8129
▁Tunneling	-8130
▁XmlMapper	-8131
▁aggregate	-8132
▁bitNumber	-8133
▁callables	-8134
▁curValues	-8135
▁delivered	-8136
▁driverMap	-8137
▁equalsAnd	-8138
▁etherType	-8139
▁getAsByte	-8140
▁jobFields	-8141
▁mandatory	-8142
▁mapFields	-8143
▁plcValues	-8144
▁primitive	-8145
▁processor	-8146
▁receiving	-8147
▁remoteIpV	-8148
▁resultMap	-8149
▁statement	-8150
▁stopWatch	-8151
▁stringVar	-8152
▁tcpLength	-8153
AdsAbstract	-8154
Configuring	-8155
DataContext	-8156
DeviceGroup	-8157
DynamicTest	-8158
InstancePos	-8159
MagicCookie	-8160
MessageType	-8161
NetIdString	-8162
Serializing	-8163
addProperty	-8164
currentTdpu	-8165
getEncoding	-8166
getEndpoint	-8167
getExponent	-8168
getInternal	-8169
getMainType	-8170
jSerialComm	-8171
newConsumer	-8172
setProperty	-8173
unsubscribe	-8174
xSourceTask	-8175
▁Assertions	-8176
▁BiFunction	-8177
▁Freemarker	-8178
▁JsonObject	-8179
▁ModuleNode	-8180
▁addHandles	-8181
▁addressMap	-8182
▁canResolve	-8183
▁concatType	-8184
▁cotpPacket	-8185
▁currentRef	-8186
▁endParsing	-8187
▁enumValues	-8188
▁fileNumber	-8189
▁getJobName	-8190
▁getOptions	-8191
▁handleList	-8192
▁isAbstract	-8193
▁loopThread	-8194
▁objectName	-8195
▁packetData	-8196
▁releaseAll	-8197
▁resultType	-8198
▁returnType	-8199
▁sampleSize	-8200
▁serialPort	-8201
▁stringItem	-8202
:5555/0/0");	-8203
AdsException	-8204
AliasedField	-8205
ByteArrayVar	-8206
ConfirmedCOV	-8207
Constructors	-8208
Distribution	-8209
PlcFieldPair	-8210
RemoverClass	-8211
RouteBuilder	-8212
StateRequest	-8213
TemplateList	-8214
UdpTransport	-8215
WorkerConfig	-8216
getBitNumber	-8217
getLocalHost	-8218
getLocalPort	-8219
getPlcConfig	-8220
getTimestamp	-8221
igDecimalVar	-8222
javaDataType	-8223
majorVersion	-8224
minorVersion	-8225
pecTemplates	-8226
poolablePart	-8227
previousMode	-8228
replaceFirst	-8229
selectionKey	-8230
serverSocket	-8231
▁AdsSyncRead	-8232
▁AliasEntity	-8233
▁BasicThread	-8234
▁GuessSchema	-8235
▁YAMLFactory	-8236
▁awaitSetupC	-8237
▁commandable	-8238
▁factoryData	-8239
▁getDataType	-8240
▁getPlcField	-8241
▁mappedField	-8242
▁middleGroup	-8243
▁readValueId	-8244
▁serializing	-8245
▁sourceTopic	-8246
▁speedFactor	-8247
▁structValue	-8248
▁supportsCov	-8249
BaseOptimizer	-8250
CastException	-8251
EntityManager	-8252
ExampleServer	-8253
ExceptionTest	-8254
LinkedHashMap	-8255
MonitoredItem	-8256
PropertyValue	-8257
ReservedField	-8258
StringLiteral	-8259
ValuedHashMap	-8260
checkSupplier	-8261
countElements	-8262
driverContext	-8263
getParentFile	-8264
getPercentile	-8265
istanceSensor	-8266
namingPattern	-8267
sourceAddress	-8268
triggerResult	-8269
typeReference	-8270
vNotification	-8271
▁BVLCOriginal	-8272
▁BlockBuilder	-8273
▁DefaultNetty	-8274
▁aliasedField	-8275
▁cotpTpduSize	-8276
▁discoveryUrl	-8277
▁dynamicTests	-8278
▁fieldQueryFn	-8279
▁getMessageIO	-8280
▁identityItem	-8281
▁initializing	-8282
▁objectNumber	-8283
▁previousMode	-8284
▁requestItems	-8285
▁scrapeRateMs	-8286
▁unreferenced	-8287
ConnectedEvent	-8288
EpRequirements	-8289
FieldValueItem	-8290
NetIPMessageIO	-8291
NumericLiteral	-8292
ParameterItems	-8293
PlcIoException	-8294
PropertyFields	-8295
ScheduledTasks	-8296
TemplateLoader	-8297
controllerType	-8298
intendationLvl	-8299
quantityString	-8300
testpointNames	-8301
▁SocketChannel	-8302
▁complexString	-8303
▁elementNumber	-8304
▁registrations	-8305
▁teardownSteps	-8306
DatagramChannel	-8307
ReadSzlResponse	-8308
connectionAlias	-8309
ercentageFailed	-8310
fieldToBeParsed	-8311
genericDatatype	-8312
getConnectionId	-8313
getResponseItem	-8314
isSerializerArg	-8315
localDateValues	-8316
localTimeValues	-8317
▁DirectProvider	-8318
▁TriggerHandler	-8319
▁comparatorType	-8320
▁getDescription	-8321
▁getInitialized	-8322
▁lastPacketTime	-8323
▁messageIoClass	-8324
▁monitoringMode	-8325
▁requestCounter	-8326
▁requestMessage	-8327
▁safeCastDouble	-8328
▁successCounter	-8329
▁testpointNames	-8330
▁vendorSpecific	-8331
CipEncapsulation	-8332
DataItemResponse	-8333
InputRequirement	-8334
RawSocketChannel	-8335
addChangeOfState	-8336
bigIntegerValues	-8337
ioEventLoopGroup	-8338
pOutputCollector	-8339
remoteMacAddress	-8340
serialDefinition	-8341
▁PcapInputStream	-8342
▁PlcFieldRequest	-8343
▁PojoDescription	-8344
▁ReturnStatement	-8345
▁SerialTransport	-8346
▁aggregateLength	-8347
▁bigIntegerValue	-8348
▁getGroupAddress	-8349
▁inboundMessages	-8350
▁isSerializerArg	-8351
▁jobFieldAddress	-8352
▁keyedObjectPool	-8353
▁lastAcquirement	-8354
▁messageOnTheWay	-8355
▁simpleThrowable	-8356
▁testNewConsumer	-8357
▁triggerStrategy	-8358
▁valueExpression	-8359
▁writtenDataList	-8360
)<	-8361
)>	-8362
."	-8363
17	-8364
1>	-8365
21	-8366
48	-8367
5;	-8368
6;	-8369
8;	-8370
:{	-8371
?)	-8372
RY	-8373
Sh	-8374
Wh	-8375
[6	-8376
_3	-8377
by	-8378
cI	-8379
cf	-8380
lh	-8381
","	-8382
("&	-8383
(":	-8384
("=	-8385
("|	-8386
()+	-8387
)==	-8388
*")	-8389
.*)	-8390
0(0	-8391
08,	-8392
0:5	-8393
10)	-8394
16,	-8395
16.	-8396
4")	-8397
4(0	-8398
400	-8399
7";	-8400
AMP	-8401
ANS	-8402
AUD	-8403
Api	-8404
Arp	-8405
CAP	-8406
CEI	-8407
Dep	-8408
ETS	-8409
Exp	-8410
FET	-8411
FUN	-8412
Gen	-8413
Iss	-8414
KCS	-8415
KEY	-8416
Lex	-8417
OCH	-8418
PEN	-8419
ROL	-8420
Row	-8421
Seb	-8422
TEN	-8423
UTC	-8424
VEN	-8425
XML	-8426
Xor	-8427
[5]	-8428
arp	-8429
cas	-8430
cip	-8431
dut	-8432
eta	-8433
ffL	-8434
isP	-8435
mal	-8436
man	-8437
mer	-8438
non	-8439
obj	-8440
oio	-8441
tor	-8442
ues	-8443
vid	-8444
})(	-8445
▁!(	-8446
▁(1	-8447
▁-=	-8448
▁20	-8449
▁6,	-8450
▁Fl	-8451
▁OP	-8452
▁jo	-8453
▁pe	-8454
▁we	-8455
")))	-8456
("{}	-8457
(100	-8458
(4),	-8459
(6);	-8460
))),	-8461
.0);	-8462
.0;\	-8463
0");	-8464
01",	-8465
0100	-8466
1.0,	-8467
1/1/	-8468
2));	-8469
:443	-8470
>[\\	-8471
ATUS	-8472
Attr	-8473
CHED	-8474
Coll	-8475
Core	-8476
FFFF	-8477
FULL	-8478
FUNC	-8479
Firm	-8480
JOBS	-8481
LAST	-8482
LOSE	-8483
Load	-8484
MAIN	-8485
MEAN	-8486
More	-8487
Nano	-8488
PATH	-8489
PEND	-8490
Pret	-8491
TEST	-8492
Vari	-8493
Yaml	-8494
]+))	-8495
_16,	-8496
_32,	-8497
asti	-8498
bing	-8499
desc	-8500
does	-8501
duce	-8502
dutz	-8503
ends	-8504
ftlh	-8505
mLWI	-8506
ofer	-8507
olyn	-8508
prev	-8509
resp	-8510
reth	-8511
rote	-8512
temp	-8513
tets	-8514
xURI	-8515
|(?<	-8516
▁"")	-8517
▁")"	-8518
▁({}	-8519
▁...	-8520
▁187	-8521
▁42,	-8522
▁488	-8523
▁Due	-8524
▁EDE	-8525
▁Log	-8526
▁Str	-8527
▁UCI	-8528
▁des	-8529
▁fix	-8530
▁idx	-8531
▁mil	-8532
▁msb	-8533
▁pop	-8534
▁ret	-8535
▁spl	-8536
");*/	-8537
("(?<	-8538
(1000	-8539
(14),	-8540
);");	-8541
1}));	-8542
ACNET	-8543
AWAIT	-8544
CEIVE	-8545
Decla	-8546
ERMIN	-8547
EXIST	-8548
FORCE	-8549
ILURE	-8550
Lexer	-8551
Nanos	-8552
OfDay	-8553
Pcaps	-8554
SETUP	-8555
Setup	-8556
UBLIC	-8557
Users	-8558
VLANS	-8559
]+)\\	-8560
boxed	-8561
hello	-8562
isNot	-8563
karaf	-8564
omial	-8565
pAddr	-8566
patch	-8567
pools	-8568
posed	-8569
tdpus	-8570
tiles	-8571
ually	-8572
uplex	-8573
▁13);	-8574
▁Args	-8575
▁BASE	-8576
▁CONN	-8577
▁DFDL	-8578
▁Null	-8579
▁PCAP	-8580
▁SERI	-8581
▁apdu	-8582
▁attr	-8583
▁buil	-8584
▁done	-8585
▁getB	-8586
▁getL	-8587
▁mode	-8588
▁over	-8589
▁part	-8590
▁pass	-8591
▁poll	-8592
▁rack	-8593
▁some	-8594
▁went	-8595
▁will	-8596
▁wire	-8597
▁{");	-8598
(".");	-8599
("}");	-8600
()>1){	-8601
(1.0),	-8602
(1_000	-8603
Apache	-8604
BYNAME	-8605
Bridge	-8606
CHANGE	-8607
Column	-8608
Depend	-8609
ESTAMP	-8610
FuncEx	-8611
ItemIO	-8612
Padded	-8613
Pretty	-8614
RefGen	-8615
Report	-8616
Repres	-8617
SERIAL	-8618
Should	-8619
Trying	-8620
aiting	-8621
answer	-8622
astian	-8623
bitPos	-8624
blocks	-8625
byByte	-8626
caught	-8627
christ	-8628
failed	-8629
getNum	-8630
getter	-8631
public	-8632
putAll	-8633
raping	-8634
struct	-8635
verage	-8636
withId	-8637
▁1:0:5	-8638
▁Async	-8639
▁Index	-8640
▁MAVEN	-8641
▁MBean	-8642
▁OPCUA	-8643
▁Point	-8644
▁SBYTE	-8645
▁delay	-8646
▁netid	-8647
▁pFunc	-8648
▁runIn	-8649
▁trans	-8650
(10.0),	-8651
10.1/1/	-8652
254.254	-8653
:10.10.	-8654
CInflux	-8655
FETCHED	-8656
FromMap	-8657
MEANING	-8658
PlcLong	-8659
Receive	-8660
Release	-8661
Started	-8662
Station	-8663
Writing	-8664
achable	-8665
anyLong	-8666
ayloads	-8667
between	-8668
cording	-8669
edClazz	-8670
feature	-8671
gateway	-8672
getMqtt	-8673
ginRead	-8674
lowable	-8675
numIdle	-8676
samples	-8677
stuctor	-8678
toBlock	-8679
xStream	-8680
▁'{}'",	-8681
▁------	-8682
▁AMSADS	-8683
▁Labels	-8684
▁MyPojo	-8685
▁Search	-8686
▁Static	-8687
▁Status	-8688
▁UHmLWI	-8689
▁amqCal	-8690
▁change	-8691
▁define	-8692
▁esNode	-8693
▁getKey	-8694
▁getSub	-8695
▁ignore	-8696
▁nonCip	-8697
▁replay	-8698
▁symbol	-8699
▁trying	-8700
COMPLETE	-8701
DataTree	-8702
Decoding	-8703
Delegate	-8704
ERMINATE	-8705
ESERVICE	-8706
FUNCTION	-8707
Firmware	-8708
FromNode	-8709
InMillis	-8710
ItemSize	-8711
LOCATION	-8712
LogLevel	-8713
Mantissa	-8714
Overflow	-8715
Projects	-8716
REGISTRY	-8717
duLength	-8718
edReader	-8719
endBlock	-8720
endsWith	-8721
firstHop	-8722
getDecla	-8723
getQuery	-8724
hostname	-8725
isPublic	-8726
location	-8727
logstash	-8728
nHexDump	-8729
ordUtils	-8730
rethrows	-8731
security	-8732
subGroup	-8733
writeInt	-8734
▁224.0.0	-8735
▁Answers	-8736
▁BasePlc	-8737
▁Malform	-8738
▁MyState	-8739
▁PlcByte	-8740
▁Runtime	-8741
▁SERVICE	-8742
▁changed	-8743
▁charset	-8744
▁configs	-8745
▁forward	-8746
▁getMain	-8747
▁getTdpu	-8748
▁getTest	-8749
▁maxSize	-8750
▁myClazz	-8751
▁numBits	-8752
▁onError	-8753
▁reached	-8754
▁setBody	-8755
▁setName	-8756
▁started	-8757
▁winTime	-8758
1.1:30000	-8759
11111111)	-8760
BigEndian	-8761
BitString	-8762
Blackhole	-8763
Dependent	-8764
Documents	-8765
EnumField	-8766
EtherType	-8767
Immutable	-8768
Listeners	-8769
PlcStruct	-8770
RetryTime	-8771
Sebastian	-8772
Statistic	-8773
TestField	-8774
UdpPacket	-8775
UnaryTerm	-8776
checkOpen	-8777
connector	-8778
datapoint	-8779
elementNb	-8780
jobFields	-8781
mainClass	-8782
mapFields	-8783
nullValue	-8784
ofSeconds	-8785
olynomial	-8786
oneOffset	-8787
parseByte	-8788
ringClass	-8789
templates	-8790
▁INSTANCE	-8791
▁OpcuaSub	-8792
▁StepType	-8793
▁UINTEGER	-8794
▁UInteger	-8795
▁aliasMap	-8796
▁baudRate	-8797
▁building	-8798
▁creating	-8799
▁dataBits	-8800
▁floatVar	-8801
▁flowFile	-8802
▁parseTia	-8803
▁readyOps	-8804
▁scraping	-8805
▁setField	-8806
▁splitter	-8807
▁stopBits	-8808
▁stopping	-8809
BiFunction	-8810
ByteOffset	-8811
CipService	-8812
ConfigSpec	-8813
ConstField	-8814
DataLength	-8815
EnipPacket	-8816
Enumerable	-8817
Freemarker	-8818
ParityBits	-8819
Registered	-8820
StatusItem	-8821
UpperBound	-8822
appendText	-8823
canResolve	-8824
christofer	-8825
concatType	-8826
configName	-8827
correlated	-8828
curRequest	-8829
encodeByte	-8830
ercentiles	-8831
getContext	-8832
getMethods	-8833
getPattern	-8834
memoryArea	-8835
scrapeRate	-8836
sizeInBits	-8837
sourceName	-8838
standalone	-8839
startBlock	-8840
statistics	-8841
stringPair	-8842
thenAnswer	-8843
writerWith	-8844
xBaseTable	-8845
|\\*))/(?<	-8846
▁BadEntity	-8847
▁EnumField	-8848
▁Generator	-8849
▁Processor	-8850
▁accessing	-8851
▁component	-8852
▁doubleVar	-8853
▁endpoints	-8854
▁execution	-8855
▁getDriver	-8856
▁getHandle	-8857
▁getPacket	-8858
▁jobValues	-8859
▁localRack	-8860
▁localSlot	-8861
▁onTimeout	-8862
▁outputDir	-8863
▁parentCtx	-8864
▁setTarget	-8865
▁subFuture	-8866
▁threshold	-8867
▁tryFinish	-8868
▁typeEntry	-8869
00000000_00	-8870
254.254.254	-8871
CommandCode	-8872
CyclicField	-8873
Differences	-8874
Measurement	-8875
PayloadRead	-8876
RelDataType	-8877
RequirePcap	-8878
SERVERCYCLE	-8879
SimpleField	-8880
SizeInBytes	-8881
Unconnected	-8882
YAMLFactory	-8883
classLoader	-8884
defineField	-8885
dummydriver	-8886
fullRequest	-8887
getExchange	-8888
getSecurity	-8889
getServices	-8890
getTemplate	-8891
initializer	-8892
izePipeline	-8893
paramString	-8894
sourceTopic	-8895
testAddress	-8896
triggerType	-8897
▁ArrayDeque	-8898
▁BufferUtil	-8899
▁DataItemIO	-8900
▁MutableInt	-8901
▁Percentage	-8902
▁SendRRData	-8903
▁Visibility	-8904
▁actualSize	-8905
▁adsLibPort	-8906
▁connecting	-8907
▁constuctor	-8908
▁getCommand	-8909
▁getPayload	-8910
▁getSupport	-8911
▁getTrigger	-8912
▁maxConnect	-8913
▁parityBits	-8914
▁plcAdapter	-8915
▁predefined	-8916
▁protocolId	-8917
▁remoteRack	-8918
▁remoteSlot	-8919
▁safeString	-8920
▁triggerVar	-8921
------------	-8922
AmsTcpHeader	-8923
CoilsRequest	-8924
DataTreeItem	-8925
FieldHandler	-8926
PaddingField	-8927
PooledObject	-8928
PreviousMode	-8929
TestRunnable	-8930
TriggerState	-8931
acheDuration	-8932
adsAddDevice	-8933
amsPacketSer	-8934
defaultValue	-8935
fieldHandler	-8936
getCemiFrame	-8937
getElementNb	-8938
getSpaceName	-8939
isAnnotation	-8940
parseBoolean	-8941
protocolBase	-8942
protocolName	-8943
registration	-8944
setException	-8945
varParameter	-8946
writeFailure	-8947
xStreamTable	-8948
▁Application	-8949
▁ArgsContext	-8950
▁BaseDefault	-8951
▁CipExchange	-8952
▁MSpecParser	-8953
▁RawIpSocket	-8954
▁RestContext	-8955
▁TernaryTerm	-8956
▁UnknownType	-8957
▁analogField	-8958
▁builderItem	-8959
▁decodeParam	-8960
▁digitalPins	-8961
▁getUserData	-8962
▁handleError	-8963
▁interestOps	-8964
▁isValidByte	-8965
▁isValidDate	-8966
▁isValidLong	-8967
▁isValidTime	-8968
▁keywordNode	-8969
▁parsedField	-8970
▁poolCreator	-8971
▁prefixSplit	-8972
▁productData	-8973
▁runInThread	-8974
▁unprotected	-8975
▁valueChange	-8976
00000000_0000	-8977
AbstractField	-8978
AtomicBoolean	-8979
ChecksumField	-8980
CommandReport	-8981
DataTransport	-8982
DefaultPretty	-8983
DigitalValues	-8984
ExceptionType	-8985
KnxNetIpField	-8986
OptionalField	-8987
ResultHandler	-8988
ScheduledTask	-8989
ScraperRunner	-8990
SelectorEvent	-8991
TsapIdEncoder	-8992
channelFuture	-8993
createChannel	-8994
getAssociated	-8995
getObjectType	-8996
getResultType	-8997
getReturnType	-8998
getSampleSize	-8999
hasStackTrace	-9000
isEmptyString	-9001
isInterrupted	-9002
iteConnection	-9003
posedTpduSize	-9004
sessionHandle	-9005
stationChange	-9006
toInputStream	-9007
▁ConnectEvent	-9008
▁IndexContext	-9009
▁LittleEndian	-9010
▁ModbusTcpADU	-9011
▁PlcSimulator	-9012
▁SelectionKey	-9013
▁ServerSocket	-9014
▁SingleItemTo	-9015
▁amsTcpHeader	-9016
▁boxedBoolVar	-9017
▁boxedByteVar	-9018
▁boxedLongVar	-9019
▁bytesWritten	-9020
▁calledTsapId	-9021
▁checkedClazz	-9022
▁enumContexts	-9023
▁fieldDigital	-9024
▁getTcpLength	-9025
▁isValidFloat	-9026
▁isValidShort	-9027
▁javaDataType	-9028
▁languageName	-9029
▁localDateVar	-9030
▁localTimeVar	-9031
▁objectToSend	-9032
▁quotedString	-9033
▁recordSchema	-9034
▁serializeTia	-9035
▁syncResponse	-9036
▁templateList	-9037
▁varParameter	-9038
7://10.10.64.2	-9039
:10.10.10.1/1/	-9040
AddressPattern	-9041
EncodedKeySpec	-9042
GatewayAddress	-9043
IntervalMillis	-9044
PlcMemoryBlock	-9045
ReadSzlRequest	-9046
ReceiveTimeout	-9047
Representation	-9048
ValueForGetter	-9049
adsStampHeader	-9050
curRequestSize	-9051
getDefaultPort	-9052
getInputStream	-9053
getMessageType	-9054
remainingBytes	-9055
xSchemaFactory	-9056
▁AdsConnection	-9057
▁CachingEntity	-9058
▁InteropServer	-9059
▁MqttConnector	-9060
▁PlcBigDecimal	-9061
▁PlcCompletion	-9062
▁PropertyField	-9063
▁articleNumber	-9064
▁bigDecimalVar	-9065
▁bigIntegerVar	-9066
▁boxedShortVar	-9067
▁callingTsapId	-9068
▁connectionUri	-9069
▁countElements	-9070
▁expectRequest	-9071
▁futureTimeOut	-9072
▁generateClass	-9073
▁getDataLength	-9074
▁getIdentifier	-9075
▁getIndexGroup	-9076
▁getProperties	-9077
▁getSampleSize	-9078
▁getScrapeRate	-9079
▁isValidDouble	-9080
▁isValidString	-9081
▁newExpression	-9082
▁packetBuilder	-9083
▁packetHandler	-9084
▁parsePlcValue	-9085
▁releaseHandle	-9086
▁requestAnalog	-9087
▁requestResult	-9088
▁serverModules	-9089
▁shutdownInput	-9090
▁tpduGenerator	-9091
00000000_000000	-9092
254.254.254.254	-9093
AdsNotification	-9094
AdsWriteControl	-9095
ArtifactVersion	-9096
AtomicReference	-9097
ConnectionEvent	-9098
ExchangePattern	-9099
PlcIncompatible	-9100
ScheduledFuture	-9101
SerialTransport	-9102
TriggerStrategy	-9103
UaMonitoredItem	-9104
adsWriteRequest	-9105
curResponseSize	-9106
elementIterator	-9107
embeddedChannel	-9108
fireChannelRead	-9109
getConsumerHash	-9110
getTimeInMillis	-9111
getUnsignedByte	-9112
interceptGetter	-9113
jobFieldAddress	-9114
jobFieldsConfig	-9115
knxprojFilePath	-9116
lengthSuppliers	-9117
remoteIpAddress	-9118
runningRequests	-9119
▁ConnectedEvent	-9120
▁DefaultInteger	-9121
▁MonitoringMode	-9122
▁RequestElement	-9123
▁createInstance	-9124
▁customResponse	-9125
▁getIndexOffset	-9126
▁getPoolableKey	-9127
▁getProprietary	-9128
▁getSwitchField	-9129
▁handlerService	-9130
▁isValidBoolean	-9131
▁isValidInteger	-9132
▁parameterItems	-9133
▁prepareIndexes	-9134
▁requestDigital	-9135
▁scraperTaskMap	-9136
BinaryExpression	-9137
BufferByteOutput	-9138
CompletionFuture	-9139
IdentityProvider	-9140
XPollingConsumer	-9141
getTpduReference	-9142
transferSizeCode	-9143
▁BacNetIpAdapter	-9144
▁ChannelExposing	-9145
▁CipReadResponse	-9146
▁KnxNetIpAdapter	-9147
▁OpcuaConnection	-9148
▁PlcValueAdapter	-9149
▁TestReadRequest	-9150
▁adsWriteRequest	-9151
▁boxedIntegerVar	-9152
▁curRequestItems	-9153
▁getDefaultValue	-9154
▁isValidDateTime	-9155
▁knxprojFilePath	-9156
▁lengthSuppliers	-9157
▁notificationMap	-9158
▁printStatistics	-9159
▁requestsEntries	-9160
▁responseMessage	-9161
▁retryIntervalMs	-9162
▁safeCastInteger	-9163
▁stringPairEntry	-9164
▁symbolicAddress	-9165
+=	-9166
-"	-9167
.\	-9168
04	-9169
23	-9170
52	-9171
82	-9172
83	-9173
;)	-9174
AG	-9175
Au	-9176
Jo	-9177
MV	-9178
NW	-9179
OL	-9180
RW	-9181
SV	-9182
Sp	-9183
XX	-9184
]=	-9185
aa	-9186
ak	-9187
di	-9188
je	-9189
kf	-9190
nd	-9191
xS	-9192
xe	-9193
zi	-9194
}(	-9195
}.	-9196
▁7	-9197
(";	-9198
('.	-9199
(2)	-9200
)")	-9201
)<=	-9202
---	-9203
-6,	-9204
/0/	-9205
0))	-9206
001	-9207
006	-9208
02)	-9209
03:	-9210
04,	-9211
06:	-9212
08:	-9213
105	-9214
120	-9215
126	-9216
17:	-9217
3.5	-9218
54;	-9219
562	-9220
6:8	-9221
70,	-9222
8);	-9223
866	-9224
:("	-9225
:18	-9226
:34	-9227
;;)	-9228
=[0	-9229
ADD	-9230
ANT	-9231
ARY	-9232
ASK	-9233
Aut	-9234
BPC	-9235
BUG	-9236
DED	-9237
DES	-9238
END	-9239
ENG	-9240
FIX	-9241
HOD	-9242
Hub	-9243
ITI	-9244
Jwt	-9245
MET	-9246
OWS	-9247
Off	-9248
PED	-9249
RCV	-9250
STY	-9251
Shi	-9252
URN	-9253
USB	-9254
VMX	-9255
Wal	-9256
Was	-9257
[6]	-9258
[7]	-9259
_3_	-9260
_40	-9261
box	-9262
chn	-9263
col	-9264
dbc	-9265
doc	-9266
ecf	-9267
ein	-9268
env	-9269
gem	-9270
ice	-9271
ich	-9272
idn	-9273
ige	-9274
lsb	-9275
mup	-9276
nic	-9277
nif	-9278
uri	-9279
var	-9280
web	-9281
xer	-9282
▁"!	-9283
▁"(	-9284
▁')	-9285
▁15	-9286
▁22	-9287
▁3,	-9288
▁3:	-9289
▁4;	-9290
▁7)	-9291
▁8,	-9292
▁=(	-9293
▁AB	-9294
▁Ak	-9295
▁DB	-9296
▁Ke	-9297
▁MT	-9298
▁UG	-9299
▁VT	-9300
▁cf	-9301
▁fr	-9302
▁kf	-9303
▁rs	-9304
▁xs	-9305
!=<>	-9306
("//	-9307
((((	-9308
(118	-9309
(16,	-9310
(2),	-9311
(2.0	-9312
(\\?	-9313
({},	-9314
.1.0	-9315
/1/1	-9316
0.1:	-9317
0/64	-9318
000;	-9319
0120	-9320
033:	-9321
03};	-9322
1.1.	-9323
10);	-9324
1002	-9325
111)	-9326
16";	-9327
2"),	-9328
32";	-9329
4");	-9330
4:0:	-9331
4:1:	-9332
64";	-9333
7147	-9334
810:	-9335
:167	-9336
:562	-9337
:772	-9338
=[0,	-9339
APDU	-9340
ATAP	-9341
Arch	-9342
BAUD	-9343
Bind	-9344
CALL	-9345
CEMI	-9346
DOUT	-9347
DOWN	-9348
Dest	-9349
Diff	-9350
Does	-9351
ETAD	-9352
Exam	-9353
Expr	-9354
Fork	-9355
IfNe	-9356
Indi	-9357
Init	-9358
Join	-9359
LISH	-9360
MORY	-9361
MVNW	-9362
Misc	-9363
NING	-9364
NoUn	-9365
Real	-9366
Rule	-9367
Scen	-9368
Skip	-9369
Stet	-9370
Tank	-9371
URIS	-9372
Unre	-9373
WIND	-9374
[0].	-9375
\",\	-9376
_186	-9377
_187	-9378
_]+)	-9379
acqu	-9380
ario	-9381
awdl	-9382
bsdf	-9383
cing	-9384
diff	-9385
elle	-9386
ello	-9387
elow	-9388
elts	-9389
getD	-9390
hope	-9391
ifec	-9392
itts	-9393
jdbc	-9394
nota	-9395
part	-9396
pass	-9397
rBuf	-9398
sage	-9399
same	-9400
sent	-9401
sets	-9402
spec	-9403
sure	-9404
tach	-9405
uter	-9406
vere	-9407
ziel	-9408
{1,2	-9409
▁"==	-9410
▁"{\	-9411
▁0))	-9412
▁1))	-9413
▁186	-9414
▁1],	-9415
▁40)	-9416
▁48)	-9417
▁56)	-9418
▁::1	-9419
▁ACK	-9420
▁CSV	-9421
▁CYC	-9422
▁DEL	-9423
▁IPv	-9424
▁Imp	-9425
▁MAX	-9426
▁NOT	-9427
▁RAN	-9428
▁Tri	-9429
▁elt	-9430
▁ipV	-9431
▁per	-9432
▁seg	-9433
▁spy	-9434
▁udp	-9435
!")),	-9436
!"));	-9437
())))	-9438
(22);	-9439
(3.0)	-9440
/1000	-9441
0000,	-9442
01111	-9443
1"));	-9444
80::3	-9445
::/64	-9446
:{}",	-9447
=0001	-9448
=1.0,	-9449
?:(?<	-9450
ADDED	-9451
CLOSE	-9452
ERVAL	-9453
FFFFL	-9454
FINAL	-9455
Fetch	-9456
GOING	-9457
Given	-9458
INARY	-9459
INGLE	-9460
Inner	-9461
LOCAL	-9462
Longs	-9463
Micro	-9464
Minus	-9465
NOMOR	-9466
ORITY	-9467
PlcTo	-9468
Power	-9469
Reads	-9470
STYLE	-9471
SYSTE	-9472
Shift	-9473
Super	-9474
Terms	-9475
ToMap	-9476
Total	-9477
WATER	-9478
Wrote	-9479
_0000	-9480
appen	-9481
aries	-9482
asXML	-9483
attic	-9484
azure	-9485
break	-9486
child	-9487
clone	-9488
ctual	-9489
docum	-9490
etrik	-9491
etter	-9492
fined	-9493
getOp	-9494
ilbox	-9495
level	-9496
limit	-9497
merge	-9498
multi	-9499
names	-9500
ndige	-9501
orage	-9502
pFunc	-9503
pared	-9504
parer	-9505
pring	-9506
setup	-9507
tents	-9508
thiis	-9509
tical	-9510
tiner	-9511
xSink	-9512
}"));	-9513
▁"").	-9514
▁"(?<	-9515
▁"0.0	-9516
▁"]";	-9517
▁'0')	-9518
▁(;;)	-9519
▁0000	-9520
▁10);	-9521
▁254;	-9522
▁CHAR	-9523
▁Calc	-9524
▁DOES	-9525
▁Diff	-9526
▁Fork	-9527
▁GUID	-9528
▁INET	-9529
▁LAST	-9530
▁NONE	-9531
▁PKCS	-9532
▁Recv	-9533
▁SCHE	-9534
▁SEND	-9535
▁Schn	-9536
▁Stop	-9537
▁Sync	-9538
▁TODO	-9539
▁UCSI	-9540
▁UUID	-9541
▁VOID	-9542
▁asdf	-9543
▁back	-9544
▁baos	-9545
▁bind	-9546
▁coil	-9547
▁crcL	-9548
▁dont	-9549
▁down	-9550
▁func	-9551
▁getC	-9552
▁getV	-9553
▁mask	-9554
▁msgs	-9555
▁nano	-9556
▁pojo	-9557
▁rBuf	-9558
▁scan	-9559
▁smal	-9560
▁tpkt	-9561
▁unre	-9562
▁vnic	-9563
▁wBuf	-9564
▁{});	-9565
("(").	-9566
(118);	-9567
(2.0),	-9568
00:00:	-9569
01:01,	-9570
48})",	-9571
6:8105	-9572
ACCESS	-9573
Accept	-9574
AdsLib	-9575
Allgem	-9576
AtStop	-9577
BACNET	-9578
BLOCKS	-9579
Borrow	-9580
COMING	-9581
Conver	-9582
Counts	-9583
DELETE	-9584
DRIVER	-9585
Dumper	-9586
Duplex	-9587
FUTURE	-9588
ISATAP	-9589
Levels	-9590
METHOD	-9591
Mismat	-9592
PREFIX	-9593
PUBLIC	-9594
Python	-9595
RETURN	-9596
RestOf	-9597
Routen	-9598
States	-9599
Theore	-9600
Walker	-9601
Warmup	-9602
Writes	-9603
[0]-1)	-9604
altern	-9605
arison	-9606
cached	-9607
foobar	-9608
getenv	-9609
ioByte	-9610
ipArch	-9611
isLoop	-9612
jected	-9613
lished	-9614
loader	-9615
notify	-9616
octets	-9617
orelse	-9618
pathPl	-9619
setMax	-9620
setMin	-9621
setupC	-9622
severe	-9623
shared	-9624
ternal	-9625
timeNs	-9626
toChar	-9627
toDate	-9628
ttyUSB	-9629
typeOf	-9630
vidual	-9631
▁'0');	-9632
▁...",	-9633
▁1.1.0	-9634
▁10.0)	-9635
▁100.0	-9636
▁Camel	-9637
▁ERROR	-9638
▁Keine	-9639
▁LWORD	-9640
▁Lifec	-9641
▁METAD	-9642
▁Multi	-9643
▁PoCES	-9644
▁SHORT	-9645
▁TRANS	-9646
▁Tuple	-9647
▁bases	-9648
▁below	-9649
▁bound	-9650
▁bvlcO	-9651
▁clean	-9652
▁cotpT	-9653
▁equal	-9654
▁execu	-9655
▁getLo	-9656
▁getTr	-9657
▁hello	-9658
▁inner	-9659
▁lexer	-9660
▁logic	-9661
▁milis	-9662
▁needs	-9663
▁noPlc	-9664
▁ofInt	-9665
▁retur	-9666
▁simul	-9667
▁szlId	-9668
▁timed	-9669
▁token	-9670
▁using	-9671
▁which	-9672
!"))));	-9673
(1000))	-9674
(\\((?<	-9675
*))?");	-9676
.*)?");	-9677
000000)	-9678
7147:34	-9679
80::/64	-9680
866:772	-9681
ADSIGRP	-9682
Aliases	-9683
Answers	-9684
Average	-9685
CONTROL	-9686
Closing	-9687
ENGLISH	-9688
ForIndi	-9689
ForSpec	-9690
FromPlc	-9691
Futures	-9692
HiLimit	-9693
IndexOf	-9694
JsonAny	-9695
Minutes	-9696
Missing	-9697
Offline	-9698
PENDING	-9699
Product	-9700
RawData	-9701
Refresh	-9702
Results	-9703
Runners	-9704
SMALLER	-9705
SUPPORT	-9706
Strateg	-9707
Streams	-9708
TagName	-9709
TreeMap	-9710
UNKNOWN	-9711
WINDOWS	-9712
WRITTEN	-9713
Worklog	-9714
_0000),	-9715
annable	-9716
boolVar	-9717
compVar	-9718
consume	-9719
decoded	-9720
encodeS	-9721
getComm	-9722
getDate	-9723
getMean	-9724
getSlot	-9725
hiLimit	-9726
initial	-9727
isFalse	-9728
joining	-9729
keyName	-9730
logging	-9731
network	-9732
notated	-9733
onToken	-9734
oreNode	-9735
perator	-9736
private	-9737
product	-9738
putLong	-9739
reading	-9740
subject	-9741
tabelle	-9742
tagName	-9743
usually	-9744
xmlunit	-9745
{1,7})(	-9746
▁"):(?<	-9747
▁......	-9748
▁65536;	-9749
▁Aktive	-9750
▁CHANGE	-9751
▁CYCLIC	-9752
▁DRIVER	-9753
▁Metrik	-9754
▁MyEnum	-9755
▁RANDOM	-9756
▁Record	-9757
▁SINGLE	-9758
▁STDOUT	-9759
▁ToSend	-9760
▁Triple	-9761
▁UFLOAT	-9762
▁asname	-9763
▁cancel	-9764
▁doBind	-9765
▁duplic	-9766
▁endPos	-9767
▁getCtx	-9768
▁happen	-9769
▁ioRoot	-9770
▁isDate	-9771
▁isTime	-9772
▁levels	-9773
▁lineno	-9774
▁lookup	-9775
▁mocked	-9776
▁orElse	-9777
▁rackId	-9778
▁respon	-9779
▁setCtx	-9780
▁setMax	-9781
▁setter	-9782
▁slotId	-9783
▁subPlc	-9784
▁timeNs	-9785
▁tsapId	-9786
▁unsafe	-9787
▁worker	-9788
(10000);	-9789
7.0.0.1:	-9790
=0001-01	-9791
AmsError	-9792
BitShift	-9793
BufAlloc	-9794
Contains	-9795
Ethernet	-9796
GetValue	-9797
Hardware	-9798
IfNeeded	-9799
Integers	-9800
InvokeId	-9801
JoinPool	-9802
NameNode	-9803
Negative	-9804
NodeList	-9805
Operator	-9806
PRIORITY	-9807
PacketIO	-9808
PathSize	-9809
Payloads	-9810
PlcInput	-9811
PortName	-9812
Possible	-9813
Preasure	-9814
Preparer	-9815
Required	-9816
Scenario	-9817
UnitCode	-9818
Verifier	-9819
]+)(:(?<	-9820
areModel	-9821
aterTank	-9822
category	-9823
dChannel	-9824
dlSchema	-9825
duration	-9826
emptyMap	-9827
errorPos	-9828
executor	-9829
fraction	-9830
getNanos	-9831
iveEntry	-9832
loopType	-9833
lowLimit	-9834
machineA	-9835
machineB	-9836
machineC	-9837
numBytes	-9838
peekByte	-9839
playName	-9840
projects	-9841
putShort	-9842
readLine	-9843
readUint	-9844
teardown	-9845
ulateCRC	-9846
unitCode	-9847
▁AdsPort	-9848
▁GREATER	-9849
▁ManualS	-9850
▁Promise	-9851
▁RECEIVE	-9852
▁SMALLER	-9853
▁SNAPLEN	-9854
▁TServer	-9855
▁between	-9856
▁calling	-9857
▁checker	-9858
▁compare	-9859
▁correct	-9860
▁doClose	-9861
▁doStart	-9862
▁doWrite	-9863
▁feature	-9864
▁getCode	-9865
▁getPcap	-9866
▁getPort	-9867
▁getSize	-9868
▁getTags	-9869
▁inFlush	-9870
▁ioClass	-9871
▁keyword	-9872
▁latency	-9873
▁mailbox	-9874
▁measure	-9875
▁newByte	-9876
▁newPair	-9877
▁numRead	-9878
▁offsets	-9879
▁packets	-9880
▁returns	-9881
▁setFrom	-9882
▁smaller	-9883
▁subtype	-9884
▁targets	-9885
▁uaField	-9886
▁zipFile	-9887
+)(\\[(?<	-9888
01111111)	-9889
Allgemein	-9890
BROADCAST	-9891
BadEntity	-9892
CipRRData	-9893
Collation	-9894
Declarers	-9895
Duplicate	-9896
EventItem	-9897
FreeLevel	-9898
FromField	-9899
NodeValid	-9900
ParseTree	-9901
ParserArg	-9902
PlcString	-9903
Producing	-9904
Readables	-9905
Stettiner	-9906
ToPublish	-9907
URISyntax	-9908
Unrelated	-9909
VarLength	-9910
WithUnary	-9911
acquiring	-9912
alSegment	-9913
chedInput	-9914
constants	-9915
endObject	-9916
eventLoop	-9917
gatewayIp	-9918
getServer	-9919
getTsapId	-9920
hopefully	-9921
localAddr	-9922
netPacket	-9923
optimized	-9924
propsFile	-9925
propsPath	-9926
sentButUn	-9927
splitRead	-9928
tcpLength	-9929
testcases	-9930
ticalSize	-9931
xEmbedded	-9932
|\\*))");	-9933
▁"0.0.0.0	-9934
▁Callable	-9935
▁DFDLUtil	-9936
▁Expected	-9937
▁HelloOpm	-9938
▁INCOMING	-9939
▁INTERVAL	-9940
▁METADATA	-9941
▁OUTGOING	-9942
▁RESOURCE	-9943
▁SYMBOLIC	-9944
▁Schnitts	-9945
▁SpConfig	-9946
▁Template	-9947
▁TestStep	-9948
▁addEvent	-9949
▁booleans	-9950
▁dateTime	-9951
▁document	-9952
▁edeModel	-9953
▁enumType	-9954
▁firstArg	-9955
▁floating	-9956
▁getAlias	-9957
▁getIndex	-9958
▁getState	-9959
▁getTyped	-9960
▁intended	-9961
▁isActive	-9962
▁isSimple	-9963
▁jobNames	-9964
▁keywords	-9965
▁newValue	-9966
▁prepared	-9967
▁readData	-9968
▁returned	-9969
▁selected	-9970
▁simulate	-9971
▁subValue	-9972
▁tearDown	-9973
▁testStep	-9974
▁typeCode	-9975
11111111))	-9976
6:8105/128	-9977
866:7728:6	-9978
ByteString	-9979
Calculator	-9980
Capability	-9981
CloseCause	-9982
Configured	-9983
Connecting	-9984
DISCONNECT	-9985
Discarding	-9986
DriverTest	-9987
IdlePerKey	-9988
IndexGroup	-9989
InnerClazz	-9990
MockDriver	-9991
MultiValue	-9992
PlcInteger	-9993
ProtocolId	-9994
SendRRData	-9995
StateTimer	-9996
StaticCall	-9997
Strategies	-9998
TestRunner	-9999
ToBeSynced	-10000
UnaryMinus	-10001
commonPool	-10002
configFile	-10003
currentRef	-10004
encodeDate	-10005
encodeLong	-10006
encodeTime	-10007
endParsing	-10008
getMonitor	-10009
getOptions	-10010
getRuntime	-10011
isNotBlank	-10012
libVersion	-10013
objectName	-10014
outputFile	-10015
readValues	-10016
sendPacket	-10017
sendToWire	-10018
someRandom	-10019
thenAccept	-10020
toVariable	-10021
verbindung	-10022
▁Constants	-10023
▁JsonArray	-10024
▁Microsoft	-10025
▁Operation	-10026
▁PoCInflux	-10027
▁SCHEDULED	-10028
▁SINGLEBIT	-10029
▁StopWatch	-10030
▁TRANSPORT	-10031
▁actualHex	-10032
▁addDevice	-10033
▁addStatus	-10034
▁annotated	-10035
▁binOpNode	-10036
▁checkNoUn	-10037
▁colOffset	-10038
▁createJwt	-10039
▁delStatus	-10040
▁directory	-10041
▁dontSplit	-10042
▁enumField	-10043
▁getHelper	-10044
▁getSchema	-10045
▁inputFile	-10046
▁isTypeArg	-10047
▁localPort	-10048
▁maxTheore	-10049
▁plcConfig	-10050
▁plcDriver	-10051
▁plcFields	-10052
▁portToUse	-10053
▁readBytes	-10054
▁refCounts	-10055
▁setOption	-10056
▁udpPacket	-10057
▁unwrapper	-10058
▁whileNode	-10059
("(.{48})",	-10060
AdapterType	-10061
AmsPacketIO	-10062
AverageTime	-10063
ByteInteger	-10064
CharStreams	-10065
DatapointIO	-10066
DocumentXml	-10067
EpochSecond	-10068
ForSpecType	-10069
Invalidated	-10070
ManagerTest	-10071
NumberUtils	-10072
PcapAddress	-10073
QLException	-10074
ReaderIndex	-10075
SecondSleep	-10076
SegmentRest	-10077
TcpProtocol	-10078
TestFactory	-10079
TestSupport	-10080
ToBeWritten	-10081
Unsubscribe	-10082
ValueSource	-10083
_]+)(\\[(?<	-10084
addConsumer	-10085
alternative	-10086
ationResult	-10087
blockLength	-10088
collections	-10089
commandable	-10090
connections	-10091
digitalPins	-10092
encodeFloat	-10093
encodeShort	-10094
finedValues	-10095
getDateTime	-10096
getDelegate	-10097
getDeviceId	-10098
getFileType	-10099
getMantissa	-10100
getTypeName	-10101
jsonBuilder	-10102
lastIndexOf	-10103
openOffline	-10104
otpTpduSize	-10105
pathPlugins	-10106
proprietary	-10107
splitConfig	-10108
startObject	-10109
statusCodes	-10110
supportsCov	-10111
switchField	-10112
tagIsolated	-10113
toCharArray	-10114
ustomGetter	-10115
vidualTypes	-10116
workerGroup	-10117
▁CipService	-10118
▁Configured	-10119
▁Datasource	-10120
▁Discarding	-10121
▁KeyFactory	-10122
▁Processing	-10123
▁TException	-10124
▁TypedField	-10125
▁WaterLevel	-10126
▁boundaries	-10127
▁configured	-10128
▁curElement	-10129
▁duplicated	-10130
▁getScrapes	-10131
▁jwtBuilder	-10132
▁linePrefix	-10133
▁longValues	-10134
▁macAddress	-10135
▁milisStart	-10136
▁otherField	-10137
▁plcBoolean	-10138
▁plcRuntime	-10139
▁portString	-10140
▁protocolIO	-10141
▁refCounter	-10142
▁requestPdu	-10143
▁scrapeJobs	-10144
▁sendFuture	-10145
▁serverHost	-10146
▁serverPort	-10147
▁serviceArr	-10148
▁simpleName	-10149
▁startIndex	-10150
▁subRequest	-10151
▁taskConfig	-10152
▁testRunner	-10153
▁testString	-10154
▁textLength	-10155
▁tpduRefGen	-10156
▁triggerJob	-10157
▁typedField	-10158
▁valueBytes	-10159
Alternatives	-10160
BVLCOriginal	-10161
BinaryString	-10162
COTPTpduSize	-10163
CalledTsapId	-10164
ConnectEvent	-10165
ConstantNode	-10166
DateTemporal	-10167
DefaultNetty	-10168
EqExpression	-10169
FromPlcUsing	-10170
HandlerAdded	-10171
IfExpression	-10172
Initializing	-10173
Microseconds	-10174
ResponseTest	-10175
SocketOption	-10176
SourceRecord	-10177
TcpHexDumper	-10178
TimeTemporal	-10179
addressBytes	-10180
annableTable	-10181
castedValues	-10182
checkNotNull	-10183
constructors	-10184
consumerHash	-10185
encodeDouble	-10186
encodeString	-10187
erroredItems	-10188
failedFields	-10189
filterString	-10190
getClassName	-10191
getServiceNb	-10192
innerClasses	-10193
ioByteStream	-10194
mavenWrapper	-10195
maxAmqCallee	-10196
maxAmqCaller	-10197
otherAddress	-10198
referenceXml	-10199
sameInstance	-10200
testsuiteXml	-10201
▁CodePrinter	-10202
▁DefaultData	-10203
▁DefaultEnum	-10204
▁DynamicTest	-10205
▁EventSchema	-10206
▁HelloInflux	-10207
▁OpcUaClient	-10208
▁TIMESERVICE	-10209
▁VersionUtil	-10210
▁amsResponse	-10211
▁bytesToRead	-10212
▁cipResponse	-10213
▁commandLine	-10214
▁comparators	-10215
▁configValue	-10216
▁cotpTpduRef	-10217
▁currentItem	-10218
▁currentTdpu	-10219
▁edeFilePath	-10220
▁eventSchema	-10221
▁executeStep	-10222
▁expressions	-10223
▁fieldAnalog	-10224
▁finalFields	-10225
▁getAsString	-10226
▁getMetadata	-10227
▁getPlcValue	-10228
▁headerBytes	-10229
▁logicalRead	-10230
▁messageType	-10231
▁nameElement	-10232
▁nonExisting	-10233
▁processRead	-10234
▁rawIpSocket	-10235
▁sourceNames	-10236
▁tagIsolated	-10237
▁unreachable	-10238
▁voidPromise	-10239
▁xsNamespace	-10240
AddExpression	-10241
AdsConnection	-10242
BenchmarkMode	-10243
CaseStatement	-10244
ClassNotFound	-10245
CoilsResponse	-10246
CorruptPacket	-10247
EventProperty	-10248
GeneratedPort	-10249
NameException	-10250
NotExpression	-10251
PcapException	-10252
PipelineError	-10253
Relationships	-10254
RemoteMessage	-10255
Routentabelle	-10256
ToStringStyle	-10257
TpduReference	-10258
addEventField	-10259
adsConnection	-10260
andaloneEvent	-10261
cemiDataFrame	-10262
containsValue	-10263
correlatedPlc	-10264
cotpParameter	-10265
documentation	-10266
encodeBoolean	-10267
encodeInteger	-10268
futureTimeout	-10269
getBigDecimal	-10270
getBigInteger	-10271
getColumnName	-10272
getConcatType	-10273
getFromFuture	-10274
getParentNode	-10275
getParentType	-10276
getProtocolId	-10277
getReturnCode	-10278
getUpperBound	-10279
hasDisconnect	-10280
localDateTime	-10281
onTokenStream	-10282
timatorHandle	-10283
transportCode	-10284
xFieldAddress	-10285
▁ClassDefNode	-10286
▁DummyHandler	-10287
▁ForkJoinPool	-10288
▁Netzwerkziel	-10289
▁Relationship	-10290
▁argsAsserter	-10291
▁blockContent	-10292
▁bufferLength	-10293
▁bvlcOriginal	-10294
▁byteArrayVar	-10295
▁calcNumberOf	-10296
▁checkTrigger	-10297
▁createPooled	-10298
▁dataTypeName	-10299
▁declareModel	-10300
▁defaultTopic	-10301
▁deleteDevice	-10302
▁doDisconnect	-10303
▁erroredItems	-10304
▁fieldValueFn	-10305
▁filterString	-10306
▁flushInbound	-10307
▁functionNode	-10308
▁getKafkaHost	-10309
▁getKafkaPort	-10310
▁getOptimizer	-10311
▁getUnaryTerm	-10312
▁missingNames	-10313
▁processWrite	-10314
▁publishEvent	-10315
▁readValueIds	-10316
▁removeRestOf	-10317
▁testcaseName	-10318
▁testcasesXml	-10319
▁writeFailure	-10320
AdapterBuilder	-10321
ArgumentCaptor	-10322
ArrayByteInput	-10323
BufAllocHandle	-10324
CompExpression	-10325
ConnectOptions	-10326
ConstantValues	-10327
ElementBuilder	-10328
ElementsString	-10329
FieldReference	-10330
FutureListener	-10331
HandlerAdapter	-10332
JsonProcessing	-10333
LoopExpression	-10334
MultExpression	-10335
OutputTimeUnit	-10336
PlcNotImplemen	-10337
RangeException	-10338
ReferenceValue	-10339
RequestMessage	-10340
ReservedGroups	-10341
ScanIntervalMs	-10342
SegmentIndexes	-10343
ServerProtocol	-10344
TriggerPattern	-10345
UdpConnections	-10346
VarPayloadItem	-10347
acquiredObject	-10348
deliveredItems	-10349
encodeDateTime	-10350
endSerializing	-10351
getDescription	-10352
getKafkaConfig	-10353
ipArchiveEntry	-10354
loopExpression	-10355
paddingAtBuild	-10356
plcFieldString	-10357
vendorSpecific	-10358
xSinkProcessor	-10359
▁CEMIBusmonInd	-10360
▁CEMIFrameData	-10361
▁CaptureReplay	-10362
▁CorrelatedPlc	-10363
▁Discriminator	-10364
▁ExampleServer	-10365
▁PropertyScope	-10366
▁SchemaBuilder	-10367
▁SystemService	-10368
▁ToStringStyle	-10369
▁attributeNode	-10370
▁augAssignNode	-10371
▁childAsserter	-10372
▁conveyorState	-10373
▁correlatedPlc	-10374
▁createChannel	-10375
▁curPacketTime	-10376
▁exampleServer	-10377
▁flushOutbound	-10378
▁futureTimeout	-10379
▁gatewayColumn	-10380
▁getPacketSize	-10381
▁getParentType	-10382
▁getProtocolId	-10383
▁invokeIdField	-10384
▁lastException	-10385
▁messagesQueue	-10386
▁newConnection	-10387
▁notifications	-10388
▁pNotification	-10389
▁previousValue	-10390
▁protocolClass	-10391
▁serialPattern	-10392
▁setProperties	-10393
▁sourceAddress	-10394
▁stationChange	-10395
▁supportsClass	-10396
▁testConstants	-10397
▁testpointName	-10398
▁transferRight	-10399
▁unknownPacket	-10400
▁versionString	-10401
("----------");	-10402
BitOrExpression	-10403
CIPDataTypeCode	-10404
DeclarationWith	-10405
ElementsForIndi	-10406
InterceptorTest	-10407
IpPacketHandler	-10408
LastAcquirement	-10409
MismatchedInput	-10410
MockitoSettings	-10411
ModbusFieldCoil	-10412
ParseTreeWalker	-10413
PowerExpression	-10414
TestpointValues	-10415
TopicNameConfig	-10416
adsDeleteDevice	-10417
basePacketClass	-10418
covNotification	-10419
exceptionCaught	-10420
getConstructors	-10421
getMaxAmqCallee	-10422
getPreviousMode	-10423
getProtocolName	-10424
keyedObjectPool	-10425
parseExpression	-10426
setTestOnBorrow	-10427
setTestOnReturn	-10428
triggerStrategy	-10429
▁CorruptPackage	-10430
▁FirmataCommand	-10431
▁KafkaConnector	-10432
▁MultiValuedMap	-10433
▁NumericLiteral	-10434
▁XPathConstants	-10435
▁assertContains	-10436
▁cotpConnection	-10437
▁distanceSensor	-10438
▁errorCollector	-10439
▁ethernetPacket	-10440
▁exampleRequest	-10441
▁exitIdentifier	-10442
▁generateNodeId	-10443
▁getAdsDataType	-10444
▁getNamedFields	-10445
▁getWriteLength	-10446
▁intendationLvl	-10447
▁lastBlockStart	-10448
▁maxNumElements	-10449
▁parameterValue	-10450
▁parseMethodTmp	-10451
▁parseTestsuite	-10452
▁plcFieldString	-10453
▁processWorklog	-10454
▁responseObject	-10455
▁responseOffset	-10456
▁shutdownOutput	-10457
▁targetByteSize	-10458
1/0.0.0.0.0.0:13	-10459
AdsConfiguration	-10460
BitAndExpression	-10461
ByteIntegerTypes	-10462
DateTimeTemporal	-10463
DecoderException	-10464
EIPConfiguration	-10465
ElementException	-10466
ElementParameter	-10467
GetterDefinition	-10468
InternalSettings	-10469
KeySpecException	-10470
MessageProcessor	-10471
OutputStrategies	-10472
RequestProtected	-10473
SegmentArguments	-10474
WithUnaryMapping	-10475
awaitTermination	-10476
exceptionHandler	-10477
getDataTypeClass	-10478
getDriverContext	-10479
getPlcConnection	-10480
getSenderContext	-10481
getTransportSize	-10482
lastTriggerState	-10483
lengthExpression	-10484
requiredProperty	-10485
setMinIdlePerKey	-10486
someRandomOption	-10487
writeUnsignedInt	-10488
xSourceProcessor	-10489
▁AdsDataTypePair	-10490
▁AtomicReference	-10491
▁DatagramChannel	-10492
▁DisconnectEvent	-10493
▁RawSocketUnsafe	-10494
▁StringTokenizer	-10495
▁XContentFactory	-10496
▁XPathExpression	-10497
▁adsNotification	-10498
▁amsPacketStream	-10499
▁annAssignerNode	-10500
▁bigByteArrayVar	-10501
▁byteArrayStream	-10502
▁checkByteOffset	-10503
▁enterIdentifier	-10504
▁exceptionCaught	-10505
▁expressionTypes	-10506
▁firmataMessages	-10507
▁functionDefNode	-10508
▁generateAMSPort	-10509
▁getResponseCode	-10510
▁holdingRegister	-10511
▁mockedPlcDriver	-10512
▁nanoSecondSleep	-10513
▁originalRequest	-10514
▁payloadUserData	-10515
▁pcapReplaySpeed	-10516
▁plcMemoryBlocks	-10517
▁readSzlResponse	-10518
▁scheduledFuture	-10519
▁stringTokenizer	-10520
▁targetFieldName	-10521
▁toAdsReturnCode	-10522
!/	-10523
)*	-10524
,2	-10525
-8	-10526
.<	-10527
/4	-10528
/{	-10529
0_	-10530
37	-10531
3;	-10532
65	-10533
:8	-10534
>.	-10535
CB	-10536
CD	-10537
DP	-10538
FG	-10539
Fe	-10540
GH	-10541
LY	-10542
MT	-10543
MY	-10544
NE	-10545
RQ	-10546
Rx	-10547
SB	-10548
XB	-10549
]:	-10550
ee	-10551
fc	-10552
ii	-10553
me	-10554
rp	-10555
rs	-10556
xB	-10557
xx	-10558
|"	-10559
|{	-10560
!".	-10561
"\"	-10562
'}.	-10563
(".	-10564
((?	-10565
(20	-10566
(5,	-10567
)1,	-10568
)2,	-10569
.";	-10570
/0:	-10571
/24	-10572
/{}	-10573
0){	-10574
002	-10575
03,	-10576
05,	-10577
05:	-10578
11,	-10579
13,	-10580
2")	-10581
200	-10582
22:	-10583
2>[	-10584
3",	-10585
40,	-10586
402	-10587
413	-10588
4};	-10589
76/	-10590
8((	-10591
8))	-10592
:48	-10593
=":	-10594
=0;	-10595
=10	-10596
>.*	-10597
Abs	-10598
Asc	-10599
BAD	-10600
BOX	-10601
CHA	-10602
CII	-10603
CLI	-10604
DBB	-10605
DBX	-10606
DEV	-10607
Dns	-10608
EAD	-10609
Fam	-10610
GOO	-10611
Iot	-10612
LID	-10613
Neg	-10614
OPC	-10615
Qos	-10616
REQ	-10617
Sig	-10618
Suf	-10619
UES	-10620
Unp	-10621
Yet	-10622
_15	-10623
_1_	-10624
_2_	-10625
_7_	-10626
_8,	-10627
alk	-10628
big	-10629
bor	-10630
cce	-10631
cib	-10632
ckh	-10633
csv	-10634
cyc	-10635
dow	-10636
ily	-10637
inc	-10638
iva	-10639
lel	-10640
lem	-10641
len	-10642
opc	-10643
ote	-10644
oud	-10645
req	-10646
roy	-10647
sTo	-10648
wap	-10649
wts	-10650
xim	-10651
xxx	-10652
}/{	-10653
}:{	-10654
▁"1	-10655
▁">	-10656
▁',	-10657
▁(0	-10658
▁(8	-10659
▁+"	-10660
▁++	-10661
▁-1	-10662
▁0:	-10663
▁1]	-10664
▁23	-10665
▁33	-10666
▁5;	-10667
▁6;	-10668
▁EP	-10669
▁EQ	-10670
▁FA	-10671
▁Id	-10672
▁OK	-10673
▁WR	-10674
▁bb	-10675
▁sh	-10676
▁{1	-10677
!/\\	-10678
"\""	-10679
()+"	-10680
();\	-10681
(1))	-10682
(8).	-10683
).)*	-10684
)3);	-10685
+");	-10686
-6);	-10687
.(?<	-10688
.250	-10689
/{}:	-10690
0();	-10691
01);	-10692
02);	-10693
07),	-10694
1/32	-10695
10(0	-10696
10))	-10697
101.	-10698
13);	-10699
1\"\	-10700
2","	-10701
28);	-10702
32);	-10703
33);	-10704
7]))	-10705
8/32	-10706
://"	-10707
:313	-10708
<?,?	-10709
>((?	-10710
>();	-10711
Ansi	-10712
Arry	-10713
Back	-10714
Cnet	-10715
DAYS	-10716
DFDL	-10717
Doub	-10718
EXTI	-10719
Extr	-10720
FAST	-10721
GOOD	-10722
Hook	-10723
INIT	-10724
JSON	-10725
Look	-10726
MODB	-10727
Math	-10728
Midn	-10729
NODE	-10730
NoOp	-10731
None	-10732
OPEN	-10733
PLUS	-10734
PROP	-10735
PULL	-10736
Pass	-10737
Remo	-10738
Repo	-10739
Requ	-10740
SFER	-10741
Sign	-10742
Some	-10743
Temp	-10744
Trip	-10745
URIP	-10746
WIth	-10747
[0],	-10748
[0]:	-10749
_00_	-10750
_181	-10751
_185	-10752
_411	-10753
_412	-10754
_64,	-10755
_7);	-10756
adsc	-10757
aven	-10758
baos	-10759
boot	-10760
card	-10761
coil	-10762
cycl	-10763
decl	-10764
demo	-10765
doOn	-10766
eues	-10767
gnor	-10768
heme	-10769
hips	-10770
ille	-10771
illi	-10772
isRe	-10773
ixed	-10774
mile	-10775
msgs	-10776
ples	-10777
rate	-10778
scan	-10779
self	-10780
toLo	-10781
tpdu	-10782
tpkt	-10783
ular	-10784
umns	-10785
uper	-10786
walk	-10787
}").	-10788
▁"1/	-10789
▁"]:	-10790
▁"|"	-10791
▁(++	-10792
▁)),	-10793
▁0.0	-10794
▁0};	-10795
▁11;	-10796
▁12,	-10797
▁13,	-10798
▁14,	-10799
▁20,	-10800
▁256	-10801
▁28,	-10802
▁411	-10803
▁412	-10804
▁Arp	-10805
▁Cop	-10806
▁Got	-10807
▁LEN	-10808
▁LOC	-10809
▁TCP	-10810
▁Top	-10811
▁UDP	-10812
▁UcI	-10813
▁XML	-10814
▁\""	-10815
▁enp	-10816
▁ext	-10817
▁fol	-10818
▁fos	-10819
▁fre	-10820
▁iat	-10821
▁pkt	-10822
▁qry	-10823
▁rbc	-10824
▁sui	-10825
▁via	-10826
▁}",	-10827
▁},\	-10828
("*")	-10829
("\\-	-10830
('.')	-10831
()");	-10832
(-1);	-10833
(0)).	-10834
(1024	-10835
(2)).	-10836
(3)).	-10837
-176/	-10838
-]+))	-10839
...",	-10840
/1/1?	-10841
0000)	-10842
0000;	-10843
00107	-10844
01");	-10845
2)));	-10846
55");	-10847
7://1	-10848
?)(?<	-10849
Appro	-10850
Ascii	-10851
Assig	-10852
BYHND	-10853
Basic	-10854
Batch	-10855
Beckh	-10856
COUNT	-10857
DESET	-10858
DownL	-10859
EADER	-10860
EPath	-10861
EVENT	-10862
INPUT	-10863
ITIAL	-10864
IfAbs	-10865
Issue	-10866
Karaf	-10867
ONCHA	-10868
OneOf	-10869
Paths	-10870
Ready	-10871
Repor	-10872
STANT	-10873
Spied	-10874
There	-10875
Tuple	-10876
Unmap	-10877
Usage	-10878
Visit	-10879
While	-10880
[]{()	-10881
[]{47	-10882
]{1,3	-10883
]{1,5	-10884
_000;	-10885
_1006	-10886
allel	-10887
apsed	-10888
ately	-10889
blems	-10890
cceed	-10891
cibly	-10892
duced	-10893
ducer	-10894
edian	-10895
enums	-10896
forge	-10897
getBy	-10898
getLo	-10899
getOk	-10900
hUser	-10901
ivari	-10902
ivers	-10903
named	-10904
ocked	-10905
ofInt	-10906
ority	-10907
qNode	-10908
quote	-10909
ships	-10910
telle	-10911
times	-10912
toSet	-10913
token	-10914
total	-10915
works	-10916
▁"/";	-10917
▁"\""	-10918
▁'{}'	-10919
▁(");	-10920
▁({})	-10921
▁0");	-10922
▁100,	-10923
▁40),	-10924
▁48),	-10925
▁56),	-10926
▁Demo	-10927
▁Down	-10928
▁JSON	-10929
▁Main	-10930
▁NPDU	-10931
▁PLUS	-10932
▁Port	-10933
▁Twin	-10934
▁Void	-10935
▁able	-10936
▁acti	-10937
▁awdl	-10938
▁bean	-10939
▁char	-10940
▁ctor	-10941
▁died	-10942
▁emit	-10943
▁frag	-10944
▁impl	-10945
▁milo	-10946
▁mult	-10947
▁rand	-10948
▁rest	-10949
▁setB	-10950
▁uint	-10951
▁were	-10952
(":");	-10953
(";");	-10954
("|").	-10955
():");	-10956
()==1)	-10957
(0.0);	-10958
(1)));	-10959
(1000,	-10960
(500);	-10961
))((?<	-10962
))?");	-10963
)==(33	-10964
,200,(	-10965
/0/1";	-10966
ACTIVE	-10967
AllDns	-10968
Assets	-10969
Assume	-10970
BitsTo	-10971
Bundle	-10972
CLIENT	-10973
CYCLIC	-10974
Cancel	-10975
DOMAIN	-10976
EXTIRQ	-10977
Floats	-10978
Handel	-10979
IfNode	-10980
IotHub	-10981
KeySet	-10982
MEMORY	-10983
Online	-10984
PARSER	-10985
PULLUP	-10986
PathOf	-10987
PcapNg	-10988
RackId	-10989
Region	-10990
Reques	-10991
STATUS	-10992
SYSTEM	-10993
Shorts	-10994
Signed	-10995
Spring	-10996
Stamps	-10997
Suffix	-10998
Switch	-10999
Unpack	-11000
Update	-11001
[2]");	-11002
adscon	-11003
asdasd	-11004
assign	-11005
atform	-11006
bacnet	-11007
called	-11008
doStop	-11009
enumer	-11010
erable	-11011
getMin	-11012
getNet	-11013
getPin	-11014
gnored	-11015
ipFile	-11016
isLeft	-11017
lowing	-11018
memory	-11019
mitter	-11020
module	-11021
oClose	-11022
printf	-11023
rackId	-11024
select	-11025
setCom	-11026
tellen	-11027
undles	-11028
unsafe	-11029
worker	-11030
xAbEth	-11031
xTable	-11032
})|(?<	-11033
▁"==";	-11034
▁1)));	-11035
▁2000;	-11036
▁33.0,	-11037
▁64"),	-11038
▁COUNT	-11039
▁EPOCH	-11040
▁EVENT	-11041
▁Ether	-11042
▁Flags	-11043
▁Logic	-11044
▁MSpec	-11045
▁NoPlc	-11046
▁Route	-11047
▁STATE	-11048
▁Stack	-11049
▁TOLER	-11050
▁async	-11051
▁cases	-11052
▁debug	-11053
▁estab	-11054
▁getOp	-11055
▁graph	-11056
▁https	-11057
▁mBean	-11058
▁outer	-11059
▁round	-11060
▁toHex	-11061
▁{1}")	-11062
("["));	-11063
("[")){	-11064
(10_000	-11065
(33))",	-11066
(5.0));	-11067
000000;	-11068
0100");	-11069
:443");	-11070
BOXFULL	-11071
ConnAck	-11072
DoesNot	-11073
Doubles	-11074
EnumSet	-11075
Fetcher	-11076
Looking	-11077
NODESET	-11078
NumNode	-11079
PduSize	-11080
Private	-11081
RANSFER	-11082
SERVICE	-11083
STOPPED	-11084
Storage	-11085
StrNode	-11086
Sublist	-11087
Subtype	-11088
TServer	-11089
TStream	-11090
TagWith	-11091
ToWrite	-11092
Triples	-11093
UNEQUAL	-11094
URATION	-11095
Variant	-11096
Waiting	-11097
WithBad	-11098
[0])));	-11099
ablePos	-11100
capital	-11101
comment	-11102
compute	-11103
console	-11104
convert	-11105
csSince	-11106
devices	-11107
encoded	-11108
escribe	-11109
etaData	-11110
getCall	-11111
getUser	-11112
getUuid	-11113
handled	-11114
jsonweb	-11115
keyword	-11116
loading	-11117
missing	-11118
newByte	-11119
numBits	-11120
parsers	-11121
queries	-11122
readAll	-11123
sCovPos	-11124
stateId	-11125
toLower	-11126
winpcap	-11127
▁"13");	-11128
▁3000);	-11129
▁Assert	-11130
▁BINARY	-11131
▁Client	-11132
▁Copied	-11133
▁Entity	-11134
▁HEADER	-11135
▁LENGTH	-11136
▁PlcRaw	-11137
▁SERIAL	-11138
▁SOURCE	-11139
▁UHLWIi	-11140
▁Unsafe	-11141
▁Window	-11142
▁attach	-11143
▁attemp	-11144
▁better	-11145
▁bundle	-11146
▁cannot	-11147
▁dumper	-11148
▁ensure	-11149
▁getCrc	-11150
▁getMin	-11151
▁getNum	-11152
▁getPlc	-11153
▁getRaw	-11154
▁hasKey	-11155
▁isList	-11156
▁isOpen	-11157
▁layout	-11158
▁locked	-11159
▁master	-11160
▁millis	-11161
▁needed	-11162
▁notYet	-11163
▁origin	-11164
▁pClazz	-11165
▁queues	-11166
▁reason	-11167
▁render	-11168
▁report	-11169
▁runGet	-11170
▁sample	-11171
▁system	-11172
▁{}/{}:	-11173
("\\.");	-11174
(1_000).	-11175
).)*)");	-11176
.255.0.0	-11177
16010101	-11178
413-176/	-11179
:3131");	-11180
>((?!/\\	-11181
>[0-7]))	-11182
AMSNetId	-11183
AddRoute	-11184
AnalogIO	-11185
AndWrite	-11186
Approxim	-11187
BaseMain	-11188
Beckhoff	-11189
Booleans	-11190
CallNode	-11191
ClassPos	-11192
Contents	-11193
DOWNLOAD	-11194
DataBits	-11195
DataFile	-11196
Datagram	-11197
DelRoute	-11198
DriverIT	-11199
EQUALITY	-11200
EdeFiles	-11201
ExprNode	-11202
FLOATING	-11203
FileType	-11204
FirstHop	-11205
Forcibly	-11206
FromList	-11207
HANDLERS	-11208
Handling	-11209
Hostname	-11210
IfAbsent	-11211
MaxValue	-11212
Midnight	-11213
Mismatch	-11214
Nullable	-11215
PinValue	-11216
REALTIME	-11217
Sequence	-11218
StopBits	-11219
Transfer	-11220
Unmapped	-11221
UriParam	-11222
VALBYHND	-11223
]{1,5}))	-11224
conveyor	-11225
curField	-11226
cyclable	-11227
dispatch	-11228
fromYaml	-11229
getCases	-11230
getEntry	-11231
getIssue	-11232
getSuper	-11233
getTyped	-11234
isActive	-11235
isExists	-11236
ivariate	-11237
lastItem	-11238
negative	-11239
notBlank	-11240
notEmpty	-11241
objValue	-11242
openPort	-11243
readData	-11244
rowCount	-11245
sequence	-11246
strValue	-11247
structed	-11248
subtract	-11249
testInfo	-11250
testName	-11251
tionally	-11252
writeBit	-11253
{1,3}");	-11254
▁CpfItem	-11255
▁ELEMENT	-11256
▁FAILURE	-11257
▁Indices	-11258
▁Invalid	-11259
▁Maximum	-11260
▁Options	-11261
▁QUERIES	-11262
▁SUCCESS	-11263
▁Twincat	-11264
▁WRAPPER	-11265
▁WinPcap	-11266
▁allDevs	-11267
▁boolVar	-11268
▁capture	-11269
▁connAck	-11270
▁curByte	-11271
▁desired	-11272
▁expects	-11273
▁getArgs	-11274
▁getKeys	-11275
▁getLeft	-11276
▁getList	-11277
▁handled	-11278
▁ignored	-11279
▁isInput	-11280
▁machine	-11281
▁netMask	-11282
▁newEnum	-11283
▁newPojo	-11284
▁present	-11285
▁produce	-11286
▁respond	-11287
▁segment	-11288
▁setArgs	-11289
▁specify	-11290
▁strNode	-11291
▁subscri	-11292
▁succeed	-11293
▁unquote	-11294
▁valueOf	-11295
▁without	-11296
*********	-11297
.]+)(:(?<	-11298
16010101.	-11299
BytesRead	-11300
DataBlock	-11301
DateTimes	-11302
DelDevice	-11303
DigitalIO	-11304
DownLatch	-11305
ERMINATED	-11306
MaxLength	-11307
NioUnsafe	-11308
NotEqNode	-11309
NotSetter	-11310
PLCValues	-11311
ProjectId	-11312
Receiving	-11313
Reporting	-11314
ResultSet	-11315
SAXReader	-11316
Signature	-11317
SoTimeout	-11318
StyleCode	-11319
TIMESTAMP	-11320
TcpSocket	-11321
ToWinTime	-11322
TypeClass	-11323
Unpacking	-11324
WasThrown	-11325
WordUtils	-11326
addSource	-11327
addresses	-11328
bitNumber	-11329
channelId	-11330
checkThat	-11331
closePort	-11332
configure	-11333
directory	-11334
enipField	-11335
errorCode	-11336
getBitSet	-11337
getMiddle	-11338
getOption	-11339
getPacket	-11340
getReader	-11341
getWriter	-11342
intBitsTo	-11343
knxMaster	-11344
microsoft	-11345
nExpected	-11346
newKeySet	-11347
newSingle	-11348
ofWinTime	-11349
outputDir	-11350
parentCtx	-11351
parseFile	-11352
portToUse	-11353
providers	-11354
sToReturn	-11355
setOption	-11356
setSource	-11357
testSuite	-11358
toInstant	-11359
typeEntry	-11360
typeNodes	-11361
udpPacket	-11362
ularField	-11363
wLimitPos	-11364
writeLong	-11365
▁Datagram	-11366
▁Datatype	-11367
▁Flowable	-11368
▁Implemen	-11369
▁Internet	-11370
▁MyEntity	-11371
▁NodeList	-11372
▁OUTBOUND	-11373
▁Topology	-11374
▁amsNetId	-11375
▁arpCache	-11376
▁assigned	-11377
▁calValue	-11378
▁callFail	-11379
▁callback	-11380
▁crcField	-11381
▁delegate	-11382
▁discover	-11383
▁doneSync	-11384
▁emitting	-11385
▁exceeded	-11386
▁executor	-11387
▁external	-11388
▁finalXor	-11389
▁getLocal	-11390
▁helloOpm	-11391
▁isStruct	-11392
▁isTermin	-11393
▁myEntity	-11394
▁nameNode	-11395
▁problems	-11396
▁readUint	-11397
▁readable	-11398
▁strategy	-11399
▁supplied	-11400
▁testInfo	-11401
▁tryInter	-11402
▁uncaught	-11403
(10_000));	-11404
-]+))(:(?<	-11405
.255.255.0	-11406
AddressPos	-11407
ArrayDeque	-11408
Comparison	-11409
Datapoints	-11410
Enumerated	-11411
Extraction	-11412
ForAliases	-11413
HeaderFile	-11414
HiLimitPos	-11415
KNXAddress	-11416
LongTooBig	-11417
MemoryArea	-11418
ModuleNode	-11419
NonCapture	-11420
ObjectUtil	-11421
PROTOCOLID	-11422
ParentType	-11423
ParserArgs	-11424
ParserTest	-11425
PlcMessage	-11426
ReadMethod	-11427
Requesting	-11428
SetupSteps	-11429
TriggerJob	-11430
URIPattern	-11431
Unregister	-11432
VersionRow	-11433
XComponent	-11434
activeWait	-11435
addHandles	-11436
assumeThat	-11437
backDevice	-11438
capitalize	-11439
cotpPacket	-11440
enumValues	-11441
enumerator	-11442
eventItems	-11443
fileNumber	-11444
fromString	-11445
getNetmask	-11446
getTargets	-11447
getTimeout	-11448
getVersion	-11449
isLoopBack	-11450
localDates	-11451
localTimes	-11452
nerClasses	-11453
parserArgs	-11454
plcAdapter	-11455
polynomial	-11456
protocolId	-11457
randomHost	-11458
sampleSize	-11459
setComPort	-11460
splitWrite	-11461
subMessage	-11462
testpoints	-11463
tpktPacket	-11464
triggerJob	-11465
writeShort	-11466
xBootstrap	-11467
▁-------->	-11468
▁10.10.56.	-11469
▁224.0.0/4	-11470
▁<--------	-11471
▁ADSClient	-11472
▁ArpPacket	-11473
▁BaseOpcua	-11474
▁Benchmark	-11475
▁CpfPacket	-11476
▁DataValue	-11477
▁Declarers	-11478
▁DemoCodec	-11479
▁EdeParser	-11480
▁Generated	-11481
▁Lifecycle	-11482
▁Malformed	-11483
▁Namespace	-11484
▁PlcConfig	-11485
▁ResultSet	-11486
▁TOLERANCE	-11487
▁TcpPacket	-11488
▁UdpPacket	-11489
▁WaterTank	-11490
▁addresses	-11491
▁amqCallee	-11492
▁amsSerial	-11493
▁checkData	-11494
▁clazzName	-11495
▁digitalIO	-11496
▁enumEntry	-11497
▁errorCode	-11498
▁extValues	-11499
▁fieldItem	-11500
▁fieldPair	-11501
▁fileLabel	-11502
▁following	-11503
▁freatures	-11504
▁getDataIo	-11505
▁getStruct	-11506
▁gotPacket	-11507
▁innerCast	-11508
▁inputPath	-11509
▁interrupt	-11510
▁loopGroup	-11511
▁newUnsafe	-11512
▁ofWinTime	-11513
▁optimized	-11514
▁outerCast	-11515
▁paramName	-11516
▁pduLength	-11517
▁plcOutput	-11518
▁reflectIn	-11519
▁roundTrip	-11520
▁something	-11521
▁subHandle	-11522
▁transform	-11523
▁writeData	-11524
▁xmlString	-11525
)==(33))"),	-11526
00_00000000	-11527
10020001032	-11528
AddressItem	-11529
BasicThread	-11530
BooleanList	-11531
ByteBufUtil	-11532
ByteChannel	-11533
Calculation	-11534
CompareNode	-11535
ExpectClazz	-11536
FieldString	-11537
IfStatement	-11538
IndexOffset	-11539
KeywordNode	-11540
PlcDriverMT	-11541
PropertyMap	-11542
Registering	-11543
RequestTest	-11544
RetryTimeMs	-11545
SingleField	-11546
SysexString	-11547
TernaryTerm	-11548
UnitCodePos	-11549
UnknownType	-11550
VisitResult	-11551
]+)\\))((?<	-11552
]{1,3})|(?<	-11553
addShutdown	-11554
analogField	-11555
ardownSteps	-11556
ationFuture	-11557
builderItem	-11558
changedBits	-11559
channelMock	-11560
complexType	-11561
descriptors	-11562
doReadBytes	-11563
entityClass	-11564
getAllBytes	-11565
getBaudRate	-11566
getDuration	-11567
getTypeCode	-11568
inEventLoop	-11569
inputStream	-11570
interestOps	-11571
isAcknowled	-11572
isDirectory	-11573
knxprojFile	-11574
lastFetched	-11575
lationships	-11576
measurement	-11577
messageType	-11578
middleGroup	-11579
namednumber	-11580
newTopology	-11581
nextBoolean	-11582
orElseThrow	-11583
parseDouble	-11584
payloadItem	-11585
plcConsumer	-11586
plcSupplier	-11587
poolCreator	-11588
randomAscii	-11589
remoteNetId	-11590
scraperTask	-11591
someOptions	-11592
sourceforge	-11593
tableCutoff	-11594
toLowerCase	-11595
writeLength	-11596
{1,7})(.(?<	-11597
▁"0.0.0.0";	-11598
▁COTPPacket	-11599
▁ConstField	-11600
▁Enumerable	-11601
▁Enumerator	-11602
▁InputTypes	-11603
▁ManualTest	-11604
▁MqttClient	-11605
▁MySupplier	-11606
▁ObjectUtil	-11607
▁attributes	-11608
▁concatConn	-11609
▁dataOffset	-11610
▁deregister	-11611
▁deviceList	-11612
▁dfdlSchema	-11613
▁ensureOpen	-11614
▁forwarding	-11615
▁generating	-11616
▁getContext	-11617
▁getSuccess	-11618
▁isDateTime	-11619
▁nDiscovery	-11620
▁readHandle	-11621
▁readValues	-11622
▁recvHandle	-11623
▁reflectOut	-11624
▁resolution	-11625
▁sendRRData	-11626
▁sendToWire	-11627
▁sendUpdate	-11628
▁	-11629
e	-11630
t	-11631
i	-11632
r	-11633
a	-11634
n	-11635
o	-11636
s	-11637
c	-11638
l	-11639
p	-11640
.	-11641
u	-11642
d	-11643
g	-11644
m	-11645
(	-11646
)	-11647
h	-11648
f	-11649
;	-11650
S	-11651
b	-11652
y	-11653
T	-11654
v	-11655
I	-11656
A	-11657
,	-11658
w	-11659
"	-11660
x	-11661
E	-11662
R	-11663
P	-11664
C	-11665
N	-11666
L	-11667
O	-11668
{	-11669
}	-11670
=	-11671
D	-11672
F	-11673
B	-11674
0	-11675
j	-11676
k	-11677
M	-11678
q	-11679
U	-11680
V	-11681
4	-11682
>	-11683
:	-11684
-	-11685
1	-11686
<	-11687
_	-11688
@	-11689
/	-11690
H	-11691
2	-11692
W	-11693
+	-11694
G	-11695
Y	-11696
z	-11697
[	-11698
]	-11699
K	-11700
J	-11701
3	-11702
7	-11703
6	-11704
5	-11705
!	-11706
8	-11707
\	-11708
?	-11709
X	-11710
*	-11711
'	-11712
&	-11713
Q	-11714
|	-11715
